unsigned char classifier_tflite[] = {
  0x1c, 0x00, 0x00, 0x00, 0x54, 0x46, 0x4c, 0x33, 0x14, 0x00, 0x20, 0x00,
  0x1c, 0x00, 0x18, 0x00, 0x14, 0x00, 0x10, 0x00, 0x0c, 0x00, 0x00, 0x00,
  0x08, 0x00, 0x04, 0x00, 0x14, 0x00, 0x00, 0x00, 0x1c, 0x00, 0x00, 0x00,
  0x1c, 0x00, 0x00, 0x00, 0x4c, 0x00, 0x00, 0x00, 0x04, 0x15, 0x00, 0x00,
  0x14, 0x15, 0x00, 0x00, 0x00, 0x5a, 0x00, 0x00, 0x03, 0x00, 0x00, 0x00,
  0x00, 0x00, 0x00, 0x00, 0x01, 0x00, 0x00, 0x00, 0x0c, 0x00, 0x00, 0x00,
  0x08, 0x00, 0x0c, 0x00, 0x08, 0x00, 0x04, 0x00, 0x08, 0x00, 0x00, 0x00,
  0x67, 0x00, 0x00, 0x00, 0x04, 0x00, 0x00, 0x00, 0x13, 0x00, 0x00, 0x00,
  0x6d, 0x69, 0x6e, 0x5f, 0x72, 0x75, 0x6e, 0x74, 0x69, 0x6d, 0x65, 0x5f,
  0x76, 0x65, 0x72, 0x73, 0x69, 0x6f, 0x6e, 0x00, 0x68, 0x00, 0x00, 0x00,
  0xb4, 0x14, 0x00, 0x00, 0xac, 0x14, 0x00, 0x00, 0x8c, 0x14, 0x00, 0x00,
  0x70, 0x14, 0x00, 0x00, 0x54, 0x14, 0x00, 0x00, 0x34, 0x14, 0x00, 0x00,
  0x14, 0x14, 0x00, 0x00, 0xf4, 0x13, 0x00, 0x00, 0xdc, 0x13, 0x00, 0x00,
  0xc4, 0x13, 0x00, 0x00, 0xb0, 0x13, 0x00, 0x00, 0x9c, 0x13, 0x00, 0x00,
  0x88, 0x13, 0x00, 0x00, 0x28, 0x13, 0x00, 0x00, 0x08, 0x13, 0x00, 0x00,
  0xe8, 0x12, 0x00, 0x00, 0xc8, 0x12, 0x00, 0x00, 0xa8, 0x12, 0x00, 0x00,
  0x88, 0x12, 0x00, 0x00, 0x68, 0x12, 0x00, 0x00, 0x48, 0x12, 0x00, 0x00,
  0x28, 0x12, 0x00, 0x00, 0x08, 0x12, 0x00, 0x00, 0xe8, 0x11, 0x00, 0x00,
  0xc8, 0x11, 0x00, 0x00, 0xa8, 0x11, 0x00, 0x00, 0x70, 0x11, 0x00, 0x00,
  0x4c, 0x11, 0x00, 0x00, 0xdc, 0x10, 0x00, 0x00, 0x8c, 0x10, 0x00, 0x00,
  0x64, 0x10, 0x00, 0x00, 0x44, 0x10, 0x00, 0x00, 0x24, 0x10, 0x00, 0x00,
  0x04, 0x10, 0x00, 0x00, 0xa4, 0x0f, 0x00, 0x00, 0x6c, 0x0f, 0x00, 0x00,
  0x48, 0x0f, 0x00, 0x00, 0xf8, 0x0e, 0x00, 0x00, 0xd8, 0x0e, 0x00, 0x00,
  0xb8, 0x0e, 0x00, 0x00, 0x98, 0x0e, 0x00, 0x00, 0x38, 0x0e, 0x00, 0x00,
  0x00, 0x0e, 0x00, 0x00, 0xdc, 0x0d, 0x00, 0x00, 0x8c, 0x0d, 0x00, 0x00,
  0x6c, 0x0d, 0x00, 0x00, 0x4c, 0x0d, 0x00, 0x00, 0xfc, 0x01, 0x00, 0x00,
  0xd4, 0x01, 0x00, 0x00, 0xcc, 0x01, 0x00, 0x00, 0xc4, 0x01, 0x00, 0x00,
  0xbc, 0x01, 0x00, 0x00, 0xb4, 0x01, 0x00, 0x00, 0xac, 0x01, 0x00, 0x00,
  0xa4, 0x01, 0x00, 0x00, 0x9c, 0x01, 0x00, 0x00, 0x94, 0x01, 0x00, 0x00,
  0x8c, 0x01, 0x00, 0x00, 0x84, 0x01, 0x00, 0x00, 0x7c, 0x01, 0x00, 0x00,
  0x74, 0x01, 0x00, 0x00, 0x6c, 0x01, 0x00, 0x00, 0x64, 0x01, 0x00, 0x00,
  0x5c, 0x01, 0x00, 0x00, 0x54, 0x01, 0x00, 0x00, 0x4c, 0x01, 0x00, 0x00,
  0x44, 0x01, 0x00, 0x00, 0x3c, 0x01, 0x00, 0x00, 0x34, 0x01, 0x00, 0x00,
  0x2c, 0x01, 0x00, 0x00, 0x24, 0x01, 0x00, 0x00, 0x1c, 0x01, 0x00, 0x00,
  0x14, 0x01, 0x00, 0x00, 0x0c, 0x01, 0x00, 0x00, 0x04, 0x01, 0x00, 0x00,
  0xfc, 0x00, 0x00, 0x00, 0xf4, 0x00, 0x00, 0x00, 0xec, 0x00, 0x00, 0x00,
  0xe4, 0x00, 0x00, 0x00, 0xdc, 0x00, 0x00, 0x00, 0xd4, 0x00, 0x00, 0x00,
  0xcc, 0x00, 0x00, 0x00, 0xc4, 0x00, 0x00, 0x00, 0xbc, 0x00, 0x00, 0x00,
  0xb4, 0x00, 0x00, 0x00, 0xac, 0x00, 0x00, 0x00, 0xa4, 0x00, 0x00, 0x00,
  0x9c, 0x00, 0x00, 0x00, 0x94, 0x00, 0x00, 0x00, 0x8c, 0x00, 0x00, 0x00,
  0x84, 0x00, 0x00, 0x00, 0x7c, 0x00, 0x00, 0x00, 0x74, 0x00, 0x00, 0x00,
  0x6c, 0x00, 0x00, 0x00, 0x64, 0x00, 0x00, 0x00, 0x5c, 0x00, 0x00, 0x00,
  0x54, 0x00, 0x00, 0x00, 0x4c, 0x00, 0x00, 0x00, 0x44, 0x00, 0x00, 0x00,
  0x3c, 0x00, 0x00, 0x00, 0x34, 0x00, 0x00, 0x00, 0x2c, 0x00, 0x00, 0x00,
  0x24, 0x00, 0x00, 0x00, 0x04, 0x00, 0x00, 0x00, 0x86, 0xe4, 0xff, 0xff,
  0x04, 0x00, 0x00, 0x00, 0x10, 0x00, 0x00, 0x00, 0x31, 0x2e, 0x31, 0x34,
  0x2e, 0x30, 0x00, 0x00, 0x00, 0x00, 0x00, 0x00, 0x00, 0x00, 0x00, 0x00,
  0xb8, 0xa8, 0xff, 0xff, 0xbc, 0xa8, 0xff, 0xff, 0xc0, 0xa8, 0xff, 0xff,
  0xc4, 0xa8, 0xff, 0xff, 0xc8, 0xa8, 0xff, 0xff, 0xcc, 0xa8, 0xff, 0xff,
  0xd0, 0xa8, 0xff, 0xff, 0xd4, 0xa8, 0xff, 0xff, 0xd8, 0xa8, 0xff, 0xff,
  0xdc, 0xa8, 0xff, 0xff, 0xe0, 0xa8, 0xff, 0xff, 0xe4, 0xa8, 0xff, 0xff,
  0xe8, 0xa8, 0xff, 0xff, 0xec, 0xa8, 0xff, 0xff, 0xf0, 0xa8, 0xff, 0xff,
  0xf4, 0xa8, 0xff, 0xff, 0xf8, 0xa8, 0xff, 0xff, 0xfc, 0xa8, 0xff, 0xff,
  0x00, 0xa9, 0xff, 0xff, 0x04, 0xa9, 0xff, 0xff, 0x08, 0xa9, 0xff, 0xff,
  0x0c, 0xa9, 0xff, 0xff, 0x10, 0xa9, 0xff, 0xff, 0x14, 0xa9, 0xff, 0xff,
  0x18, 0xa9, 0xff, 0xff, 0x1c, 0xa9, 0xff, 0xff, 0x20, 0xa9, 0xff, 0xff,
  0x24, 0xa9, 0xff, 0xff, 0x28, 0xa9, 0xff, 0xff, 0x2c, 0xa9, 0xff, 0xff,
  0x30, 0xa9, 0xff, 0xff, 0x34, 0xa9, 0xff, 0xff, 0x38, 0xa9, 0xff, 0xff,
  0x3c, 0xa9, 0xff, 0xff, 0x40, 0xa9, 0xff, 0xff, 0x44, 0xa9, 0xff, 0xff,
  0x48, 0xa9, 0xff, 0xff, 0x4c, 0xa9, 0xff, 0xff, 0x50, 0xa9, 0xff, 0xff,
  0x54, 0xa9, 0xff, 0xff, 0x58, 0xa9, 0xff, 0xff, 0x5c, 0xa9, 0xff, 0xff,
  0x60, 0xa9, 0xff, 0xff, 0x64, 0xa9, 0xff, 0xff, 0x68, 0xa9, 0xff, 0xff,
  0x6c, 0xa9, 0xff, 0xff, 0x70, 0xa9, 0xff, 0xff, 0x74, 0xa9, 0xff, 0xff,
  0x78, 0xa9, 0xff, 0xff, 0x7c, 0xa9, 0xff, 0xff, 0x80, 0xa9, 0xff, 0xff,
  0x84, 0xa9, 0xff, 0xff, 0x88, 0xa9, 0xff, 0xff, 0x8c, 0xa9, 0xff, 0xff,
  0x7a, 0xe5, 0xff, 0xff, 0x04, 0x00, 0x00, 0x00, 0x18, 0x00, 0x00, 0x00,
  0x96, 0x07, 0x00, 0x00, 0x07, 0xfb, 0xff, 0xff, 0x5d, 0xfc, 0xff, 0xff,
  0xaa, 0xff, 0xff, 0xff, 0xe1, 0xfa, 0xff, 0xff, 0x75, 0xfa, 0xff, 0xff,
  0x9e, 0xe5, 0xff, 0xff, 0x04, 0x00, 0x00, 0x00, 0x40, 0x0b, 0x00, 0x00,
  0x0a, 0x0b, 0x05, 0x07, 0xcf, 0x44, 0x06, 0xed, 0x39, 0x15, 0x2e, 0x13,
  0xa9, 0x50, 0xac, 0xea, 0xf4, 0xc8, 0x21, 0x20, 0xea, 0x17, 0xcd, 0xc1,
  0x66, 0xb7, 0xdf, 0xdf, 0xb8, 0x51, 0xb5, 0xf5, 0x03, 0xf8, 0x13, 0xff,
  0xec, 0xd9, 0xcd, 0xf3, 0xd5, 0xc8, 0xb3, 0x06, 0xeb, 0x6a, 0x89, 0xd0,
  0xce, 0xcb, 0x24, 0xdb, 0xf7, 0xe5, 0xf2, 0xf3, 0xa4, 0xc5, 0xbf, 0xff,
  0xd4, 0x5a, 0xae, 0xc0, 0xe6, 0xda, 0x16, 0xf0, 0xdc, 0xe2, 0x03, 0xd1,
  0xb1, 0x08, 0xec, 0xf9, 0xb6, 0x6a, 0xa5, 0x09, 0xd8, 0xed, 0xc5, 0xf5,
  0xe5, 0x0f, 0xe4, 0xd4, 0xa1, 0xd8, 0xa5, 0x10, 0xab, 0x6f, 0xb8, 0xe6,
  0xe8, 0x01, 0x00, 0xee, 0xba, 0x05, 0x0f, 0x0f, 0xda, 0xeb, 0xea, 0x13,
  0xf1, 0x5a, 0xc4, 0x03, 0x0e, 0xd0, 0xf3, 0x15, 0x04, 0xdc, 0xdb, 0xcb,
  0xd3, 0xcb, 0xd3, 0x19, 0xa5, 0x7a, 0xc8, 0xfe, 0xc7, 0xc3, 0xf3, 0xc1,
  0xdc, 0x0f, 0x14, 0x20, 0xab, 0xca, 0xc9, 0x12, 0xa8, 0x59, 0xfe, 0x14,
  0xff, 0xd7, 0xe9, 0x13, 0xde, 0x02, 0x1b, 0xcb, 0x02, 0x17, 0xd1, 0x1b,
  0xad, 0x4b, 0xe4, 0xef, 0xd4, 0xf9, 0xfe, 0x07, 0xc1, 0x1b, 0xdc, 0x21,
  0x0b, 0xfa, 0xe7, 0x1d, 0xd3, 0x4b, 0xfc, 0xfd, 0xfb, 0xde, 0xc0, 0x1c,
  0x06, 0xe8, 0x12, 0xe9, 0xe9, 0xde, 0xc0, 0xec, 0xf2, 0x66, 0xd8, 0xf1,
  0xc3, 0x0b, 0x03, 0xee, 0x19, 0xc2, 0xe7, 0xe4, 0xab, 0xed, 0xcb, 0xfc,
  0xb9, 0x53, 0xe4, 0xd4, 0x97, 0xd7, 0xed, 0xf0, 0x0d, 0xdc, 0xea, 0xef,
  0xfe, 0xd2, 0xac, 0xc6, 0xc0, 0x4f, 0xb2, 0xc4, 0xac, 0x12, 0xe4, 0xe5,
  0x0f, 0x0f, 0x1d, 0xcd, 0xdd, 0xb7, 0xb9, 0x03, 0xab, 0x5d, 0xc7, 0xda,
  0xed, 0xf3, 0x11, 0xf4, 0xf0, 0xc3, 0x21, 0xcf, 0xb6, 0xe0, 0xea, 0xdf,
  0xa1, 0x41, 0xdb, 0xe9, 0xe0, 0xca, 0x0c, 0xde, 0xde, 0x1c, 0xec, 0x09,
  0xc8, 0xba, 0xc6, 0xd5, 0xc4, 0x3b, 0x92, 0xe4, 0xcf, 0xc6, 0x04, 0x00,
  0xd1, 0xd1, 0xf8, 0x06, 0xab, 0xe3, 0xb3, 0xf9, 0xdb, 0x39, 0x94, 0xe0,
  0xc6, 0xbe, 0x1a, 0x08, 0xf6, 0x17, 0xe9, 0xcb, 0xc4, 0xf7, 0xa8, 0xf5,
  0xa3, 0x6d, 0xa5, 0x00, 0xf9, 0x00, 0xd1, 0xec, 0xcd, 0xdc, 0x14, 0x00,
  0xaf, 0xd0, 0xfe, 0xd9, 0xa8, 0x3b, 0x96, 0xf3, 0xab, 0xc3, 0xf7, 0xdf,
  0xda, 0xdc, 0xd3, 0xef, 0x07, 0xc8, 0xe9, 0xcf, 0xef, 0x43, 0xa9, 0xdb,
  0xed, 0xf3, 0x0f, 0x13, 0x0f, 0xe3, 0xd5, 0xe2, 0xb4, 0xf3, 0x0a, 0xfe,
  0xcb, 0x3b, 0x91, 0x13, 0xea, 0xdd, 0xca, 0xfb, 0xf4, 0x0c, 0x01, 0xdb,
  0xc2, 0xc2, 0xd6, 0xe1, 0xcd, 0x6e, 0x9b, 0x0e, 0x03, 0x0c, 0xd7, 0xfb,
  0xd2, 0x08, 0x1c, 0xd8, 0xee, 0xfc, 0xf2, 0x0a, 0xb3, 0x51, 0xad, 0xca,
  0x07, 0xe6, 0xea, 0x19, 0xcb, 0x15, 0xf8, 0xff, 0xcb, 0xfd, 0xc9, 0x0f,
  0xc0, 0x3e, 0xa9, 0xfc, 0xf3, 0xd5, 0x1b, 0xc5, 0xc7, 0xee, 0x01, 0xd3,
  0xdd, 0xef, 0x06, 0x12, 0xcb, 0x53, 0x9d, 0x07, 0xc9, 0xe2, 0xe5, 0xd0,
  0x02, 0xe7, 0xde, 0xfc, 0xfd, 0xc0, 0xe8, 0xc4, 0xd5, 0x47, 0xd9, 0x16,
  0x00, 0xe9, 0x20, 0xe1, 0xf4, 0xf6, 0x13, 0x13, 0xe7, 0x06, 0xcb, 0xd0,
  0x06, 0x67, 0xaf, 0xdf, 0xc9, 0xfb, 0x1d, 0xc6, 0x1b, 0xea, 0xfe, 0x0e,
  0xc3, 0xde, 0xda, 0x0e, 0xd8, 0x34, 0xe0, 0x09, 0x06, 0xf7, 0xd3, 0xd4,
  0x1c, 0xdc, 0xf2, 0xea, 0xf1, 0x1a, 0x27, 0xe7, 0xcb, 0x69, 0x07, 0xfc,
  0xfc, 0xf1, 0xe8, 0xed, 0x15, 0xf9, 0xc5, 0xd6, 0x91, 0x27, 0xdf, 0x10,
  0x2c, 0xf2, 0xe3, 0x22, 0x2f, 0xdc, 0x3b, 0xdf, 0xfe, 0xee, 0xfb, 0xf0,
  0x8d, 0xf3, 0xff, 0xed, 0x07, 0xd5, 0xed, 0x59, 0xea, 0xd4, 0x2f, 0xe8,
  0xf8, 0xf5, 0xe2, 0xee, 0xd5, 0xd5, 0xec, 0x20, 0x33, 0xf6, 0xf8, 0x3f,
  0xfa, 0xe8, 0x0e, 0x02, 0xfa, 0x02, 0xe1, 0x18, 0xe5, 0xfa, 0xd6, 0x06,
  0x21, 0xfa, 0xf8, 0x2f, 0x03, 0x1a, 0x0f, 0xff, 0xf3, 0xef, 0x01, 0x1e,
  0xe2, 0xde, 0xe7, 0xfd, 0x04, 0x05, 0x10, 0x4c, 0x33, 0xfd, 0x0f, 0xf5,
  0xd4, 0xe6, 0x24, 0x1e, 0xd8, 0xe6, 0xda, 0xff, 0x21, 0x10, 0xf5, 0x5d,
  0x11, 0x2b, 0x08, 0xe2, 0xc9, 0xee, 0x2c, 0x29, 0xc4, 0xa4, 0xe7, 0x2a,
  0x1b, 0xf2, 0x09, 0x4c, 0xe3, 0xfc, 0x23, 0x03, 0xe5, 0x02, 0x0d, 0xf8,
  0xfb, 0xb8, 0xc3, 0xeb, 0x22, 0x20, 0x02, 0x34, 0x13, 0xf7, 0x2c, 0xf1,
  0xdc, 0xed, 0x29, 0xf1, 0xc5, 0xe3, 0xd4, 0xed, 0x36, 0x28, 0xf0, 0x39,
  0x00, 0xe7, 0x1b, 0x0e, 0xd6, 0xed, 0x1c, 0x1c, 0xde, 0xdf, 0xbf, 0xe5,
  0x17, 0xfe, 0xfe, 0x50, 0x31, 0xf9, 0x16, 0xd8, 0xcf, 0xe8, 0x12, 0xda,
  0xd6, 0xbb, 0xe5, 0x06, 0x33, 0x19, 0xe9, 0x53, 0x04, 0x13, 0x15, 0x22,
  0xcf, 0xf0, 0xf8, 0xea, 0xbe, 0xf5, 0xd4, 0xfa, 0x36, 0x01, 0xe5, 0x52,
  0xe4, 0xe2, 0x0e, 0x1a, 0xd0, 0xe9, 0x31, 0x0d, 0xca, 0xa6, 0xe2, 0xeb,
  0x08, 0x20, 0xff, 0x58, 0x17, 0xf5, 0x37, 0x1b, 0xe8, 0x06, 0xeb, 0xeb,
  0xfb, 0xb9, 0xcd, 0xfc, 0x17, 0x03, 0xfc, 0x4d, 0xfc, 0x36, 0x20, 0x31,
  0xfc, 0x09, 0x2c, 0xf3, 0xe7, 0xbe, 0xec, 0xfe, 0x3f, 0x1f, 0xe6, 0x69,
  0x03, 0x12, 0x39, 0xfb, 0xce, 0xfc, 0xe8, 0x1f, 0xda, 0xd8, 0xdd, 0x0b,
  0x28, 0x24, 0x13, 0x3f, 0xf0, 0xec, 0x1e, 0xfc, 0xd7, 0x06, 0xe8, 0xf2,
  0xdb, 0xd5, 0xee, 0x03, 0x34, 0x08, 0x05, 0x5b, 0xeb, 0xf2, 0x1b, 0xe1,
  0xe4, 0xfc, 0x0c, 0xe9, 0xf1, 0xbd, 0xd0, 0xe7, 0x14, 0xf2, 0x12, 0x63,
  0xff, 0x0b, 0x24, 0x08, 0xec, 0x05, 0xfd, 0x02, 0xd9, 0xfa, 0xce, 0xfd,
  0x31, 0x09, 0xed, 0x43, 0x07, 0xff, 0x04, 0xf9, 0xe9, 0xe9, 0x28, 0xfa,
  0xd3, 0xeb, 0xd1, 0xcb, 0x08, 0xf0, 0xf8, 0x55, 0x15, 0xfe, 0x1f, 0x20,
  0xcf, 0x07, 0xf8, 0x2d, 0x04, 0xe4, 0xeb, 0xe1, 0x10, 0xfb, 0xe3, 0x5b,
  0xfc, 0x1d, 0x20, 0xfb, 0x08, 0xec, 0x26, 0xf8, 0xd1, 0xf8, 0xe7, 0xe7,
  0x1c, 0x11, 0xe6, 0x49, 0xf0, 0x0a, 0x31, 0x26, 0x0b, 0xf4, 0x1e, 0xd9,
  0xb5, 0xd3, 0xff, 0xd6, 0x2e, 0x0a, 0xf7, 0x49, 0x0a, 0xf0, 0x10, 0x21,
  0xfe, 0x03, 0x05, 0xee, 0xe3, 0xec, 0xbe, 0xfb, 0x1c, 0x08, 0xe4, 0x30,
  0xf7, 0xee, 0x05, 0x07, 0xf9, 0xff, 0xeb, 0xdc, 0xf4, 0xf2, 0xce, 0xdd,
  0x30, 0x08, 0xdc, 0x55, 0xe3, 0x07, 0x27, 0x23, 0xcf, 0xfa, 0xe4, 0x00,
  0xfa, 0xb4, 0xf6, 0x24, 0x1e, 0xfa, 0x16, 0x45, 0xf0, 0xf5, 0x0d, 0xf9,
  0xd6, 0xe3, 0xfa, 0xea, 0x06, 0xf2, 0xee, 0xfd, 0x16, 0x06, 0xea, 0x25,
  0x17, 0xf8, 0x17, 0x17, 0xea, 0xe9, 0x30, 0xd2, 0x0f, 0xd0, 0xde, 0x13,
  0x17, 0x21, 0x12, 0x3e, 0x06, 0x29, 0x12, 0xfb, 0xfb, 0xdb, 0x39, 0xd8,
  0x10, 0x1e, 0xec, 0xf3, 0xf5, 0xea, 0xe8, 0x26, 0x13, 0x0a, 0x18, 0x15,
  0xf3, 0xf0, 0xf7, 0x11, 0xe6, 0xe6, 0xf6, 0x19, 0x19, 0x35, 0xf4, 0x14,
  0x2a, 0x02, 0xf6, 0xe6, 0xce, 0xee, 0xd3, 0x1c, 0x30, 0xff, 0x25, 0xe8,
  0xb6, 0xd9, 0xe8, 0xd7, 0x14, 0x24, 0xec, 0x26, 0x1e, 0xe9, 0xcc, 0xfc,
  0x0e, 0x1e, 0xea, 0x06, 0xdf, 0xab, 0xcc, 0xfe, 0xf2, 0x0c, 0xef, 0xe8,
  0x1d, 0xe4, 0x13, 0x11, 0xe6, 0x06, 0x2a, 0xe3, 0xf3, 0xdb, 0xfe, 0xfb,
  0x15, 0xfa, 0xe6, 0x15, 0x19, 0x14, 0x20, 0x04, 0x0a, 0x05, 0x0d, 0x24,
  0xb2, 0xbe, 0xd5, 0xd0, 0x22, 0x32, 0xfd, 0x33, 0x37, 0xe9, 0x0a, 0x20,
  0xe4, 0x1c, 0x2e, 0xeb, 0xe1, 0xf1, 0xdc, 0xf6, 0x2c, 0x24, 0x0a, 0xe4,
  0x10, 0xcd, 0x0a, 0x19, 0x12, 0x20, 0x26, 0xf7, 0xc4, 0xae, 0xed, 0xf6,
  0x09, 0x39, 0xf1, 0x14, 0xe4, 0xd4, 0x38, 0x15, 0x26, 0xf6, 0x08, 0x1f,
  0xf0, 0xf4, 0xec, 0xeb, 0x04, 0x03, 0xe1, 0xd6, 0x10, 0xff, 0x09, 0xfb,
  0x43, 0x20, 0x20, 0xf5, 0xf7, 0xde, 0xf2, 0xea, 0xd0, 0xfe, 0x18, 0x0e,
  0x06, 0xf5, 0x21, 0x1c, 0x00, 0x27, 0x34, 0x0a, 0xd5, 0xd1, 0xcf, 0xdf,
  0xf8, 0x1a, 0x1d, 0x04, 0x27, 0x10, 0xeb, 0x17, 0x1d, 0x3b, 0x1b, 0x15,
  0xde, 0xf0, 0x08, 0xc5, 0xfa, 0x2e, 0x11, 0xe4, 0x09, 0xf7, 0x1e, 0xfe,
  0x24, 0x3a, 0x1f, 0x02, 0xd6, 0xd8, 0xed, 0xe7, 0xd6, 0xf0, 0xf5, 0x0b,
  0xf7, 0x11, 0x00, 0xfd, 0x22, 0x53, 0x24, 0x1e, 0x01, 0xce, 0xc1, 0xfb,
  0xcf, 0x13, 0xf9, 0xee, 0x11, 0xfd, 0x22, 0x23, 0x11, 0x18, 0x30, 0x0a,
  0xe7, 0xba, 0xc9, 0xed, 0xed, 0x1d, 0x07, 0x1c, 0x38, 0xf1, 0xe3, 0x06,
  0x33, 0x0e, 0x0d, 0x1a, 0xc4, 0xbd, 0xfb, 0xe8, 0x08, 0x1b, 0x04, 0x0a,
  0x0a, 0x1b, 0x3e, 0x26, 0x26, 0x4e, 0xfd, 0x29, 0xe5, 0xcd, 0xca, 0xc5,
  0xfb, 0x38, 0x25, 0x37, 0x27, 0xfe, 0xf2, 0x0b, 0x1e, 0x18, 0x1c, 0x11,
  0x0f, 0xe0, 0xfe, 0xb6, 0xd6, 0x32, 0x0d, 0x13, 0x10, 0xe9, 0xf1, 0x10,
  0x26, 0x11, 0x23, 0x1c, 0xdc, 0xea, 0xdb, 0xeb, 0xfa, 0xff, 0x2a, 0xf4,
  0x29, 0xf0, 0x31, 0x19, 0x0c, 0x22, 0x32, 0xf2, 0xcf, 0xcc, 0x10, 0xdd,
  0xec, 0x33, 0x3c, 0x2e, 0x1d, 0xe1, 0x14, 0x0f, 0x0f, 0x19, 0x2a, 0x29,
  0x06, 0xb8, 0xe0, 0xec, 0xdc, 0x25, 0x0e, 0x14, 0x17, 0xe4, 0xee, 0x29,
  0x10, 0x20, 0x39, 0x36, 0xea, 0xce, 0xbd, 0xd5, 0x20, 0x00, 0x1b, 0x11,
  0x31, 0x02, 0x25, 0x2a, 0x23, 0x13, 0x22, 0x14, 0xde, 0xb6, 0xb8, 0xfb,
  0xed, 0xe7, 0x17, 0xfe, 0x24, 0xec, 0x21, 0x25, 0x07, 0x3f, 0x1d, 0x34,
  0xe2, 0xf5, 0xff, 0xc8, 0xd7, 0x1e, 0x27, 0xff, 0x18, 0xf0, 0x13, 0xef,
  0xed, 0x21, 0x1f, 0x23, 0xf4, 0xcf, 0xef, 0xc5, 0xe9, 0x26, 0x24, 0x33,
  0x11, 0x0e, 0x18, 0x22, 0xfc, 0x30, 0xeb, 0xed, 0xec, 0xd2, 0xc5, 0xf5,
  0x0b, 0x09, 0x0a, 0x2a, 0x00, 0xec, 0x02, 0x15, 0x06, 0x35, 0x0f, 0x10,
  0xf0, 0xab, 0xd8, 0x03, 0xf4, 0xf4, 0x12, 0xf6, 0x1c, 0x09, 0xe6, 0x2c,
  0x21, 0x14, 0x4c, 0x11, 0x0b, 0xb3, 0xee, 0xf7, 0xdb, 0x10, 0xa6, 0x38,
  0x17, 0x03, 0x0a, 0x29, 0x28, 0xef, 0x3e, 0x05, 0xda, 0xa9, 0x07, 0xda,
  0xd2, 0x0a, 0xe0, 0x15, 0x0f, 0xfd, 0xe9, 0xe7, 0xf3, 0x02, 0xd0, 0x36,
  0x10, 0xee, 0x03, 0xdf, 0x0f, 0x2d, 0xfc, 0xfb, 0x16, 0xe0, 0x06, 0xe9,
  0x00, 0x1c, 0x01, 0x34, 0xf1, 0x9f, 0xda, 0xf3, 0x28, 0x15, 0xf7, 0xe3,
  0xdd, 0x02, 0xf0, 0x02, 0x21, 0xf1, 0xf7, 0x15, 0xc5, 0xed, 0xfc, 0x00,
  0xd4, 0x22, 0x03, 0x1f, 0xeb, 0xe8, 0x47, 0x24, 0xfd, 0x01, 0xf8, 0xeb,
  0xf3, 0x19, 0x32, 0xc6, 0xe0, 0xf3, 0xf4, 0x0b, 0x02, 0x06, 0x30, 0x07,
  0x10, 0x0c, 0xfa, 0x08, 0x2b, 0x0e, 0x1c, 0x06, 0xee, 0x16, 0x0b, 0x04,
  0x0f, 0x03, 0x22, 0x11, 0x1a, 0x15, 0x0d, 0x0b, 0x20, 0x40, 0x20, 0x03,
  0xf8, 0xf6, 0xe6, 0xe6, 0x25, 0x2b, 0x2f, 0xd9, 0x2e, 0xc9, 0x1a, 0x13,
  0xfc, 0x06, 0x33, 0xcc, 0x03, 0xf0, 0xda, 0xf3, 0x0c, 0xf3, 0x17, 0x1c,
  0x12, 0x12, 0xf5, 0xe2, 0x0b, 0x3e, 0x29, 0xe2, 0x01, 0x19, 0xfc, 0x18,
  0x0b, 0x1d, 0xf4, 0xd4, 0x1a, 0x2e, 0x1b, 0xf3, 0x01, 0x3a, 0x34, 0xfd,
  0x04, 0xc9, 0x12, 0xe4, 0x0e, 0x09, 0x10, 0xeb, 0x2a, 0x0b, 0xfb, 0xff,
  0xe8, 0x17, 0x1b, 0x03, 0xce, 0xe7, 0xbf, 0xde, 0x1a, 0x17, 0xf6, 0x11,
  0x44, 0xf1, 0x08, 0xd8, 0x13, 0x32, 0x2a, 0xf0, 0xfa, 0xd6, 0xe6, 0xd5,
  0x0a, 0x0c, 0x02, 0xec, 0x2a, 0xe7, 0x1c, 0xe9, 0x33, 0x41, 0x1b, 0xe1,
  0xf6, 0x10, 0xd2, 0xd3, 0x20, 0x18, 0x20, 0xe3, 0x35, 0xe2, 0x29, 0xf9,
  0xf7, 0x1b, 0x1c, 0xf9, 0xf2, 0x1b, 0xd1, 0xf7, 0x1d, 0x13, 0x05, 0xd2,
  0x44, 0xd7, 0x28, 0xe0, 0x27, 0x13, 0x3a, 0xf1, 0xb6, 0xd6, 0x04, 0xc9,
  0xf5, 0x09, 0xf1, 0x10, 0x35, 0x04, 0xfc, 0x15, 0xe5, 0x2e, 0x30, 0xf4,
  0xbd, 0x0b, 0x14, 0x04, 0xf2, 0x00, 0x02, 0xff, 0x36, 0xf2, 0x18, 0x14,
  0x09, 0x24, 0x18, 0x0d, 0xeb, 0xe7, 0x0f, 0xc1, 0x39, 0x25, 0xfc, 0x1f,
  0x32, 0xe6, 0xfb, 0xf9, 0xf3, 0x28, 0x27, 0xfe, 0xdf, 0xd7, 0x10, 0xee,
  0x15, 0x24, 0x17, 0x0b, 0x38, 0xf2, 0xf7, 0xf1, 0xfc, 0x40, 0x14, 0xd4,
  0xbc, 0x0f, 0xeb, 0x17, 0xfb, 0x2f, 0xf4, 0x1f, 0x2b, 0xf1, 0x15, 0xfc,
  0x18, 0x32, 0x51, 0xf0, 0xc7, 0xd9, 0xc0, 0xe0, 0x29, 0x37, 0xef, 0x12,
  0x1e, 0xf4, 0x09, 0xf6, 0x04, 0x2a, 0x12, 0xe1, 0xcf, 0xdc, 0xcd, 0x0d,
  0x3d, 0x13, 0x0a, 0x18, 0x20, 0xf1, 0xd9, 0x03, 0xed, 0x0d, 0x2f, 0x09,
  0xc4, 0xf5, 0xfa, 0x04, 0x3d, 0x03, 0xe5, 0xfc, 0x1f, 0x03, 0xf6, 0x06,
  0xf0, 0x48, 0x3c, 0xe0, 0xf9, 0xdf, 0xde, 0x00, 0x28, 0x05, 0x0c, 0xd0,
  0x30, 0x16, 0xeb, 0xce, 0x0b, 0x21, 0x0b, 0xea, 0xb5, 0xd1, 0x00, 0xed,
  0x1c, 0x27, 0xcd, 0xd1, 0x48, 0xf9, 0x1c, 0x08, 0x00, 0x3e, 0x25, 0x05,
  0xea, 0x03, 0xfc, 0xfc, 0xf9, 0x0d, 0xcc, 0xcf, 0x2e, 0x0f, 0xf6, 0xf1,
  0xfb, 0x15, 0xfb, 0xe1, 0x0f, 0xf1, 0x00, 0x10, 0xfe, 0x00, 0xe3, 0xe9,
  0x05, 0xfc, 0x0b, 0xf7, 0xfa, 0x27, 0x35, 0xce, 0xdb, 0xe0, 0xd7, 0xfb,
  0x02, 0x2a, 0x07, 0x0f, 0x1d, 0x13, 0xea, 0xee, 0xe9, 0x3b, 0x18, 0xd9,
  0xe4, 0xe8, 0xbf, 0xde, 0x11, 0xef, 0xca, 0x1a, 0xfe, 0xf6, 0xfa, 0xd3,
  0xf5, 0x14, 0xfb, 0xfd, 0x25, 0xe3, 0xc9, 0xd3, 0xc2, 0x10, 0x0b, 0xe4,
  0x11, 0xdf, 0x27, 0xe2, 0xfe, 0x1d, 0x44, 0xf7, 0x02, 0xf3, 0xff, 0x01,
  0xe6, 0x0e, 0x16, 0x05, 0x2c, 0xe1, 0x15, 0xcd, 0xef, 0x13, 0x37, 0xe9,
  0x13, 0xcb, 0x44, 0xbe, 0xd0, 0x09, 0x13, 0xcc, 0x2d, 0x0c, 0xf6, 0x07,
  0x12, 0x47, 0x23, 0xf8, 0xd9, 0xfb, 0x08, 0x0e, 0xdf, 0x03, 0xe8, 0xe9,
  0x28, 0xe5, 0xe7, 0xf9, 0x01, 0x2f, 0x38, 0xbf, 0xf6, 0xd0, 0xde, 0x0d,
  0xd3, 0xf0, 0xfa, 0x01, 0xf3, 0xc8, 0xf8, 0xf0, 0x0a, 0x45, 0x49, 0xe1,
  0x0d, 0xed, 0x0b, 0xf7, 0x04, 0xd4, 0x13, 0xde, 0xcb, 0xde, 0xf2, 0x0b,
  0x5f, 0xac, 0xc0, 0x00, 0xe5, 0xe9, 0xef, 0x1e, 0x15, 0xee, 0xfb, 0xa5,
  0xe1, 0x50, 0xea, 0x1f, 0x59, 0xb5, 0xe2, 0xe0, 0xe3, 0x03, 0xe6, 0x10,
  0x0b, 0xf5, 0xd0, 0x0a, 0x38, 0x11, 0x31, 0x1e, 0x30, 0x81, 0x2a, 0xe1,
  0xce, 0x0d, 0x10, 0x15, 0x11, 0x13, 0x18, 0x24, 0x36, 0x09, 0x04, 0xe6,
  0x51, 0x96, 0xfc, 0xfc, 0xe2, 0xcd, 0xdb, 0x0c, 0x37, 0x03, 0x0e, 0xe4,
  0x14, 0xfc, 0x2c, 0xcd, 0x1d, 0xb0, 0xfe, 0xf2, 0x04, 0xee, 0x09, 0xd8,
  0x3b, 0x24, 0xe8, 0xe4, 0x32, 0x10, 0x31, 0xcc, 0x2e, 0xb7, 0x08, 0x10,
  0x03, 0xd2, 0x50, 0xf3, 0x35, 0x1d, 0xdd, 0xd4, 0x1b, 0xfc, 0x35, 0x1b,
  0x2e, 0x8a, 0x12, 0xf7, 0x11, 0x0c, 0x1d, 0x32, 0x30, 0x0e, 0xf7, 0x0c,
  0x41, 0xf7, 0xf9, 0xdb, 0x46, 0xcf, 0xf4, 0xe6, 0x0f, 0x04, 0x17, 0x2f,
  0x12, 0x21, 0xbe, 0x08, 0x1c, 0x3c, 0x00, 0x00, 0x47, 0xca, 0xfe, 0xfc,
  0x5d, 0x08, 0xeb, 0xef, 0x37, 0xff, 0xca, 0x13, 0x44, 0x0d, 0x24, 0xda,
  0x22, 0xde, 0x0b, 0x26, 0x4b, 0x30, 0xe9, 0x04, 0x00, 0x26, 0xe3, 0x07,
  0x33, 0xf9, 0x08, 0x01, 0x58, 0xd9, 0xf6, 0x09, 0x2d, 0xf6, 0xd7, 0xda,
  0x19, 0x06, 0xd7, 0xf0, 0x10, 0x2f, 0x37, 0xec, 0x2f, 0xa1, 0x01, 0x2c,
  0xfd, 0xe9, 0x03, 0xee, 0x16, 0x2a, 0x11, 0x07, 0x24, 0xf7, 0x04, 0xfd,
  0x1d, 0xb3, 0xf7, 0xea, 0x1c, 0xff, 0xd1, 0xd8, 0x11, 0x0e, 0xce, 0xe9,
  0x4f, 0x03, 0xef, 0x01, 0x38, 0xc9, 0x05, 0x2b, 0x10, 0xe1, 0xff, 0xee,
  0x22, 0x15, 0x11, 0xd5, 0x3c, 0x31, 0x25, 0x0d, 0x38, 0xbd, 0xe9, 0x12,
  0x34, 0xdc, 0x06, 0xfd, 0x30, 0x2d, 0xe7, 0xd8, 0x36, 0x21, 0x27, 0xfc,
  0x40, 0x9d, 0x00, 0x29, 0x16, 0x2c, 0x04, 0xea, 0x11, 0x1f, 0x0e, 0xe9,
  0x30, 0x22, 0x28, 0xd9, 0x41, 0xb2, 0xf4, 0x18, 0x0b, 0xe7, 0xf3, 0xc4,
  0x34, 0xfd, 0x00, 0xc5, 0x2a, 0x15, 0x0d, 0x1b, 0x2d, 0xa5, 0xe7, 0x16,
  0xff, 0xf1, 0x0d, 0xed, 0x05, 0x2f, 0x0d, 0xf7, 0x3e, 0x37, 0x04, 0xf8,
  0x0e, 0xac, 0x0a, 0x24, 0x12, 0x0f, 0x05, 0xf9, 0x42, 0x06, 0xf8, 0xfc,
  0x23, 0x21, 0x3b, 0x11, 0x3a, 0x9f, 0xf1, 0x25, 0x15, 0xee, 0xdf, 0xea,
  0x28, 0x17, 0xdf, 0xd7, 0x5b, 0xfc, 0x0b, 0xe8, 0x19, 0xc9, 0xde, 0x01,
  0x19, 0x0f, 0xbc, 0x0d, 0x11, 0x1b, 0xda, 0xf3, 0x2d, 0x00, 0x39, 0xf0,
  0x3c, 0xc6, 0xf7, 0x21, 0xf4, 0xe0, 0x19, 0xe3, 0x21, 0x1b, 0xcf, 0xf0,
  0x08, 0x18, 0x1a, 0xc6, 0x09, 0xda, 0xc6, 0x08, 0xfc, 0xcf, 0xce, 0xd6,
  0xf5, 0x0b, 0xe9, 0x0c, 0x2a, 0x15, 0x20, 0xee, 0x44, 0xe7, 0xfd, 0x05,
  0x27, 0xfb, 0x01, 0xef, 0x1c, 0x18, 0xd6, 0xde, 0x11, 0x48, 0xfd, 0xed,
  0x55, 0xea, 0xf2, 0x27, 0x2c, 0xce, 0x06, 0xdf, 0x1a, 0x15, 0xf4, 0xba,
  0x0c, 0x26, 0x05, 0x2a, 0x51, 0x9a, 0xf4, 0x09, 0x21, 0xe8, 0x26, 0xc9,
  0x26, 0xfd, 0xec, 0xbb, 0x1b, 0x3d, 0x10, 0xf1, 0x33, 0xa7, 0x02, 0x12,
  0x27, 0xb4, 0x33, 0xf8, 0x4f, 0x19, 0xcf, 0x03, 0x1a, 0xf9, 0x20, 0xba,
  0x25, 0xb1, 0xf7, 0x25, 0x39, 0xc2, 0x1e, 0x04, 0x02, 0x3b, 0x12, 0x17,
  0x17, 0x10, 0x09, 0x23, 0x14, 0xeb, 0xe1, 0xe5, 0x22, 0x06, 0x0a, 0xec,
  0xff, 0x17, 0x04, 0x14, 0xef, 0x03, 0xea, 0xec, 0x5b, 0xdd, 0xbd, 0x11,
  0x1a, 0x05, 0x26, 0x49, 0x13, 0xf9, 0x2a, 0x31, 0xff, 0x1c, 0xd5, 0x17,
  0x01, 0x01, 0x60, 0xd9, 0xff, 0x00, 0x1f, 0x4a, 0x0e, 0x05, 0x13, 0x11,
  0x1f, 0x01, 0x0d, 0x1c, 0xfb, 0xe1, 0x43, 0xfb, 0xec, 0x13, 0xf5, 0xd7,
  0xdd, 0xf6, 0xf7, 0x49, 0x07, 0xfe, 0xfa, 0x13, 0xfd, 0xd6, 0x2b, 0x10,
  0x12, 0x1b, 0xea, 0x21, 0x0f, 0x07, 0x01, 0xf2, 0x06, 0x03, 0xde, 0x1d,
  0x08, 0xde, 0x60, 0xc6, 0x0e, 0x02, 0x23, 0x04, 0xf3, 0xbd, 0x1b, 0xe6,
  0xf2, 0x1e, 0x03, 0x34, 0xfe, 0xe6, 0x41, 0xfb, 0x1d, 0xfd, 0x3c, 0xfb,
  0xe2, 0xe2, 0xea, 0x01, 0xc8, 0x19, 0x02, 0xfd, 0xd9, 0xe3, 0x57, 0xcf,
  0xfb, 0x2c, 0x36, 0x0c, 0xc5, 0xca, 0xf3, 0x11, 0xbd, 0x1b, 0x17, 0xed,
  0xe3, 0xcb, 0x46, 0xf7, 0xfb, 0x1c, 0xf1, 0x0c, 0xda, 0xdf, 0xf7, 0xef,
  0xcd, 0x31, 0x1f, 0x1b, 0x0b, 0xf1, 0x5e, 0xd7, 0x24, 0xe8, 0x1a, 0x21,
  0xca, 0xb3, 0x0c, 0x00, 0xb2, 0x27, 0x28, 0x1c, 0x12, 0xee, 0x3b, 0xe6,
  0x21, 0xf8, 0x22, 0x06, 0xe6, 0xe9, 0xfa, 0x07, 0x9d, 0x3d, 0x13, 0x10,
  0xf1, 0xe0, 0x4c, 0x0d, 0x44, 0xf0, 0xf2, 0x02, 0xe2, 0xc5, 0xf5, 0xe2,
  0x8d, 0x1d, 0x0a, 0x13, 0x18, 0xd7, 0x3e, 0xe9, 0x29, 0xf4, 0xf9, 0xe6,
  0xbc, 0xf5, 0xdd, 0xdd, 0x93, 0x3d, 0x22, 0x37, 0xfe, 0xe7, 0x59, 0x13,
  0x0e, 0xfb, 0x11, 0xe6, 0xec, 0xd3, 0x1c, 0xe0, 0x8c, 0x23, 0x10, 0xf9,
  0xe2, 0xe5, 0x5b, 0xe5, 0x20, 0xfe, 0xec, 0xff, 0xea, 0xe0, 0xcf, 0xf5,
  0xb4, 0x24, 0xe0, 0x10, 0xf3, 0xcc, 0x39, 0x06, 0x20, 0x02, 0x14, 0x09,
  0xcc, 0xbf, 0xf6, 0x18, 0xc6, 0x50, 0xf2, 0x00, 0x08, 0xf2, 0x3e, 0xfe,
  0x36, 0xee, 0xed, 0xde, 0xd5, 0xb8, 0x04, 0x04, 0xb5, 0x3c, 0xf1, 0xf7,
  0xee, 0xee, 0x65, 0xd2, 0x09, 0x07, 0x1d, 0x0e, 0xe9, 0xec, 0xeb, 0x0e,
  0xa8, 0x44, 0x0e, 0x3c, 0x05, 0xe7, 0x2f, 0xec, 0x2c, 0x27, 0x05, 0xf8,
  0x0a, 0xbb, 0xec, 0xf7, 0x93, 0x17, 0xf1, 0x08, 0xea, 0xc1, 0x62, 0xff,
  0x1b, 0x22, 0xed, 0x06, 0xea, 0xdb, 0x24, 0x09, 0xab, 0x3a, 0xf2, 0xf9,
  0xe1, 0xe9, 0x4e, 0xe9, 0x27, 0xea, 0x1b, 0x08, 0x10, 0xcb, 0x21, 0xe6,
  0x92, 0x41, 0x19, 0x00, 0x0b, 0xd4, 0x25, 0xfd, 0x1d, 0xe9, 0xf4, 0xf6,
  0xd4, 0xf1, 0x14, 0x1a, 0xad, 0x39, 0x0c, 0xf2, 0xf0, 0xc6, 0x21, 0xed,
  0x14, 0x26, 0x10, 0xef, 0x06, 0xdd, 0x21, 0x0a, 0x89, 0x43, 0xf7, 0x0c,
  0xf9, 0xcc, 0x47, 0xf5, 0xfa, 0x0a, 0x24, 0xf5, 0x11, 0xf8, 0x08, 0x35,
  0x96, 0x3c, 0x0b, 0x0d, 0xf2, 0xd2, 0x1d, 0xfa, 0x00, 0xfb, 0xf5, 0x14,
  0xfd, 0xfd, 0x13, 0x0e, 0xcd, 0x03, 0xf8, 0x05, 0x06, 0xe1, 0x17, 0xcd,
  0xdd, 0x01, 0xee, 0xed, 0xf0, 0xfd, 0x10, 0x01, 0xca, 0x13, 0xeb, 0x20,
  0x0d, 0xb7, 0x42, 0x02, 0x5a, 0x17, 0xd8, 0x0b, 0xe0, 0x30, 0xd4, 0x14,
  0xb5, 0xfe, 0xf6, 0x26, 0x05, 0xcf, 0x34, 0xc6, 0x50, 0xea, 0xb6, 0xf0,
  0xf9, 0x09, 0x10, 0xe9, 0xe5, 0xec, 0xee, 0xfc, 0xec, 0xd1, 0x2e, 0xcf,
  0xfa, 0x18, 0xcc, 0x0c, 0xe6, 0xfc, 0x01, 0x3a, 0xd7, 0xdd, 0xe4, 0x32,
  0x1e, 0xcd, 0x54, 0xd2, 0xf9, 0xfc, 0x9b, 0x11, 0xfc, 0xd3, 0xdb, 0x07,
  0x0b, 0x0b, 0x10, 0xf7, 0xe3, 0xb7, 0x1d, 0xba, 0x0d, 0x24, 0xff, 0x11,
  0xe5, 0xd6, 0x24, 0xe8, 0xd5, 0x09, 0xee, 0x1f, 0xb5, 0x0a, 0x53, 0xf2,
  0xea, 0xf0, 0xff, 0xff, 0x04, 0x00, 0x00, 0x00, 0x10, 0x00, 0x00, 0x00,
  0xd8, 0xb3, 0xe7, 0xb5, 0x27, 0x70, 0xad, 0x80, 0x7f, 0x19, 0x5e, 0xb2,
  0x9d, 0x05, 0xe8, 0x13, 0x06, 0xf1, 0xff, 0xff, 0x04, 0x00, 0x00, 0x00,
  0x10, 0x00, 0x00, 0x00, 0xeb, 0xe7, 0xd0, 0xd1, 0x56, 0x7f, 0xce, 0xdb,
  0x6a, 0x0e, 0x33, 0xdb, 0xb4, 0x1b, 0xcd, 0xe3, 0x22, 0xf1, 0xff, 0xff,
  0x04, 0x00, 0x00, 0x00, 0x40, 0x00, 0x00, 0x00, 0x1d, 0xfe, 0xd9, 0x03,
  0x15, 0x03, 0x0f, 0x36, 0x68, 0x38, 0x34, 0x48, 0x81, 0xe5, 0xdf, 0xba,
  0xe8, 0xd4, 0xab, 0xf3, 0x47, 0x94, 0xb8, 0x29, 0x97, 0x37, 0x81, 0x59,
  0xda, 0x04, 0x43, 0xde, 0x81, 0x0e, 0x2c, 0x24, 0x54, 0xef, 0x2d, 0xd8,
  0x50, 0xe5, 0x1d, 0x1b, 0xbd, 0xd0, 0xf1, 0xe0, 0xbe, 0x1f, 0x10, 0x6b,
  0x1e, 0x3c, 0xf0, 0x34, 0xfd, 0x29, 0xe1, 0xef, 0xf3, 0xf3, 0x88, 0x81,
  0x6e, 0xf1, 0xff, 0xff, 0x04, 0x00, 0x00, 0x00, 0x14, 0x00, 0x00, 0x00,
  0x7f, 0x98, 0xed, 0x89, 0xa8, 0xe4, 0xa7, 0x7f, 0x26, 0xa1, 0xb8, 0xe4,
  0x7f, 0xfa, 0xb8, 0xf8, 0x4c, 0x56, 0x81, 0x4e, 0x8e, 0xf1, 0xff, 0xff,
  0x04, 0x00, 0x00, 0x00, 0x28, 0x00, 0x00, 0x00, 0xad, 0xb9, 0x78, 0x09,
  0x00, 0x81, 0x92, 0x05, 0xde, 0x50, 0xa2, 0xcf, 0xe7, 0x81, 0x50, 0xe3,
  0x39, 0xfe, 0xc6, 0x1b, 0x7b, 0x17, 0x39, 0x11, 0x81, 0xdc, 0xdf, 0x51,
  0xd8, 0x76, 0x3b, 0x4c, 0x15, 0x31, 0x1a, 0xd2, 0x46, 0x54, 0x38, 0x81,
  0xc2, 0xf1, 0xff, 0xff, 0x04, 0x00, 0x00, 0x00, 0x50, 0x00, 0x00, 0x00,
  0xb4, 0xc4, 0xae, 0xa6, 0xd8, 0x55, 0x9a, 0xe7, 0xe3, 0x7f, 0x32, 0x51,
  0xcf, 0xf1, 0x5f, 0x54, 0xa2, 0x63, 0xf9, 0xcf, 0x03, 0xbe, 0xc5, 0x21,
  0xec, 0x5c, 0x70, 0xe2, 0xe6, 0x59, 0x0c, 0x65, 0xaf, 0x36, 0x0f, 0x7f,
  0xb5, 0x0d, 0xaa, 0xe9, 0x6d, 0x23, 0x18, 0xb7, 0x9b, 0x9d, 0xa2, 0x25,
  0x01, 0xc5, 0x30, 0xb5, 0xb5, 0x7f, 0x65, 0x7b, 0xf0, 0x50, 0xd3, 0x51,
  0x63, 0x33, 0xcc, 0xbb, 0xb4, 0x40, 0x16, 0x52, 0x30, 0xc4, 0x29, 0x7f,
  0xee, 0xea, 0xf7, 0xfa, 0x0b, 0xe9, 0x43, 0xc8, 0x1e, 0xf2, 0xff, 0xff,
  0x04, 0x00, 0x00, 0x00, 0x10, 0x00, 0x00, 0x00, 0x28, 0x81, 0x4e, 0x41,
  0x13, 0x35, 0x29, 0xc2, 0xa7, 0x73, 0x61, 0xe5, 0x23, 0x66, 0xfe, 0x34,
  0x3a, 0xf2, 0xff, 0xff, 0x04, 0x00, 0x00, 0x00, 0x10, 0x00, 0x00, 0x00,
  0xfa, 0xa7, 0x20, 0x05, 0x7f, 0x16, 0xa5, 0xe2, 0xae, 0x49, 0x08, 0xc9,
  0xe8, 0xfa, 0x80, 0xb1, 0x56, 0xf2, 0xff, 0xff, 0x04, 0x00, 0x00, 0x00,
  0x10, 0x00, 0x00, 0x00, 0x2e, 0xc2, 0x4c, 0xfc, 0x7f, 0xfa, 0xcb, 0xe2,
  0xac, 0x75, 0x68, 0xd6, 0xa1, 0xba, 0xb9, 0xaf, 0x72, 0xf2, 0xff, 0xff,
  0x04, 0x00, 0x00, 0x00, 0x40, 0x00, 0x00, 0x00, 0x8f, 0xc1, 0x6a, 0x25,
  0x00, 0x5d, 0x76, 0x81, 0x18, 0x4c, 0xea, 0x04, 0xc2, 0xfb, 0xdd, 0x9c,
  0x8e, 0xdc, 0xc0, 0x24, 0x92, 0x00, 0xc9, 0xc6, 0x01, 0x11, 0xf5, 0x6e,
  0x36, 0x27, 0x25, 0x81, 0x46, 0xf9, 0x1f, 0x42, 0x36, 0x3c, 0xfd, 0xe2,
  0x89, 0xd1, 0x81, 0x61, 0xd2, 0x3e, 0x57, 0xb4, 0x26, 0x68, 0x42, 0x7f,
  0x2a, 0xcd, 0x1d, 0x04, 0x11, 0x6b, 0xaf, 0x1d, 0xa7, 0x88, 0x91, 0xfe,
  0xbe, 0xf2, 0xff, 0xff, 0x04, 0x00, 0x00, 0x00, 0x14, 0x00, 0x00, 0x00,
  0x7b, 0x7f, 0x66, 0x29, 0xb2, 0xea, 0x81, 0x24, 0xc1, 0xfd, 0x37, 0xbc,
  0x81, 0xa1, 0xd6, 0x8d, 0x7f, 0x4d, 0xd5, 0x26, 0xde, 0xf2, 0xff, 0xff,
  0x04, 0x00, 0x00, 0x00, 0x28, 0x00, 0x00, 0x00, 0xf8, 0xc9, 0xfa, 0x0d,
  0xec, 0x81, 0x86, 0x3d, 0xc9, 0xe1, 0xb0, 0x0d, 0xd7, 0x4a, 0xea, 0x08,
  0x67, 0xbf, 0x7f, 0xd3, 0x1a, 0xcb, 0x09, 0xec, 0x4c, 0x7f, 0x4b, 0xd1,
  0xb8, 0x6a, 0xe7, 0x28, 0x81, 0x4b, 0x27, 0xa3, 0x2e, 0x05, 0x56, 0x2e,
  0x12, 0xf3, 0xff, 0xff, 0x04, 0x00, 0x00, 0x00, 0x50, 0x00, 0x00, 0x00,
  0x50, 0xe0, 0xe8, 0xe3, 0xba, 0xcd, 0xaf, 0x49, 0xa7, 0x21, 0x4f, 0xc6,
  0xd2, 0x16, 0x16, 0x7f, 0xe2, 0x05, 0x0d, 0xf8, 0xeb, 0x2a, 0x52, 0x10,
  0x29, 0x29, 0x18, 0x69, 0x58, 0x3d, 0x30, 0x43, 0x5c, 0x22, 0x98, 0xe3,
  0x81, 0xed, 0xf1, 0x30, 0xe2, 0xe2, 0x89, 0x18, 0x22, 0xe8, 0xd7, 0x23,
  0xc3, 0xef, 0x65, 0x6f, 0xa4, 0x91, 0x3c, 0xe5, 0xda, 0x47, 0x81, 0xe7,
  0xbe, 0x7f, 0x19, 0x4f, 0xb2, 0x4d, 0xf2, 0xfd, 0x12, 0x75, 0xb3, 0x04,
  0xce, 0x0f, 0xaf, 0x3f, 0xea, 0xba, 0x1d, 0xfd, 0x6e, 0xf3, 0xff, 0xff,
  0x04, 0x00, 0x00, 0x00, 0x10, 0x00, 0x00, 0x00, 0xb6, 0x13, 0xb8, 0xfa,
  0xd1, 0x76, 0x3e, 0x36, 0x4c, 0x38, 0x81, 0x10, 0x1d, 0xff, 0xc5, 0x4b,
  0x8a, 0xf3, 0xff, 0xff, 0x04, 0x00, 0x00, 0x00, 0x10, 0x00, 0x00, 0x00,
  0x30, 0xfe, 0x3e, 0xfe, 0x77, 0x28, 0x46, 0x7f, 0x22, 0x63, 0x69, 0x5b,
  0x3a, 0xf9, 0x80, 0xc4, 0xa6, 0xf3, 0xff, 0xff, 0x04, 0x00, 0x00, 0x00,
  0x10, 0x00, 0x00, 0x00, 0x2c, 0x00, 0x09, 0xbc, 0x7f, 0xf9, 0x3e, 0x60,
  0xc2, 0x35, 0x74, 0x27, 0xc1, 0x9a, 0xa5, 0xb1, 0xc2, 0xf3, 0xff, 0xff,
  0x04, 0x00, 0x00, 0x00, 0x18, 0x00, 0x00, 0x00, 0xd6, 0xab, 0x81, 0x4a,
  0x43, 0xc5, 0xe0, 0x7f, 0x3e, 0x4b, 0xb9, 0x71, 0xdc, 0x1a, 0xf6, 0x2a,
  0x7f, 0x3c, 0xbe, 0xc9, 0x27, 0x06, 0x05, 0x7f, 0xe6, 0xf3, 0xff, 0xff,
  0x04, 0x00, 0x00, 0x00, 0x40, 0x00, 0x00, 0x00, 0x6f, 0xff, 0xff, 0xff,
  0xc2, 0xfd, 0xff, 0xff, 0x9d, 0xfe, 0xff, 0xff, 0xf5, 0xfe, 0xff, 0xff,
  0x65, 0x04, 0x00, 0x00, 0xc1, 0xfe, 0xff, 0xff, 0xcb, 0xfc, 0xff, 0xff,
  0x9f, 0x00, 0x00, 0x00, 0x4d, 0xff, 0xff, 0xff, 0xb2, 0x01, 0x00, 0x00,
  0xb3, 0xfd, 0xff, 0xff, 0x7b, 0x02, 0x00, 0x00, 0xa6, 0xfe, 0xff, 0xff,
  0x38, 0x00, 0x00, 0x00, 0xff, 0x01, 0x00, 0x00, 0xa3, 0x00, 0x00, 0x00,
  0x32, 0xf4, 0xff, 0xff, 0x04, 0x00, 0x00, 0x00, 0x60, 0x00, 0x00, 0x00,
  0xc7, 0x81, 0x21, 0x0a, 0x7c, 0xde, 0x7f, 0x8a, 0x39, 0x5b, 0xb2, 0xde,
  0xf7, 0x27, 0xcb, 0xc9, 0x22, 0x81, 0x2c, 0x7f, 0x49, 0x4c, 0x90, 0x96,
  0x13, 0xf1, 0x2f, 0x15, 0x6e, 0x81, 0xdd, 0xf0, 0x41, 0x67, 0xa2, 0x81,
  0x81, 0x2c, 0xc3, 0x10, 0x26, 0x8e, 0xa1, 0x81, 0xca, 0x19, 0xed, 0xa9,
  0x42, 0x10, 0x81, 0x0f, 0x7f, 0x30, 0xc9, 0xcb, 0xd1, 0xfc, 0x7f, 0x58,
  0x50, 0xf6, 0x51, 0x13, 0x81, 0xe3, 0xda, 0xde, 0x81, 0x6b, 0xeb, 0x1a,
  0xae, 0x1b, 0x56, 0xeb, 0xbf, 0x81, 0x45, 0x7f, 0x58, 0x1f, 0x28, 0x11,
  0x44, 0x7f, 0xd1, 0x2c, 0x9c, 0xfc, 0xb4, 0x81, 0x37, 0x2d, 0x14, 0xdb,
  0x9e, 0xf4, 0xff, 0xff, 0x04, 0x00, 0x00, 0x00, 0x14, 0x00, 0x00, 0x00,
  0x1c, 0x18, 0x3b, 0x7f, 0xbe, 0xa7, 0x81, 0x4c, 0x8e, 0x7e, 0x00, 0xda,
  0x81, 0x81, 0x59, 0xb2, 0x35, 0xfa, 0xa4, 0x7f, 0xbe, 0xf4, 0xff, 0xff,
  0x04, 0x00, 0x00, 0x00, 0x28, 0x00, 0x00, 0x00, 0xbd, 0xc8, 0x0f, 0xe8,
  0x1d, 0xb0, 0x82, 0xee, 0x81, 0xee, 0xd5, 0x4d, 0x7e, 0x81, 0x7a, 0x3f,
  0x8f, 0x32, 0xa3, 0xbb, 0x20, 0xbe, 0xbb, 0x7f, 0x11, 0x9e, 0xcb, 0x38,
  0x8a, 0x68, 0xb1, 0x65, 0xb1, 0xd9, 0xed, 0x91, 0x1a, 0xc4, 0x7f, 0x0d,
  0xf2, 0xf4, 0xff, 0xff, 0x04, 0x00, 0x00, 0x00, 0x10, 0x00, 0x00, 0x00,
  0x00, 0x00, 0x00, 0x00, 0x00, 0x00, 0x00, 0x00, 0x00, 0x00, 0x00, 0x00,
  0x00, 0x00, 0x00, 0x00, 0x0e, 0xf5, 0xff, 0xff, 0x04, 0x00, 0x00, 0x00,
  0x10, 0x00, 0x00, 0x00, 0x00, 0x00, 0x00, 0x00, 0x00, 0x00, 0x00, 0x00,
  0x00, 0x00, 0x00, 0x00, 0x00, 0x00, 0x00, 0x00, 0x2a, 0xf5, 0xff, 0xff,
  0x04, 0x00, 0x00, 0x00, 0x10, 0x00, 0x00, 0x00, 0x00, 0x00, 0x00, 0x00,
  0x00, 0x00, 0x00, 0x00, 0x00, 0x00, 0x00, 0x00, 0x00, 0x00, 0x00, 0x00,
  0x46, 0xf5, 0xff, 0xff, 0x04, 0x00, 0x00, 0x00, 0x10, 0x00, 0x00, 0x00,
  0x00, 0x00, 0x00, 0x00, 0x00, 0x00, 0x00, 0x00, 0x00, 0x00, 0x00, 0x00,
  0x00, 0x00, 0x00, 0x00, 0x62, 0xf5, 0xff, 0xff, 0x04, 0x00, 0x00, 0x00,
  0x10, 0x00, 0x00, 0x00, 0x00, 0x00, 0x00, 0x00, 0x00, 0x00, 0x00, 0x00,
  0x00, 0x00, 0x00, 0x00, 0x00, 0x00, 0x00, 0x00, 0x7e, 0xf5, 0xff, 0xff,
  0x04, 0x00, 0x00, 0x00, 0x10, 0x00, 0x00, 0x00, 0x00, 0x00, 0x00, 0x00,
  0x00, 0x00, 0x00, 0x00, 0x00, 0x00, 0x00, 0x00, 0x00, 0x00, 0x00, 0x00,
  0x9a, 0xf5, 0xff, 0xff, 0x04, 0x00, 0x00, 0x00, 0x10, 0x00, 0x00, 0x00,
  0x00, 0x00, 0x00, 0x00, 0x00, 0x00, 0x00, 0x00, 0x00, 0x00, 0x00, 0x00,
  0x00, 0x00, 0x00, 0x00, 0xb6, 0xf5, 0xff, 0xff, 0x04, 0x00, 0x00, 0x00,
  0x10, 0x00, 0x00, 0x00, 0x00, 0x00, 0x00, 0x00, 0x00, 0x00, 0x00, 0x00,
  0x00, 0x00, 0x00, 0x00, 0x00, 0x00, 0x00, 0x00, 0xd2, 0xf5, 0xff, 0xff,
  0x04, 0x00, 0x00, 0x00, 0x10, 0x00, 0x00, 0x00, 0x00, 0x00, 0x00, 0x00,
  0x00, 0x00, 0x00, 0x00, 0x00, 0x00, 0x00, 0x00, 0x00, 0x00, 0x00, 0x00,
  0xee, 0xf5, 0xff, 0xff, 0x04, 0x00, 0x00, 0x00, 0x10, 0x00, 0x00, 0x00,
  0x00, 0x00, 0x00, 0x00, 0x00, 0x00, 0x00, 0x00, 0x00, 0x00, 0x00, 0x00,
  0x00, 0x00, 0x00, 0x00, 0x0a, 0xf6, 0xff, 0xff, 0x04, 0x00, 0x00, 0x00,
  0x10, 0x00, 0x00, 0x00, 0x00, 0x00, 0x00, 0x00, 0x00, 0x00, 0x00, 0x00,
  0x00, 0x00, 0x00, 0x00, 0x00, 0x00, 0x00, 0x00, 0x26, 0xf6, 0xff, 0xff,
  0x04, 0x00, 0x00, 0x00, 0x10, 0x00, 0x00, 0x00, 0x00, 0x00, 0x00, 0x00,
  0x00, 0x00, 0x00, 0x00, 0x00, 0x00, 0x00, 0x00, 0x00, 0x00, 0x00, 0x00,
  0x42, 0xf6, 0xff, 0xff, 0x04, 0x00, 0x00, 0x00, 0x50, 0x00, 0x00, 0x00,
  0x18, 0x68, 0x81, 0xbb, 0x3a, 0xb1, 0xd4, 0xa5, 0xfe, 0xaa, 0x45, 0x1f,
  0xd9, 0xeb, 0x64, 0x9b, 0x29, 0x15, 0x04, 0x40, 0xac, 0xf6, 0x53, 0xe4,
  0xb5, 0xd7, 0x65, 0xe1, 0x41, 0xd7, 0x6a, 0xe6, 0x47, 0xec, 0x7f, 0xd2,
  0xba, 0x32, 0xa5, 0xf1, 0xe0, 0x3d, 0x7f, 0xc8, 0x56, 0xe4, 0x95, 0x47,
  0x89, 0xe7, 0xc0, 0xaa, 0x0a, 0x74, 0x1f, 0x3b, 0x1c, 0xbe, 0xcf, 0x53,
  0x2c, 0xcf, 0x7f, 0xcd, 0x71, 0xab, 0x57, 0x76, 0x22, 0x11, 0x28, 0x1f,
  0x1c, 0x18, 0xe8, 0xaa, 0x2e, 0xff, 0xcb, 0xed, 0x9e, 0xf6, 0xff, 0xff,
  0x04, 0x00, 0x00, 0x00, 0x04, 0x00, 0x00, 0x00, 0x00, 0x00, 0x00, 0x00,
  0xae, 0xf6, 0xff, 0xff, 0x04, 0x00, 0x00, 0x00, 0x04, 0x00, 0x00, 0x00,
  0x00, 0x00, 0x00, 0x00, 0xbe, 0xf6, 0xff, 0xff, 0x04, 0x00, 0x00, 0x00,
  0x04, 0x00, 0x00, 0x00, 0x00, 0x00, 0x00, 0x00, 0xce, 0xf6, 0xff, 0xff,
  0x04, 0x00, 0x00, 0x00, 0x06, 0x00, 0x00, 0x00, 0xc4, 0xa9, 0x7f, 0x05,
  0xed, 0xde, 0x00, 0x00, 0xe2, 0xf6, 0xff, 0xff, 0x04, 0x00, 0x00, 0x00,
  0x08, 0x00, 0x00, 0x00, 0xff, 0xff, 0xff, 0xff, 0xe0, 0x01, 0x00, 0x00,
  0xf6, 0xf6, 0xff, 0xff, 0x04, 0x00, 0x00, 0x00, 0x10, 0x00, 0x00, 0x00,
  0x01, 0x00, 0x00, 0x00, 0x1e, 0x00, 0x00, 0x00, 0x01, 0x00, 0x00, 0x00,
  0x10, 0x00, 0x00, 0x00, 0x12, 0xf7, 0xff, 0xff, 0x04, 0x00, 0x00, 0x00,
  0x10, 0x00, 0x00, 0x00, 0x01, 0x00, 0x00, 0x00, 0x01, 0x00, 0x00, 0x00,
  0x1e, 0x00, 0x00, 0x00, 0x10, 0x00, 0x00, 0x00, 0x2e, 0xf7, 0xff, 0xff,
  0x04, 0x00, 0x00, 0x00, 0x10, 0x00, 0x00, 0x00, 0x01, 0x00, 0x00, 0x00,
  0x1e, 0x00, 0x00, 0x00, 0x01, 0x00, 0x00, 0x00, 0x06, 0x00, 0x00, 0x00,
  0x4a, 0xf7, 0xff, 0xff, 0x04, 0x00, 0x00, 0x00, 0x0c, 0x00, 0x00, 0x00,
  0x01, 0x00, 0x00, 0x00, 0x1e, 0x00, 0x00, 0x00, 0x10, 0x00, 0x00, 0x00,
  0x62, 0xf7, 0xff, 0xff, 0x04, 0x00, 0x00, 0x00, 0x0c, 0x00, 0x00, 0x00,
  0x01, 0x00, 0x00, 0x00, 0x1e, 0x00, 0x00, 0x00, 0x04, 0x00, 0x00, 0x00,
  0x7a, 0xf7, 0xff, 0xff, 0x04, 0x00, 0x00, 0x00, 0x10, 0x00, 0x00, 0x00,
  0x01, 0x00, 0x00, 0x00, 0x01, 0x00, 0x00, 0x00, 0x1e, 0x00, 0x00, 0x00,
  0x06, 0x00, 0x00, 0x00, 0xac, 0xbb, 0xff, 0xff, 0xb0, 0xbb, 0xff, 0xff,
  0x0f, 0x00, 0x00, 0x00, 0x4d, 0x4c, 0x49, 0x52, 0x20, 0x43, 0x6f, 0x6e,
  0x76, 0x65, 0x72, 0x74, 0x65, 0x64, 0x2e, 0x00, 0x01, 0x00, 0x00, 0x00,
  0x14, 0x00, 0x00, 0x00, 0x00, 0x00, 0x0e, 0x00, 0x18, 0x00, 0x14, 0x00,
  0x10, 0x00, 0x0c, 0x00, 0x08, 0x00, 0x04, 0x00, 0x0e, 0x00, 0x00, 0x00,
  0x14, 0x00, 0x00, 0x00, 0x1c, 0x00, 0x00, 0x00, 0x44, 0x0b, 0x00, 0x00,
  0x48, 0x0b, 0x00, 0x00, 0x4c, 0x0b, 0x00, 0x00, 0x04, 0x00, 0x00, 0x00,
  0x6d, 0x61, 0x69, 0x6e, 0x00, 0x00, 0x00, 0x00, 0x36, 0x00, 0x00, 0x00,
  0x08, 0x0b, 0x00, 0x00, 0xac, 0x0a, 0x00, 0x00, 0x58, 0x0a, 0x00, 0x00,
  0x34, 0x0a, 0x00, 0x00, 0xf0, 0x09, 0x00, 0x00, 0xcc, 0x09, 0x00, 0x00,
  0x88, 0x09, 0x00, 0x00, 0x64, 0x09, 0x00, 0x00, 0x24, 0x09, 0x00, 0x00,
  0x00, 0x09, 0x00, 0x00, 0xdc, 0x08, 0x00, 0x00, 0x8c, 0x08, 0x00, 0x00,
  0x68, 0x08, 0x00, 0x00, 0x24, 0x08, 0x00, 0x00, 0x00, 0x08, 0x00, 0x00,
  0xb8, 0x07, 0x00, 0x00, 0x84, 0x07, 0x00, 0x00, 0x44, 0x07, 0x00, 0x00,
  0x20, 0x07, 0x00, 0x00, 0xdc, 0x06, 0x00, 0x00, 0x98, 0x06, 0x00, 0x00,
  0x74, 0x06, 0x00, 0x00, 0x30, 0x06, 0x00, 0x00, 0x0c, 0x06, 0x00, 0x00,
  0xc8, 0x05, 0x00, 0x00, 0xa4, 0x05, 0x00, 0x00, 0x80, 0x05, 0x00, 0x00,
  0x40, 0x05, 0x00, 0x00, 0x1c, 0x05, 0x00, 0x00, 0xd8, 0x04, 0x00, 0x00,
  0xb4, 0x04, 0x00, 0x00, 0x74, 0x04, 0x00, 0x00, 0x40, 0x04, 0x00, 0x00,
  0x08, 0x04, 0x00, 0x00, 0xd0, 0x03, 0x00, 0x00, 0xac, 0x03, 0x00, 0x00,
  0x68, 0x03, 0x00, 0x00, 0x24, 0x03, 0x00, 0x00, 0x00, 0x03, 0x00, 0x00,
  0xbc, 0x02, 0x00, 0x00, 0x98, 0x02, 0x00, 0x00, 0x54, 0x02, 0x00, 0x00,
  0x30, 0x02, 0x00, 0x00, 0x0c, 0x02, 0x00, 0x00, 0xcc, 0x01, 0x00, 0x00,
  0xa8, 0x01, 0x00, 0x00, 0x64, 0x01, 0x00, 0x00, 0x40, 0x01, 0x00, 0x00,
  0x00, 0x01, 0x00, 0x00, 0xcc, 0x00, 0x00, 0x00, 0x94, 0x00, 0x00, 0x00,
  0x70, 0x00, 0x00, 0x00, 0x38, 0x00, 0x00, 0x00, 0x04, 0x00, 0x00, 0x00,
  0x36, 0xf6, 0xff, 0xff, 0x14, 0x00, 0x00, 0x00, 0x00, 0x00, 0x00, 0x09,
  0x14, 0x00, 0x00, 0x00, 0x18, 0x00, 0x00, 0x00, 0x07, 0x00, 0x00, 0x00,
  0xe2, 0xf8, 0xff, 0xff, 0x00, 0x00, 0x80, 0x3f, 0x01, 0x00, 0x00, 0x00,
  0x65, 0x00, 0x00, 0x00, 0x01, 0x00, 0x00, 0x00, 0x64, 0x00, 0x00, 0x00,
  0x66, 0xf6, 0xff, 0xff, 0x14, 0x00, 0x00, 0x00, 0x00, 0x00, 0x00, 0x08,
  0x10, 0x00, 0x00, 0x00, 0x14, 0x00, 0x00, 0x00, 0x06, 0x00, 0x00, 0x00,
  0x28, 0xbd, 0xff, 0xff, 0x01, 0x00, 0x00, 0x00, 0x64, 0x00, 0x00, 0x00,
  0x03, 0x00, 0x00, 0x00, 0x63, 0x00, 0x00, 0x00, 0x2e, 0x00, 0x00, 0x00,
  0x2f, 0x00, 0x00, 0x00, 0x3e, 0xf6, 0xff, 0xff, 0x08, 0x00, 0x00, 0x00,
  0x0c, 0x00, 0x00, 0x00, 0x01, 0x00, 0x00, 0x00, 0x63, 0x00, 0x00, 0x00,
  0x02, 0x00, 0x00, 0x00, 0x62, 0x00, 0x00, 0x00, 0x07, 0x00, 0x00, 0x00,
  0xba, 0xf6, 0xff, 0xff, 0x14, 0x00, 0x00, 0x00, 0x00, 0x00, 0x00, 0x0b,
  0x14, 0x00, 0x00, 0x00, 0x18, 0x00, 0x00, 0x00, 0x05, 0x00, 0x00, 0x00,
  0xd2, 0xf9, 0xff, 0xff, 0x00, 0x00, 0x00, 0x01, 0x01, 0x00, 0x00, 0x00,
  0x62, 0x00, 0x00, 0x00, 0x02, 0x00, 0x00, 0x00, 0x61, 0x00, 0x00, 0x00,
  0x2d, 0x00, 0x00, 0x00, 0xee, 0xf6, 0xff, 0xff, 0x14, 0x00, 0x00, 0x00,
  0x00, 0x00, 0x00, 0x15, 0x10, 0x00, 0x00, 0x00, 0x14, 0x00, 0x00, 0x00,
  0x04, 0x00, 0x00, 0x00, 0xb0, 0xbd, 0xff, 0xff, 0x01, 0x00, 0x00, 0x00,
  0x61, 0x00, 0x00, 0x00, 0x02, 0x00, 0x00, 0x00, 0x60, 0x00, 0x00, 0x00,
  0x2c, 0x00, 0x00, 0x00, 0x1e, 0xf7, 0xff, 0xff, 0x14, 0x00, 0x00, 0x00,
  0x00, 0x00, 0x00, 0x0a, 0x14, 0x00, 0x00, 0x00, 0x18, 0x00, 0x00, 0x00,
  0x03, 0x00, 0x00, 0x00, 0xca, 0xf9, 0xff, 0xff, 0x02, 0x00, 0x00, 0x00,
  0x01, 0x00, 0x00, 0x00, 0x60, 0x00, 0x00, 0x00, 0x04, 0x00, 0x00, 0x00,
  0x56, 0x00, 0x00, 0x00, 0x58, 0x00, 0x00, 0x00, 0x5a, 0x00, 0x00, 0x00,
  0x5f, 0x00, 0x00, 0x00, 0xfe, 0xf6, 0xff, 0xff, 0x08, 0x00, 0x00, 0x00,
  0x0c, 0x00, 0x00, 0x00, 0x01, 0x00, 0x00, 0x00, 0x5f, 0x00, 0x00, 0x00,
  0x02, 0x00, 0x00, 0x00, 0x5e, 0x00, 0x00, 0x00, 0x02, 0x00, 0x00, 0x00,
  0x7a, 0xf7, 0xff, 0xff, 0x14, 0x00, 0x00, 0x00, 0x00, 0x00, 0x00, 0x01,
  0x1c, 0x00, 0x00, 0x00, 0x20, 0x00, 0x00, 0x00, 0x01, 0x00, 0x00, 0x00,
  0x6c, 0xf7, 0xff, 0xff, 0x00, 0x00, 0x00, 0x01, 0x01, 0x00, 0x00, 0x00,
  0x01, 0x00, 0x00, 0x00, 0x01, 0x00, 0x00, 0x00, 0x5e, 0x00, 0x00, 0x00,
  0x03, 0x00, 0x00, 0x00, 0x5d, 0x00, 0x00, 0x00, 0x2b, 0x00, 0x00, 0x00,
  0x18, 0x00, 0x00, 0x00, 0x5e, 0xf7, 0xff, 0xff, 0x08, 0x00, 0x00, 0x00,
  0x0c, 0x00, 0x00, 0x00, 0x01, 0x00, 0x00, 0x00, 0x5d, 0x00, 0x00, 0x00,
  0x02, 0x00, 0x00, 0x00, 0x5c, 0x00, 0x00, 0x00, 0x05, 0x00, 0x00, 0x00,
  0xda, 0xf7, 0xff, 0xff, 0x14, 0x00, 0x00, 0x00, 0x00, 0x00, 0x00, 0x05,
  0x20, 0x00, 0x00, 0x00, 0x24, 0x00, 0x00, 0x00, 0x02, 0x00, 0x00, 0x00,
  0xc2, 0xf9, 0xff, 0xff, 0x03, 0x00, 0x00, 0x00, 0x01, 0x00, 0x00, 0x00,
  0x01, 0x00, 0x00, 0x00, 0x01, 0x00, 0x00, 0x00, 0x01, 0x00, 0x00, 0x00,
  0x5c, 0x00, 0x00, 0x00, 0x01, 0x00, 0x00, 0x00, 0x5b, 0x00, 0x00, 0x00,
  0xba, 0xf7, 0xff, 0xff, 0x08, 0x00, 0x00, 0x00, 0x0c, 0x00, 0x00, 0x00,
  0x01, 0x00, 0x00, 0x00, 0x5b, 0x00, 0x00, 0x00, 0x02, 0x00, 0x00, 0x00,
  0x52, 0x00, 0x00, 0x00, 0x06, 0x00, 0x00, 0x00, 0xda, 0xf7, 0xff, 0xff,
  0x08, 0x00, 0x00, 0x00, 0x0c, 0x00, 0x00, 0x00, 0x01, 0x00, 0x00, 0x00,
  0x5a, 0x00, 0x00, 0x00, 0x02, 0x00, 0x00, 0x00, 0x59, 0x00, 0x00, 0x00,
  0x02, 0x00, 0x00, 0x00, 0x56, 0xf8, 0xff, 0xff, 0x14, 0x00, 0x00, 0x00,
  0x00, 0x00, 0x00, 0x01, 0x1c, 0x00, 0x00, 0x00, 0x20, 0x00, 0x00, 0x00,
  0x01, 0x00, 0x00, 0x00, 0x48, 0xf8, 0xff, 0xff, 0x00, 0x00, 0x00, 0x01,
  0x01, 0x00, 0x00, 0x00, 0x01, 0x00, 0x00, 0x00, 0x01, 0x00, 0x00, 0x00,
  0x59, 0x00, 0x00, 0x00, 0x03, 0x00, 0x00, 0x00, 0x54, 0x00, 0x00, 0x00,
  0x2a, 0x00, 0x00, 0x00, 0x17, 0x00, 0x00, 0x00, 0x3a, 0xf8, 0xff, 0xff,
  0x08, 0x00, 0x00, 0x00, 0x0c, 0x00, 0x00, 0x00, 0x01, 0x00, 0x00, 0x00,
  0x58, 0x00, 0x00, 0x00, 0x02, 0x00, 0x00, 0x00, 0x57, 0x00, 0x00, 0x00,
  0x02, 0x00, 0x00, 0x00, 0xb6, 0xf8, 0xff, 0xff, 0x14, 0x00, 0x00, 0x00,
  0x00, 0x00, 0x00, 0x01, 0x1c, 0x00, 0x00, 0x00, 0x20, 0x00, 0x00, 0x00,
  0x01, 0x00, 0x00, 0x00, 0xa8, 0xf8, 0xff, 0xff, 0x00, 0x00, 0x00, 0x01,
  0x01, 0x00, 0x00, 0x00, 0x01, 0x00, 0x00, 0x00, 0x01, 0x00, 0x00, 0x00,
  0x57, 0x00, 0x00, 0x00, 0x03, 0x00, 0x00, 0x00, 0x54, 0x00, 0x00, 0x00,
  0x29, 0x00, 0x00, 0x00, 0x16, 0x00, 0x00, 0x00, 0x9a, 0xf8, 0xff, 0xff,
  0x08, 0x00, 0x00, 0x00, 0x0c, 0x00, 0x00, 0x00, 0x01, 0x00, 0x00, 0x00,
  0x56, 0x00, 0x00, 0x00, 0x02, 0x00, 0x00, 0x00, 0x55, 0x00, 0x00, 0x00,
  0x02, 0x00, 0x00, 0x00, 0x16, 0xf9, 0xff, 0xff, 0x14, 0x00, 0x00, 0x00,
  0x00, 0x00, 0x00, 0x01, 0x1c, 0x00, 0x00, 0x00, 0x20, 0x00, 0x00, 0x00,
  0x01, 0x00, 0x00, 0x00, 0x08, 0xf9, 0xff, 0xff, 0x00, 0x00, 0x00, 0x01,
  0x01, 0x00, 0x00, 0x00, 0x01, 0x00, 0x00, 0x00, 0x01, 0x00, 0x00, 0x00,
  0x55, 0x00, 0x00, 0x00, 0x03, 0x00, 0x00, 0x00, 0x54, 0x00, 0x00, 0x00,
  0x28, 0x00, 0x00, 0x00, 0x15, 0x00, 0x00, 0x00, 0x56, 0xf9, 0xff, 0xff,
  0x14, 0x00, 0x00, 0x00, 0x00, 0x00, 0x00, 0x01, 0x1c, 0x00, 0x00, 0x00,
  0x20, 0x00, 0x00, 0x00, 0x01, 0x00, 0x00, 0x00, 0x48, 0xf9, 0xff, 0xff,
  0x00, 0x00, 0x00, 0x01, 0x01, 0x00, 0x00, 0x00, 0x01, 0x00, 0x00, 0x00,
  0x01, 0x00, 0x00, 0x00, 0x54, 0x00, 0x00, 0x00, 0x03, 0x00, 0x00, 0x00,
  0x53, 0x00, 0x00, 0x00, 0x27, 0x00, 0x00, 0x00, 0x0b, 0x00, 0x00, 0x00,
  0x3a, 0xf9, 0xff, 0xff, 0x08, 0x00, 0x00, 0x00, 0x0c, 0x00, 0x00, 0x00,
  0x01, 0x00, 0x00, 0x00, 0x53, 0x00, 0x00, 0x00, 0x02, 0x00, 0x00, 0x00,
  0x52, 0x00, 0x00, 0x00, 0x05, 0x00, 0x00, 0x00, 0xb6, 0xf9, 0xff, 0xff,
  0x14, 0x00, 0x00, 0x00, 0x00, 0x00, 0x00, 0x0b, 0x14, 0x00, 0x00, 0x00,
  0x18, 0x00, 0x00, 0x00, 0x05, 0x00, 0x00, 0x00, 0xce, 0xfc, 0xff, 0xff,
  0x00, 0x00, 0x00, 0x01, 0x01, 0x00, 0x00, 0x00, 0x52, 0x00, 0x00, 0x00,
  0x02, 0x00, 0x00, 0x00, 0x39, 0x00, 0x00, 0x00, 0x51, 0x00, 0x00, 0x00,
  0xea, 0xf9, 0xff, 0xff, 0x14, 0x00, 0x00, 0x00, 0x00, 0x00, 0x00, 0x0b,
  0x14, 0x00, 0x00, 0x00, 0x18, 0x00, 0x00, 0x00, 0x05, 0x00, 0x00, 0x00,
  0x02, 0xfd, 0xff, 0xff, 0x00, 0x00, 0x00, 0x01, 0x01, 0x00, 0x00, 0x00,
  0x51, 0x00, 0x00, 0x00, 0x02, 0x00, 0x00, 0x00, 0x50, 0x00, 0x00, 0x00,
  0x26, 0x00, 0x00, 0x00, 0x1e, 0xfa, 0xff, 0xff, 0x14, 0x00, 0x00, 0x00,
  0x00, 0x00, 0x00, 0x15, 0x10, 0x00, 0x00, 0x00, 0x14, 0x00, 0x00, 0x00,
  0x04, 0x00, 0x00, 0x00, 0xe0, 0xc0, 0xff, 0xff, 0x01, 0x00, 0x00, 0x00,
  0x50, 0x00, 0x00, 0x00, 0x02, 0x00, 0x00, 0x00, 0x4f, 0x00, 0x00, 0x00,
  0x25, 0x00, 0x00, 0x00, 0x4e, 0xfa, 0xff, 0xff, 0x14, 0x00, 0x00, 0x00,
  0x00, 0x00, 0x00, 0x0a, 0x14, 0x00, 0x00, 0x00, 0x18, 0x00, 0x00, 0x00,
  0x03, 0x00, 0x00, 0x00, 0xfa, 0xfc, 0xff, 0xff, 0x02, 0x00, 0x00, 0x00,
  0x01, 0x00, 0x00, 0x00, 0x4f, 0x00, 0x00, 0x00, 0x04, 0x00, 0x00, 0x00,
  0x45, 0x00, 0x00, 0x00, 0x47, 0x00, 0x00, 0x00, 0x49, 0x00, 0x00, 0x00,
  0x4e, 0x00, 0x00, 0x00, 0x2e, 0xfa, 0xff, 0xff, 0x08, 0x00, 0x00, 0x00,
  0x0c, 0x00, 0x00, 0x00, 0x01, 0x00, 0x00, 0x00, 0x4e, 0x00, 0x00, 0x00,
  0x02, 0x00, 0x00, 0x00, 0x4d, 0x00, 0x00, 0x00, 0x02, 0x00, 0x00, 0x00,
  0xaa, 0xfa, 0xff, 0xff, 0x14, 0x00, 0x00, 0x00, 0x00, 0x00, 0x00, 0x01,
  0x1c, 0x00, 0x00, 0x00, 0x20, 0x00, 0x00, 0x00, 0x01, 0x00, 0x00, 0x00,
  0x9c, 0xfa, 0xff, 0xff, 0x00, 0x00, 0x00, 0x01, 0x01, 0x00, 0x00, 0x00,
  0x01, 0x00, 0x00, 0x00, 0x01, 0x00, 0x00, 0x00, 0x4d, 0x00, 0x00, 0x00,
  0x03, 0x00, 0x00, 0x00, 0x4c, 0x00, 0x00, 0x00, 0x24, 0x00, 0x00, 0x00,
  0x14, 0x00, 0x00, 0x00, 0x8e, 0xfa, 0xff, 0xff, 0x08, 0x00, 0x00, 0x00,
  0x0c, 0x00, 0x00, 0x00, 0x01, 0x00, 0x00, 0x00, 0x4c, 0x00, 0x00, 0x00,
  0x02, 0x00, 0x00, 0x00, 0x4b, 0x00, 0x00, 0x00, 0x05, 0x00, 0x00, 0x00,
  0x0a, 0xfb, 0xff, 0xff, 0x14, 0x00, 0x00, 0x00, 0x00, 0x00, 0x00, 0x05,
  0x20, 0x00, 0x00, 0x00, 0x24, 0x00, 0x00, 0x00, 0x02, 0x00, 0x00, 0x00,
  0xf2, 0xfc, 0xff, 0xff, 0x03, 0x00, 0x00, 0x00, 0x01, 0x00, 0x00, 0x00,
  0x01, 0x00, 0x00, 0x00, 0x01, 0x00, 0x00, 0x00, 0x01, 0x00, 0x00, 0x00,
  0x4b, 0x00, 0x00, 0x00, 0x01, 0x00, 0x00, 0x00, 0x4a, 0x00, 0x00, 0x00,
  0xea, 0xfa, 0xff, 0xff, 0x08, 0x00, 0x00, 0x00, 0x0c, 0x00, 0x00, 0x00,
  0x01, 0x00, 0x00, 0x00, 0x4a, 0x00, 0x00, 0x00, 0x02, 0x00, 0x00, 0x00,
  0x41, 0x00, 0x00, 0x00, 0x06, 0x00, 0x00, 0x00, 0x0a, 0xfb, 0xff, 0xff,
  0x08, 0x00, 0x00, 0x00, 0x0c, 0x00, 0x00, 0x00, 0x01, 0x00, 0x00, 0x00,
  0x49, 0x00, 0x00, 0x00, 0x02, 0x00, 0x00, 0x00, 0x48, 0x00, 0x00, 0x00,
  0x02, 0x00, 0x00, 0x00, 0x86, 0xfb, 0xff, 0xff, 0x14, 0x00, 0x00, 0x00,
  0x00, 0x00, 0x00, 0x01, 0x1c, 0x00, 0x00, 0x00, 0x20, 0x00, 0x00, 0x00,
  0x01, 0x00, 0x00, 0x00, 0x78, 0xfb, 0xff, 0xff, 0x00, 0x00, 0x00, 0x01,
  0x01, 0x00, 0x00, 0x00, 0x01, 0x00, 0x00, 0x00, 0x01, 0x00, 0x00, 0x00,
  0x48, 0x00, 0x00, 0x00, 0x03, 0x00, 0x00, 0x00, 0x43, 0x00, 0x00, 0x00,
  0x23, 0x00, 0x00, 0x00, 0x13, 0x00, 0x00, 0x00, 0x6a, 0xfb, 0xff, 0xff,
  0x08, 0x00, 0x00, 0x00, 0x0c, 0x00, 0x00, 0x00, 0x01, 0x00, 0x00, 0x00,
  0x47, 0x00, 0x00, 0x00, 0x02, 0x00, 0x00, 0x00, 0x46, 0x00, 0x00, 0x00,
  0x02, 0x00, 0x00, 0x00, 0xe6, 0xfb, 0xff, 0xff, 0x14, 0x00, 0x00, 0x00,
  0x00, 0x00, 0x00, 0x01, 0x1c, 0x00, 0x00, 0x00, 0x20, 0x00, 0x00, 0x00,
  0x01, 0x00, 0x00, 0x00, 0xd8, 0xfb, 0xff, 0xff, 0x00, 0x00, 0x00, 0x01,
  0x01, 0x00, 0x00, 0x00, 0x01, 0x00, 0x00, 0x00, 0x01, 0x00, 0x00, 0x00,
  0x46, 0x00, 0x00, 0x00, 0x03, 0x00, 0x00, 0x00, 0x43, 0x00, 0x00, 0x00,
  0x22, 0x00, 0x00, 0x00, 0x12, 0x00, 0x00, 0x00, 0xca, 0xfb, 0xff, 0xff,
  0x08, 0x00, 0x00, 0x00, 0x0c, 0x00, 0x00, 0x00, 0x01, 0x00, 0x00, 0x00,
  0x45, 0x00, 0x00, 0x00, 0x02, 0x00, 0x00, 0x00, 0x44, 0x00, 0x00, 0x00,
  0x02, 0x00, 0x00, 0x00, 0x46, 0xfc, 0xff, 0xff, 0x14, 0x00, 0x00, 0x00,
  0x00, 0x00, 0x00, 0x01, 0x1c, 0x00, 0x00, 0x00, 0x20, 0x00, 0x00, 0x00,
  0x01, 0x00, 0x00, 0x00, 0x38, 0xfc, 0xff, 0xff, 0x00, 0x00, 0x00, 0x01,
  0x01, 0x00, 0x00, 0x00, 0x01, 0x00, 0x00, 0x00, 0x01, 0x00, 0x00, 0x00,
  0x44, 0x00, 0x00, 0x00, 0x03, 0x00, 0x00, 0x00, 0x43, 0x00, 0x00, 0x00,
  0x21, 0x00, 0x00, 0x00, 0x11, 0x00, 0x00, 0x00, 0x86, 0xfc, 0xff, 0xff,
  0x14, 0x00, 0x00, 0x00, 0x00, 0x00, 0x00, 0x01, 0x1c, 0x00, 0x00, 0x00,
  0x20, 0x00, 0x00, 0x00, 0x01, 0x00, 0x00, 0x00, 0x78, 0xfc, 0xff, 0xff,
  0x00, 0x00, 0x00, 0x01, 0x01, 0x00, 0x00, 0x00, 0x01, 0x00, 0x00, 0x00,
  0x01, 0x00, 0x00, 0x00, 0x43, 0x00, 0x00, 0x00, 0x03, 0x00, 0x00, 0x00,
  0x42, 0x00, 0x00, 0x00, 0x20, 0x00, 0x00, 0x00, 0x0a, 0x00, 0x00, 0x00,
  0x6a, 0xfc, 0xff, 0xff, 0x08, 0x00, 0x00, 0x00, 0x0c, 0x00, 0x00, 0x00,
  0x01, 0x00, 0x00, 0x00, 0x42, 0x00, 0x00, 0x00, 0x02, 0x00, 0x00, 0x00,
  0x41, 0x00, 0x00, 0x00, 0x05, 0x00, 0x00, 0x00, 0xe6, 0xfc, 0xff, 0xff,
  0x1c, 0x00, 0x00, 0x00, 0x00, 0x00, 0x00, 0x0b, 0x1c, 0x00, 0x00, 0x00,
  0x20, 0x00, 0x00, 0x00, 0x05, 0x00, 0x00, 0x00, 0x00, 0x00, 0x06, 0x00,
  0x08, 0x00, 0x07, 0x00, 0x06, 0x00, 0x00, 0x00, 0x00, 0x00, 0x00, 0x01,
  0x01, 0x00, 0x00, 0x00, 0x41, 0x00, 0x00, 0x00, 0x02, 0x00, 0x00, 0x00,
  0x40, 0x00, 0x00, 0x00, 0x1f, 0x00, 0x00, 0x00, 0x22, 0xfd, 0xff, 0xff,
  0x14, 0x00, 0x00, 0x00, 0x00, 0x00, 0x00, 0x15, 0x10, 0x00, 0x00, 0x00,
  0x14, 0x00, 0x00, 0x00, 0x04, 0x00, 0x00, 0x00, 0xe4, 0xc3, 0xff, 0xff,
  0x01, 0x00, 0x00, 0x00, 0x40, 0x00, 0x00, 0x00, 0x02, 0x00, 0x00, 0x00,
  0x3f, 0x00, 0x00, 0x00, 0x1e, 0x00, 0x00, 0x00, 0x52, 0xfd, 0xff, 0xff,
  0x1c, 0x00, 0x00, 0x00, 0x00, 0x00, 0x00, 0x0a, 0x1c, 0x00, 0x00, 0x00,
  0x20, 0x00, 0x00, 0x00, 0x03, 0x00, 0x00, 0x00, 0x00, 0x00, 0x06, 0x00,
  0x08, 0x00, 0x04, 0x00, 0x06, 0x00, 0x00, 0x00, 0x02, 0x00, 0x00, 0x00,
  0x01, 0x00, 0x00, 0x00, 0x3f, 0x00, 0x00, 0x00, 0x04, 0x00, 0x00, 0x00,
  0x33, 0x00, 0x00, 0x00, 0x35, 0x00, 0x00, 0x00, 0x37, 0x00, 0x00, 0x00,
  0x3e, 0x00, 0x00, 0x00, 0x3a, 0xfd, 0xff, 0xff, 0x08, 0x00, 0x00, 0x00,
  0x0c, 0x00, 0x00, 0x00, 0x01, 0x00, 0x00, 0x00, 0x3e, 0x00, 0x00, 0x00,
  0x02, 0x00, 0x00, 0x00, 0x3d, 0x00, 0x00, 0x00, 0x02, 0x00, 0x00, 0x00,
  0xb6, 0xfd, 0xff, 0xff, 0x14, 0x00, 0x00, 0x00, 0x00, 0x00, 0x00, 0x01,
  0x1c, 0x00, 0x00, 0x00, 0x20, 0x00, 0x00, 0x00, 0x01, 0x00, 0x00, 0x00,
  0xa8, 0xfd, 0xff, 0xff, 0x00, 0x00, 0x00, 0x01, 0x01, 0x00, 0x00, 0x00,
  0x01, 0x00, 0x00, 0x00, 0x01, 0x00, 0x00, 0x00, 0x3d, 0x00, 0x00, 0x00,
  0x03, 0x00, 0x00, 0x00, 0x3c, 0x00, 0x00, 0x00, 0x1d, 0x00, 0x00, 0x00,
  0x10, 0x00, 0x00, 0x00, 0x9a, 0xfd, 0xff, 0xff, 0x08, 0x00, 0x00, 0x00,
  0x0c, 0x00, 0x00, 0x00, 0x01, 0x00, 0x00, 0x00, 0x3c, 0x00, 0x00, 0x00,
  0x02, 0x00, 0x00, 0x00, 0x3b, 0x00, 0x00, 0x00, 0x01, 0x00, 0x00, 0x00,
  0x16, 0xfe, 0xff, 0xff, 0x24, 0x00, 0x00, 0x00, 0x00, 0x00, 0x00, 0x05,
  0x30, 0x00, 0x00, 0x00, 0x34, 0x00, 0x00, 0x00, 0x02, 0x00, 0x00, 0x00,
  0x00, 0x00, 0x0e, 0x00, 0x14, 0x00, 0x00, 0x00, 0x10, 0x00, 0x0c, 0x00,
  0x08, 0x00, 0x04, 0x00, 0x0e, 0x00, 0x00, 0x00, 0x03, 0x00, 0x00, 0x00,
  0x01, 0x00, 0x00, 0x00, 0x01, 0x00, 0x00, 0x00, 0x01, 0x00, 0x00, 0x00,
  0x01, 0x00, 0x00, 0x00, 0x3b, 0x00, 0x00, 0x00, 0x01, 0x00, 0x00, 0x00,
  0x3a, 0x00, 0x00, 0x00, 0x06, 0xfe, 0xff, 0xff, 0x08, 0x00, 0x00, 0x00,
  0x0c, 0x00, 0x00, 0x00, 0x01, 0x00, 0x00, 0x00, 0x3a, 0x00, 0x00, 0x00,
  0x02, 0x00, 0x00, 0x00, 0x00, 0x00, 0x00, 0x00, 0x04, 0x00, 0x00, 0x00,
  0x26, 0xfe, 0xff, 0xff, 0x08, 0x00, 0x00, 0x00, 0x0c, 0x00, 0x00, 0x00,
  0x01, 0x00, 0x00, 0x00, 0x39, 0x00, 0x00, 0x00, 0x02, 0x00, 0x00, 0x00,
  0x38, 0x00, 0x00, 0x00, 0x03, 0x00, 0x00, 0x00, 0xa2, 0xfe, 0xff, 0xff,
  0x14, 0x00, 0x00, 0x00, 0x00, 0x00, 0x00, 0x01, 0x18, 0x00, 0x00, 0x00,
  0x1c, 0x00, 0x00, 0x00, 0x01, 0x00, 0x00, 0x00, 0x5e, 0xfe, 0xff, 0xff,
  0x01, 0x00, 0x00, 0x00, 0x01, 0x00, 0x00, 0x00, 0x01, 0x00, 0x00, 0x00,
  0x38, 0x00, 0x00, 0x00, 0x03, 0x00, 0x00, 0x00, 0x30, 0x00, 0x00, 0x00,
  0x1b, 0x00, 0x00, 0x00, 0x1c, 0x00, 0x00, 0x00, 0x82, 0xfe, 0xff, 0xff,
  0x08, 0x00, 0x00, 0x00, 0x0c, 0x00, 0x00, 0x00, 0x01, 0x00, 0x00, 0x00,
  0x37, 0x00, 0x00, 0x00, 0x02, 0x00, 0x00, 0x00, 0x36, 0x00, 0x00, 0x00,
  0x02, 0x00, 0x00, 0x00, 0xfe, 0xfe, 0xff, 0xff, 0x14, 0x00, 0x00, 0x00,
  0x00, 0x00, 0x00, 0x01, 0x1c, 0x00, 0x00, 0x00, 0x20, 0x00, 0x00, 0x00,
  0x01, 0x00, 0x00, 0x00, 0xf0, 0xfe, 0xff, 0xff, 0x00, 0x00, 0x00, 0x01,
  0x01, 0x00, 0x00, 0x00, 0x01, 0x00, 0x00, 0x00, 0x01, 0x00, 0x00, 0x00,
  0x36, 0x00, 0x00, 0x00, 0x03, 0x00, 0x00, 0x00, 0x31, 0x00, 0x00, 0x00,
  0x1a, 0x00, 0x00, 0x00, 0x0f, 0x00, 0x00, 0x00, 0xe2, 0xfe, 0xff, 0xff,
  0x08, 0x00, 0x00, 0x00, 0x0c, 0x00, 0x00, 0x00, 0x01, 0x00, 0x00, 0x00,
  0x35, 0x00, 0x00, 0x00, 0x02, 0x00, 0x00, 0x00, 0x34, 0x00, 0x00, 0x00,
  0x02, 0x00, 0x00, 0x00, 0x5e, 0xff, 0xff, 0xff, 0x14, 0x00, 0x00, 0x00,
  0x00, 0x00, 0x00, 0x01, 0x1c, 0x00, 0x00, 0x00, 0x20, 0x00, 0x00, 0x00,
  0x01, 0x00, 0x00, 0x00, 0x50, 0xff, 0xff, 0xff, 0x00, 0x00, 0x00, 0x01,
  0x01, 0x00, 0x00, 0x00, 0x01, 0x00, 0x00, 0x00, 0x01, 0x00, 0x00, 0x00,
  0x34, 0x00, 0x00, 0x00, 0x03, 0x00, 0x00, 0x00, 0x31, 0x00, 0x00, 0x00,
  0x19, 0x00, 0x00, 0x00, 0x0e, 0x00, 0x00, 0x00, 0x42, 0xff, 0xff, 0xff,
  0x08, 0x00, 0x00, 0x00, 0x0c, 0x00, 0x00, 0x00, 0x01, 0x00, 0x00, 0x00,
  0x33, 0x00, 0x00, 0x00, 0x02, 0x00, 0x00, 0x00, 0x32, 0x00, 0x00, 0x00,
  0x02, 0x00, 0x00, 0x00, 0xbe, 0xff, 0xff, 0xff, 0x14, 0x00, 0x00, 0x00,
  0x00, 0x00, 0x00, 0x01, 0x1c, 0x00, 0x00, 0x00, 0x20, 0x00, 0x00, 0x00,
  0x01, 0x00, 0x00, 0x00, 0xb0, 0xff, 0xff, 0xff, 0x00, 0x00, 0x00, 0x01,
  0x01, 0x00, 0x00, 0x00, 0x01, 0x00, 0x00, 0x00, 0x01, 0x00, 0x00, 0x00,
  0x32, 0x00, 0x00, 0x00, 0x03, 0x00, 0x00, 0x00, 0x31, 0x00, 0x00, 0x00,
  0x0c, 0x00, 0x00, 0x00, 0x0d, 0x00, 0x00, 0x00, 0x00, 0x00, 0x0e, 0x00,
  0x18, 0x00, 0x14, 0x00, 0x10, 0x00, 0x0c, 0x00, 0x0b, 0x00, 0x04, 0x00,
  0x0e, 0x00, 0x00, 0x00, 0x20, 0x00, 0x00, 0x00, 0x00, 0x00, 0x00, 0x01,
  0x28, 0x00, 0x00, 0x00, 0x2c, 0x00, 0x00, 0x00, 0x01, 0x00, 0x00, 0x00,
  0x0c, 0x00, 0x10, 0x00, 0x00, 0x00, 0x0c, 0x00, 0x08, 0x00, 0x07, 0x00,
  0x0c, 0x00, 0x00, 0x00, 0x00, 0x00, 0x00, 0x01, 0x01, 0x00, 0x00, 0x00,
  0x01, 0x00, 0x00, 0x00, 0x01, 0x00, 0x00, 0x00, 0x31, 0x00, 0x00, 0x00,
  0x03, 0x00, 0x00, 0x00, 0x30, 0x00, 0x00, 0x00, 0x08, 0x00, 0x00, 0x00,
  0x09, 0x00, 0x00, 0x00, 0x00, 0x00, 0x0a, 0x00, 0x0c, 0x00, 0x00, 0x00,
  0x08, 0x00, 0x04, 0x00, 0x0a, 0x00, 0x00, 0x00, 0x08, 0x00, 0x00, 0x00,
  0x0c, 0x00, 0x00, 0x00, 0x01, 0x00, 0x00, 0x00, 0x30, 0x00, 0x00, 0x00,
  0x02, 0x00, 0x00, 0x00, 0x00, 0x00, 0x00, 0x00, 0x01, 0x00, 0x00, 0x00,
  0x01, 0x00, 0x00, 0x00, 0x65, 0x00, 0x00, 0x00, 0x01, 0x00, 0x00, 0x00,
  0x00, 0x00, 0x00, 0x00, 0x66, 0x00, 0x00, 0x00, 0x04, 0x39, 0x00, 0x00,
  0xa0, 0x38, 0x00, 0x00, 0x50, 0x38, 0x00, 0x00, 0x00, 0x38, 0x00, 0x00,
  0xb0, 0x37, 0x00, 0x00, 0x60, 0x37, 0x00, 0x00, 0x10, 0x37, 0x00, 0x00,
  0xcc, 0x36, 0x00, 0x00, 0x58, 0x36, 0x00, 0x00, 0xf4, 0x35, 0x00, 0x00,
  0x90, 0x35, 0x00, 0x00, 0x2c, 0x35, 0x00, 0x00, 0x98, 0x34, 0x00, 0x00,
  0x0c, 0x34, 0x00, 0x00, 0x80, 0x33, 0x00, 0x00, 0xf4, 0x32, 0x00, 0x00,
  0x68, 0x32, 0x00, 0x00, 0xdc, 0x31, 0x00, 0x00, 0x50, 0x31, 0x00, 0x00,
  0xc4, 0x30, 0x00, 0x00, 0x38, 0x30, 0x00, 0x00, 0xac, 0x2f, 0x00, 0x00,
  0x20, 0x2f, 0x00, 0x00, 0x94, 0x2e, 0x00, 0x00, 0x08, 0x2e, 0x00, 0x00,
  0x74, 0x2d, 0x00, 0x00, 0xe0, 0x2c, 0x00, 0x00, 0x3c, 0x2b, 0x00, 0x00,
  0x48, 0x29, 0x00, 0x00, 0xb4, 0x28, 0x00, 0x00, 0x38, 0x28, 0x00, 0x00,
  0xbc, 0x27, 0x00, 0x00, 0x48, 0x27, 0x00, 0x00, 0xb4, 0x26, 0x00, 0x00,
  0x20, 0x26, 0x00, 0x00, 0x8c, 0x25, 0x00, 0x00, 0xf8, 0x24, 0x00, 0x00,
  0x7c, 0x24, 0x00, 0x00, 0x00, 0x24, 0x00, 0x00, 0x8c, 0x23, 0x00, 0x00,
  0xf8, 0x22, 0x00, 0x00, 0x64, 0x22, 0x00, 0x00, 0xd0, 0x21, 0x00, 0x00,
  0x3c, 0x21, 0x00, 0x00, 0xc0, 0x20, 0x00, 0x00, 0x44, 0x20, 0x00, 0x00,
  0xe0, 0x1f, 0x00, 0x00, 0x84, 0x1f, 0x00, 0x00, 0x08, 0x1f, 0x00, 0x00,
  0x5c, 0x1e, 0x00, 0x00, 0xb0, 0x1d, 0x00, 0x00, 0x24, 0x1d, 0x00, 0x00,
  0x78, 0x1c, 0x00, 0x00, 0xec, 0x1b, 0x00, 0x00, 0x40, 0x1b, 0x00, 0x00,
  0xb4, 0x1a, 0x00, 0x00, 0x68, 0x19, 0x00, 0x00, 0x3c, 0x18, 0x00, 0x00,
  0xc0, 0x17, 0x00, 0x00, 0x44, 0x17, 0x00, 0x00, 0xc8, 0x16, 0x00, 0x00,
  0x1c, 0x16, 0x00, 0x00, 0x90, 0x15, 0x00, 0x00, 0x1c, 0x15, 0x00, 0x00,
  0x98, 0x14, 0x00, 0x00, 0xfc, 0x13, 0x00, 0x00, 0x80, 0x13, 0x00, 0x00,
  0xd4, 0x12, 0x00, 0x00, 0x28, 0x12, 0x00, 0x00, 0x9c, 0x11, 0x00, 0x00,
  0xf0, 0x10, 0x00, 0x00, 0x64, 0x10, 0x00, 0x00, 0xb8, 0x0f, 0x00, 0x00,
  0x2c, 0x0f, 0x00, 0x00, 0xb0, 0x0e, 0x00, 0x00, 0x34, 0x0e, 0x00, 0x00,
  0xb8, 0x0d, 0x00, 0x00, 0x0c, 0x0d, 0x00, 0x00, 0x80, 0x0c, 0x00, 0x00,
  0x0c, 0x0c, 0x00, 0x00, 0x88, 0x0b, 0x00, 0x00, 0xec, 0x0a, 0x00, 0x00,
  0x68, 0x0a, 0x00, 0x00, 0xec, 0x09, 0x00, 0x00, 0x40, 0x09, 0x00, 0x00,
  0x94, 0x08, 0x00, 0x00, 0x08, 0x08, 0x00, 0x00, 0x5c, 0x07, 0x00, 0x00,
  0xd0, 0x06, 0x00, 0x00, 0x24, 0x06, 0x00, 0x00, 0x98, 0x05, 0x00, 0x00,
  0x1c, 0x05, 0x00, 0x00, 0xa0, 0x04, 0x00, 0x00, 0x24, 0x04, 0x00, 0x00,
  0x78, 0x03, 0x00, 0x00, 0xec, 0x02, 0x00, 0x00, 0x78, 0x02, 0x00, 0x00,
  0xf4, 0x01, 0x00, 0x00, 0x58, 0x01, 0x00, 0x00, 0xec, 0x00, 0x00, 0x00,
  0x70, 0x00, 0x00, 0x00, 0x04, 0x00, 0x00, 0x00, 0xa2, 0xc8, 0xff, 0xff,
  0x14, 0x00, 0x00, 0x00, 0x34, 0x00, 0x00, 0x00, 0x66, 0x00, 0x00, 0x00,
  0x00, 0x00, 0x00, 0x09, 0x48, 0x00, 0x00, 0x00, 0x94, 0xc8, 0xff, 0xff,
  0x08, 0x00, 0x00, 0x00, 0x14, 0x00, 0x00, 0x00, 0x01, 0x00, 0x00, 0x00,
  0x80, 0xff, 0xff, 0xff, 0xff, 0xff, 0xff, 0xff, 0x00, 0x00, 0x00, 0x00,
  0x01, 0x00, 0x00, 0x00, 0x00, 0x00, 0x80, 0x3b, 0x19, 0x00, 0x00, 0x00,
  0x53, 0x74, 0x61, 0x74, 0x65, 0x66, 0x75, 0x6c, 0x50, 0x61, 0x72, 0x74,
  0x69, 0x74, 0x69, 0x6f, 0x6e, 0x65, 0x64, 0x43, 0x61, 0x6c, 0x6c, 0x3a,
  0x30, 0x00, 0x00, 0x00, 0x02, 0x00, 0x00, 0x00, 0x01, 0x00, 0x00, 0x00,
  0x06, 0x00, 0x00, 0x00, 0x0a, 0xc9, 0xff, 0xff, 0x14, 0x00, 0x00, 0x00,
  0x30, 0x00, 0x00, 0x00, 0x65, 0x00, 0x00, 0x00, 0x00, 0x00, 0x00, 0x09,
  0x58, 0x00, 0x00, 0x00, 0xfc, 0xc8, 0xff, 0xff, 0x08, 0x00, 0x00, 0x00,
  0x10, 0x00, 0x00, 0x00, 0x01, 0x00, 0x00, 0x00, 0x14, 0x00, 0x00, 0x00,
  0x00, 0x00, 0x00, 0x00, 0x01, 0x00, 0x00, 0x00, 0x1f, 0x6d, 0x45, 0x3e,
  0x2e, 0x00, 0x00, 0x00, 0x6d, 0x6f, 0x64, 0x65, 0x6c, 0x5f, 0x35, 0x2f,
  0x64, 0x65, 0x6e, 0x73, 0x65, 0x5f, 0x35, 0x2f, 0x4d, 0x61, 0x74, 0x4d,
  0x75, 0x6c, 0x3b, 0x6d, 0x6f, 0x64, 0x65, 0x6c, 0x5f, 0x35, 0x2f, 0x64,
  0x65, 0x6e, 0x73, 0x65, 0x5f, 0x35, 0x2f, 0x42, 0x69, 0x61, 0x73, 0x41,
  0x64, 0x64, 0x00, 0x00, 0x02, 0x00, 0x00, 0x00, 0x01, 0x00, 0x00, 0x00,
  0x06, 0x00, 0x00, 0x00, 0x82, 0xc9, 0xff, 0xff, 0x14, 0x00, 0x00, 0x00,
  0x34, 0x00, 0x00, 0x00, 0x64, 0x00, 0x00, 0x00, 0x00, 0x00, 0x00, 0x09,
  0x48, 0x00, 0x00, 0x00, 0x74, 0xc9, 0xff, 0xff, 0x08, 0x00, 0x00, 0x00,
  0x14, 0x00, 0x00, 0x00, 0x01, 0x00, 0x00, 0x00, 0x80, 0xff, 0xff, 0xff,
  0xff, 0xff, 0xff, 0xff, 0x00, 0x00, 0x00, 0x00, 0x01, 0x00, 0x00, 0x00,
  0xe6, 0x54, 0x3e, 0x3d, 0x19, 0x00, 0x00, 0x00, 0x6d, 0x6f, 0x64, 0x65,
  0x6c, 0x5f, 0x35, 0x2f, 0x66, 0x6c, 0x61, 0x74, 0x74, 0x65, 0x6e, 0x5f,
  0x35, 0x2f, 0x52, 0x65, 0x73, 0x68, 0x61, 0x70, 0x65, 0x00, 0x00, 0x00,
  0x02, 0x00, 0x00, 0x00, 0x01, 0x00, 0x00, 0x00, 0xe0, 0x01, 0x00, 0x00,
  0xea, 0xc9, 0xff, 0xff, 0x14, 0x00, 0x00, 0x00, 0x30, 0x00, 0x00, 0x00,
  0x63, 0x00, 0x00, 0x00, 0x00, 0x00, 0x00, 0x09, 0x74, 0x00, 0x00, 0x00,
  0xdc, 0xc9, 0xff, 0xff, 0x08, 0x00, 0x00, 0x00, 0x10, 0x00, 0x00, 0x00,
  0x01, 0x00, 0x00, 0x00, 0x80, 0xff, 0xff, 0xff, 0xff, 0xff, 0xff, 0xff,
  0x01, 0x00, 0x00, 0x00, 0xe6, 0x54, 0x3e, 0x3d, 0x49, 0x00, 0x00, 0x00,
  0x6d, 0x6f, 0x64, 0x65, 0x6c, 0x5f, 0x35, 0x2f, 0x61, 0x63, 0x74, 0x69,
  0x76, 0x61, 0x74, 0x69, 0x6f, 0x6e, 0x5f, 0x32, 0x33, 0x2f, 0x52, 0x65,
  0x6c, 0x75, 0x3b, 0x6d, 0x6f, 0x64, 0x65, 0x6c, 0x5f, 0x35, 0x2f, 0x62,
  0x61, 0x74, 0x63, 0x68, 0x5f, 0x6e, 0x6f, 0x72, 0x6d, 0x61, 0x6c, 0x69,
  0x7a, 0x61, 0x74, 0x69, 0x6f, 0x6e, 0x5f, 0x32, 0x33, 0x2f, 0x62, 0x61,
  0x74, 0x63, 0x68, 0x6e, 0x6f, 0x72, 0x6d, 0x2f, 0x61, 0x64, 0x64, 0x5f,
  0x31, 0x00, 0x00, 0x00, 0x03, 0x00, 0x00, 0x00, 0x01, 0x00, 0x00, 0x00,
  0x1e, 0x00, 0x00, 0x00, 0x10, 0x00, 0x00, 0x00, 0x82, 0xca, 0xff, 0xff,
  0x14, 0x00, 0x00, 0x00, 0x34, 0x00, 0x00, 0x00, 0x62, 0x00, 0x00, 0x00,
  0x00, 0x00, 0x00, 0x09, 0x5c, 0x00, 0x00, 0x00, 0x74, 0xca, 0xff, 0xff,
  0x08, 0x00, 0x00, 0x00, 0x14, 0x00, 0x00, 0x00, 0x01, 0x00, 0x00, 0x00,
  0x80, 0xff, 0xff, 0xff, 0xff, 0xff, 0xff, 0xff, 0x00, 0x00, 0x00, 0x00,
  0x01, 0x00, 0x00, 0x00, 0xe0, 0x36, 0x43, 0x3d, 0x2e, 0x00, 0x00, 0x00,
  0x6d, 0x6f, 0x64, 0x65, 0x6c, 0x5f, 0x35, 0x2f, 0x62, 0x61, 0x74, 0x63,
  0x68, 0x5f, 0x6e, 0x6f, 0x72, 0x6d, 0x61, 0x6c, 0x69, 0x7a, 0x61, 0x74,
  0x69, 0x6f, 0x6e, 0x5f, 0x32, 0x33, 0x2f, 0x62, 0x61, 0x74, 0x63, 0x68,
  0x6e, 0x6f, 0x72, 0x6d, 0x2f, 0x6d, 0x75, 0x6c, 0x5f, 0x31, 0x00, 0x00,
  0x03, 0x00, 0x00, 0x00, 0x01, 0x00, 0x00, 0x00, 0x1e, 0x00, 0x00, 0x00,
  0x10, 0x00, 0x00, 0x00, 0x02, 0xcb, 0xff, 0xff, 0x14, 0x00, 0x00, 0x00,
  0x34, 0x00, 0x00, 0x00, 0x61, 0x00, 0x00, 0x00, 0x00, 0x00, 0x00, 0x09,
  0x4c, 0x00, 0x00, 0x00, 0xf4, 0xca, 0xff, 0xff, 0x08, 0x00, 0x00, 0x00,
  0x14, 0x00, 0x00, 0x00, 0x01, 0x00, 0x00, 0x00, 0x80, 0xff, 0xff, 0xff,
  0xff, 0xff, 0xff, 0xff, 0x00, 0x00, 0x00, 0x00, 0x01, 0x00, 0x00, 0x00,
  0xda, 0x39, 0x1b, 0x3d, 0x1d, 0x00, 0x00, 0x00, 0x6d, 0x6f, 0x64, 0x65,
  0x6c, 0x5f, 0x35, 0x2f, 0x63, 0x6f, 0x6e, 0x63, 0x61, 0x74, 0x65, 0x6e,
  0x61, 0x74, 0x65, 0x5f, 0x31, 0x37, 0x2f, 0x63, 0x6f, 0x6e, 0x63, 0x61,
  0x74, 0x00, 0x00, 0x00, 0x03, 0x00, 0x00, 0x00, 0x01, 0x00, 0x00, 0x00,
  0x1e, 0x00, 0x00, 0x00, 0x10, 0x00, 0x00, 0x00, 0x72, 0xcb, 0xff, 0xff,
  0x14, 0x00, 0x00, 0x00, 0x34, 0x00, 0x00, 0x00, 0x60, 0x00, 0x00, 0x00,
  0x00, 0x00, 0x00, 0x09, 0x64, 0x00, 0x00, 0x00, 0x64, 0xcb, 0xff, 0xff,
  0x08, 0x00, 0x00, 0x00, 0x14, 0x00, 0x00, 0x00, 0x01, 0x00, 0x00, 0x00,
  0x80, 0xff, 0xff, 0xff, 0xff, 0xff, 0xff, 0xff, 0x00, 0x00, 0x00, 0x00,
  0x01, 0x00, 0x00, 0x00, 0xda, 0x39, 0x1b, 0x3d, 0x37, 0x00, 0x00, 0x00,
  0x6d, 0x6f, 0x64, 0x65, 0x6c, 0x5f, 0x35, 0x2f, 0x63, 0x6f, 0x6e, 0x76,
  0x31, 0x64, 0x5f, 0x39, 0x35, 0x2f, 0x52, 0x65, 0x6c, 0x75, 0x3b, 0x6d,
  0x6f, 0x64, 0x65, 0x6c, 0x5f, 0x35, 0x2f, 0x63, 0x6f, 0x6e, 0x76, 0x31,
  0x64, 0x5f, 0x39, 0x35, 0x2f, 0x63, 0x6f, 0x6e, 0x76, 0x31, 0x64, 0x2f,
  0x53, 0x71, 0x75, 0x65, 0x65, 0x7a, 0x65, 0x00, 0x03, 0x00, 0x00, 0x00,
  0x01, 0x00, 0x00, 0x00, 0x1e, 0x00, 0x00, 0x00, 0x04, 0x00, 0x00, 0x00,
  0xfa, 0xcb, 0xff, 0xff, 0x14, 0x00, 0x00, 0x00, 0x34, 0x00, 0x00, 0x00,
  0x5f, 0x00, 0x00, 0x00, 0x00, 0x00, 0x00, 0x09, 0x80, 0x00, 0x00, 0x00,
  0xec, 0xcb, 0xff, 0xff, 0x08, 0x00, 0x00, 0x00, 0x14, 0x00, 0x00, 0x00,
  0x01, 0x00, 0x00, 0x00, 0x80, 0xff, 0xff, 0xff, 0xff, 0xff, 0xff, 0xff,
  0x00, 0x00, 0x00, 0x00, 0x01, 0x00, 0x00, 0x00, 0xda, 0x39, 0x1b, 0x3d,
  0x50, 0x00, 0x00, 0x00, 0x6d, 0x6f, 0x64, 0x65, 0x6c, 0x5f, 0x35, 0x2f,
  0x63, 0x6f, 0x6e, 0x76, 0x31, 0x64, 0x5f, 0x39, 0x35, 0x2f, 0x52, 0x65,
  0x6c, 0x75, 0x3b, 0x6d, 0x6f, 0x64, 0x65, 0x6c, 0x5f, 0x35, 0x2f, 0x63,
  0x6f, 0x6e, 0x76, 0x31, 0x64, 0x5f, 0x39, 0x35, 0x2f, 0x63, 0x6f, 0x6e,
  0x76, 0x31, 0x64, 0x2f, 0x53, 0x71, 0x75, 0x65, 0x65, 0x7a, 0x65, 0x3b,
  0x6d, 0x6f, 0x64, 0x65, 0x6c, 0x5f, 0x35, 0x2f, 0x63, 0x6f, 0x6e, 0x76,
  0x31, 0x64, 0x5f, 0x39, 0x35, 0x2f, 0x63, 0x6f, 0x6e, 0x76, 0x31, 0x64,
  0x00, 0x00, 0x00, 0x00, 0x04, 0x00, 0x00, 0x00, 0x01, 0x00, 0x00, 0x00,
  0x01, 0x00, 0x00, 0x00, 0x1e, 0x00, 0x00, 0x00, 0x04, 0x00, 0x00, 0x00,
  0xa2, 0xcc, 0xff, 0xff, 0x14, 0x00, 0x00, 0x00, 0x34, 0x00, 0x00, 0x00,
  0x5e, 0x00, 0x00, 0x00, 0x00, 0x00, 0x00, 0x09, 0x50, 0x00, 0x00, 0x00,
  0x94, 0xcc, 0xff, 0xff, 0x08, 0x00, 0x00, 0x00, 0x14, 0x00, 0x00, 0x00,
  0x01, 0x00, 0x00, 0x00, 0x80, 0xff, 0xff, 0xff, 0xff, 0xff, 0xff, 0xff,
  0x00, 0x00, 0x00, 0x00, 0x01, 0x00, 0x00, 0x00, 0xc7, 0x74, 0x61, 0x3d,
  0x23, 0x00, 0x00, 0x00, 0x6d, 0x6f, 0x64, 0x65, 0x6c, 0x5f, 0x35, 0x2f,
  0x63, 0x6f, 0x6e, 0x76, 0x31, 0x64, 0x5f, 0x39, 0x35, 0x2f, 0x63, 0x6f,
  0x6e, 0x76, 0x31, 0x64, 0x2f, 0x45, 0x78, 0x70, 0x61, 0x6e, 0x64, 0x44,
  0x69, 0x6d, 0x73, 0x00, 0x04, 0x00, 0x00, 0x00, 0x01, 0x00, 0x00, 0x00,
  0x01, 0x00, 0x00, 0x00, 0x1e, 0x00, 0x00, 0x00, 0x10, 0x00, 0x00, 0x00,
  0x1a, 0xcd, 0xff, 0xff, 0x14, 0x00, 0x00, 0x00, 0x34, 0x00, 0x00, 0x00,
  0x5d, 0x00, 0x00, 0x00, 0x00, 0x00, 0x00, 0x09, 0x50, 0x00, 0x00, 0x00,
  0x0c, 0xcd, 0xff, 0xff, 0x08, 0x00, 0x00, 0x00, 0x14, 0x00, 0x00, 0x00,
  0x01, 0x00, 0x00, 0x00, 0x80, 0xff, 0xff, 0xff, 0xff, 0xff, 0xff, 0xff,
  0x00, 0x00, 0x00, 0x00, 0x01, 0x00, 0x00, 0x00, 0xc7, 0x74, 0x61, 0x3d,
  0x20, 0x00, 0x00, 0x00, 0x6d, 0x6f, 0x64, 0x65, 0x6c, 0x5f, 0x35, 0x2f,
  0x6d, 0x61, 0x78, 0x5f, 0x70, 0x6f, 0x6f, 0x6c, 0x69, 0x6e, 0x67, 0x31,
  0x64, 0x5f, 0x31, 0x37, 0x2f, 0x4d, 0x61, 0x78, 0x50, 0x6f, 0x6f, 0x6c,
  0x00, 0x00, 0x00, 0x00, 0x04, 0x00, 0x00, 0x00, 0x01, 0x00, 0x00, 0x00,
  0x1e, 0x00, 0x00, 0x00, 0x01, 0x00, 0x00, 0x00, 0x10, 0x00, 0x00, 0x00,
  0x92, 0xcd, 0xff, 0xff, 0x14, 0x00, 0x00, 0x00, 0x34, 0x00, 0x00, 0x00,
  0x5c, 0x00, 0x00, 0x00, 0x00, 0x00, 0x00, 0x09, 0x50, 0x00, 0x00, 0x00,
  0x84, 0xcd, 0xff, 0xff, 0x08, 0x00, 0x00, 0x00, 0x14, 0x00, 0x00, 0x00,
  0x01, 0x00, 0x00, 0x00, 0x80, 0xff, 0xff, 0xff, 0xff, 0xff, 0xff, 0xff,
  0x00, 0x00, 0x00, 0x00, 0x01, 0x00, 0x00, 0x00, 0xc7, 0x74, 0x61, 0x3d,
  0x23, 0x00, 0x00, 0x00, 0x6d, 0x6f, 0x64, 0x65, 0x6c, 0x5f, 0x35, 0x2f,
  0x6d, 0x61, 0x78, 0x5f, 0x70, 0x6f, 0x6f, 0x6c, 0x69, 0x6e, 0x67, 0x31,
  0x64, 0x5f, 0x31, 0x37, 0x2f, 0x45, 0x78, 0x70, 0x61, 0x6e, 0x64, 0x44,
  0x69, 0x6d, 0x73, 0x00, 0x04, 0x00, 0x00, 0x00, 0x01, 0x00, 0x00, 0x00,
  0x1e, 0x00, 0x00, 0x00, 0x01, 0x00, 0x00, 0x00, 0x10, 0x00, 0x00, 0x00,
  0x0a, 0xce, 0xff, 0xff, 0x14, 0x00, 0x00, 0x00, 0x34, 0x00, 0x00, 0x00,
  0x5b, 0x00, 0x00, 0x00, 0x00, 0x00, 0x00, 0x09, 0x64, 0x00, 0x00, 0x00,
  0xfc, 0xcd, 0xff, 0xff, 0x08, 0x00, 0x00, 0x00, 0x14, 0x00, 0x00, 0x00,
  0x01, 0x00, 0x00, 0x00, 0x80, 0xff, 0xff, 0xff, 0xff, 0xff, 0xff, 0xff,
  0x00, 0x00, 0x00, 0x00, 0x01, 0x00, 0x00, 0x00, 0xda, 0x39, 0x1b, 0x3d,
  0x37, 0x00, 0x00, 0x00, 0x6d, 0x6f, 0x64, 0x65, 0x6c, 0x5f, 0x35, 0x2f,
  0x63, 0x6f, 0x6e, 0x76, 0x31, 0x64, 0x5f, 0x39, 0x34, 0x2f, 0x52, 0x65,
  0x6c, 0x75, 0x3b, 0x6d, 0x6f, 0x64, 0x65, 0x6c, 0x5f, 0x35, 0x2f, 0x63,
  0x6f, 0x6e, 0x76, 0x31, 0x64, 0x5f, 0x39, 0x34, 0x2f, 0x63, 0x6f, 0x6e,
  0x76, 0x31, 0x64, 0x2f, 0x53, 0x71, 0x75, 0x65, 0x65, 0x7a, 0x65, 0x00,
  0x03, 0x00, 0x00, 0x00, 0x01, 0x00, 0x00, 0x00, 0x1e, 0x00, 0x00, 0x00,
  0x04, 0x00, 0x00, 0x00, 0x92, 0xce, 0xff, 0xff, 0x14, 0x00, 0x00, 0x00,
  0x34, 0x00, 0x00, 0x00, 0x5a, 0x00, 0x00, 0x00, 0x00, 0x00, 0x00, 0x09,
  0x80, 0x00, 0x00, 0x00, 0x84, 0xce, 0xff, 0xff, 0x08, 0x00, 0x00, 0x00,
  0x14, 0x00, 0x00, 0x00, 0x01, 0x00, 0x00, 0x00, 0x80, 0xff, 0xff, 0xff,
  0xff, 0xff, 0xff, 0xff, 0x00, 0x00, 0x00, 0x00, 0x01, 0x00, 0x00, 0x00,
  0xda, 0x39, 0x1b, 0x3d, 0x50, 0x00, 0x00, 0x00, 0x6d, 0x6f, 0x64, 0x65,
  0x6c, 0x5f, 0x35, 0x2f, 0x63, 0x6f, 0x6e, 0x76, 0x31, 0x64, 0x5f, 0x39,
  0x34, 0x2f, 0x52, 0x65, 0x6c, 0x75, 0x3b, 0x6d, 0x6f, 0x64, 0x65, 0x6c,
  0x5f, 0x35, 0x2f, 0x63, 0x6f, 0x6e, 0x76, 0x31, 0x64, 0x5f, 0x39, 0x34,
  0x2f, 0x63, 0x6f, 0x6e, 0x76, 0x31, 0x64, 0x2f, 0x53, 0x71, 0x75, 0x65,
  0x65, 0x7a, 0x65, 0x3b, 0x6d, 0x6f, 0x64, 0x65, 0x6c, 0x5f, 0x35, 0x2f,
  0x63, 0x6f, 0x6e, 0x76, 0x31, 0x64, 0x5f, 0x39, 0x34, 0x2f, 0x63, 0x6f,
  0x6e, 0x76, 0x31, 0x64, 0x00, 0x00, 0x00, 0x00, 0x04, 0x00, 0x00, 0x00,
  0x01, 0x00, 0x00, 0x00, 0x01, 0x00, 0x00, 0x00, 0x1e, 0x00, 0x00, 0x00,
  0x04, 0x00, 0x00, 0x00, 0x3a, 0xcf, 0xff, 0xff, 0x14, 0x00, 0x00, 0x00,
  0x34, 0x00, 0x00, 0x00, 0x59, 0x00, 0x00, 0x00, 0x00, 0x00, 0x00, 0x09,
  0x64, 0x00, 0x00, 0x00, 0x2c, 0xcf, 0xff, 0xff, 0x08, 0x00, 0x00, 0x00,
  0x14, 0x00, 0x00, 0x00, 0x01, 0x00, 0x00, 0x00, 0x80, 0xff, 0xff, 0xff,
  0xff, 0xff, 0xff, 0xff, 0x00, 0x00, 0x00, 0x00, 0x01, 0x00, 0x00, 0x00,
  0xda, 0x39, 0x1b, 0x3d, 0x37, 0x00, 0x00, 0x00, 0x6d, 0x6f, 0x64, 0x65,
  0x6c, 0x5f, 0x35, 0x2f, 0x63, 0x6f, 0x6e, 0x76, 0x31, 0x64, 0x5f, 0x39,
  0x33, 0x2f, 0x52, 0x65, 0x6c, 0x75, 0x3b, 0x6d, 0x6f, 0x64, 0x65, 0x6c,
  0x5f, 0x35, 0x2f, 0x63, 0x6f, 0x6e, 0x76, 0x31, 0x64, 0x5f, 0x39, 0x33,
  0x2f, 0x63, 0x6f, 0x6e, 0x76, 0x31, 0x64, 0x2f, 0x53, 0x71, 0x75, 0x65,
  0x65, 0x7a, 0x65, 0x00, 0x03, 0x00, 0x00, 0x00, 0x01, 0x00, 0x00, 0x00,
  0x1e, 0x00, 0x00, 0x00, 0x04, 0x00, 0x00, 0x00, 0xc2, 0xcf, 0xff, 0xff,
  0x14, 0x00, 0x00, 0x00, 0x34, 0x00, 0x00, 0x00, 0x58, 0x00, 0x00, 0x00,
  0x00, 0x00, 0x00, 0x09, 0x80, 0x00, 0x00, 0x00, 0xb4, 0xcf, 0xff, 0xff,
  0x08, 0x00, 0x00, 0x00, 0x14, 0x00, 0x00, 0x00, 0x01, 0x00, 0x00, 0x00,
  0x80, 0xff, 0xff, 0xff, 0xff, 0xff, 0xff, 0xff, 0x00, 0x00, 0x00, 0x00,
  0x01, 0x00, 0x00, 0x00, 0xda, 0x39, 0x1b, 0x3d, 0x50, 0x00, 0x00, 0x00,
  0x6d, 0x6f, 0x64, 0x65, 0x6c, 0x5f, 0x35, 0x2f, 0x63, 0x6f, 0x6e, 0x76,
  0x31, 0x64, 0x5f, 0x39, 0x33, 0x2f, 0x52, 0x65, 0x6c, 0x75, 0x3b, 0x6d,
  0x6f, 0x64, 0x65, 0x6c, 0x5f, 0x35, 0x2f, 0x63, 0x6f, 0x6e, 0x76, 0x31,
  0x64, 0x5f, 0x39, 0x33, 0x2f, 0x63, 0x6f, 0x6e, 0x76, 0x31, 0x64, 0x2f,
  0x53, 0x71, 0x75, 0x65, 0x65, 0x7a, 0x65, 0x3b, 0x6d, 0x6f, 0x64, 0x65,
  0x6c, 0x5f, 0x35, 0x2f, 0x63, 0x6f, 0x6e, 0x76, 0x31, 0x64, 0x5f, 0x39,
  0x33, 0x2f, 0x63, 0x6f, 0x6e, 0x76, 0x31, 0x64, 0x00, 0x00, 0x00, 0x00,
  0x04, 0x00, 0x00, 0x00, 0x01, 0x00, 0x00, 0x00, 0x01, 0x00, 0x00, 0x00,
  0x1e, 0x00, 0x00, 0x00, 0x04, 0x00, 0x00, 0x00, 0x6a, 0xd0, 0xff, 0xff,
  0x14, 0x00, 0x00, 0x00, 0x34, 0x00, 0x00, 0x00, 0x57, 0x00, 0x00, 0x00,
  0x00, 0x00, 0x00, 0x09, 0x64, 0x00, 0x00, 0x00, 0x5c, 0xd0, 0xff, 0xff,
  0x08, 0x00, 0x00, 0x00, 0x14, 0x00, 0x00, 0x00, 0x01, 0x00, 0x00, 0x00,
  0x80, 0xff, 0xff, 0xff, 0xff, 0xff, 0xff, 0xff, 0x00, 0x00, 0x00, 0x00,
  0x01, 0x00, 0x00, 0x00, 0xda, 0x39, 0x1b, 0x3d, 0x37, 0x00, 0x00, 0x00,
  0x6d, 0x6f, 0x64, 0x65, 0x6c, 0x5f, 0x35, 0x2f, 0x63, 0x6f, 0x6e, 0x76,
  0x31, 0x64, 0x5f, 0x39, 0x32, 0x2f, 0x52, 0x65, 0x6c, 0x75, 0x3b, 0x6d,
  0x6f, 0x64, 0x65, 0x6c, 0x5f, 0x35, 0x2f, 0x63, 0x6f, 0x6e, 0x76, 0x31,
  0x64, 0x5f, 0x39, 0x32, 0x2f, 0x63, 0x6f, 0x6e, 0x76, 0x31, 0x64, 0x2f,
  0x53, 0x71, 0x75, 0x65, 0x65, 0x7a, 0x65, 0x00, 0x03, 0x00, 0x00, 0x00,
  0x01, 0x00, 0x00, 0x00, 0x1e, 0x00, 0x00, 0x00, 0x04, 0x00, 0x00, 0x00,
  0xf2, 0xd0, 0xff, 0xff, 0x14, 0x00, 0x00, 0x00, 0x34, 0x00, 0x00, 0x00,
  0x56, 0x00, 0x00, 0x00, 0x00, 0x00, 0x00, 0x09, 0x80, 0x00, 0x00, 0x00,
  0xe4, 0xd0, 0xff, 0xff, 0x08, 0x00, 0x00, 0x00, 0x14, 0x00, 0x00, 0x00,
  0x01, 0x00, 0x00, 0x00, 0x80, 0xff, 0xff, 0xff, 0xff, 0xff, 0xff, 0xff,
  0x00, 0x00, 0x00, 0x00, 0x01, 0x00, 0x00, 0x00, 0xda, 0x39, 0x1b, 0x3d,
  0x50, 0x00, 0x00, 0x00, 0x6d, 0x6f, 0x64, 0x65, 0x6c, 0x5f, 0x35, 0x2f,
  0x63, 0x6f, 0x6e, 0x76, 0x31, 0x64, 0x5f, 0x39, 0x32, 0x2f, 0x52, 0x65,
  0x6c, 0x75, 0x3b, 0x6d, 0x6f, 0x64, 0x65, 0x6c, 0x5f, 0x35, 0x2f, 0x63,
  0x6f, 0x6e, 0x76, 0x31, 0x64, 0x5f, 0x39, 0x32, 0x2f, 0x63, 0x6f, 0x6e,
  0x76, 0x31, 0x64, 0x2f, 0x53, 0x71, 0x75, 0x65, 0x65, 0x7a, 0x65, 0x3b,
  0x6d, 0x6f, 0x64, 0x65, 0x6c, 0x5f, 0x35, 0x2f, 0x63, 0x6f, 0x6e, 0x76,
  0x31, 0x64, 0x5f, 0x39, 0x32, 0x2f, 0x63, 0x6f, 0x6e, 0x76, 0x31, 0x64,
  0x00, 0x00, 0x00, 0x00, 0x04, 0x00, 0x00, 0x00, 0x01, 0x00, 0x00, 0x00,
  0x01, 0x00, 0x00, 0x00, 0x1e, 0x00, 0x00, 0x00, 0x04, 0x00, 0x00, 0x00,
  0x9a, 0xd1, 0xff, 0xff, 0x14, 0x00, 0x00, 0x00, 0x34, 0x00, 0x00, 0x00,
  0x55, 0x00, 0x00, 0x00, 0x00, 0x00, 0x00, 0x09, 0x80, 0x00, 0x00, 0x00,
  0x8c, 0xd1, 0xff, 0xff, 0x08, 0x00, 0x00, 0x00, 0x14, 0x00, 0x00, 0x00,
  0x01, 0x00, 0x00, 0x00, 0x80, 0xff, 0xff, 0xff, 0xff, 0xff, 0xff, 0xff,
  0x00, 0x00, 0x00, 0x00, 0x01, 0x00, 0x00, 0x00, 0x5f, 0x2c, 0xe3, 0x3c,
  0x50, 0x00, 0x00, 0x00, 0x6d, 0x6f, 0x64, 0x65, 0x6c, 0x5f, 0x35, 0x2f,
  0x63, 0x6f, 0x6e, 0x76, 0x31, 0x64, 0x5f, 0x39, 0x31, 0x2f, 0x52, 0x65,
  0x6c, 0x75, 0x3b, 0x6d, 0x6f, 0x64, 0x65, 0x6c, 0x5f, 0x35, 0x2f, 0x63,
  0x6f, 0x6e, 0x76, 0x31, 0x64, 0x5f, 0x39, 0x31, 0x2f, 0x63, 0x6f, 0x6e,
  0x76, 0x31, 0x64, 0x2f, 0x53, 0x71, 0x75, 0x65, 0x65, 0x7a, 0x65, 0x3b,
  0x6d, 0x6f, 0x64, 0x65, 0x6c, 0x5f, 0x35, 0x2f, 0x63, 0x6f, 0x6e, 0x76,
  0x31, 0x64, 0x5f, 0x39, 0x31, 0x2f, 0x63, 0x6f, 0x6e, 0x76, 0x31, 0x64,
  0x00, 0x00, 0x00, 0x00, 0x04, 0x00, 0x00, 0x00, 0x01, 0x00, 0x00, 0x00,
  0x01, 0x00, 0x00, 0x00, 0x1e, 0x00, 0x00, 0x00, 0x01, 0x00, 0x00, 0x00,
  0x42, 0xd2, 0xff, 0xff, 0x14, 0x00, 0x00, 0x00, 0x34, 0x00, 0x00, 0x00,
  0x54, 0x00, 0x00, 0x00, 0x00, 0x00, 0x00, 0x09, 0x50, 0x00, 0x00, 0x00,
  0x34, 0xd2, 0xff, 0xff, 0x08, 0x00, 0x00, 0x00, 0x14, 0x00, 0x00, 0x00,
  0x01, 0x00, 0x00, 0x00, 0x80, 0xff, 0xff, 0xff, 0xff, 0xff, 0xff, 0xff,
  0x00, 0x00, 0x00, 0x00, 0x01, 0x00, 0x00, 0x00, 0xc7, 0x74, 0x61, 0x3d,
  0x23, 0x00, 0x00, 0x00, 0x6d, 0x6f, 0x64, 0x65, 0x6c, 0x5f, 0x35, 0x2f,
  0x63, 0x6f, 0x6e, 0x76, 0x31, 0x64, 0x5f, 0x39, 0x31, 0x2f, 0x63, 0x6f,
  0x6e, 0x76, 0x31, 0x64, 0x2f, 0x45, 0x78, 0x70, 0x61, 0x6e, 0x64, 0x44,
  0x69, 0x6d, 0x73, 0x00, 0x04, 0x00, 0x00, 0x00, 0x01, 0x00, 0x00, 0x00,
  0x01, 0x00, 0x00, 0x00, 0x1e, 0x00, 0x00, 0x00, 0x10, 0x00, 0x00, 0x00,
  0xba, 0xd2, 0xff, 0xff, 0x14, 0x00, 0x00, 0x00, 0x34, 0x00, 0x00, 0x00,
  0x53, 0x00, 0x00, 0x00, 0x00, 0x00, 0x00, 0x09, 0x5c, 0x00, 0x00, 0x00,
  0xac, 0xd2, 0xff, 0xff, 0x08, 0x00, 0x00, 0x00, 0x14, 0x00, 0x00, 0x00,
  0x01, 0x00, 0x00, 0x00, 0x80, 0xff, 0xff, 0xff, 0xff, 0xff, 0xff, 0xff,
  0x00, 0x00, 0x00, 0x00, 0x01, 0x00, 0x00, 0x00, 0xc7, 0x74, 0x61, 0x3d,
  0x2c, 0x00, 0x00, 0x00, 0x6d, 0x6f, 0x64, 0x65, 0x6c, 0x5f, 0x35, 0x2f,
  0x61, 0x63, 0x74, 0x69, 0x76, 0x61, 0x74, 0x69, 0x6f, 0x6e, 0x5f, 0x32,
  0x32, 0x2f, 0x52, 0x65, 0x6c, 0x75, 0x3b, 0x6d, 0x6f, 0x64, 0x65, 0x6c,
  0x5f, 0x35, 0x2f, 0x61, 0x64, 0x64, 0x5f, 0x35, 0x2f, 0x61, 0x64, 0x64,
  0x00, 0x00, 0x00, 0x00, 0x03, 0x00, 0x00, 0x00, 0x01, 0x00, 0x00, 0x00,
  0x1e, 0x00, 0x00, 0x00, 0x10, 0x00, 0x00, 0x00, 0x3a, 0xd3, 0xff, 0xff,
  0x14, 0x00, 0x00, 0x00, 0x30, 0x00, 0x00, 0x00, 0x52, 0x00, 0x00, 0x00,
  0x00, 0x00, 0x00, 0x09, 0x74, 0x00, 0x00, 0x00, 0x2c, 0xd3, 0xff, 0xff,
  0x08, 0x00, 0x00, 0x00, 0x10, 0x00, 0x00, 0x00, 0x01, 0x00, 0x00, 0x00,
  0x80, 0xff, 0xff, 0xff, 0xff, 0xff, 0xff, 0xff, 0x01, 0x00, 0x00, 0x00,
  0xb9, 0xd7, 0x54, 0x3d, 0x49, 0x00, 0x00, 0x00, 0x6d, 0x6f, 0x64, 0x65,
  0x6c, 0x5f, 0x35, 0x2f, 0x61, 0x63, 0x74, 0x69, 0x76, 0x61, 0x74, 0x69,
  0x6f, 0x6e, 0x5f, 0x32, 0x31, 0x2f, 0x52, 0x65, 0x6c, 0x75, 0x3b, 0x6d,
  0x6f, 0x64, 0x65, 0x6c, 0x5f, 0x35, 0x2f, 0x62, 0x61, 0x74, 0x63, 0x68,
  0x5f, 0x6e, 0x6f, 0x72, 0x6d, 0x61, 0x6c, 0x69, 0x7a, 0x61, 0x74, 0x69,
  0x6f, 0x6e, 0x5f, 0x32, 0x31, 0x2f, 0x62, 0x61, 0x74, 0x63, 0x68, 0x6e,
  0x6f, 0x72, 0x6d, 0x2f, 0x61, 0x64, 0x64, 0x5f, 0x31, 0x00, 0x00, 0x00,
  0x03, 0x00, 0x00, 0x00, 0x01, 0x00, 0x00, 0x00, 0x1e, 0x00, 0x00, 0x00,
  0x10, 0x00, 0x00, 0x00, 0xd2, 0xd3, 0xff, 0xff, 0x14, 0x00, 0x00, 0x00,
  0x34, 0x00, 0x00, 0x00, 0x51, 0x00, 0x00, 0x00, 0x00, 0x00, 0x00, 0x09,
  0x5c, 0x00, 0x00, 0x00, 0xc4, 0xd3, 0xff, 0xff, 0x08, 0x00, 0x00, 0x00,
  0x14, 0x00, 0x00, 0x00, 0x01, 0x00, 0x00, 0x00, 0x80, 0xff, 0xff, 0xff,
  0xff, 0xff, 0xff, 0xff, 0x00, 0x00, 0x00, 0x00, 0x01, 0x00, 0x00, 0x00,
  0xd6, 0x45, 0x5f, 0x3d, 0x2e, 0x00, 0x00, 0x00, 0x6d, 0x6f, 0x64, 0x65,
  0x6c, 0x5f, 0x35, 0x2f, 0x62, 0x61, 0x74, 0x63, 0x68, 0x5f, 0x6e, 0x6f,
  0x72, 0x6d, 0x61, 0x6c, 0x69, 0x7a, 0x61, 0x74, 0x69, 0x6f, 0x6e, 0x5f,
  0x32, 0x31, 0x2f, 0x62, 0x61, 0x74, 0x63, 0x68, 0x6e, 0x6f, 0x72, 0x6d,
  0x2f, 0x6d, 0x75, 0x6c, 0x5f, 0x31, 0x00, 0x00, 0x03, 0x00, 0x00, 0x00,
  0x01, 0x00, 0x00, 0x00, 0x1e, 0x00, 0x00, 0x00, 0x10, 0x00, 0x00, 0x00,
  0x52, 0xd4, 0xff, 0xff, 0x14, 0x00, 0x00, 0x00, 0x34, 0x00, 0x00, 0x00,
  0x50, 0x00, 0x00, 0x00, 0x00, 0x00, 0x00, 0x09, 0x4c, 0x00, 0x00, 0x00,
  0x44, 0xd4, 0xff, 0xff, 0x08, 0x00, 0x00, 0x00, 0x14, 0x00, 0x00, 0x00,
  0x01, 0x00, 0x00, 0x00, 0x80, 0xff, 0xff, 0xff, 0xff, 0xff, 0xff, 0xff,
  0x00, 0x00, 0x00, 0x00, 0x01, 0x00, 0x00, 0x00, 0xc4, 0x77, 0x3f, 0x3d,
  0x1d, 0x00, 0x00, 0x00, 0x6d, 0x6f, 0x64, 0x65, 0x6c, 0x5f, 0x35, 0x2f,
  0x63, 0x6f, 0x6e, 0x63, 0x61, 0x74, 0x65, 0x6e, 0x61, 0x74, 0x65, 0x5f,
  0x31, 0x36, 0x2f, 0x63, 0x6f, 0x6e, 0x63, 0x61, 0x74, 0x00, 0x00, 0x00,
  0x03, 0x00, 0x00, 0x00, 0x01, 0x00, 0x00, 0x00, 0x1e, 0x00, 0x00, 0x00,
  0x10, 0x00, 0x00, 0x00, 0xc2, 0xd4, 0xff, 0xff, 0x14, 0x00, 0x00, 0x00,
  0x34, 0x00, 0x00, 0x00, 0x4f, 0x00, 0x00, 0x00, 0x00, 0x00, 0x00, 0x09,
  0x64, 0x00, 0x00, 0x00, 0xb4, 0xd4, 0xff, 0xff, 0x08, 0x00, 0x00, 0x00,
  0x14, 0x00, 0x00, 0x00, 0x01, 0x00, 0x00, 0x00, 0x80, 0xff, 0xff, 0xff,
  0xff, 0xff, 0xff, 0xff, 0x00, 0x00, 0x00, 0x00, 0x01, 0x00, 0x00, 0x00,
  0xc4, 0x77, 0x3f, 0x3d, 0x37, 0x00, 0x00, 0x00, 0x6d, 0x6f, 0x64, 0x65,
  0x6c, 0x5f, 0x35, 0x2f, 0x63, 0x6f, 0x6e, 0x76, 0x31, 0x64, 0x5f, 0x38,
  0x39, 0x2f, 0x52, 0x65, 0x6c, 0x75, 0x3b, 0x6d, 0x6f, 0x64, 0x65, 0x6c,
  0x5f, 0x35, 0x2f, 0x63, 0x6f, 0x6e, 0x76, 0x31, 0x64, 0x5f, 0x38, 0x39,
  0x2f, 0x63, 0x6f, 0x6e, 0x76, 0x31, 0x64, 0x2f, 0x53, 0x71, 0x75, 0x65,
  0x65, 0x7a, 0x65, 0x00, 0x03, 0x00, 0x00, 0x00, 0x01, 0x00, 0x00, 0x00,
  0x1e, 0x00, 0x00, 0x00, 0x04, 0x00, 0x00, 0x00, 0x4a, 0xd5, 0xff, 0xff,
  0x14, 0x00, 0x00, 0x00, 0x34, 0x00, 0x00, 0x00, 0x4e, 0x00, 0x00, 0x00,
  0x00, 0x00, 0x00, 0x09, 0x80, 0x00, 0x00, 0x00, 0x3c, 0xd5, 0xff, 0xff,
  0x08, 0x00, 0x00, 0x00, 0x14, 0x00, 0x00, 0x00, 0x01, 0x00, 0x00, 0x00,
  0x80, 0xff, 0xff, 0xff, 0xff, 0xff, 0xff, 0xff, 0x00, 0x00, 0x00, 0x00,
  0x01, 0x00, 0x00, 0x00, 0xc4, 0x77, 0x3f, 0x3d, 0x50, 0x00, 0x00, 0x00,
  0x6d, 0x6f, 0x64, 0x65, 0x6c, 0x5f, 0x35, 0x2f, 0x63, 0x6f, 0x6e, 0x76,
  0x31, 0x64, 0x5f, 0x38, 0x39, 0x2f, 0x52, 0x65, 0x6c, 0x75, 0x3b, 0x6d,
  0x6f, 0x64, 0x65, 0x6c, 0x5f, 0x35, 0x2f, 0x63, 0x6f, 0x6e, 0x76, 0x31,
  0x64, 0x5f, 0x38, 0x39, 0x2f, 0x63, 0x6f, 0x6e, 0x76, 0x31, 0x64, 0x2f,
  0x53, 0x71, 0x75, 0x65, 0x65, 0x7a, 0x65, 0x3b, 0x6d, 0x6f, 0x64, 0x65,
  0x6c, 0x5f, 0x35, 0x2f, 0x63, 0x6f, 0x6e, 0x76, 0x31, 0x64, 0x5f, 0x38,
  0x39, 0x2f, 0x63, 0x6f, 0x6e, 0x76, 0x31, 0x64, 0x00, 0x00, 0x00, 0x00,
  0x04, 0x00, 0x00, 0x00, 0x01, 0x00, 0x00, 0x00, 0x01, 0x00, 0x00, 0x00,
  0x1e, 0x00, 0x00, 0x00, 0x04, 0x00, 0x00, 0x00, 0xf2, 0xd5, 0xff, 0xff,
  0x14, 0x00, 0x00, 0x00, 0x34, 0x00, 0x00, 0x00, 0x4d, 0x00, 0x00, 0x00,
  0x00, 0x00, 0x00, 0x09, 0x50, 0x00, 0x00, 0x00, 0xe4, 0xd5, 0xff, 0xff,
  0x08, 0x00, 0x00, 0x00, 0x14, 0x00, 0x00, 0x00, 0x01, 0x00, 0x00, 0x00,
  0x80, 0xff, 0xff, 0xff, 0xff, 0xff, 0xff, 0xff, 0x00, 0x00, 0x00, 0x00,
  0x01, 0x00, 0x00, 0x00, 0xd7, 0xac, 0x1f, 0x3d, 0x23, 0x00, 0x00, 0x00,
  0x6d, 0x6f, 0x64, 0x65, 0x6c, 0x5f, 0x35, 0x2f, 0x63, 0x6f, 0x6e, 0x76,
  0x31, 0x64, 0x5f, 0x38, 0x39, 0x2f, 0x63, 0x6f, 0x6e, 0x76, 0x31, 0x64,
  0x2f, 0x45, 0x78, 0x70, 0x61, 0x6e, 0x64, 0x44, 0x69, 0x6d, 0x73, 0x00,
  0x04, 0x00, 0x00, 0x00, 0x01, 0x00, 0x00, 0x00, 0x01, 0x00, 0x00, 0x00,
  0x1e, 0x00, 0x00, 0x00, 0x10, 0x00, 0x00, 0x00, 0x6a, 0xd6, 0xff, 0xff,
  0x14, 0x00, 0x00, 0x00, 0x34, 0x00, 0x00, 0x00, 0x4c, 0x00, 0x00, 0x00,
  0x00, 0x00, 0x00, 0x09, 0x50, 0x00, 0x00, 0x00, 0x5c, 0xd6, 0xff, 0xff,
  0x08, 0x00, 0x00, 0x00, 0x14, 0x00, 0x00, 0x00, 0x01, 0x00, 0x00, 0x00,
  0x80, 0xff, 0xff, 0xff, 0xff, 0xff, 0xff, 0xff, 0x00, 0x00, 0x00, 0x00,
  0x01, 0x00, 0x00, 0x00, 0xd7, 0xac, 0x1f, 0x3d, 0x20, 0x00, 0x00, 0x00,
  0x6d, 0x6f, 0x64, 0x65, 0x6c, 0x5f, 0x35, 0x2f, 0x6d, 0x61, 0x78, 0x5f,
  0x70, 0x6f, 0x6f, 0x6c, 0x69, 0x6e, 0x67, 0x31, 0x64, 0x5f, 0x31, 0x36,
  0x2f, 0x4d, 0x61, 0x78, 0x50, 0x6f, 0x6f, 0x6c, 0x00, 0x00, 0x00, 0x00,
  0x04, 0x00, 0x00, 0x00, 0x01, 0x00, 0x00, 0x00, 0x1e, 0x00, 0x00, 0x00,
  0x01, 0x00, 0x00, 0x00, 0x10, 0x00, 0x00, 0x00, 0xe2, 0xd6, 0xff, 0xff,
  0x14, 0x00, 0x00, 0x00, 0x30, 0x00, 0x00, 0x00, 0x4b, 0x00, 0x00, 0x00,
  0x00, 0x00, 0x00, 0x09, 0x50, 0x00, 0x00, 0x00, 0xd4, 0xd6, 0xff, 0xff,
  0x08, 0x00, 0x00, 0x00, 0x10, 0x00, 0x00, 0x00, 0x01, 0x00, 0x00, 0x00,
  0x80, 0xff, 0xff, 0xff, 0xff, 0xff, 0xff, 0xff, 0x01, 0x00, 0x00, 0x00,
  0xd7, 0xac, 0x1f, 0x3d, 0x24, 0x00, 0x00, 0x00, 0x6d, 0x6f, 0x64, 0x65,
  0x6c, 0x5f, 0x35, 0x2f, 0x6d, 0x61, 0x78, 0x5f, 0x70, 0x6f, 0x6f, 0x6c,
  0x69, 0x6e, 0x67, 0x31, 0x64, 0x5f, 0x31, 0x36, 0x2f, 0x45, 0x78, 0x70,
  0x61, 0x6e, 0x64, 0x44, 0x69, 0x6d, 0x73, 0x31, 0x00, 0x00, 0x00, 0x00,
  0x04, 0x00, 0x00, 0x00, 0x01, 0x00, 0x00, 0x00, 0x1e, 0x00, 0x00, 0x00,
  0x01, 0x00, 0x00, 0x00, 0x10, 0x00, 0x00, 0x00, 0x5a, 0xd7, 0xff, 0xff,
  0x14, 0x00, 0x00, 0x00, 0x34, 0x00, 0x00, 0x00, 0x4a, 0x00, 0x00, 0x00,
  0x00, 0x00, 0x00, 0x09, 0x64, 0x00, 0x00, 0x00, 0x4c, 0xd7, 0xff, 0xff,
  0x08, 0x00, 0x00, 0x00, 0x14, 0x00, 0x00, 0x00, 0x01, 0x00, 0x00, 0x00,
  0x80, 0xff, 0xff, 0xff, 0xff, 0xff, 0xff, 0xff, 0x00, 0x00, 0x00, 0x00,
  0x01, 0x00, 0x00, 0x00, 0xc4, 0x77, 0x3f, 0x3d, 0x37, 0x00, 0x00, 0x00,
  0x6d, 0x6f, 0x64, 0x65, 0x6c, 0x5f, 0x35, 0x2f, 0x63, 0x6f, 0x6e, 0x76,
  0x31, 0x64, 0x5f, 0x38, 0x38, 0x2f, 0x52, 0x65, 0x6c, 0x75, 0x3b, 0x6d,
  0x6f, 0x64, 0x65, 0x6c, 0x5f, 0x35, 0x2f, 0x63, 0x6f, 0x6e, 0x76, 0x31,
  0x64, 0x5f, 0x38, 0x38, 0x2f, 0x63, 0x6f, 0x6e, 0x76, 0x31, 0x64, 0x2f,
  0x53, 0x71, 0x75, 0x65, 0x65, 0x7a, 0x65, 0x00, 0x03, 0x00, 0x00, 0x00,
  0x01, 0x00, 0x00, 0x00, 0x1e, 0x00, 0x00, 0x00, 0x04, 0x00, 0x00, 0x00,
  0xe2, 0xd7, 0xff, 0xff, 0x14, 0x00, 0x00, 0x00, 0x34, 0x00, 0x00, 0x00,
  0x49, 0x00, 0x00, 0x00, 0x00, 0x00, 0x00, 0x09, 0x80, 0x00, 0x00, 0x00,
  0xd4, 0xd7, 0xff, 0xff, 0x08, 0x00, 0x00, 0x00, 0x14, 0x00, 0x00, 0x00,
  0x01, 0x00, 0x00, 0x00, 0x80, 0xff, 0xff, 0xff, 0xff, 0xff, 0xff, 0xff,
  0x00, 0x00, 0x00, 0x00, 0x01, 0x00, 0x00, 0x00, 0xc4, 0x77, 0x3f, 0x3d,
  0x50, 0x00, 0x00, 0x00, 0x6d, 0x6f, 0x64, 0x65, 0x6c, 0x5f, 0x35, 0x2f,
  0x63, 0x6f, 0x6e, 0x76, 0x31, 0x64, 0x5f, 0x38, 0x38, 0x2f, 0x52, 0x65,
  0x6c, 0x75, 0x3b, 0x6d, 0x6f, 0x64, 0x65, 0x6c, 0x5f, 0x35, 0x2f, 0x63,
  0x6f, 0x6e, 0x76, 0x31, 0x64, 0x5f, 0x38, 0x38, 0x2f, 0x63, 0x6f, 0x6e,
  0x76, 0x31, 0x64, 0x2f, 0x53, 0x71, 0x75, 0x65, 0x65, 0x7a, 0x65, 0x3b,
  0x6d, 0x6f, 0x64, 0x65, 0x6c, 0x5f, 0x35, 0x2f, 0x63, 0x6f, 0x6e, 0x76,
  0x31, 0x64, 0x5f, 0x38, 0x38, 0x2f, 0x63, 0x6f, 0x6e, 0x76, 0x31, 0x64,
  0x00, 0x00, 0x00, 0x00, 0x04, 0x00, 0x00, 0x00, 0x01, 0x00, 0x00, 0x00,
  0x01, 0x00, 0x00, 0x00, 0x1e, 0x00, 0x00, 0x00, 0x04, 0x00, 0x00, 0x00,
  0x8a, 0xd8, 0xff, 0xff, 0x14, 0x00, 0x00, 0x00, 0x34, 0x00, 0x00, 0x00,
  0x48, 0x00, 0x00, 0x00, 0x00, 0x00, 0x00, 0x09, 0x64, 0x00, 0x00, 0x00,
  0x7c, 0xd8, 0xff, 0xff, 0x08, 0x00, 0x00, 0x00, 0x14, 0x00, 0x00, 0x00,
  0x01, 0x00, 0x00, 0x00, 0x80, 0xff, 0xff, 0xff, 0xff, 0xff, 0xff, 0xff,
  0x00, 0x00, 0x00, 0x00, 0x01, 0x00, 0x00, 0x00, 0xc4, 0x77, 0x3f, 0x3d,
  0x37, 0x00, 0x00, 0x00, 0x6d, 0x6f, 0x64, 0x65, 0x6c, 0x5f, 0x35, 0x2f,
  0x63, 0x6f, 0x6e, 0x76, 0x31, 0x64, 0x5f, 0x38, 0x37, 0x2f, 0x52, 0x65,
  0x6c, 0x75, 0x3b, 0x6d, 0x6f, 0x64, 0x65, 0x6c, 0x5f, 0x35, 0x2f, 0x63,
  0x6f, 0x6e, 0x76, 0x31, 0x64, 0x5f, 0x38, 0x37, 0x2f, 0x63, 0x6f, 0x6e,
  0x76, 0x31, 0x64, 0x2f, 0x53, 0x71, 0x75, 0x65, 0x65, 0x7a, 0x65, 0x00,
  0x03, 0x00, 0x00, 0x00, 0x01, 0x00, 0x00, 0x00, 0x1e, 0x00, 0x00, 0x00,
  0x04, 0x00, 0x00, 0x00, 0x12, 0xd9, 0xff, 0xff, 0x14, 0x00, 0x00, 0x00,
  0x34, 0x00, 0x00, 0x00, 0x47, 0x00, 0x00, 0x00, 0x00, 0x00, 0x00, 0x09,
  0x80, 0x00, 0x00, 0x00, 0x04, 0xd9, 0xff, 0xff, 0x08, 0x00, 0x00, 0x00,
  0x14, 0x00, 0x00, 0x00, 0x01, 0x00, 0x00, 0x00, 0x80, 0xff, 0xff, 0xff,
  0xff, 0xff, 0xff, 0xff, 0x00, 0x00, 0x00, 0x00, 0x01, 0x00, 0x00, 0x00,
  0xc4, 0x77, 0x3f, 0x3d, 0x50, 0x00, 0x00, 0x00, 0x6d, 0x6f, 0x64, 0x65,
  0x6c, 0x5f, 0x35, 0x2f, 0x63, 0x6f, 0x6e, 0x76, 0x31, 0x64, 0x5f, 0x38,
  0x37, 0x2f, 0x52, 0x65, 0x6c, 0x75, 0x3b, 0x6d, 0x6f, 0x64, 0x65, 0x6c,
  0x5f, 0x35, 0x2f, 0x63, 0x6f, 0x6e, 0x76, 0x31, 0x64, 0x5f, 0x38, 0x37,
  0x2f, 0x63, 0x6f, 0x6e, 0x76, 0x31, 0x64, 0x2f, 0x53, 0x71, 0x75, 0x65,
  0x65, 0x7a, 0x65, 0x3b, 0x6d, 0x6f, 0x64, 0x65, 0x6c, 0x5f, 0x35, 0x2f,
  0x63, 0x6f, 0x6e, 0x76, 0x31, 0x64, 0x5f, 0x38, 0x37, 0x2f, 0x63, 0x6f,
  0x6e, 0x76, 0x31, 0x64, 0x00, 0x00, 0x00, 0x00, 0x04, 0x00, 0x00, 0x00,
  0x01, 0x00, 0x00, 0x00, 0x01, 0x00, 0x00, 0x00, 0x1e, 0x00, 0x00, 0x00,
  0x04, 0x00, 0x00, 0x00, 0xba, 0xd9, 0xff, 0xff, 0x14, 0x00, 0x00, 0x00,
  0x34, 0x00, 0x00, 0x00, 0x46, 0x00, 0x00, 0x00, 0x00, 0x00, 0x00, 0x09,
  0x64, 0x00, 0x00, 0x00, 0xac, 0xd9, 0xff, 0xff, 0x08, 0x00, 0x00, 0x00,
  0x14, 0x00, 0x00, 0x00, 0x01, 0x00, 0x00, 0x00, 0x80, 0xff, 0xff, 0xff,
  0xff, 0xff, 0xff, 0xff, 0x00, 0x00, 0x00, 0x00, 0x01, 0x00, 0x00, 0x00,
  0xc4, 0x77, 0x3f, 0x3d, 0x37, 0x00, 0x00, 0x00, 0x6d, 0x6f, 0x64, 0x65,
  0x6c, 0x5f, 0x35, 0x2f, 0x63, 0x6f, 0x6e, 0x76, 0x31, 0x64, 0x5f, 0x38,
  0x36, 0x2f, 0x52, 0x65, 0x6c, 0x75, 0x3b, 0x6d, 0x6f, 0x64, 0x65, 0x6c,
  0x5f, 0x35, 0x2f, 0x63, 0x6f, 0x6e, 0x76, 0x31, 0x64, 0x5f, 0x38, 0x36,
  0x2f, 0x63, 0x6f, 0x6e, 0x76, 0x31, 0x64, 0x2f, 0x53, 0x71, 0x75, 0x65,
  0x65, 0x7a, 0x65, 0x00, 0x03, 0x00, 0x00, 0x00, 0x01, 0x00, 0x00, 0x00,
  0x1e, 0x00, 0x00, 0x00, 0x04, 0x00, 0x00, 0x00, 0x42, 0xda, 0xff, 0xff,
  0x14, 0x00, 0x00, 0x00, 0x34, 0x00, 0x00, 0x00, 0x45, 0x00, 0x00, 0x00,
  0x00, 0x00, 0x00, 0x09, 0x80, 0x00, 0x00, 0x00, 0x34, 0xda, 0xff, 0xff,
  0x08, 0x00, 0x00, 0x00, 0x14, 0x00, 0x00, 0x00, 0x01, 0x00, 0x00, 0x00,
  0x80, 0xff, 0xff, 0xff, 0xff, 0xff, 0xff, 0xff, 0x00, 0x00, 0x00, 0x00,
  0x01, 0x00, 0x00, 0x00, 0xc4, 0x77, 0x3f, 0x3d, 0x50, 0x00, 0x00, 0x00,
  0x6d, 0x6f, 0x64, 0x65, 0x6c, 0x5f, 0x35, 0x2f, 0x63, 0x6f, 0x6e, 0x76,
  0x31, 0x64, 0x5f, 0x38, 0x36, 0x2f, 0x52, 0x65, 0x6c, 0x75, 0x3b, 0x6d,
  0x6f, 0x64, 0x65, 0x6c, 0x5f, 0x35, 0x2f, 0x63, 0x6f, 0x6e, 0x76, 0x31,
  0x64, 0x5f, 0x38, 0x36, 0x2f, 0x63, 0x6f, 0x6e, 0x76, 0x31, 0x64, 0x2f,
  0x53, 0x71, 0x75, 0x65, 0x65, 0x7a, 0x65, 0x3b, 0x6d, 0x6f, 0x64, 0x65,
  0x6c, 0x5f, 0x35, 0x2f, 0x63, 0x6f, 0x6e, 0x76, 0x31, 0x64, 0x5f, 0x38,
  0x36, 0x2f, 0x63, 0x6f, 0x6e, 0x76, 0x31, 0x64, 0x00, 0x00, 0x00, 0x00,
  0x04, 0x00, 0x00, 0x00, 0x01, 0x00, 0x00, 0x00, 0x01, 0x00, 0x00, 0x00,
  0x1e, 0x00, 0x00, 0x00, 0x04, 0x00, 0x00, 0x00, 0xea, 0xda, 0xff, 0xff,
  0x14, 0x00, 0x00, 0x00, 0x34, 0x00, 0x00, 0x00, 0x44, 0x00, 0x00, 0x00,
  0x00, 0x00, 0x00, 0x09, 0x80, 0x00, 0x00, 0x00, 0xdc, 0xda, 0xff, 0xff,
  0x08, 0x00, 0x00, 0x00, 0x14, 0x00, 0x00, 0x00, 0x01, 0x00, 0x00, 0x00,
  0x80, 0xff, 0xff, 0xff, 0xff, 0xff, 0xff, 0xff, 0x00, 0x00, 0x00, 0x00,
  0x01, 0x00, 0x00, 0x00, 0x4f, 0x5c, 0x03, 0x3d, 0x50, 0x00, 0x00, 0x00,
  0x6d, 0x6f, 0x64, 0x65, 0x6c, 0x5f, 0x35, 0x2f, 0x63, 0x6f, 0x6e, 0x76,
  0x31, 0x64, 0x5f, 0x38, 0x35, 0x2f, 0x52, 0x65, 0x6c, 0x75, 0x3b, 0x6d,
  0x6f, 0x64, 0x65, 0x6c, 0x5f, 0x35, 0x2f, 0x63, 0x6f, 0x6e, 0x76, 0x31,
  0x64, 0x5f, 0x38, 0x35, 0x2f, 0x63, 0x6f, 0x6e, 0x76, 0x31, 0x64, 0x2f,
  0x53, 0x71, 0x75, 0x65, 0x65, 0x7a, 0x65, 0x3b, 0x6d, 0x6f, 0x64, 0x65,
  0x6c, 0x5f, 0x35, 0x2f, 0x63, 0x6f, 0x6e, 0x76, 0x31, 0x64, 0x5f, 0x38,
  0x35, 0x2f, 0x63, 0x6f, 0x6e, 0x76, 0x31, 0x64, 0x00, 0x00, 0x00, 0x00,
  0x04, 0x00, 0x00, 0x00, 0x01, 0x00, 0x00, 0x00, 0x01, 0x00, 0x00, 0x00,
  0x1e, 0x00, 0x00, 0x00, 0x01, 0x00, 0x00, 0x00, 0x92, 0xdb, 0xff, 0xff,
  0x14, 0x00, 0x00, 0x00, 0x30, 0x00, 0x00, 0x00, 0x43, 0x00, 0x00, 0x00,
  0x00, 0x00, 0x00, 0x09, 0x50, 0x00, 0x00, 0x00, 0x84, 0xdb, 0xff, 0xff,
  0x08, 0x00, 0x00, 0x00, 0x10, 0x00, 0x00, 0x00, 0x01, 0x00, 0x00, 0x00,
  0x80, 0xff, 0xff, 0xff, 0xff, 0xff, 0xff, 0xff, 0x01, 0x00, 0x00, 0x00,
  0xd7, 0xac, 0x1f, 0x3d, 0x24, 0x00, 0x00, 0x00, 0x6d, 0x6f, 0x64, 0x65,
  0x6c, 0x5f, 0x35, 0x2f, 0x63, 0x6f, 0x6e, 0x76, 0x31, 0x64, 0x5f, 0x38,
  0x35, 0x2f, 0x63, 0x6f, 0x6e, 0x76, 0x31, 0x64, 0x2f, 0x45, 0x78, 0x70,
  0x61, 0x6e, 0x64, 0x44, 0x69, 0x6d, 0x73, 0x31, 0x00, 0x00, 0x00, 0x00,
  0x04, 0x00, 0x00, 0x00, 0x01, 0x00, 0x00, 0x00, 0x01, 0x00, 0x00, 0x00,
  0x1e, 0x00, 0x00, 0x00, 0x10, 0x00, 0x00, 0x00, 0x0a, 0xdc, 0xff, 0xff,
  0x14, 0x00, 0x00, 0x00, 0x30, 0x00, 0x00, 0x00, 0x42, 0x00, 0x00, 0x00,
  0x00, 0x00, 0x00, 0x09, 0x74, 0x00, 0x00, 0x00, 0xfc, 0xdb, 0xff, 0xff,
  0x08, 0x00, 0x00, 0x00, 0x10, 0x00, 0x00, 0x00, 0x01, 0x00, 0x00, 0x00,
  0x80, 0xff, 0xff, 0xff, 0xff, 0xff, 0xff, 0xff, 0x01, 0x00, 0x00, 0x00,
  0xd7, 0xac, 0x1f, 0x3d, 0x49, 0x00, 0x00, 0x00, 0x6d, 0x6f, 0x64, 0x65,
  0x6c, 0x5f, 0x35, 0x2f, 0x61, 0x63, 0x74, 0x69, 0x76, 0x61, 0x74, 0x69,
  0x6f, 0x6e, 0x5f, 0x32, 0x30, 0x2f, 0x52, 0x65, 0x6c, 0x75, 0x3b, 0x6d,
  0x6f, 0x64, 0x65, 0x6c, 0x5f, 0x35, 0x2f, 0x62, 0x61, 0x74, 0x63, 0x68,
  0x5f, 0x6e, 0x6f, 0x72, 0x6d, 0x61, 0x6c, 0x69, 0x7a, 0x61, 0x74, 0x69,
  0x6f, 0x6e, 0x5f, 0x32, 0x30, 0x2f, 0x62, 0x61, 0x74, 0x63, 0x68, 0x6e,
  0x6f, 0x72, 0x6d, 0x2f, 0x61, 0x64, 0x64, 0x5f, 0x31, 0x00, 0x00, 0x00,
  0x03, 0x00, 0x00, 0x00, 0x01, 0x00, 0x00, 0x00, 0x1e, 0x00, 0x00, 0x00,
  0x10, 0x00, 0x00, 0x00, 0xa2, 0xdc, 0xff, 0xff, 0x14, 0x00, 0x00, 0x00,
  0x34, 0x00, 0x00, 0x00, 0x41, 0x00, 0x00, 0x00, 0x00, 0x00, 0x00, 0x09,
  0x5c, 0x00, 0x00, 0x00, 0x94, 0xdc, 0xff, 0xff, 0x08, 0x00, 0x00, 0x00,
  0x14, 0x00, 0x00, 0x00, 0x01, 0x00, 0x00, 0x00, 0x80, 0xff, 0xff, 0xff,
  0xff, 0xff, 0xff, 0xff, 0x00, 0x00, 0x00, 0x00, 0x01, 0x00, 0x00, 0x00,
  0xda, 0xa3, 0x25, 0x3d, 0x2e, 0x00, 0x00, 0x00, 0x6d, 0x6f, 0x64, 0x65,
  0x6c, 0x5f, 0x35, 0x2f, 0x62, 0x61, 0x74, 0x63, 0x68, 0x5f, 0x6e, 0x6f,
  0x72, 0x6d, 0x61, 0x6c, 0x69, 0x7a, 0x61, 0x74, 0x69, 0x6f, 0x6e, 0x5f,
  0x32, 0x30, 0x2f, 0x62, 0x61, 0x74, 0x63, 0x68, 0x6e, 0x6f, 0x72, 0x6d,
  0x2f, 0x6d, 0x75, 0x6c, 0x5f, 0x31, 0x00, 0x00, 0x03, 0x00, 0x00, 0x00,
  0x01, 0x00, 0x00, 0x00, 0x1e, 0x00, 0x00, 0x00, 0x10, 0x00, 0x00, 0x00,
  0x22, 0xdd, 0xff, 0xff, 0x14, 0x00, 0x00, 0x00, 0x34, 0x00, 0x00, 0x00,
  0x40, 0x00, 0x00, 0x00, 0x00, 0x00, 0x00, 0x09, 0x4c, 0x00, 0x00, 0x00,
  0x14, 0xdd, 0xff, 0xff, 0x08, 0x00, 0x00, 0x00, 0x14, 0x00, 0x00, 0x00,
  0x01, 0x00, 0x00, 0x00, 0x80, 0xff, 0xff, 0xff, 0xff, 0xff, 0xff, 0xff,
  0x00, 0x00, 0x00, 0x00, 0x01, 0x00, 0x00, 0x00, 0x63, 0x99, 0x1b, 0x3d,
  0x1d, 0x00, 0x00, 0x00, 0x6d, 0x6f, 0x64, 0x65, 0x6c, 0x5f, 0x35, 0x2f,
  0x63, 0x6f, 0x6e, 0x63, 0x61, 0x74, 0x65, 0x6e, 0x61, 0x74, 0x65, 0x5f,
  0x31, 0x35, 0x2f, 0x63, 0x6f, 0x6e, 0x63, 0x61, 0x74, 0x00, 0x00, 0x00,
  0x03, 0x00, 0x00, 0x00, 0x01, 0x00, 0x00, 0x00, 0x1e, 0x00, 0x00, 0x00,
  0x10, 0x00, 0x00, 0x00, 0x92, 0xdd, 0xff, 0xff, 0x14, 0x00, 0x00, 0x00,
  0x34, 0x00, 0x00, 0x00, 0x3f, 0x00, 0x00, 0x00, 0x00, 0x00, 0x00, 0x09,
  0x64, 0x00, 0x00, 0x00, 0x84, 0xdd, 0xff, 0xff, 0x08, 0x00, 0x00, 0x00,
  0x14, 0x00, 0x00, 0x00, 0x01, 0x00, 0x00, 0x00, 0x80, 0xff, 0xff, 0xff,
  0xff, 0xff, 0xff, 0xff, 0x00, 0x00, 0x00, 0x00, 0x01, 0x00, 0x00, 0x00,
  0x63, 0x99, 0x1b, 0x3d, 0x37, 0x00, 0x00, 0x00, 0x6d, 0x6f, 0x64, 0x65,
  0x6c, 0x5f, 0x35, 0x2f, 0x63, 0x6f, 0x6e, 0x76, 0x31, 0x64, 0x5f, 0x38,
  0x34, 0x2f, 0x52, 0x65, 0x6c, 0x75, 0x3b, 0x6d, 0x6f, 0x64, 0x65, 0x6c,
  0x5f, 0x35, 0x2f, 0x63, 0x6f, 0x6e, 0x76, 0x31, 0x64, 0x5f, 0x38, 0x34,
  0x2f, 0x63, 0x6f, 0x6e, 0x76, 0x31, 0x64, 0x2f, 0x53, 0x71, 0x75, 0x65,
  0x65, 0x7a, 0x65, 0x00, 0x03, 0x00, 0x00, 0x00, 0x01, 0x00, 0x00, 0x00,
  0x1e, 0x00, 0x00, 0x00, 0x04, 0x00, 0x00, 0x00, 0x1a, 0xde, 0xff, 0xff,
  0x14, 0x00, 0x00, 0x00, 0x34, 0x00, 0x00, 0x00, 0x3e, 0x00, 0x00, 0x00,
  0x00, 0x00, 0x00, 0x09, 0x80, 0x00, 0x00, 0x00, 0x0c, 0xde, 0xff, 0xff,
  0x08, 0x00, 0x00, 0x00, 0x14, 0x00, 0x00, 0x00, 0x01, 0x00, 0x00, 0x00,
  0x80, 0xff, 0xff, 0xff, 0xff, 0xff, 0xff, 0xff, 0x00, 0x00, 0x00, 0x00,
  0x01, 0x00, 0x00, 0x00, 0x63, 0x99, 0x1b, 0x3d, 0x50, 0x00, 0x00, 0x00,
  0x6d, 0x6f, 0x64, 0x65, 0x6c, 0x5f, 0x35, 0x2f, 0x63, 0x6f, 0x6e, 0x76,
  0x31, 0x64, 0x5f, 0x38, 0x34, 0x2f, 0x52, 0x65, 0x6c, 0x75, 0x3b, 0x6d,
  0x6f, 0x64, 0x65, 0x6c, 0x5f, 0x35, 0x2f, 0x63, 0x6f, 0x6e, 0x76, 0x31,
  0x64, 0x5f, 0x38, 0x34, 0x2f, 0x63, 0x6f, 0x6e, 0x76, 0x31, 0x64, 0x2f,
  0x53, 0x71, 0x75, 0x65, 0x65, 0x7a, 0x65, 0x3b, 0x6d, 0x6f, 0x64, 0x65,
  0x6c, 0x5f, 0x35, 0x2f, 0x63, 0x6f, 0x6e, 0x76, 0x31, 0x64, 0x5f, 0x38,
  0x34, 0x2f, 0x63, 0x6f, 0x6e, 0x76, 0x31, 0x64, 0x00, 0x00, 0x00, 0x00,
  0x04, 0x00, 0x00, 0x00, 0x01, 0x00, 0x00, 0x00, 0x01, 0x00, 0x00, 0x00,
  0x1e, 0x00, 0x00, 0x00, 0x04, 0x00, 0x00, 0x00, 0xc2, 0xde, 0xff, 0xff,
  0x14, 0x00, 0x00, 0x00, 0x34, 0x00, 0x00, 0x00, 0x3d, 0x00, 0x00, 0x00,
  0x00, 0x00, 0x00, 0x09, 0x50, 0x00, 0x00, 0x00, 0xb4, 0xde, 0xff, 0xff,
  0x08, 0x00, 0x00, 0x00, 0x14, 0x00, 0x00, 0x00, 0x01, 0x00, 0x00, 0x00,
  0x07, 0x00, 0x00, 0x00, 0x00, 0x00, 0x00, 0x00, 0x00, 0x00, 0x00, 0x00,
  0x01, 0x00, 0x00, 0x00, 0x53, 0x8d, 0x9d, 0x3d, 0x23, 0x00, 0x00, 0x00,
  0x6d, 0x6f, 0x64, 0x65, 0x6c, 0x5f, 0x35, 0x2f, 0x63, 0x6f, 0x6e, 0x76,
  0x31, 0x64, 0x5f, 0x38, 0x34, 0x2f, 0x63, 0x6f, 0x6e, 0x76, 0x31, 0x64,
  0x2f, 0x45, 0x78, 0x70, 0x61, 0x6e, 0x64, 0x44, 0x69, 0x6d, 0x73, 0x00,
  0x04, 0x00, 0x00, 0x00, 0x01, 0x00, 0x00, 0x00, 0x01, 0x00, 0x00, 0x00,
  0x1e, 0x00, 0x00, 0x00, 0x06, 0x00, 0x00, 0x00, 0x3a, 0xdf, 0xff, 0xff,
  0x14, 0x00, 0x00, 0x00, 0x34, 0x00, 0x00, 0x00, 0x3c, 0x00, 0x00, 0x00,
  0x00, 0x00, 0x00, 0x09, 0x50, 0x00, 0x00, 0x00, 0x2c, 0xdf, 0xff, 0xff,
  0x08, 0x00, 0x00, 0x00, 0x14, 0x00, 0x00, 0x00, 0x01, 0x00, 0x00, 0x00,
  0x07, 0x00, 0x00, 0x00, 0x00, 0x00, 0x00, 0x00, 0x00, 0x00, 0x00, 0x00,
  0x01, 0x00, 0x00, 0x00, 0x53, 0x8d, 0x9d, 0x3d, 0x20, 0x00, 0x00, 0x00,
  0x6d, 0x6f, 0x64, 0x65, 0x6c, 0x5f, 0x35, 0x2f, 0x6d, 0x61, 0x78, 0x5f,
  0x70, 0x6f, 0x6f, 0x6c, 0x69, 0x6e, 0x67, 0x31, 0x64, 0x5f, 0x31, 0x35,
  0x2f, 0x4d, 0x61, 0x78, 0x50, 0x6f, 0x6f, 0x6c, 0x00, 0x00, 0x00, 0x00,
  0x04, 0x00, 0x00, 0x00, 0x01, 0x00, 0x00, 0x00, 0x1e, 0x00, 0x00, 0x00,
  0x01, 0x00, 0x00, 0x00, 0x06, 0x00, 0x00, 0x00, 0xb2, 0xdf, 0xff, 0xff,
  0x14, 0x00, 0x00, 0x00, 0x30, 0x00, 0x00, 0x00, 0x3b, 0x00, 0x00, 0x00,
  0x00, 0x00, 0x00, 0x09, 0x50, 0x00, 0x00, 0x00, 0xa4, 0xdf, 0xff, 0xff,
  0x08, 0x00, 0x00, 0x00, 0x10, 0x00, 0x00, 0x00, 0x01, 0x00, 0x00, 0x00,
  0x07, 0x00, 0x00, 0x00, 0x00, 0x00, 0x00, 0x00, 0x01, 0x00, 0x00, 0x00,
  0x53, 0x8d, 0x9d, 0x3d, 0x24, 0x00, 0x00, 0x00, 0x6d, 0x6f, 0x64, 0x65,
  0x6c, 0x5f, 0x35, 0x2f, 0x6d, 0x61, 0x78, 0x5f, 0x70, 0x6f, 0x6f, 0x6c,
  0x69, 0x6e, 0x67, 0x31, 0x64, 0x5f, 0x31, 0x35, 0x2f, 0x45, 0x78, 0x70,
  0x61, 0x6e, 0x64, 0x44, 0x69, 0x6d, 0x73, 0x31, 0x00, 0x00, 0x00, 0x00,
  0x04, 0x00, 0x00, 0x00, 0x01, 0x00, 0x00, 0x00, 0x1e, 0x00, 0x00, 0x00,
  0x01, 0x00, 0x00, 0x00, 0x06, 0x00, 0x00, 0x00, 0x2a, 0xe0, 0xff, 0xff,
  0x14, 0x00, 0x00, 0x00, 0x30, 0x00, 0x00, 0x00, 0x3a, 0x00, 0x00, 0x00,
  0x00, 0x00, 0x00, 0x09, 0x04, 0x01, 0x00, 0x00, 0x1c, 0xe0, 0xff, 0xff,
  0x08, 0x00, 0x00, 0x00, 0x10, 0x00, 0x00, 0x00, 0x01, 0x00, 0x00, 0x00,
  0x08, 0x00, 0x00, 0x00, 0x00, 0x00, 0x00, 0x00, 0x01, 0x00, 0x00, 0x00,
  0xac, 0xf0, 0x90, 0x3d, 0xd8, 0x00, 0x00, 0x00, 0x6d, 0x6f, 0x64, 0x65,
  0x6c, 0x5f, 0x35, 0x2f, 0x62, 0x61, 0x74, 0x63, 0x68, 0x5f, 0x6e, 0x6f,
  0x72, 0x6d, 0x61, 0x6c, 0x69, 0x7a, 0x61, 0x74, 0x69, 0x6f, 0x6e, 0x5f,
  0x32, 0x32, 0x2f, 0x62, 0x61, 0x74, 0x63, 0x68, 0x6e, 0x6f, 0x72, 0x6d,
  0x2f, 0x61, 0x64, 0x64, 0x5f, 0x31, 0x3b, 0x6d, 0x6f, 0x64, 0x65, 0x6c,
  0x5f, 0x35, 0x2f, 0x63, 0x6f, 0x6e, 0x76, 0x31, 0x64, 0x5f, 0x39, 0x30,
  0x2f, 0x63, 0x6f, 0x6e, 0x76, 0x31, 0x64, 0x2f, 0x53, 0x71, 0x75, 0x65,
  0x65, 0x7a, 0x65, 0x3b, 0x6d, 0x6f, 0x64, 0x65, 0x6c, 0x5f, 0x35, 0x2f,
  0x62, 0x61, 0x74, 0x63, 0x68, 0x5f, 0x6e, 0x6f, 0x72, 0x6d, 0x61, 0x6c,
  0x69, 0x7a, 0x61, 0x74, 0x69, 0x6f, 0x6e, 0x5f, 0x32, 0x32, 0x2f, 0x62,
  0x61, 0x74, 0x63, 0x68, 0x6e, 0x6f, 0x72, 0x6d, 0x2f, 0x6d, 0x75, 0x6c,
  0x5f, 0x31, 0x3b, 0x6d, 0x6f, 0x64, 0x65, 0x6c, 0x5f, 0x35, 0x2f, 0x62,
  0x61, 0x74, 0x63, 0x68, 0x5f, 0x6e, 0x6f, 0x72, 0x6d, 0x61, 0x6c, 0x69,
  0x7a, 0x61, 0x74, 0x69, 0x6f, 0x6e, 0x5f, 0x32, 0x32, 0x2f, 0x62, 0x61,
  0x74, 0x63, 0x68, 0x6e, 0x6f, 0x72, 0x6d, 0x2f, 0x6d, 0x75, 0x6c, 0x3b,
  0x6d, 0x6f, 0x64, 0x65, 0x6c, 0x5f, 0x35, 0x2f, 0x62, 0x61, 0x74, 0x63,
  0x68, 0x5f, 0x6e, 0x6f, 0x72, 0x6d, 0x61, 0x6c, 0x69, 0x7a, 0x61, 0x74,
  0x69, 0x6f, 0x6e, 0x5f, 0x32, 0x32, 0x2f, 0x62, 0x61, 0x74, 0x63, 0x68,
  0x6e, 0x6f, 0x72, 0x6d, 0x2f, 0x73, 0x75, 0x62, 0x00, 0x00, 0x00, 0x00,
  0x03, 0x00, 0x00, 0x00, 0x01, 0x00, 0x00, 0x00, 0x1e, 0x00, 0x00, 0x00,
  0x10, 0x00, 0x00, 0x00, 0x52, 0xe1, 0xff, 0xff, 0x14, 0x00, 0x00, 0x00,
  0x34, 0x00, 0x00, 0x00, 0x39, 0x00, 0x00, 0x00, 0x00, 0x00, 0x00, 0x09,
  0x20, 0x01, 0x00, 0x00, 0x44, 0xe1, 0xff, 0xff, 0x08, 0x00, 0x00, 0x00,
  0x14, 0x00, 0x00, 0x00, 0x01, 0x00, 0x00, 0x00, 0x08, 0x00, 0x00, 0x00,
  0x00, 0x00, 0x00, 0x00, 0x00, 0x00, 0x00, 0x00, 0x01, 0x00, 0x00, 0x00,
  0xac, 0xf0, 0x90, 0x3d, 0xf2, 0x00, 0x00, 0x00, 0x6d, 0x6f, 0x64, 0x65,
  0x6c, 0x5f, 0x35, 0x2f, 0x62, 0x61, 0x74, 0x63, 0x68, 0x5f, 0x6e, 0x6f,
  0x72, 0x6d, 0x61, 0x6c, 0x69, 0x7a, 0x61, 0x74, 0x69, 0x6f, 0x6e, 0x5f,
  0x32, 0x32, 0x2f, 0x62, 0x61, 0x74, 0x63, 0x68, 0x6e, 0x6f, 0x72, 0x6d,
  0x2f, 0x61, 0x64, 0x64, 0x5f, 0x31, 0x3b, 0x6d, 0x6f, 0x64, 0x65, 0x6c,
  0x5f, 0x35, 0x2f, 0x63, 0x6f, 0x6e, 0x76, 0x31, 0x64, 0x5f, 0x39, 0x30,
  0x2f, 0x63, 0x6f, 0x6e, 0x76, 0x31, 0x64, 0x2f, 0x53, 0x71, 0x75, 0x65,
  0x65, 0x7a, 0x65, 0x3b, 0x6d, 0x6f, 0x64, 0x65, 0x6c, 0x5f, 0x35, 0x2f,
  0x62, 0x61, 0x74, 0x63, 0x68, 0x5f, 0x6e, 0x6f, 0x72, 0x6d, 0x61, 0x6c,
  0x69, 0x7a, 0x61, 0x74, 0x69, 0x6f, 0x6e, 0x5f, 0x32, 0x32, 0x2f, 0x62,
  0x61, 0x74, 0x63, 0x68, 0x6e, 0x6f, 0x72, 0x6d, 0x2f, 0x6d, 0x75, 0x6c,
  0x5f, 0x31, 0x3b, 0x6d, 0x6f, 0x64, 0x65, 0x6c, 0x5f, 0x35, 0x2f, 0x62,
  0x61, 0x74, 0x63, 0x68, 0x5f, 0x6e, 0x6f, 0x72, 0x6d, 0x61, 0x6c, 0x69,
  0x7a, 0x61, 0x74, 0x69, 0x6f, 0x6e, 0x5f, 0x32, 0x32, 0x2f, 0x62, 0x61,
  0x74, 0x63, 0x68, 0x6e, 0x6f, 0x72, 0x6d, 0x2f, 0x6d, 0x75, 0x6c, 0x3b,
  0x6d, 0x6f, 0x64, 0x65, 0x6c, 0x5f, 0x35, 0x2f, 0x62, 0x61, 0x74, 0x63,
  0x68, 0x5f, 0x6e, 0x6f, 0x72, 0x6d, 0x61, 0x6c, 0x69, 0x7a, 0x61, 0x74,
  0x69, 0x6f, 0x6e, 0x5f, 0x32, 0x32, 0x2f, 0x62, 0x61, 0x74, 0x63, 0x68,
  0x6e, 0x6f, 0x72, 0x6d, 0x2f, 0x73, 0x75, 0x62, 0x3b, 0x6d, 0x6f, 0x64,
  0x65, 0x6c, 0x5f, 0x35, 0x2f, 0x63, 0x6f, 0x6e, 0x76, 0x31, 0x64, 0x5f,
  0x39, 0x30, 0x2f, 0x63, 0x6f, 0x6e, 0x76, 0x31, 0x64, 0x31, 0x00, 0x00,
  0x04, 0x00, 0x00, 0x00, 0x01, 0x00, 0x00, 0x00, 0x01, 0x00, 0x00, 0x00,
  0x1e, 0x00, 0x00, 0x00, 0x10, 0x00, 0x00, 0x00, 0x9a, 0xe2, 0xff, 0xff,
  0x14, 0x00, 0x00, 0x00, 0x34, 0x00, 0x00, 0x00, 0x38, 0x00, 0x00, 0x00,
  0x00, 0x00, 0x00, 0x09, 0x64, 0x00, 0x00, 0x00, 0x8c, 0xe2, 0xff, 0xff,
  0x08, 0x00, 0x00, 0x00, 0x14, 0x00, 0x00, 0x00, 0x01, 0x00, 0x00, 0x00,
  0x80, 0xff, 0xff, 0xff, 0xff, 0xff, 0xff, 0xff, 0x00, 0x00, 0x00, 0x00,
  0x01, 0x00, 0x00, 0x00, 0x63, 0x99, 0x1b, 0x3d, 0x37, 0x00, 0x00, 0x00,
  0x6d, 0x6f, 0x64, 0x65, 0x6c, 0x5f, 0x35, 0x2f, 0x63, 0x6f, 0x6e, 0x76,
  0x31, 0x64, 0x5f, 0x38, 0x33, 0x2f, 0x52, 0x65, 0x6c, 0x75, 0x3b, 0x6d,
  0x6f, 0x64, 0x65, 0x6c, 0x5f, 0x35, 0x2f, 0x63, 0x6f, 0x6e, 0x76, 0x31,
  0x64, 0x5f, 0x38, 0x33, 0x2f, 0x63, 0x6f, 0x6e, 0x76, 0x31, 0x64, 0x2f,
  0x53, 0x71, 0x75, 0x65, 0x65, 0x7a, 0x65, 0x00, 0x03, 0x00, 0x00, 0x00,
  0x01, 0x00, 0x00, 0x00, 0x1e, 0x00, 0x00, 0x00, 0x04, 0x00, 0x00, 0x00,
  0x22, 0xe3, 0xff, 0xff, 0x14, 0x00, 0x00, 0x00, 0x34, 0x00, 0x00, 0x00,
  0x37, 0x00, 0x00, 0x00, 0x00, 0x00, 0x00, 0x09, 0x80, 0x00, 0x00, 0x00,
  0x14, 0xe3, 0xff, 0xff, 0x08, 0x00, 0x00, 0x00, 0x14, 0x00, 0x00, 0x00,
  0x01, 0x00, 0x00, 0x00, 0x80, 0xff, 0xff, 0xff, 0xff, 0xff, 0xff, 0xff,
  0x00, 0x00, 0x00, 0x00, 0x01, 0x00, 0x00, 0x00, 0x63, 0x99, 0x1b, 0x3d,
  0x50, 0x00, 0x00, 0x00, 0x6d, 0x6f, 0x64, 0x65, 0x6c, 0x5f, 0x35, 0x2f,
  0x63, 0x6f, 0x6e, 0x76, 0x31, 0x64, 0x5f, 0x38, 0x33, 0x2f, 0x52, 0x65,
  0x6c, 0x75, 0x3b, 0x6d, 0x6f, 0x64, 0x65, 0x6c, 0x5f, 0x35, 0x2f, 0x63,
  0x6f, 0x6e, 0x76, 0x31, 0x64, 0x5f, 0x38, 0x33, 0x2f, 0x63, 0x6f, 0x6e,
  0x76, 0x31, 0x64, 0x2f, 0x53, 0x71, 0x75, 0x65, 0x65, 0x7a, 0x65, 0x3b,
  0x6d, 0x6f, 0x64, 0x65, 0x6c, 0x5f, 0x35, 0x2f, 0x63, 0x6f, 0x6e, 0x76,
  0x31, 0x64, 0x5f, 0x38, 0x33, 0x2f, 0x63, 0x6f, 0x6e, 0x76, 0x31, 0x64,
  0x00, 0x00, 0x00, 0x00, 0x04, 0x00, 0x00, 0x00, 0x01, 0x00, 0x00, 0x00,
  0x01, 0x00, 0x00, 0x00, 0x1e, 0x00, 0x00, 0x00, 0x04, 0x00, 0x00, 0x00,
  0xca, 0xe3, 0xff, 0xff, 0x14, 0x00, 0x00, 0x00, 0x34, 0x00, 0x00, 0x00,
  0x36, 0x00, 0x00, 0x00, 0x00, 0x00, 0x00, 0x09, 0x64, 0x00, 0x00, 0x00,
  0xbc, 0xe3, 0xff, 0xff, 0x08, 0x00, 0x00, 0x00, 0x14, 0x00, 0x00, 0x00,
  0x01, 0x00, 0x00, 0x00, 0x80, 0xff, 0xff, 0xff, 0xff, 0xff, 0xff, 0xff,
  0x00, 0x00, 0x00, 0x00, 0x01, 0x00, 0x00, 0x00, 0x63, 0x99, 0x1b, 0x3d,
  0x37, 0x00, 0x00, 0x00, 0x6d, 0x6f, 0x64, 0x65, 0x6c, 0x5f, 0x35, 0x2f,
  0x63, 0x6f, 0x6e, 0x76, 0x31, 0x64, 0x5f, 0x38, 0x32, 0x2f, 0x52, 0x65,
  0x6c, 0x75, 0x3b, 0x6d, 0x6f, 0x64, 0x65, 0x6c, 0x5f, 0x35, 0x2f, 0x63,
  0x6f, 0x6e, 0x76, 0x31, 0x64, 0x5f, 0x38, 0x32, 0x2f, 0x63, 0x6f, 0x6e,
  0x76, 0x31, 0x64, 0x2f, 0x53, 0x71, 0x75, 0x65, 0x65, 0x7a, 0x65, 0x00,
  0x03, 0x00, 0x00, 0x00, 0x01, 0x00, 0x00, 0x00, 0x1e, 0x00, 0x00, 0x00,
  0x04, 0x00, 0x00, 0x00, 0x52, 0xe4, 0xff, 0xff, 0x14, 0x00, 0x00, 0x00,
  0x34, 0x00, 0x00, 0x00, 0x35, 0x00, 0x00, 0x00, 0x00, 0x00, 0x00, 0x09,
  0x80, 0x00, 0x00, 0x00, 0x44, 0xe4, 0xff, 0xff, 0x08, 0x00, 0x00, 0x00,
  0x14, 0x00, 0x00, 0x00, 0x01, 0x00, 0x00, 0x00, 0x80, 0xff, 0xff, 0xff,
  0xff, 0xff, 0xff, 0xff, 0x00, 0x00, 0x00, 0x00, 0x01, 0x00, 0x00, 0x00,
  0x63, 0x99, 0x1b, 0x3d, 0x50, 0x00, 0x00, 0x00, 0x6d, 0x6f, 0x64, 0x65,
  0x6c, 0x5f, 0x35, 0x2f, 0x63, 0x6f, 0x6e, 0x76, 0x31, 0x64, 0x5f, 0x38,
  0x32, 0x2f, 0x52, 0x65, 0x6c, 0x75, 0x3b, 0x6d, 0x6f, 0x64, 0x65, 0x6c,
  0x5f, 0x35, 0x2f, 0x63, 0x6f, 0x6e, 0x76, 0x31, 0x64, 0x5f, 0x38, 0x32,
  0x2f, 0x63, 0x6f, 0x6e, 0x76, 0x31, 0x64, 0x2f, 0x53, 0x71, 0x75, 0x65,
  0x65, 0x7a, 0x65, 0x3b, 0x6d, 0x6f, 0x64, 0x65, 0x6c, 0x5f, 0x35, 0x2f,
  0x63, 0x6f, 0x6e, 0x76, 0x31, 0x64, 0x5f, 0x38, 0x32, 0x2f, 0x63, 0x6f,
  0x6e, 0x76, 0x31, 0x64, 0x00, 0x00, 0x00, 0x00, 0x04, 0x00, 0x00, 0x00,
  0x01, 0x00, 0x00, 0x00, 0x01, 0x00, 0x00, 0x00, 0x1e, 0x00, 0x00, 0x00,
  0x04, 0x00, 0x00, 0x00, 0xfa, 0xe4, 0xff, 0xff, 0x14, 0x00, 0x00, 0x00,
  0x34, 0x00, 0x00, 0x00, 0x34, 0x00, 0x00, 0x00, 0x00, 0x00, 0x00, 0x09,
  0x64, 0x00, 0x00, 0x00, 0xec, 0xe4, 0xff, 0xff, 0x08, 0x00, 0x00, 0x00,
  0x14, 0x00, 0x00, 0x00, 0x01, 0x00, 0x00, 0x00, 0x80, 0xff, 0xff, 0xff,
  0xff, 0xff, 0xff, 0xff, 0x00, 0x00, 0x00, 0x00, 0x01, 0x00, 0x00, 0x00,
  0x63, 0x99, 0x1b, 0x3d, 0x37, 0x00, 0x00, 0x00, 0x6d, 0x6f, 0x64, 0x65,
  0x6c, 0x5f, 0x35, 0x2f, 0x63, 0x6f, 0x6e, 0x76, 0x31, 0x64, 0x5f, 0x38,
  0x31, 0x2f, 0x52, 0x65, 0x6c, 0x75, 0x3b, 0x6d, 0x6f, 0x64, 0x65, 0x6c,
  0x5f, 0x35, 0x2f, 0x63, 0x6f, 0x6e, 0x76, 0x31, 0x64, 0x5f, 0x38, 0x31,
  0x2f, 0x63, 0x6f, 0x6e, 0x76, 0x31, 0x64, 0x2f, 0x53, 0x71, 0x75, 0x65,
  0x65, 0x7a, 0x65, 0x00, 0x03, 0x00, 0x00, 0x00, 0x01, 0x00, 0x00, 0x00,
  0x1e, 0x00, 0x00, 0x00, 0x04, 0x00, 0x00, 0x00, 0x82, 0xe5, 0xff, 0xff,
  0x14, 0x00, 0x00, 0x00, 0x34, 0x00, 0x00, 0x00, 0x33, 0x00, 0x00, 0x00,
