unsigned char classifier_tflite[] = {
  0x1c, 0x00, 0x00, 0x00, 0x54, 0x46, 0x4c, 0x33, 0x14, 0x00, 0x20, 0x00,
  0x1c, 0x00, 0x18, 0x00, 0x14, 0x00, 0x10, 0x00, 0x0c, 0x00, 0x00, 0x00,
  0x08, 0x00, 0x04, 0x00, 0x14, 0x00, 0x00, 0x00, 0x1c, 0x00, 0x00, 0x00,
  0x1c, 0x00, 0x00, 0x00, 0x4c, 0x00, 0x00, 0x00, 0x04, 0x15, 0x00, 0x00,
  0x14, 0x15, 0x00, 0x00, 0x58, 0x5a, 0x00, 0x00, 0x03, 0x00, 0x00, 0x00,
  0x00, 0x00, 0x00, 0x00, 0x01, 0x00, 0x00, 0x00, 0x0c, 0x00, 0x00, 0x00,
  0x08, 0x00, 0x0c, 0x00, 0x08, 0x00, 0x04, 0x00, 0x08, 0x00, 0x00, 0x00,
  0x67, 0x00, 0x00, 0x00, 0x04, 0x00, 0x00, 0x00, 0x13, 0x00, 0x00, 0x00,
  0x6d, 0x69, 0x6e, 0x5f, 0x72, 0x75, 0x6e, 0x74, 0x69, 0x6d, 0x65, 0x5f,
  0x76, 0x65, 0x72, 0x73, 0x69, 0x6f, 0x6e, 0x00, 0x68, 0x00, 0x00, 0x00,
  0xb4, 0x14, 0x00, 0x00, 0xac, 0x14, 0x00, 0x00, 0x8c, 0x14, 0x00, 0x00,
  0x70, 0x14, 0x00, 0x00, 0x54, 0x14, 0x00, 0x00, 0x34, 0x14, 0x00, 0x00,
  0x14, 0x14, 0x00, 0x00, 0xf4, 0x13, 0x00, 0x00, 0xdc, 0x13, 0x00, 0x00,
  0xc4, 0x13, 0x00, 0x00, 0xb0, 0x13, 0x00, 0x00, 0x9c, 0x13, 0x00, 0x00,
  0x88, 0x13, 0x00, 0x00, 0x28, 0x13, 0x00, 0x00, 0x08, 0x13, 0x00, 0x00,
  0xe8, 0x12, 0x00, 0x00, 0xc8, 0x12, 0x00, 0x00, 0xa8, 0x12, 0x00, 0x00,
  0x88, 0x12, 0x00, 0x00, 0x68, 0x12, 0x00, 0x00, 0x48, 0x12, 0x00, 0x00,
  0x28, 0x12, 0x00, 0x00, 0x08, 0x12, 0x00, 0x00, 0xe8, 0x11, 0x00, 0x00,
  0xc8, 0x11, 0x00, 0x00, 0xa8, 0x11, 0x00, 0x00, 0x70, 0x11, 0x00, 0x00,
  0x4c, 0x11, 0x00, 0x00, 0xdc, 0x10, 0x00, 0x00, 0x8c, 0x10, 0x00, 0x00,
  0x64, 0x10, 0x00, 0x00, 0x44, 0x10, 0x00, 0x00, 0x24, 0x10, 0x00, 0x00,
  0x04, 0x10, 0x00, 0x00, 0xa4, 0x0f, 0x00, 0x00, 0x6c, 0x0f, 0x00, 0x00,
  0x48, 0x0f, 0x00, 0x00, 0xf8, 0x0e, 0x00, 0x00, 0xd8, 0x0e, 0x00, 0x00,
  0xb8, 0x0e, 0x00, 0x00, 0x98, 0x0e, 0x00, 0x00, 0x38, 0x0e, 0x00, 0x00,
  0x00, 0x0e, 0x00, 0x00, 0xdc, 0x0d, 0x00, 0x00, 0x8c, 0x0d, 0x00, 0x00,
  0x6c, 0x0d, 0x00, 0x00, 0x4c, 0x0d, 0x00, 0x00, 0xfc, 0x01, 0x00, 0x00,
  0xd4, 0x01, 0x00, 0x00, 0xcc, 0x01, 0x00, 0x00, 0xc4, 0x01, 0x00, 0x00,
  0xbc, 0x01, 0x00, 0x00, 0xb4, 0x01, 0x00, 0x00, 0xac, 0x01, 0x00, 0x00,
  0xa4, 0x01, 0x00, 0x00, 0x9c, 0x01, 0x00, 0x00, 0x94, 0x01, 0x00, 0x00,
  0x8c, 0x01, 0x00, 0x00, 0x84, 0x01, 0x00, 0x00, 0x7c, 0x01, 0x00, 0x00,
  0x74, 0x01, 0x00, 0x00, 0x6c, 0x01, 0x00, 0x00, 0x64, 0x01, 0x00, 0x00,
  0x5c, 0x01, 0x00, 0x00, 0x54, 0x01, 0x00, 0x00, 0x4c, 0x01, 0x00, 0x00,
  0x44, 0x01, 0x00, 0x00, 0x3c, 0x01, 0x00, 0x00, 0x34, 0x01, 0x00, 0x00,
  0x2c, 0x01, 0x00, 0x00, 0x24, 0x01, 0x00, 0x00, 0x1c, 0x01, 0x00, 0x00,
  0x14, 0x01, 0x00, 0x00, 0x0c, 0x01, 0x00, 0x00, 0x04, 0x01, 0x00, 0x00,
  0xfc, 0x00, 0x00, 0x00, 0xf4, 0x00, 0x00, 0x00, 0xec, 0x00, 0x00, 0x00,
  0xe4, 0x00, 0x00, 0x00, 0xdc, 0x00, 0x00, 0x00, 0xd4, 0x00, 0x00, 0x00,
  0xcc, 0x00, 0x00, 0x00, 0xc4, 0x00, 0x00, 0x00, 0xbc, 0x00, 0x00, 0x00,
  0xb4, 0x00, 0x00, 0x00, 0xac, 0x00, 0x00, 0x00, 0xa4, 0x00, 0x00, 0x00,
  0x9c, 0x00, 0x00, 0x00, 0x94, 0x00, 0x00, 0x00, 0x8c, 0x00, 0x00, 0x00,
  0x84, 0x00, 0x00, 0x00, 0x7c, 0x00, 0x00, 0x00, 0x74, 0x00, 0x00, 0x00,
  0x6c, 0x00, 0x00, 0x00, 0x64, 0x00, 0x00, 0x00, 0x5c, 0x00, 0x00, 0x00,
  0x54, 0x00, 0x00, 0x00, 0x4c, 0x00, 0x00, 0x00, 0x44, 0x00, 0x00, 0x00,
  0x3c, 0x00, 0x00, 0x00, 0x34, 0x00, 0x00, 0x00, 0x2c, 0x00, 0x00, 0x00,
  0x24, 0x00, 0x00, 0x00, 0x04, 0x00, 0x00, 0x00, 0x86, 0xe4, 0xff, 0xff,
  0x04, 0x00, 0x00, 0x00, 0x10, 0x00, 0x00, 0x00, 0x31, 0x2e, 0x31, 0x34,
  0x2e, 0x30, 0x00, 0x00, 0x00, 0x00, 0x00, 0x00, 0x00, 0x00, 0x00, 0x00,
  0x64, 0xa8, 0xff, 0xff, 0x68, 0xa8, 0xff, 0xff, 0x6c, 0xa8, 0xff, 0xff,
  0x70, 0xa8, 0xff, 0xff, 0x74, 0xa8, 0xff, 0xff, 0x78, 0xa8, 0xff, 0xff,
  0x7c, 0xa8, 0xff, 0xff, 0x80, 0xa8, 0xff, 0xff, 0x84, 0xa8, 0xff, 0xff,
  0x88, 0xa8, 0xff, 0xff, 0x8c, 0xa8, 0xff, 0xff, 0x90, 0xa8, 0xff, 0xff,
  0x94, 0xa8, 0xff, 0xff, 0x98, 0xa8, 0xff, 0xff, 0x9c, 0xa8, 0xff, 0xff,
  0xa0, 0xa8, 0xff, 0xff, 0xa4, 0xa8, 0xff, 0xff, 0xa8, 0xa8, 0xff, 0xff,
  0xac, 0xa8, 0xff, 0xff, 0xb0, 0xa8, 0xff, 0xff, 0xb4, 0xa8, 0xff, 0xff,
  0xb8, 0xa8, 0xff, 0xff, 0xbc, 0xa8, 0xff, 0xff, 0xc0, 0xa8, 0xff, 0xff,
  0xc4, 0xa8, 0xff, 0xff, 0xc8, 0xa8, 0xff, 0xff, 0xcc, 0xa8, 0xff, 0xff,
  0xd0, 0xa8, 0xff, 0xff, 0xd4, 0xa8, 0xff, 0xff, 0xd8, 0xa8, 0xff, 0xff,
  0xdc, 0xa8, 0xff, 0xff, 0xe0, 0xa8, 0xff, 0xff, 0xe4, 0xa8, 0xff, 0xff,
  0xe8, 0xa8, 0xff, 0xff, 0xec, 0xa8, 0xff, 0xff, 0xf0, 0xa8, 0xff, 0xff,
  0xf4, 0xa8, 0xff, 0xff, 0xf8, 0xa8, 0xff, 0xff, 0xfc, 0xa8, 0xff, 0xff,
  0x00, 0xa9, 0xff, 0xff, 0x04, 0xa9, 0xff, 0xff, 0x08, 0xa9, 0xff, 0xff,
  0x0c, 0xa9, 0xff, 0xff, 0x10, 0xa9, 0xff, 0xff, 0x14, 0xa9, 0xff, 0xff,
  0x18, 0xa9, 0xff, 0xff, 0x1c, 0xa9, 0xff, 0xff, 0x20, 0xa9, 0xff, 0xff,
  0x24, 0xa9, 0xff, 0xff, 0x28, 0xa9, 0xff, 0xff, 0x2c, 0xa9, 0xff, 0xff,
  0x30, 0xa9, 0xff, 0xff, 0x34, 0xa9, 0xff, 0xff, 0x38, 0xa9, 0xff, 0xff,
  0x7a, 0xe5, 0xff, 0xff, 0x04, 0x00, 0x00, 0x00, 0x18, 0x00, 0x00, 0x00,
  0xf3, 0x0e, 0x00, 0x00, 0x8b, 0xf6, 0xff, 0xff, 0x9e, 0xf5, 0xff, 0xff,
  0x36, 0xf7, 0xff, 0xff, 0xc3, 0xf4, 0xff, 0xff, 0x42, 0xf4, 0xff, 0xff,
  0x9e, 0xe5, 0xff, 0xff, 0x04, 0x00, 0x00, 0x00, 0x40, 0x0b, 0x00, 0x00,
  0xca, 0xf7, 0xee, 0xf8, 0xf8, 0x25, 0xec, 0xec, 0xea, 0x00, 0x23, 0x2a,
  0xdf, 0x64, 0xea, 0xe4, 0xed, 0x0d, 0x02, 0x15, 0xb7, 0xc1, 0xf5, 0xfc,
  0xc9, 0xfd, 0xcd, 0xf5, 0xf5, 0x7f, 0x1f, 0xbe, 0xcc, 0x12, 0x0a, 0xf7,
  0xcf, 0xa8, 0x0b, 0xd3, 0x1f, 0xf1, 0xcf, 0xd3, 0x18, 0x7c, 0x0c, 0xe3,
  0xef, 0xd2, 0x04, 0x1c, 0xdf, 0xfe, 0xf7, 0xfc, 0xc2, 0xcc, 0x10, 0xda,
  0xe2, 0x5c, 0x25, 0xe9, 0x16, 0xff, 0xcd, 0xdf, 0xdc, 0xda, 0xe2, 0x06,
  0x12, 0x15, 0xef, 0xe2, 0xfb, 0x59, 0x18, 0xfd, 0xca, 0xfe, 0xbf, 0x05,
  0xd2, 0x0f, 0xf5, 0xe9, 0xd0, 0xe8, 0xe8, 0x2d, 0x0c, 0x3a, 0x0b, 0xd9,
  0xd8, 0xf8, 0x1a, 0xca, 0xd8, 0xf3, 0x06, 0xca, 0xd7, 0xc2, 0x12, 0xf4,
  0xe3, 0x2d, 0xf2, 0xd7, 0xdc, 0xd0, 0xe8, 0x00, 0xcb, 0xf2, 0xef, 0xee,
  0x09, 0xbc, 0xf4, 0xeb, 0x16, 0x48, 0x17, 0xf0, 0x01, 0xd1, 0x14, 0x16,
  0xd2, 0xdd, 0xe2, 0x06, 0x01, 0xd5, 0xe6, 0xd1, 0xc8, 0x55, 0xf2, 0xd9,
  0x0d, 0xe4, 0xd6, 0x08, 0xf9, 0xdc, 0xec, 0x02, 0xc4, 0xf3, 0x11, 0xec,
  0xe2, 0x59, 0xcb, 0xed, 0x11, 0xed, 0xe5, 0xfb, 0xdb, 0xd7, 0xc6, 0xe5,
  0x0b, 0xea, 0x00, 0xe5, 0x19, 0x2f, 0xd8, 0xdf, 0xd7, 0x0f, 0x0a, 0xd4,
  0x1b, 0xe4, 0x1f, 0x02, 0xd9, 0x0b, 0xd6, 0xd7, 0x14, 0x43, 0x05, 0xe7,
  0xf7, 0xe5, 0xff, 0x16, 0xe6, 0xe1, 0xd7, 0x09, 0xce, 0xf3, 0xf3, 0xf7,
  0xce, 0x4d, 0xfa, 0xe2, 0x18, 0x1f, 0x0e, 0xf6, 0x0f, 0x0e, 0x10, 0xf0,
  0xf2, 0xed, 0x08, 0xd8, 0xfc, 0x39, 0x11, 0xd1, 0xf7, 0xd8, 0xdd, 0xc3,
  0xbd, 0xd6, 0x09, 0xe9, 0xf8, 0xf3, 0xd1, 0x18, 0x11, 0x64, 0xdc, 0xe8,
  0x13, 0x09, 0xbf, 0x12, 0xd5, 0xfe, 0x0d, 0xe3, 0xcf, 0x14, 0x1f, 0xee,
  0xf4, 0x4e, 0x25, 0xd5, 0x06, 0xe0, 0xdb, 0xdf, 0xc2, 0xff, 0x16, 0x1f,
  0xf2, 0xcc, 0x1c, 0xf3, 0xd7, 0x2e, 0x05, 0xb9, 0xcd, 0xf2, 0xc1, 0x05,
  0x1b, 0xf7, 0xf4, 0xff, 0xd2, 0xce, 0xca, 0x22, 0xf3, 0x1a, 0xd7, 0xd4,
  0x0d, 0x11, 0xcc, 0x17, 0xe4, 0xb8, 0xf3, 0xff, 0xc5, 0xbc, 0xe0, 0xd1,
  0xf7, 0x3a, 0xf2, 0xcb, 0xd6, 0xea, 0xed, 0xde, 0x0e, 0x0a, 0xde, 0xcd,
  0x11, 0xcb, 0xf0, 0x2c, 0xed, 0x65, 0xcd, 0xc8, 0xca, 0x12, 0x18, 0x17,
  0xcf, 0x0e, 0x07, 0xfd, 0xdc, 0xdc, 0xca, 0xe1, 0xe7, 0x18, 0xf9, 0xa0,
  0xf0, 0x04, 0xd2, 0x02, 0xc1, 0xc3, 0x08, 0xca, 0xff, 0xf5, 0xe0, 0xdc,
  0x00, 0x21, 0x06, 0xda, 0x05, 0xf5, 0xcf, 0x16, 0xe0, 0x02, 0x05, 0x0e,
  0xf0, 0xdd, 0xd2, 0x1a, 0xd0, 0x49, 0xde, 0xb0, 0xdf, 0xdf, 0xf6, 0xcb,
  0xe9, 0xd0, 0xf1, 0xd1, 0xf3, 0x0a, 0x1c, 0xf9, 0xd8, 0x4c, 0xe0, 0xa1,
  0xf8, 0xcd, 0xcf, 0xe6, 0xd5, 0xfd, 0x03, 0x16, 0xc0, 0xdd, 0xcb, 0x20,
  0xf6, 0x5c, 0xe2, 0xcd, 0x18, 0x18, 0x0e, 0x00, 0xce, 0x1a, 0xf7, 0xc2,
  0x17, 0xf6, 0xee, 0x05, 0xee, 0x24, 0xda, 0xa1, 0xec, 0xd0, 0x1f, 0xe8,
  0x18, 0x12, 0x03, 0x03, 0x14, 0x17, 0xff, 0x2a, 0xd8, 0x19, 0x14, 0xc3,
  0xfc, 0xc5, 0xe9, 0x0e, 0xc5, 0x10, 0xe6, 0x16, 0x17, 0xc7, 0xcf, 0x16,
  0xdd, 0x22, 0xf1, 0xc1, 0xd4, 0xde, 0x14, 0x00, 0xc0, 0xeb, 0xda, 0x02,
  0xd1, 0x13, 0xd9, 0xd5, 0x0f, 0x3f, 0x0b, 0xde, 0x0b, 0xc5, 0x00, 0xc3,
  0xf2, 0xf4, 0xf4, 0xff, 0xc4, 0xcf, 0x0b, 0x26, 0xe3, 0x0f, 0xc8, 0xb0,
  0xcc, 0x29, 0x20, 0x17, 0x5b, 0x43, 0xe9, 0xea, 0x07, 0x67, 0x07, 0xff,
  0xf2, 0xe6, 0xfd, 0xb6, 0xbb, 0x13, 0xf2, 0xe5, 0x01, 0xc1, 0xdb, 0xfd,
  0xe8, 0x3c, 0xea, 0x24, 0x03, 0xd4, 0x11, 0xc0, 0x00, 0x39, 0xf9, 0xe1,
  0x68, 0x67, 0xea, 0xe4, 0x03, 0x38, 0xf6, 0xed, 0xd7, 0xf0, 0x26, 0xf6,
  0x0c, 0x20, 0x31, 0x26, 0x41, 0x2a, 0xb2, 0xea, 0xe0, 0x3b, 0xe3, 0xd2,
  0xe6, 0xe6, 0x15, 0xce, 0x03, 0x15, 0x06, 0x10, 0x4a, 0xf9, 0xd8, 0x07,
  0xd9, 0x31, 0x02, 0x07, 0x03, 0xde, 0x34, 0xf4, 0xe8, 0x40, 0x36, 0x12,
  0x54, 0x0f, 0xff, 0xfb, 0x0b, 0x31, 0x15, 0xde, 0xe9, 0xe6, 0x3a, 0xed,
  0xfa, 0x41, 0x29, 0x1c, 0x3a, 0x18, 0xd3, 0xf9, 0xd7, 0x30, 0xf3, 0xe5,
  0xe9, 0xca, 0xfd, 0xd7, 0xfb, 0x56, 0x15, 0xe4, 0x3e, 0x0e, 0xe4, 0xf8,
  0xd4, 0x4b, 0xc6, 0x2d, 0xc9, 0xe1, 0x19, 0xd5, 0xe3, 0x50, 0x1a, 0x02,
  0x59, 0x26, 0xc3, 0xfc, 0x0c, 0x40, 0xda, 0xd2, 0x07, 0xa6, 0x2f, 0xe4,
  0xed, 0x51, 0x23, 0x1b, 0x54, 0x28, 0xe4, 0xf2, 0xf9, 0x51, 0xde, 0x00,
  0xf2, 0xaa, 0x4c, 0xe9, 0x05, 0x3a, 0x49, 0x24, 0x3f, 0x1d, 0xea, 0xf2,
  0xff, 0x26, 0xd6, 0xd2, 0x00, 0xce, 0x30, 0xb4, 0x11, 0x26, 0x2a, 0x21,
  0x3f, 0x27, 0xba, 0xf0, 0x09, 0x4d, 0xfa, 0x0c, 0xe9, 0xbd, 0x4e, 0xd3,
  0xf4, 0x4c, 0x0a, 0xf5, 0x32, 0x38, 0xe1, 0xf1, 0x0e, 0x57, 0xd0, 0xf7,
  0xee, 0xa8, 0x38, 0xc1, 0xf7, 0x3f, 0x30, 0x1f, 0x40, 0x62, 0xd0, 0x0a,
  0xe2, 0x66, 0xfa, 0xdc, 0xd1, 0xb3, 0x46, 0xe9, 0x05, 0x37, 0x33, 0x0a,
  0x6c, 0x4c, 0xd3, 0x13, 0x0c, 0x4a, 0xde, 0xda, 0xf0, 0xd7, 0x1a, 0xda,
  0xe8, 0x1c, 0x48, 0xe4, 0x4b, 0x32, 0xd1, 0xf9, 0x1c, 0x64, 0x1c, 0x24,
  0xc7, 0xd0, 0x15, 0xad, 0x17, 0x1c, 0x4c, 0xdd, 0x52, 0x3a, 0xe3, 0xfa,
  0xfb, 0x64, 0xd5, 0xd9, 0xd4, 0xc4, 0x53, 0xda, 0x17, 0x40, 0x18, 0x07,
  0x34, 0x2b, 0x9d, 0x0c, 0xf1, 0x50, 0x12, 0xfd, 0xde, 0xbb, 0x36, 0xcc,
  0x1d, 0x27, 0x44, 0xfe, 0x5a, 0x3c, 0xd3, 0xdb, 0x09, 0x53, 0xea, 0xed,
  0xde, 0xc5, 0x31, 0xe6, 0xe2, 0x54, 0x15, 0x17, 0x3c, 0x4a, 0xbd, 0x1f,
  0xed, 0x61, 0x13, 0xe1, 0xca, 0xc8, 0x29, 0xb5, 0x1d, 0x36, 0x44, 0x19,
  0x3a, 0x46, 0xdf, 0x0d, 0xce, 0x50, 0x1e, 0x1e, 0xe2, 0xc9, 0x30, 0xd7,
  0x1a, 0x24, 0x2b, 0xf5, 0x2b, 0x3f, 0xcd, 0x03, 0x0c, 0x5a, 0xec, 0xf4,
  0xf1, 0xb1, 0x06, 0xbe, 0xe9, 0x25, 0x3d, 0x1c, 0x1c, 0x42, 0xc2, 0x05,
  0x13, 0x37, 0xd7, 0xf4, 0xed, 0xa7, 0x33, 0xca, 0xf8, 0x2e, 0x24, 0xf9,
  0x2d, 0x2b, 0xdf, 0x22, 0xf6, 0x6b, 0xf7, 0x10, 0xbc, 0xbc, 0x28, 0xe1,
  0xce, 0x37, 0xf8, 0x15, 0x4a, 0x54, 0xe3, 0xff, 0xda, 0x17, 0xcd, 0xf2,
  0xe6, 0xe7, 0x1c, 0xb3, 0x0d, 0x36, 0xd7, 0xff, 0x2c, 0x52, 0xbd, 0x18,
  0xf6, 0x30, 0xe0, 0xe6, 0xdd, 0xd1, 0x2c, 0xc5, 0xea, 0x18, 0xea, 0x09,
  0x1d, 0x4f, 0x19, 0x16, 0x0a, 0x0f, 0xee, 0xdf, 0xd2, 0xb9, 0x24, 0xd0,
  0xe8, 0x3b, 0x08, 0xee, 0x28, 0x1a, 0xfb, 0xf3, 0x10, 0x06, 0xd8, 0xf6,
  0xc2, 0xe4, 0x1a, 0xe5, 0x22, 0x44, 0xe3, 0x02, 0x1a, 0x02, 0x1a, 0xea,
  0xe0, 0x18, 0x12, 0xf9, 0xc7, 0xe2, 0x14, 0xc4, 0xee, 0x47, 0x0c, 0x0c,
  0x0e, 0x29, 0xec, 0xea, 0xee, 0x1f, 0xf8, 0x01, 0xfd, 0xef, 0x20, 0xcc,
  0x50, 0xd5, 0x0b, 0x0e, 0x21, 0xc7, 0xfe, 0xea, 0xfc, 0xea, 0x0a, 0x2c,
  0x2c, 0xe6, 0xf9, 0xc4, 0x32, 0x02, 0x11, 0x19, 0xf4, 0xc4, 0xd2, 0xe6,
  0xfa, 0xf7, 0x2a, 0x0a, 0x6a, 0xdf, 0xfa, 0xc2, 0x0e, 0x05, 0xe4, 0xe3,
  0x17, 0xec, 0xe9, 0xda, 0x09, 0xf8, 0xff, 0xdc, 0x13, 0xd0, 0xda, 0xed,
  0x0c, 0xce, 0x22, 0xef, 0xfd, 0x11, 0xee, 0xe9, 0x19, 0x02, 0xd9, 0xed,
  0x1c, 0xe2, 0xd0, 0xde, 0x0b, 0xce, 0xed, 0xee, 0x0e, 0xce, 0x2e, 0x2b,
  0xf0, 0x10, 0x24, 0xf1, 0x6d, 0xd2, 0x00, 0xef, 0x01, 0xfd, 0xfa, 0x23,
  0x01, 0xf9, 0xe1, 0x05, 0xf9, 0x08, 0x22, 0x18, 0x37, 0xcf, 0x06, 0xd4,
  0xe6, 0xee, 0xff, 0xfe, 0x04, 0x13, 0xfd, 0x01, 0x05, 0xd4, 0xf4, 0x1e,
  0x52, 0xec, 0xe4, 0xd1, 0x07, 0xf7, 0xfc, 0x27, 0x10, 0xd8, 0x13, 0x01,
  0x25, 0x22, 0xdf, 0x09, 0x2c, 0x05, 0xd7, 0xf2, 0x13, 0xec, 0xea, 0x0c,
  0x05, 0xe0, 0x1d, 0x26, 0xe1, 0xff, 0x11, 0x06, 0x63, 0xd1, 0xd6, 0xe5,
  0x1b, 0xd6, 0xd6, 0x28, 0xfc, 0xff, 0xee, 0x11, 0xdf, 0xfa, 0x26, 0x0a,
  0x64, 0xe0, 0x0c, 0xfa, 0x39, 0xe3, 0x13, 0x1d, 0xf9, 0x02, 0xe1, 0x15,
  0xfd, 0xe1, 0xe4, 0xde, 0x5c, 0xe1, 0x07, 0xe3, 0x35, 0xe3, 0xe4, 0xf9,
  0xf0, 0xf5, 0x2d, 0x25, 0x27, 0xe8, 0xe4, 0x00, 0x48, 0xee, 0xf3, 0xe8,
  0xff, 0xf8, 0xea, 0xf9, 0xf4, 0x04, 0xee, 0xeb, 0x14, 0xe4, 0x1f, 0xdc,
  0x5f, 0xe9, 0x19, 0x10, 0xf4, 0xf8, 0xf3, 0x1f, 0x07, 0x26, 0x14, 0xe0,
  0xf6, 0x0f, 0x0d, 0x2e, 0x1d, 0xed, 0x04, 0xd2, 0x16, 0xed, 0xec, 0xe6,
  0x1c, 0x01, 0x27, 0x1a, 0x10, 0xf2, 0x2b, 0xee, 0x56, 0x01, 0xf0, 0xf4,
  0xed, 0xdd, 0x18, 0xe2, 0x0d, 0x03, 0x27, 0xf5, 0x15, 0x12, 0x05, 0x15,
  0x50, 0xed, 0xf4, 0xee, 0x26, 0xd3, 0x00, 0xe1, 0x09, 0x0b, 0x0b, 0x13,
  0xfa, 0xfe, 0xfc, 0xf4, 0x0c, 0xc7, 0xea, 0x03, 0x25, 0xf5, 0xe2, 0x3d,
  0x12, 0x02, 0xee, 0x1b, 0xf7, 0xf9, 0x26, 0xd8, 0x47, 0xfc, 0xec, 0xbf,
  0x07, 0xe5, 0x0f, 0xe1, 0x0f, 0x21, 0x40, 0x14, 0xea, 0xf1, 0xf5, 0x11,
  0x4c, 0xd1, 0xeb, 0x03, 0x0d, 0x14, 0xfa, 0x17, 0xf5, 0x1f, 0xe8, 0x32,
  0x14, 0xeb, 0x17, 0xe2, 0x18, 0xe2, 0xfe, 0xce, 0x10, 0x10, 0x0b, 0x28,
  0x1c, 0x0d, 0x32, 0x35, 0xef, 0x0e, 0xea, 0x13, 0x52, 0xd6, 0xff, 0xd1,
  0xfe, 0xf5, 0x04, 0xfc, 0x01, 0xf6, 0x29, 0x35, 0x15, 0xf5, 0xed, 0x01,
  0x2e, 0xd1, 0xe6, 0xf5, 0xe5, 0xfa, 0x0d, 0x12, 0x0a, 0xf8, 0x1c, 0xe5,
  0x2b, 0x08, 0x11, 0x11, 0x46, 0xe6, 0x03, 0xde, 0x17, 0xe3, 0x26, 0xfc,
  0xe8, 0x05, 0xfb, 0x11, 0xfe, 0xec, 0xea, 0xe8, 0x18, 0xd8, 0xf6, 0xdf,
  0x29, 0xe2, 0xfd, 0x25, 0x12, 0x19, 0x30, 0xf8, 0x08, 0x02, 0xf1, 0xe5,
  0x25, 0xaf, 0xf5, 0xdb, 0x1d, 0xf5, 0xfb, 0x19, 0xd9, 0x05, 0x15, 0xf3,
  0xef, 0x1c, 0x02, 0x1f, 0x2a, 0xed, 0xf0, 0xfd, 0x15, 0xef, 0xfc, 0xff,
  0xe9, 0xfe, 0x2e, 0x0e, 0x0e, 0x1d, 0x04, 0xfd, 0x2d, 0xf4, 0xea, 0xb6,
  0xfb, 0x0e, 0xf0, 0xe1, 0xe5, 0xea, 0xd8, 0x25, 0x39, 0xe8, 0x14, 0x04,
  0x1a, 0xc1, 0xdb, 0xff, 0x32, 0xee, 0x06, 0xed, 0xf4, 0x0e, 0x05, 0x10,
  0x2d, 0x12, 0xdf, 0x1c, 0x3f, 0xeb, 0xec, 0xeb, 0x0b, 0xcd, 0xfb, 0xd7,
  0xe9, 0x15, 0xe8, 0xe6, 0x14, 0xf0, 0x1f, 0x11, 0x18, 0xd1, 0xdd, 0x05,
  0x49, 0xf7, 0xef, 0x1a, 0x15, 0xe4, 0xf0, 0xff, 0x25, 0x39, 0x1d, 0x09,
  0xb2, 0x03, 0x0a, 0x2d, 0x05, 0xf8, 0x05, 0x39, 0x09, 0xd2, 0xc8, 0xeb,
  0xf8, 0x40, 0xf2, 0xf9, 0xd0, 0x2f, 0xdd, 0x14, 0xeb, 0xf0, 0x06, 0xef,
  0x0e, 0x19, 0xdf, 0x04, 0x2f, 0x2f, 0xda, 0x03, 0xd2, 0x02, 0xfe, 0x28,
  0x0b, 0xf4, 0x21, 0xfd, 0xff, 0x32, 0xef, 0x1a, 0x19, 0x07, 0xfe, 0x0d,
  0xdc, 0x21, 0xd9, 0x23, 0x16, 0xfc, 0xff, 0x13, 0x10, 0x16, 0xc3, 0x30,
  0x02, 0x34, 0xef, 0x27, 0xdb, 0x2d, 0xe0, 0x51, 0x24, 0xf5, 0x27, 0xe6,
  0x08, 0x08, 0xba, 0x0c, 0x12, 0x0a, 0xe2, 0x0b, 0x89, 0x2a, 0xf2, 0x14,
  0xfe, 0xf9, 0x3d, 0xd9, 0x0a, 0x22, 0xdf, 0x07, 0xfd, 0x11, 0xe0, 0xe0,
  0x83, 0x0e, 0xe4, 0x1c, 0xf7, 0x12, 0x20, 0x37, 0xfb, 0x1c, 0xd8, 0x08,
  0x0d, 0xfd, 0xc1, 0x16, 0xcb, 0x42, 0x1a, 0x1b, 0x0c, 0x05, 0x0c, 0x18,
  0x18, 0x34, 0xf2, 0x2d, 0x02, 0x35, 0xe3, 0x1d, 0xd7, 0x2a, 0x0e, 0x11,
  0xc6, 0x17, 0x01, 0x02, 0xfa, 0x04, 0xd5, 0x18, 0x05, 0x1a, 0xf8, 0xed,
  0x99, 0x2d, 0xf9, 0x26, 0x1c, 0x28, 0x4e, 0xe3, 0x0d, 0x26, 0xdf, 0x1f,
  0x03, 0x1a, 0xe5, 0xea, 0xd1, 0x3e, 0xf0, 0x3e, 0x04, 0x11, 0x0e, 0x01,
  0x00, 0x2a, 0x0c, 0x2a, 0x13, 0x19, 0xfc, 0x03, 0xc1, 0x25, 0x00, 0x18,
  0x11, 0x23, 0x0d, 0x23, 0xe8, 0x17, 0x05, 0xed, 0xcc, 0x0d, 0xde, 0xd3,
  0x9f, 0x28, 0xc1, 0x34, 0x20, 0x0a, 0x19, 0xf1, 0x16, 0x0e, 0x0c, 0xdf,
  0x14, 0x24, 0x04, 0x14, 0xda, 0x44, 0xfb, 0x1d, 0x0e, 0x12, 0x12, 0xf4,
  0xea, 0x40, 0xff, 0x09, 0xde, 0x0f, 0xce, 0x0b, 0xc4, 0x56, 0x10, 0x3b,
  0xfd, 0xfe, 0x04, 0xd5, 0xeb, 0x2d, 0x15, 0x20, 0xcc, 0x14, 0x0d, 0x09,
  0xb6, 0x1c, 0xaf, 0x2f, 0x13, 0xf2, 0x3a, 0x05, 0xea, 0x1b, 0xf1, 0xea,
  0x02, 0xf6, 0xe5, 0xd2, 0xb7, 0x21, 0xee, 0x3d, 0xfe, 0xf3, 0x11, 0x22,
  0x1d, 0x27, 0xe1, 0x00, 0xd0, 0xf4, 0xec, 0x19, 0x9c, 0x45, 0x11, 0x16,
  0xf8, 0xf8, 0x16, 0xe0, 0x05, 0x29, 0x04, 0xef, 0x1e, 0x10, 0xdf, 0x05,
  0xd6, 0x45, 0xdf, 0x19, 0xfe, 0x3a, 0x17, 0xe9, 0x0b, 0x41, 0x01, 0x0e,
  0x1e, 0xf1, 0xd5, 0x0c, 0xa1, 0x39, 0xc9, 0x3a, 0xf7, 0x18, 0x40, 0x24,
  0x23, 0x31, 0xd3, 0xf5, 0x16, 0x0c, 0x1d, 0xd4, 0xb3, 0x41, 0x01, 0x23,
  0xec, 0x13, 0x1d, 0xe8, 0x17, 0x17, 0xff, 0xda, 0x1d, 0x0f, 0xec, 0xf8,
  0xd6, 0x4a, 0xe5, 0x07, 0x10, 0x2c, 0x12, 0xe2, 0x12, 0x18, 0x0a, 0xe6,
  0xea, 0xf2, 0xcd, 0x0e, 0x8f, 0x0e, 0x0a, 0x0f, 0x15, 0x52, 0x21, 0xee,
  0x1b, 0x06, 0x11, 0x0c, 0xd4, 0x21, 0xd3, 0xf5, 0x9f, 0x25, 0xf9, 0x3b,
  0xf2, 0x2d, 0x08, 0xe8, 0x26, 0xfe, 0xe5, 0xe3, 0xdf, 0x15, 0x19, 0x29,
  0xb4, 0x32, 0xe6, 0x15, 0xe6, 0xfc, 0x0f, 0xf2, 0xfb, 0x19, 0xf7, 0xd2,
  0x15, 0x16, 0xf7, 0xdd, 0x9b, 0x1f, 0x08, 0x1e, 0xec, 0xec, 0x00, 0xd8,
  0x13, 0x06, 0xf9, 0xe0, 0x1d, 0x32, 0xec, 0xfe, 0xc7, 0x17, 0x04, 0x00,
  0xbc, 0x1c, 0x31, 0xad, 0xea, 0x25, 0x0c, 0xb8, 0xc9, 0x20, 0xb2, 0xf3,
  0xd5, 0x0a, 0x19, 0x30, 0xdd, 0x27, 0x20, 0xe6, 0xe4, 0x28, 0x33, 0xf9,
  0x02, 0xe0, 0xed, 0xdd, 0xbb, 0x23, 0x3a, 0x22, 0xce, 0x30, 0x13, 0xf4,
  0x08, 0xf5, 0x16, 0x07, 0xd5, 0xdf, 0xae, 0xe2, 0x9c, 0x14, 0x17, 0xec,
  0x02, 0xee, 0x12, 0xfd, 0x0e, 0xe9, 0x1a, 0xd8, 0xfd, 0xec, 0x25, 0xd4,
  0xe0, 0xf8, 0x04, 0x05, 0xec, 0x15, 0xca, 0x04, 0xc9, 0x37, 0x00, 0x12,
  0x37, 0xd4, 0xf0, 0xfb, 0xc9, 0xe8, 0x07, 0xfe, 0x01, 0x0c, 0xf4, 0x02,
  0xe0, 0xf8, 0xfc, 0x32, 0x47, 0x04, 0x4f, 0xf2, 0xe8, 0xfb, 0xf6, 0xf6,
  0x28, 0xe9, 0x28, 0x15, 0xfc, 0xe2, 0x46, 0x36, 0x55, 0x09, 0x2b, 0x2c,
  0x9d, 0x08, 0xe0, 0x0d, 0x54, 0x08, 0x1d, 0x3e, 0xf5, 0x05, 0x20, 0x21,
  0x18, 0xdb, 0x42, 0x0d, 0xea, 0x00, 0xe5, 0xf4, 0x23, 0xdc, 0x1d, 0xee,
  0x00, 0xc9, 0x1b, 0x3a, 0x22, 0xe5, 0x26, 0x12, 0x9e, 0xff, 0x26, 0xf1,
  0x13, 0xe6, 0x0e, 0x33, 0xc2, 0x0e, 0x2a, 0x10, 0x32, 0x08, 0x0b, 0xdc,
  0xe2, 0xe9, 0xd6, 0xe9, 0xf4, 0xf1, 0x06, 0x32, 0xcc, 0xe2, 0x1f, 0x37,
  0x33, 0xec, 0x11, 0xda, 0xb5, 0x09, 0xe8, 0xed, 0xfc, 0xd2, 0xd8, 0x48,
  0xd9, 0xfa, 0x0f, 0x47, 0x1d, 0xf7, 0x48, 0x17, 0xa2, 0xf3, 0xf9, 0x1f,
  0x1b, 0x01, 0x0e, 0xfd, 0xdb, 0xde, 0x03, 0x1c, 0x3e, 0xf1, 0x18, 0x01,
  0xc4, 0xf6, 0x01, 0xf5, 0x4e, 0xcf, 0x33, 0x0e, 0xe5, 0xb3, 0x0b, 0x3f,
  0x4e, 0xf1, 0x1c, 0xe1, 0xdd, 0x09, 0x07, 0x02, 0x2c, 0xcf, 0x0d, 0x24,
  0xe0, 0xbc, 0x01, 0x2d, 0x43, 0xeb, 0x23, 0xd2, 0xa1, 0xed, 0x0d, 0xe4,
  0x09, 0xda, 0xff, 0x11, 0xd9, 0xd1, 0x10, 0x24, 0x34, 0xd0, 0x41, 0xe8,
  0xce, 0xe9, 0xf7, 0x2e, 0x05, 0xc4, 0xf1, 0x36, 0x01, 0xef, 0x4a, 0x15,
  0x19, 0x06, 0x34, 0x16, 0xac, 0xee, 0x0d, 0x2c, 0xfe, 0xd6, 0xfd, 0x33,
  0xcf, 0x04, 0x37, 0x0b, 0x15, 0xd2, 0x13, 0xd2, 0xa7, 0xe0, 0x1d, 0x1d,
  0x0b, 0xf8, 0x20, 0xf9, 0xfd, 0xd2, 0x04, 0xf9, 0x52, 0x0a, 0x0c, 0x04,
  0xca, 0xf5, 0xdc, 0x0c, 0x20, 0xe0, 0x25, 0x30, 0xdd, 0x12, 0x32, 0x19,
  0x16, 0xd1, 0x42, 0xf9, 0xe5, 0xd9, 0xf7, 0xf2, 0x06, 0xeb, 0x03, 0x17,
  0xf7, 0xe2, 0x10, 0xf4, 0x37, 0xb5, 0x4c, 0xe5, 0xb3, 0xda, 0xfa, 0xf3,
  0x20, 0xd5, 0x10, 0x1e, 0xdd, 0xf6, 0x3f, 0x06, 0x26, 0xe4, 0x2a, 0xfd,
  0xe1, 0xe6, 0x11, 0x13, 0x25, 0xe9, 0x09, 0x33, 0xf5, 0xc9, 0x17, 0x3c,
  0x03, 0xd2, 0x44, 0xed, 0xe2, 0xc2, 0xf7, 0x00, 0x36, 0xec, 0xfa, 0xee,
  0xca, 0xf9, 0x15, 0x1f, 0x24, 0x0d, 0x00, 0x12, 0xf5, 0xdb, 0x20, 0x05,
  0x00, 0xfd, 0xea, 0x05, 0xd9, 0xed, 0x1f, 0x16, 0x15, 0xe6, 0x1e, 0xd6,
  0xb3, 0xf5, 0xef, 0xea, 0x19, 0xe6, 0x01, 0xeb, 0xed, 0xbd, 0x47, 0x04,
  0x21, 0xef, 0x42, 0x18, 0xe5, 0xdf, 0x1c, 0xf7, 0x3e, 0xfd, 0xf4, 0x3c,
  0xfe, 0xf0, 0x41, 0x2a, 0x18, 0xda, 0x35, 0x14, 0xc5, 0xfa, 0xef, 0xe0,
  0xec, 0xf0, 0xcf, 0x38, 0xeb, 0xe9, 0x24, 0xfd, 0x19, 0xe2, 0x33, 0xfe,
  0xe6, 0xf2, 0xf2, 0xf9, 0x19, 0xec, 0xb6, 0x21, 0xce, 0xfd, 0xff, 0x26,
  0xf3, 0xcc, 0x3c, 0x11, 0xda, 0x06, 0xf7, 0xff, 0x2d, 0x05, 0x05, 0x32,
  0xef, 0x09, 0x42, 0x14, 0x05, 0xcb, 0x0a, 0x0d, 0xe3, 0xdb, 0xe3, 0x16,
  0x0b, 0xde, 0xdb, 0x28, 0xdd, 0xc6, 0xd2, 0x16, 0x1b, 0xcd, 0x16, 0xed,
  0xa6, 0x1c, 0x1c, 0xf5, 0x2f, 0xe3, 0xee, 0x4f, 0xcb, 0xfb, 0x1b, 0x16,
  0x2b, 0x21, 0x45, 0xe7, 0x94, 0x1c, 0xf7, 0xe7, 0x0d, 0xf5, 0x13, 0xf5,
  0xf9, 0xe8, 0xe0, 0x26, 0x1c, 0xda, 0x06, 0xdc, 0x8e, 0x05, 0x12, 0xe9,
  0xfb, 0x07, 0x2b, 0xef, 0x28, 0x1d, 0x07, 0x07, 0x27, 0x1b, 0x05, 0x1c,
  0xd5, 0xf7, 0x05, 0x2b, 0x29, 0x31, 0xfc, 0x07, 0xfd, 0x66, 0x1e, 0xe3,
  0xf5, 0xf7, 0x18, 0xed, 0xe9, 0xc6, 0xdc, 0x46, 0x09, 0x1a, 0xd9, 0xfa,
  0x2a, 0x52, 0x18, 0xd3, 0x34, 0xf1, 0xf3, 0xd6, 0xf5, 0xc1, 0xcc, 0x5b,
  0x2b, 0x00, 0x0a, 0x20, 0xf7, 0x09, 0x07, 0xe1, 0xe8, 0xf0, 0x14, 0xfb,
  0x01, 0xd4, 0xec, 0x3d, 0xdd, 0x11, 0x0a, 0x2a, 0x03, 0x01, 0xed, 0xf3,
  0x0f, 0xe1, 0x19, 0xec, 0xfb, 0xe3, 0xe1, 0x75, 0x02, 0x16, 0xd3, 0x2c,
  0xef, 0xf7, 0xf7, 0x1f, 0xfb, 0xf7, 0x08, 0x27, 0xee, 0xde, 0x0c, 0x5a,
  0xdd, 0xfd, 0xfd, 0x22, 0xed, 0x31, 0xee, 0x01, 0xfd, 0x00, 0x03, 0x21,
  0x0b, 0xda, 0xde, 0x30, 0x28, 0x19, 0x08, 0x27, 0x13, 0xf0, 0x15, 0xe9,
  0x2a, 0x03, 0xf8, 0xf1, 0xfe, 0xe5, 0xf2, 0x39, 0x16, 0x2c, 0xe8, 0xfe,
  0x21, 0x02, 0xdd, 0x03, 0xfa, 0xed, 0x19, 0x23, 0x2c, 0xd9, 0xf7, 0x56,
  0xe2, 0x20, 0xed, 0x03, 0x0c, 0xf0, 0x06, 0x1b, 0x05, 0xe1, 0xf3, 0x13,
  0x0d, 0xb7, 0xeb, 0x71, 0xf4, 0x46, 0x17, 0x1c, 0x04, 0xfc, 0x10, 0xe0,
  0x1b, 0x01, 0x05, 0x17, 0x18, 0xe8, 0xf1, 0x52, 0xd9, 0x11, 0xdc, 0x1e,
  0xe0, 0xf4, 0xcc, 0xdc, 0x16, 0x12, 0x20, 0xee, 0x13, 0xbe, 0xea, 0x5a,
  0xd7, 0x3b, 0xdb, 0xea, 0xd8, 0x28, 0xf9, 0x15, 0xdc, 0xd8, 0xf1, 0xfe,
  0x23, 0xbe, 0xee, 0x51, 0x18, 0x3f, 0xd6, 0xfb, 0x1b, 0x27, 0xe0, 0xfd,
  0x07, 0x1a, 0xe4, 0x10, 0x09, 0xde, 0x14, 0x64, 0xe9, 0x2e, 0xe2, 0x08,
  0xee, 0x2a, 0xdb, 0xd8, 0xe3, 0xe5, 0xe4, 0xf3, 0x20, 0xe3, 0xe6, 0x69,
  0x12, 0x26, 0xe5, 0xd8, 0xf6, 0x06, 0x15, 0x07, 0xec, 0x1a, 0x0f, 0xec,
  0x0e, 0xc9, 0xdf, 0x54, 0xe5, 0x17, 0x0f, 0xf5, 0x00, 0x24, 0xee, 0xf0,
  0xf9, 0xf7, 0xff, 0xde, 0x14, 0xcc, 0x0b, 0x47, 0x11, 0x1a, 0xf2, 0x14,
  0x16, 0x34, 0x1a, 0x0c, 0xd8, 0x05, 0x13, 0xfa, 0x0a, 0xc4, 0x02, 0x49,
  0xe2, 0x22, 0xf9, 0xff, 0x1e, 0x2d, 0x0f, 0xce, 0xfb, 0x01, 0x09, 0x1d,
  0x21, 0xd6, 0xf0, 0x5f, 0xfa, 0x38, 0xfc, 0x08, 0x0d, 0x37, 0xee, 0xe7,
  0x1b, 0xfa, 0xf3, 0x0a, 0x1a, 0xca, 0xf9, 0x37, 0x1f, 0x43, 0x02, 0xec,
  0x0e, 0x32, 0x1e, 0xe2, 0x1c, 0x03, 0xc8, 0xde, 0x00, 0xe4, 0x15, 0x62,
  0xee, 0x30, 0xf3, 0xdc, 0xf4, 0x0e, 0x14, 0x0f, 0xf4, 0xfa, 0x19, 0x2a,
  0x32, 0xc9, 0xf1, 0x28, 0xee, 0x0b, 0xe5, 0x20, 0x16, 0x15, 0xf1, 0x08,
  0xeb, 0x18, 0xd5, 0x2c, 0x09, 0xa5, 0xf5, 0x34, 0x1b, 0x38, 0xf5, 0xcc,
  0x03, 0x1d, 0xdd, 0x08, 0xfc, 0x31, 0xdd, 0xfc, 0xf5, 0xc5, 0x05, 0x60,
  0x21, 0x24, 0xef, 0xe0, 0x28, 0x1f, 0xfd, 0xd3, 0x1e, 0x27, 0xfb, 0x1d,
  0x12, 0xa8, 0x0b, 0x31, 0xd6, 0xf5, 0x39, 0xe3, 0xe9, 0x3e, 0xda, 0xf8,
  0xd3, 0x08, 0x12, 0x2f, 0xfc, 0xb9, 0xdc, 0x24, 0xcc, 0xf6, 0x1d, 0x06,
  0xf6, 0xf7, 0xfc, 0x11, 0x04, 0x12, 0x1e, 0xf3, 0x15, 0xc9, 0xf1, 0x2c,
  0xd7, 0x0f, 0x00, 0xef, 0x01, 0xf3, 0xe6, 0xfd, 0xe2, 0x03, 0xfa, 0xf6,
  0xf0, 0x9c, 0xfe, 0x3e, 0xf5, 0x10, 0x29, 0x0e, 0x02, 0x06, 0xec, 0xf0,
  0x23, 0xd6, 0x04, 0x13, 0xe2, 0xbb, 0x28, 0x34, 0x22, 0x34, 0xfb, 0x40,
  0x22, 0xec, 0x11, 0x0d, 0xd5, 0x0d, 0xea, 0x00, 0xe2, 0xcc, 0x1b, 0x5b,
  0xea, 0xf0, 0xff, 0xff, 0x04, 0x00, 0x00, 0x00, 0x10, 0x00, 0x00, 0x00,
  0xc2, 0x64, 0x2d, 0xb5, 0x6b, 0x57, 0x80, 0xc5, 0xb5, 0x64, 0x9a, 0x7f,
  0x04, 0x4a, 0x7c, 0xf2, 0x06, 0xf1, 0xff, 0xff, 0x04, 0x00, 0x00, 0x00,
  0x10, 0x00, 0x00, 0x00, 0xcd, 0x36, 0x0b, 0xc9, 0x36, 0x05, 0xc5, 0xd5,
  0xe8, 0x1a, 0xbf, 0x7f, 0xb7, 0xec, 0x7d, 0xbb, 0x22, 0xf1, 0xff, 0xff,
  0x04, 0x00, 0x00, 0x00, 0x40, 0x00, 0x00, 0x00, 0xeb, 0x81, 0x2b, 0x43,
  0x7e, 0xc8, 0x65, 0x3c, 0x89, 0x88, 0x68, 0x9c, 0x05, 0x35, 0x7c, 0x8e,
  0x35, 0x74, 0xb4, 0xc9, 0x86, 0x1b, 0xfc, 0x17, 0xd3, 0xc9, 0x3d, 0xb3,
  0xcb, 0x55, 0x81, 0x0e, 0x10, 0xd0, 0x83, 0x69, 0x81, 0xad, 0xb7, 0x8a,
  0x35, 0x95, 0x20, 0xd0, 0x0c, 0xe6, 0xf9, 0x20, 0x33, 0x31, 0x81, 0xfb,
  0xbc, 0x2a, 0xed, 0x41, 0xc9, 0x01, 0x40, 0x40, 0xbd, 0x11, 0xfb, 0xcc,
  0x6e, 0xf1, 0xff, 0xff, 0x04, 0x00, 0x00, 0x00, 0x14, 0x00, 0x00, 0x00,
  0x6b, 0x7f, 0x55, 0x22, 0x2a, 0x51, 0xcd, 0x81, 0x6a, 0xc0, 0x63, 0x7f,
  0x59, 0x26, 0x71, 0xc0, 0xe8, 0x89, 0xbe, 0x81, 0x8e, 0xf1, 0xff, 0xff,
  0x04, 0x00, 0x00, 0x00, 0x28, 0x00, 0x00, 0x00, 0xde, 0x41, 0x81, 0xc7,
  0x2d, 0xe4, 0xdc, 0x32, 0xf5, 0xdb, 0x53, 0x7f, 0xae, 0x2e, 0xf6, 0x15,
  0xd7, 0xc2, 0xed, 0xd1, 0x45, 0x7c, 0x55, 0xe0, 0x27, 0x21, 0x4c, 0x7f,
  0x6c, 0x5f, 0x7f, 0xbe, 0x61, 0x44, 0x3c, 0xbd, 0x77, 0x2d, 0x12, 0x3d,
  0xc2, 0xf1, 0xff, 0xff, 0x04, 0x00, 0x00, 0x00, 0x50, 0x00, 0x00, 0x00,
  0x38, 0x2b, 0x0e, 0xfb, 0xe9, 0x43, 0x28, 0x7c, 0x6d, 0xc2, 0x15, 0x7f,
  0x3e, 0xdb, 0x15, 0xc8, 0x00, 0x4f, 0x0e, 0xd9, 0xe4, 0xd7, 0xcc, 0x1c,
  0xc0, 0xfc, 0x12, 0x3a, 0x2a, 0x32, 0xc9, 0x41, 0x06, 0xc9, 0xd8, 0x81,
  0xbc, 0x14, 0x9e, 0x2a, 0x2a, 0x1d, 0x11, 0x11, 0xa1, 0x64, 0xa9, 0x4a,
  0x81, 0xf4, 0x85, 0x0b, 0xdb, 0xb6, 0x30, 0x2c, 0x2b, 0xcb, 0x5c, 0x0e,
  0xdc, 0x7a, 0xcc, 0x40, 0xf3, 0x2d, 0x6c, 0x7f, 0xeb, 0x59, 0x30, 0x67,
  0x63, 0xce, 0x2e, 0x1b, 0xd9, 0xdd, 0x32, 0xe1, 0x1e, 0xf2, 0xff, 0xff,
  0x04, 0x00, 0x00, 0x00, 0x10, 0x00, 0x00, 0x00, 0xb0, 0x32, 0x3c, 0x81,
  0x49, 0x63, 0xdc, 0xb8, 0xd5, 0x3b, 0x40, 0x50, 0x30, 0xbe, 0x09, 0x9e,
  0x3a, 0xf2, 0xff, 0xff, 0x04, 0x00, 0x00, 0x00, 0x10, 0x00, 0x00, 0x00,
  0x3d, 0xe4, 0x4a, 0x02, 0xf9, 0x7a, 0x4e, 0x35, 0x17, 0x37, 0x7f, 0x65,
  0x00, 0xdc, 0x09, 0x80, 0x56, 0xf2, 0xff, 0xff, 0x04, 0x00, 0x00, 0x00,
  0x10, 0x00, 0x00, 0x00, 0x52, 0xbd, 0xe3, 0xef, 0xb1, 0x22, 0x7c, 0x1a,
  0x00, 0xe9, 0x60, 0x7f, 0x9c, 0x95, 0xa2, 0xa8, 0x72, 0xf2, 0xff, 0xff,
  0x04, 0x00, 0x00, 0x00, 0x40, 0x00, 0x00, 0x00, 0x15, 0x23, 0x22, 0x09,
  0xf3, 0x0d, 0x66, 0x3e, 0x44, 0x19, 0x81, 0xa0, 0xb9, 0xc2, 0x11, 0x5e,
  0x23, 0x04, 0x3e, 0xc0, 0xe4, 0xcc, 0xa1, 0xc4, 0x7f, 0x5f, 0x76, 0x2c,
  0xdf, 0xd8, 0xd7, 0x0f, 0x20, 0xf5, 0xdb, 0x01, 0x3e, 0x2c, 0x05, 0xc5,
  0x20, 0xd7, 0x4b, 0xba, 0x54, 0x14, 0x81, 0xba, 0x63, 0xee, 0x1f, 0x94,
  0xf9, 0x17, 0x4b, 0xf4, 0x7f, 0xb9, 0xf3, 0x7e, 0x71, 0xc5, 0x64, 0x3a,
  0xbe, 0xf2, 0xff, 0xff, 0x04, 0x00, 0x00, 0x00, 0x14, 0x00, 0x00, 0x00,
  0xcc, 0xa8, 0xd2, 0xf7, 0x7f, 0x39, 0x02, 0x7f, 0xa6, 0x1b, 0x10, 0xad,
  0x1e, 0xeb, 0x81, 0x81, 0xd3, 0xd3, 0xb4, 0xa3, 0xde, 0xf2, 0xff, 0xff,
  0x04, 0x00, 0x00, 0x00, 0x28, 0x00, 0x00, 0x00, 0x9a, 0x2b, 0xd0, 0x3c,
  0x5b, 0x67, 0xf4, 0x7f, 0x04, 0x22, 0x0a, 0xc8, 0x19, 0xcc, 0x9c, 0x16,
  0xf5, 0x7f, 0x99, 0xec, 0x8e, 0x81, 0xde, 0x0f, 0xdf, 0xf0, 0xd8, 0x3e,
  0xf4, 0xf4, 0x34, 0xe4, 0xa7, 0xe3, 0xd9, 0x7f, 0x04, 0x37, 0x8d, 0x72,
  0x12, 0xf3, 0xff, 0xff, 0x04, 0x00, 0x00, 0x00, 0x50, 0x00, 0x00, 0x00,
  0x1e, 0xeb, 0x81, 0x25, 0xb3, 0x13, 0xa9, 0x29, 0x5f, 0xb7, 0xd3, 0x6a,
  0xf6, 0xd8, 0xfb, 0xe6, 0x1e, 0x89, 0xfe, 0xe4, 0x08, 0x46, 0xc7, 0xfa,
  0x6d, 0x7f, 0xc7, 0x09, 0x1c, 0xc7, 0x7c, 0xec, 0xa5, 0x65, 0x25, 0x2a,
  0x75, 0x48, 0xf3, 0x6d, 0xed, 0xc3, 0x2d, 0x6d, 0x96, 0x21, 0x71, 0x76,
  0x06, 0x17, 0x21, 0x81, 0x93, 0x20, 0xb1, 0x90, 0xd3, 0x33, 0x00, 0x18,
  0x26, 0xff, 0x0d, 0xee, 0x7f, 0xdf, 0x43, 0x12, 0xb6, 0x6f, 0xae, 0xe0,
  0xfe, 0x1c, 0xc7, 0x41, 0x1e, 0xfa, 0xf6, 0x34, 0x6e, 0xf3, 0xff, 0xff,
  0x04, 0x00, 0x00, 0x00, 0x10, 0x00, 0x00, 0x00, 0x5c, 0x39, 0x96, 0x49,
  0x12, 0x70, 0xcd, 0x01, 0x77, 0x65, 0x81, 0xd9, 0xb8, 0xa2, 0x49, 0xea,
  0x8a, 0xf3, 0xff, 0xff, 0x04, 0x00, 0x00, 0x00, 0x10, 0x00, 0x00, 0x00,
  0xe6, 0xc6, 0x80, 0x1a, 0x45, 0x0e, 0x7f, 0xbc, 0x02, 0xff, 0x05, 0xd2,
  0xa4, 0x4a, 0x4e, 0x55, 0xa6, 0xf3, 0xff, 0xff, 0x04, 0x00, 0x00, 0x00,
  0x10, 0x00, 0x00, 0x00, 0x2b, 0x14, 0xe2, 0xee, 0x2c, 0xdf, 0x7a, 0x12,
  0xf5, 0x07, 0x27, 0x36, 0xbc, 0x00, 0x3b, 0x7f, 0xc2, 0xf3, 0xff, 0xff,
  0x04, 0x00, 0x00, 0x00, 0x18, 0x00, 0x00, 0x00, 0x76, 0x7f, 0xc1, 0xb8,
  0xf6, 0x74, 0x7f, 0xd2, 0xed, 0x92, 0xe0, 0xdc, 0xa0, 0xf1, 0x31, 0x20,
  0x81, 0xd9, 0xe0, 0x9c, 0xee, 0x42, 0xac, 0x81, 0xe6, 0xf3, 0xff, 0xff,
  0x04, 0x00, 0x00, 0x00, 0x40, 0x00, 0x00, 0x00, 0x36, 0x01, 0x00, 0x00,
  0x82, 0x02, 0x00, 0x00, 0x47, 0x00, 0x00, 0x00, 0xb2, 0xfc, 0xff, 0xff,
  0x98, 0xfe, 0xff, 0xff, 0xdb, 0x00, 0x00, 0x00, 0xf6, 0xfd, 0xff, 0xff,
  0x3b, 0x01, 0x00, 0x00, 0x3a, 0xff, 0xff, 0xff, 0x01, 0xff, 0xff, 0xff,
  0x94, 0x02, 0x00, 0x00, 0x99, 0xfe, 0xff, 0xff, 0x2e, 0xff, 0xff, 0xff,
  0xd4, 0x03, 0x00, 0x00, 0x42, 0xfe, 0xff, 0xff, 0x96, 0xff, 0xff, 0xff,
  0x32, 0xf4, 0xff, 0xff, 0x04, 0x00, 0x00, 0x00, 0x60, 0x00, 0x00, 0x00,
  0x0e, 0xa5, 0xa5, 0x2f, 0x25, 0x7f, 0xe6, 0xf5, 0xac, 0x58, 0xc4, 0x7f,
  0xbf, 0x9b, 0x11, 0x39, 0x7f, 0x3f, 0x5a, 0x5e, 0x6d, 0x97, 0x2e, 0x81,
  0x97, 0xfe, 0x79, 0xb5, 0x7f, 0x4a, 0x6b, 0xad, 0x8d, 0xd2, 0x68, 0x7f,
  0x3b, 0xa6, 0x7f, 0x2e, 0x4a, 0x38, 0x0f, 0x67, 0x09, 0x1b, 0x81, 0x36,
  0x7f, 0xf5, 0x01, 0xbe, 0x51, 0x3c, 0x4f, 0x1f, 0xe0, 0x2d, 0x21, 0x7f,
  0x19, 0xf0, 0x3c, 0xc8, 0x81, 0x30, 0x5d, 0xdc, 0xab, 0xdc, 0x7f, 0xb9,
  0x25, 0x12, 0xfe, 0x01, 0x81, 0x1a, 0x7f, 0xf4, 0x01, 0x40, 0x58, 0xff,
  0x98, 0x13, 0xf0, 0x7f, 0xac, 0x63, 0x81, 0xec, 0x97, 0x63, 0xe4, 0x18,
  0x9e, 0xf4, 0xff, 0xff, 0x04, 0x00, 0x00, 0x00, 0x14, 0x00, 0x00, 0x00,
  0x96, 0x7f, 0x03, 0x35, 0x7b, 0x7f, 0xdc, 0x1c, 0xa8, 0x0e, 0x7a, 0xcf,
  0x67, 0xfe, 0x81, 0x3b, 0x41, 0x24, 0xd6, 0x81, 0xbe, 0xf4, 0xff, 0xff,
  0x04, 0x00, 0x00, 0x00, 0x28, 0x00, 0x00, 0x00, 0x29, 0x68, 0xb8, 0x13,
  0x4c, 0xad, 0xa3, 0x81, 0x1e, 0x74, 0xbd, 0x39, 0x64, 0x2c, 0x1d, 0x7f,
  0x29, 0xa4, 0xb3, 0x6d, 0x01, 0x8f, 0x99, 0x24, 0x81, 0xb5, 0xa0, 0x4e,
  0x11, 0x34, 0xa5, 0x7f, 0xe4, 0x1d, 0x14, 0x1a, 0xd7, 0x5a, 0x21, 0xda,
  0xf2, 0xf4, 0xff, 0xff, 0x04, 0x00, 0x00, 0x00, 0x10, 0x00, 0x00, 0x00,
  0x00, 0x00, 0x00, 0x00, 0x00, 0x00, 0x00, 0x00, 0x00, 0x00, 0x00, 0x00,
  0x00, 0x00, 0x00, 0x00, 0x0e, 0xf5, 0xff, 0xff, 0x04, 0x00, 0x00, 0x00,
  0x10, 0x00, 0x00, 0x00, 0x00, 0x00, 0x00, 0x00, 0x00, 0x00, 0x00, 0x00,
  0x00, 0x00, 0x00, 0x00, 0x00, 0x00, 0x00, 0x00, 0x2a, 0xf5, 0xff, 0xff,
  0x04, 0x00, 0x00, 0x00, 0x10, 0x00, 0x00, 0x00, 0x00, 0x00, 0x00, 0x00,
  0x00, 0x00, 0x00, 0x00, 0x00, 0x00, 0x00, 0x00, 0x00, 0x00, 0x00, 0x00,
  0x46, 0xf5, 0xff, 0xff, 0x04, 0x00, 0x00, 0x00, 0x10, 0x00, 0x00, 0x00,
  0x00, 0x00, 0x00, 0x00, 0x00, 0x00, 0x00, 0x00, 0x00, 0x00, 0x00, 0x00,
  0x00, 0x00, 0x00, 0x00, 0x62, 0xf5, 0xff, 0xff, 0x04, 0x00, 0x00, 0x00,
  0x10, 0x00, 0x00, 0x00, 0x00, 0x00, 0x00, 0x00, 0x00, 0x00, 0x00, 0x00,
  0x00, 0x00, 0x00, 0x00, 0x00, 0x00, 0x00, 0x00, 0x7e, 0xf5, 0xff, 0xff,
  0x04, 0x00, 0x00, 0x00, 0x10, 0x00, 0x00, 0x00, 0x00, 0x00, 0x00, 0x00,
  0x00, 0x00, 0x00, 0x00, 0x00, 0x00, 0x00, 0x00, 0x00, 0x00, 0x00, 0x00,
  0x9a, 0xf5, 0xff, 0xff, 0x04, 0x00, 0x00, 0x00, 0x10, 0x00, 0x00, 0x00,
  0x00, 0x00, 0x00, 0x00, 0x00, 0x00, 0x00, 0x00, 0x00, 0x00, 0x00, 0x00,
  0x00, 0x00, 0x00, 0x00, 0xb6, 0xf5, 0xff, 0xff, 0x04, 0x00, 0x00, 0x00,
  0x10, 0x00, 0x00, 0x00, 0x00, 0x00, 0x00, 0x00, 0x00, 0x00, 0x00, 0x00,
  0x00, 0x00, 0x00, 0x00, 0x00, 0x00, 0x00, 0x00, 0xd2, 0xf5, 0xff, 0xff,
  0x04, 0x00, 0x00, 0x00, 0x10, 0x00, 0x00, 0x00, 0x00, 0x00, 0x00, 0x00,
  0x00, 0x00, 0x00, 0x00, 0x00, 0x00, 0x00, 0x00, 0x00, 0x00, 0x00, 0x00,
  0xee, 0xf5, 0xff, 0xff, 0x04, 0x00, 0x00, 0x00, 0x10, 0x00, 0x00, 0x00,
  0x00, 0x00, 0x00, 0x00, 0x00, 0x00, 0x00, 0x00, 0x00, 0x00, 0x00, 0x00,
  0x00, 0x00, 0x00, 0x00, 0x0a, 0xf6, 0xff, 0xff, 0x04, 0x00, 0x00, 0x00,
  0x10, 0x00, 0x00, 0x00, 0x00, 0x00, 0x00, 0x00, 0x00, 0x00, 0x00, 0x00,
  0x00, 0x00, 0x00, 0x00, 0x00, 0x00, 0x00, 0x00, 0x26, 0xf6, 0xff, 0xff,
  0x04, 0x00, 0x00, 0x00, 0x10, 0x00, 0x00, 0x00, 0x00, 0x00, 0x00, 0x00,
  0x00, 0x00, 0x00, 0x00, 0x00, 0x00, 0x00, 0x00, 0x00, 0x00, 0x00, 0x00,
  0x42, 0xf6, 0xff, 0xff, 0x04, 0x00, 0x00, 0x00, 0x50, 0x00, 0x00, 0x00,
  0x50, 0xda, 0xd2, 0x0b, 0xc9, 0xc3, 0x81, 0x39, 0x45, 0x2f, 0x33, 0xb8,
  0x54, 0x0c, 0x8d, 0x03, 0xf2, 0x2d, 0x1a, 0x08, 0x1e, 0x09, 0x40, 0x07,
  0xc9, 0x47, 0x81, 0xf5, 0xc6, 0x55, 0x12, 0xfa, 0x19, 0x32, 0xff, 0xdd,
  0xe0, 0x26, 0xfe, 0xfe, 0x3a, 0x02, 0xb6, 0x15, 0xc3, 0x48, 0x7f, 0xa0,
  0x42, 0x38, 0x57, 0x43, 0x1f, 0x4e, 0x4f, 0x08, 0xfa, 0x18, 0x14, 0xdc,
  0x01, 0x42, 0x40, 0xc8, 0xf0, 0x3c, 0x9b, 0xa0, 0x74, 0x12, 0x7f, 0x49,
  0x78, 0x07, 0x95, 0x9e, 0x53, 0xdc, 0xf7, 0xaa, 0x9e, 0xf6, 0xff, 0xff,
  0x04, 0x00, 0x00, 0x00, 0x04, 0x00, 0x00, 0x00, 0x00, 0x00, 0x00, 0x00,
  0xae, 0xf6, 0xff, 0xff, 0x04, 0x00, 0x00, 0x00, 0x04, 0x00, 0x00, 0x00,
  0x00, 0x00, 0x00, 0x00, 0xbe, 0xf6, 0xff, 0xff, 0x04, 0x00, 0x00, 0x00,
  0x04, 0x00, 0x00, 0x00, 0x00, 0x00, 0x00, 0x00, 0xce, 0xf6, 0xff, 0xff,
  0x04, 0x00, 0x00, 0x00, 0x06, 0x00, 0x00, 0x00, 0xe5, 0xf8, 0xa8, 0x81,
  0xf0, 0xf4, 0x00, 0x00, 0xe2, 0xf6, 0xff, 0xff, 0x04, 0x00, 0x00, 0x00,
  0x08, 0x00, 0x00, 0x00, 0xff, 0xff, 0xff, 0xff, 0xe0, 0x01, 0x00, 0x00,
  0xf6, 0xf6, 0xff, 0xff, 0x04, 0x00, 0x00, 0x00, 0x10, 0x00, 0x00, 0x00,
  0x01, 0x00, 0x00, 0x00, 0x1e, 0x00, 0x00, 0x00, 0x01, 0x00, 0x00, 0x00,
  0x10, 0x00, 0x00, 0x00, 0x12, 0xf7, 0xff, 0xff, 0x04, 0x00, 0x00, 0x00,
  0x10, 0x00, 0x00, 0x00, 0x01, 0x00, 0x00, 0x00, 0x01, 0x00, 0x00, 0x00,
  0x1e, 0x00, 0x00, 0x00, 0x10, 0x00, 0x00, 0x00, 0x2e, 0xf7, 0xff, 0xff,
  0x04, 0x00, 0x00, 0x00, 0x10, 0x00, 0x00, 0x00, 0x01, 0x00, 0x00, 0x00,
  0x1e, 0x00, 0x00, 0x00, 0x01, 0x00, 0x00, 0x00, 0x06, 0x00, 0x00, 0x00,
  0x4a, 0xf7, 0xff, 0xff, 0x04, 0x00, 0x00, 0x00, 0x0c, 0x00, 0x00, 0x00,
  0x01, 0x00, 0x00, 0x00, 0x1e, 0x00, 0x00, 0x00, 0x10, 0x00, 0x00, 0x00,
  0x62, 0xf7, 0xff, 0xff, 0x04, 0x00, 0x00, 0x00, 0x0c, 0x00, 0x00, 0x00,
  0x01, 0x00, 0x00, 0x00, 0x1e, 0x00, 0x00, 0x00, 0x04, 0x00, 0x00, 0x00,
  0x7a, 0xf7, 0xff, 0xff, 0x04, 0x00, 0x00, 0x00, 0x10, 0x00, 0x00, 0x00,
  0x01, 0x00, 0x00, 0x00, 0x01, 0x00, 0x00, 0x00, 0x1e, 0x00, 0x00, 0x00,
  0x06, 0x00, 0x00, 0x00, 0x58, 0xbb, 0xff, 0xff, 0x5c, 0xbb, 0xff, 0xff,
  0x0f, 0x00, 0x00, 0x00, 0x4d, 0x4c, 0x49, 0x52, 0x20, 0x43, 0x6f, 0x6e,
  0x76, 0x65, 0x72, 0x74, 0x65, 0x64, 0x2e, 0x00, 0x01, 0x00, 0x00, 0x00,
  0x14, 0x00, 0x00, 0x00, 0x00, 0x00, 0x0e, 0x00, 0x18, 0x00, 0x14, 0x00,
  0x10, 0x00, 0x0c, 0x00, 0x08, 0x00, 0x04, 0x00, 0x0e, 0x00, 0x00, 0x00,
  0x14, 0x00, 0x00, 0x00, 0x1c, 0x00, 0x00, 0x00, 0x44, 0x0b, 0x00, 0x00,
  0x48, 0x0b, 0x00, 0x00, 0x4c, 0x0b, 0x00, 0x00, 0x04, 0x00, 0x00, 0x00,
  0x6d, 0x61, 0x69, 0x6e, 0x00, 0x00, 0x00, 0x00, 0x36, 0x00, 0x00, 0x00,
  0x08, 0x0b, 0x00, 0x00, 0xac, 0x0a, 0x00, 0x00, 0x58, 0x0a, 0x00, 0x00,
  0x34, 0x0a, 0x00, 0x00, 0xf0, 0x09, 0x00, 0x00, 0xcc, 0x09, 0x00, 0x00,
  0x88, 0x09, 0x00, 0x00, 0x64, 0x09, 0x00, 0x00, 0x24, 0x09, 0x00, 0x00,
  0x00, 0x09, 0x00, 0x00, 0xdc, 0x08, 0x00, 0x00, 0x8c, 0x08, 0x00, 0x00,
  0x68, 0x08, 0x00, 0x00, 0x24, 0x08, 0x00, 0x00, 0x00, 0x08, 0x00, 0x00,
  0xb8, 0x07, 0x00, 0x00, 0x84, 0x07, 0x00, 0x00, 0x44, 0x07, 0x00, 0x00,
  0x20, 0x07, 0x00, 0x00, 0xdc, 0x06, 0x00, 0x00, 0x98, 0x06, 0x00, 0x00,
  0x74, 0x06, 0x00, 0x00, 0x30, 0x06, 0x00, 0x00, 0x0c, 0x06, 0x00, 0x00,
  0xc8, 0x05, 0x00, 0x00, 0xa4, 0x05, 0x00, 0x00, 0x80, 0x05, 0x00, 0x00,
  0x40, 0x05, 0x00, 0x00, 0x1c, 0x05, 0x00, 0x00, 0xd8, 0x04, 0x00, 0x00,
  0xb4, 0x04, 0x00, 0x00, 0x74, 0x04, 0x00, 0x00, 0x40, 0x04, 0x00, 0x00,
  0x08, 0x04, 0x00, 0x00, 0xd0, 0x03, 0x00, 0x00, 0xac, 0x03, 0x00, 0x00,
  0x68, 0x03, 0x00, 0x00, 0x24, 0x03, 0x00, 0x00, 0x00, 0x03, 0x00, 0x00,
  0xbc, 0x02, 0x00, 0x00, 0x98, 0x02, 0x00, 0x00, 0x54, 0x02, 0x00, 0x00,
  0x30, 0x02, 0x00, 0x00, 0x0c, 0x02, 0x00, 0x00, 0xcc, 0x01, 0x00, 0x00,
  0xa8, 0x01, 0x00, 0x00, 0x64, 0x01, 0x00, 0x00, 0x40, 0x01, 0x00, 0x00,
  0x00, 0x01, 0x00, 0x00, 0xcc, 0x00, 0x00, 0x00, 0x94, 0x00, 0x00, 0x00,
  0x70, 0x00, 0x00, 0x00, 0x38, 0x00, 0x00, 0x00, 0x04, 0x00, 0x00, 0x00,
  0x36, 0xf6, 0xff, 0xff, 0x14, 0x00, 0x00, 0x00, 0x00, 0x00, 0x00, 0x09,
  0x14, 0x00, 0x00, 0x00, 0x18, 0x00, 0x00, 0x00, 0x07, 0x00, 0x00, 0x00,
  0xe2, 0xf8, 0xff, 0xff, 0x00, 0x00, 0x80, 0x3f, 0x01, 0x00, 0x00, 0x00,
  0x65, 0x00, 0x00, 0x00, 0x01, 0x00, 0x00, 0x00, 0x64, 0x00, 0x00, 0x00,
  0x66, 0xf6, 0xff, 0xff, 0x14, 0x00, 0x00, 0x00, 0x00, 0x00, 0x00, 0x08,
  0x10, 0x00, 0x00, 0x00, 0x14, 0x00, 0x00, 0x00, 0x06, 0x00, 0x00, 0x00,
  0xd4, 0xbc, 0xff, 0xff, 0x01, 0x00, 0x00, 0x00, 0x64, 0x00, 0x00, 0x00,
  0x03, 0x00, 0x00, 0x00, 0x63, 0x00, 0x00, 0x00, 0x2e, 0x00, 0x00, 0x00,
  0x2f, 0x00, 0x00, 0x00, 0x3e, 0xf6, 0xff, 0xff, 0x08, 0x00, 0x00, 0x00,
  0x0c, 0x00, 0x00, 0x00, 0x01, 0x00, 0x00, 0x00, 0x63, 0x00, 0x00, 0x00,
  0x02, 0x00, 0x00, 0x00, 0x62, 0x00, 0x00, 0x00, 0x07, 0x00, 0x00, 0x00,
  0xba, 0xf6, 0xff, 0xff, 0x14, 0x00, 0x00, 0x00, 0x00, 0x00, 0x00, 0x0b,
  0x14, 0x00, 0x00, 0x00, 0x18, 0x00, 0x00, 0x00, 0x05, 0x00, 0x00, 0x00,
  0xd2, 0xf9, 0xff, 0xff, 0x00, 0x00, 0x00, 0x01, 0x01, 0x00, 0x00, 0x00,
  0x62, 0x00, 0x00, 0x00, 0x02, 0x00, 0x00, 0x00, 0x61, 0x00, 0x00, 0x00,
  0x2d, 0x00, 0x00, 0x00, 0xee, 0xf6, 0xff, 0xff, 0x14, 0x00, 0x00, 0x00,
  0x00, 0x00, 0x00, 0x15, 0x10, 0x00, 0x00, 0x00, 0x14, 0x00, 0x00, 0x00,
  0x04, 0x00, 0x00, 0x00, 0x5c, 0xbd, 0xff, 0xff, 0x01, 0x00, 0x00, 0x00,
  0x61, 0x00, 0x00, 0x00, 0x02, 0x00, 0x00, 0x00, 0x60, 0x00, 0x00, 0x00,
  0x2c, 0x00, 0x00, 0x00, 0x1e, 0xf7, 0xff, 0xff, 0x14, 0x00, 0x00, 0x00,
  0x00, 0x00, 0x00, 0x0a, 0x14, 0x00, 0x00, 0x00, 0x18, 0x00, 0x00, 0x00,
  0x03, 0x00, 0x00, 0x00, 0xca, 0xf9, 0xff, 0xff, 0x02, 0x00, 0x00, 0x00,
  0x01, 0x00, 0x00, 0x00, 0x60, 0x00, 0x00, 0x00, 0x04, 0x00, 0x00, 0x00,
  0x56, 0x00, 0x00, 0x00, 0x58, 0x00, 0x00, 0x00, 0x5a, 0x00, 0x00, 0x00,
  0x5f, 0x00, 0x00, 0x00, 0xfe, 0xf6, 0xff, 0xff, 0x08, 0x00, 0x00, 0x00,
  0x0c, 0x00, 0x00, 0x00, 0x01, 0x00, 0x00, 0x00, 0x5f, 0x00, 0x00, 0x00,
  0x02, 0x00, 0x00, 0x00, 0x5e, 0x00, 0x00, 0x00, 0x02, 0x00, 0x00, 0x00,
  0x7a, 0xf7, 0xff, 0xff, 0x14, 0x00, 0x00, 0x00, 0x00, 0x00, 0x00, 0x01,
  0x1c, 0x00, 0x00, 0x00, 0x20, 0x00, 0x00, 0x00, 0x01, 0x00, 0x00, 0x00,
  0x6c, 0xf7, 0xff, 0xff, 0x00, 0x00, 0x00, 0x01, 0x01, 0x00, 0x00, 0x00,
  0x01, 0x00, 0x00, 0x00, 0x01, 0x00, 0x00, 0x00, 0x5e, 0x00, 0x00, 0x00,
  0x03, 0x00, 0x00, 0x00, 0x5d, 0x00, 0x00, 0x00, 0x2b, 0x00, 0x00, 0x00,
  0x18, 0x00, 0x00, 0x00, 0x5e, 0xf7, 0xff, 0xff, 0x08, 0x00, 0x00, 0x00,
  0x0c, 0x00, 0x00, 0x00, 0x01, 0x00, 0x00, 0x00, 0x5d, 0x00, 0x00, 0x00,
  0x02, 0x00, 0x00, 0x00, 0x5c, 0x00, 0x00, 0x00, 0x05, 0x00, 0x00, 0x00,
  0xda, 0xf7, 0xff, 0xff, 0x14, 0x00, 0x00, 0x00, 0x00, 0x00, 0x00, 0x05,
  0x20, 0x00, 0x00, 0x00, 0x24, 0x00, 0x00, 0x00, 0x02, 0x00, 0x00, 0x00,
  0xc2, 0xf9, 0xff, 0xff, 0x03, 0x00, 0x00, 0x00, 0x01, 0x00, 0x00, 0x00,
  0x01, 0x00, 0x00, 0x00, 0x01, 0x00, 0x00, 0x00, 0x01, 0x00, 0x00, 0x00,
  0x5c, 0x00, 0x00, 0x00, 0x01, 0x00, 0x00, 0x00, 0x5b, 0x00, 0x00, 0x00,
  0xba, 0xf7, 0xff, 0xff, 0x08, 0x00, 0x00, 0x00, 0x0c, 0x00, 0x00, 0x00,
  0x01, 0x00, 0x00, 0x00, 0x5b, 0x00, 0x00, 0x00, 0x02, 0x00, 0x00, 0x00,
  0x52, 0x00, 0x00, 0x00, 0x06, 0x00, 0x00, 0x00, 0xda, 0xf7, 0xff, 0xff,
  0x08, 0x00, 0x00, 0x00, 0x0c, 0x00, 0x00, 0x00, 0x01, 0x00, 0x00, 0x00,
  0x5a, 0x00, 0x00, 0x00, 0x02, 0x00, 0x00, 0x00, 0x59, 0x00, 0x00, 0x00,
  0x02, 0x00, 0x00, 0x00, 0x56, 0xf8, 0xff, 0xff, 0x14, 0x00, 0x00, 0x00,
  0x00, 0x00, 0x00, 0x01, 0x1c, 0x00, 0x00, 0x00, 0x20, 0x00, 0x00, 0x00,
  0x01, 0x00, 0x00, 0x00, 0x48, 0xf8, 0xff, 0xff, 0x00, 0x00, 0x00, 0x01,
  0x01, 0x00, 0x00, 0x00, 0x01, 0x00, 0x00, 0x00, 0x01, 0x00, 0x00, 0x00,
  0x59, 0x00, 0x00, 0x00, 0x03, 0x00, 0x00, 0x00, 0x54, 0x00, 0x00, 0x00,
  0x2a, 0x00, 0x00, 0x00, 0x17, 0x00, 0x00, 0x00, 0x3a, 0xf8, 0xff, 0xff,
  0x08, 0x00, 0x00, 0x00, 0x0c, 0x00, 0x00, 0x00, 0x01, 0x00, 0x00, 0x00,
  0x58, 0x00, 0x00, 0x00, 0x02, 0x00, 0x00, 0x00, 0x57, 0x00, 0x00, 0x00,
  0x02, 0x00, 0x00, 0x00, 0xb6, 0xf8, 0xff, 0xff, 0x14, 0x00, 0x00, 0x00,
  0x00, 0x00, 0x00, 0x01, 0x1c, 0x00, 0x00, 0x00, 0x20, 0x00, 0x00, 0x00,
  0x01, 0x00, 0x00, 0x00, 0xa8, 0xf8, 0xff, 0xff, 0x00, 0x00, 0x00, 0x01,
  0x01, 0x00, 0x00, 0x00, 0x01, 0x00, 0x00, 0x00, 0x01, 0x00, 0x00, 0x00,
  0x57, 0x00, 0x00, 0x00, 0x03, 0x00, 0x00, 0x00, 0x54, 0x00, 0x00, 0x00,
  0x29, 0x00, 0x00, 0x00, 0x16, 0x00, 0x00, 0x00, 0x9a, 0xf8, 0xff, 0xff,
  0x08, 0x00, 0x00, 0x00, 0x0c, 0x00, 0x00, 0x00, 0x01, 0x00, 0x00, 0x00,
  0x56, 0x00, 0x00, 0x00, 0x02, 0x00, 0x00, 0x00, 0x55, 0x00, 0x00, 0x00,
  0x02, 0x00, 0x00, 0x00, 0x16, 0xf9, 0xff, 0xff, 0x14, 0x00, 0x00, 0x00,
  0x00, 0x00, 0x00, 0x01, 0x1c, 0x00, 0x00, 0x00, 0x20, 0x00, 0x00, 0x00,
  0x01, 0x00, 0x00, 0x00, 0x08, 0xf9, 0xff, 0xff, 0x00, 0x00, 0x00, 0x01,
  0x01, 0x00, 0x00, 0x00, 0x01, 0x00, 0x00, 0x00, 0x01, 0x00, 0x00, 0x00,
  0x55, 0x00, 0x00, 0x00, 0x03, 0x00, 0x00, 0x00, 0x54, 0x00, 0x00, 0x00,
  0x28, 0x00, 0x00, 0x00, 0x15, 0x00, 0x00, 0x00, 0x56, 0xf9, 0xff, 0xff,
  0x14, 0x00, 0x00, 0x00, 0x00, 0x00, 0x00, 0x01, 0x1c, 0x00, 0x00, 0x00,
  0x20, 0x00, 0x00, 0x00, 0x01, 0x00, 0x00, 0x00, 0x48, 0xf9, 0xff, 0xff,
  0x00, 0x00, 0x00, 0x01, 0x01, 0x00, 0x00, 0x00, 0x01, 0x00, 0x00, 0x00,
  0x01, 0x00, 0x00, 0x00, 0x54, 0x00, 0x00, 0x00, 0x03, 0x00, 0x00, 0x00,
  0x53, 0x00, 0x00, 0x00, 0x27, 0x00, 0x00, 0x00, 0x0b, 0x00, 0x00, 0x00,
  0x3a, 0xf9, 0xff, 0xff, 0x08, 0x00, 0x00, 0x00, 0x0c, 0x00, 0x00, 0x00,
  0x01, 0x00, 0x00, 0x00, 0x53, 0x00, 0x00, 0x00, 0x02, 0x00, 0x00, 0x00,
  0x52, 0x00, 0x00, 0x00, 0x05, 0x00, 0x00, 0x00, 0xb6, 0xf9, 0xff, 0xff,
  0x14, 0x00, 0x00, 0x00, 0x00, 0x00, 0x00, 0x0b, 0x14, 0x00, 0x00, 0x00,
  0x18, 0x00, 0x00, 0x00, 0x05, 0x00, 0x00, 0x00, 0xce, 0xfc, 0xff, 0xff,
  0x00, 0x00, 0x00, 0x01, 0x01, 0x00, 0x00, 0x00, 0x52, 0x00, 0x00, 0x00,
  0x02, 0x00, 0x00, 0x00, 0x39, 0x00, 0x00, 0x00, 0x51, 0x00, 0x00, 0x00,
  0xea, 0xf9, 0xff, 0xff, 0x14, 0x00, 0x00, 0x00, 0x00, 0x00, 0x00, 0x0b,
  0x14, 0x00, 0x00, 0x00, 0x18, 0x00, 0x00, 0x00, 0x05, 0x00, 0x00, 0x00,
  0x02, 0xfd, 0xff, 0xff, 0x00, 0x00, 0x00, 0x01, 0x01, 0x00, 0x00, 0x00,
  0x51, 0x00, 0x00, 0x00, 0x02, 0x00, 0x00, 0x00, 0x50, 0x00, 0x00, 0x00,
  0x26, 0x00, 0x00, 0x00, 0x1e, 0xfa, 0xff, 0xff, 0x14, 0x00, 0x00, 0x00,
  0x00, 0x00, 0x00, 0x15, 0x10, 0x00, 0x00, 0x00, 0x14, 0x00, 0x00, 0x00,
  0x04, 0x00, 0x00, 0x00, 0x8c, 0xc0, 0xff, 0xff, 0x01, 0x00, 0x00, 0x00,
  0x50, 0x00, 0x00, 0x00, 0x02, 0x00, 0x00, 0x00, 0x4f, 0x00, 0x00, 0x00,
  0x25, 0x00, 0x00, 0x00, 0x4e, 0xfa, 0xff, 0xff, 0x14, 0x00, 0x00, 0x00,
  0x00, 0x00, 0x00, 0x0a, 0x14, 0x00, 0x00, 0x00, 0x18, 0x00, 0x00, 0x00,
  0x03, 0x00, 0x00, 0x00, 0xfa, 0xfc, 0xff, 0xff, 0x02, 0x00, 0x00, 0x00,
  0x01, 0x00, 0x00, 0x00, 0x4f, 0x00, 0x00, 0x00, 0x04, 0x00, 0x00, 0x00,
  0x45, 0x00, 0x00, 0x00, 0x47, 0x00, 0x00, 0x00, 0x49, 0x00, 0x00, 0x00,
  0x4e, 0x00, 0x00, 0x00, 0x2e, 0xfa, 0xff, 0xff, 0x08, 0x00, 0x00, 0x00,
  0x0c, 0x00, 0x00, 0x00, 0x01, 0x00, 0x00, 0x00, 0x4e, 0x00, 0x00, 0x00,
  0x02, 0x00, 0x00, 0x00, 0x4d, 0x00, 0x00, 0x00, 0x02, 0x00, 0x00, 0x00,
  0xaa, 0xfa, 0xff, 0xff, 0x14, 0x00, 0x00, 0x00, 0x00, 0x00, 0x00, 0x01,
  0x1c, 0x00, 0x00, 0x00, 0x20, 0x00, 0x00, 0x00, 0x01, 0x00, 0x00, 0x00,
  0x9c, 0xfa, 0xff, 0xff, 0x00, 0x00, 0x00, 0x01, 0x01, 0x00, 0x00, 0x00,
  0x01, 0x00, 0x00, 0x00, 0x01, 0x00, 0x00, 0x00, 0x4d, 0x00, 0x00, 0x00,
  0x03, 0x00, 0x00, 0x00, 0x4c, 0x00, 0x00, 0x00, 0x24, 0x00, 0x00, 0x00,
  0x14, 0x00, 0x00, 0x00, 0x8e, 0xfa, 0xff, 0xff, 0x08, 0x00, 0x00, 0x00,
  0x0c, 0x00, 0x00, 0x00, 0x01, 0x00, 0x00, 0x00, 0x4c, 0x00, 0x00, 0x00,
  0x02, 0x00, 0x00, 0x00, 0x4b, 0x00, 0x00, 0x00, 0x05, 0x00, 0x00, 0x00,
  0x0a, 0xfb, 0xff, 0xff, 0x14, 0x00, 0x00, 0x00, 0x00, 0x00, 0x00, 0x05,
  0x20, 0x00, 0x00, 0x00, 0x24, 0x00, 0x00, 0x00, 0x02, 0x00, 0x00, 0x00,
  0xf2, 0xfc, 0xff, 0xff, 0x03, 0x00, 0x00, 0x00, 0x01, 0x00, 0x00, 0x00,
  0x01, 0x00, 0x00, 0x00, 0x01, 0x00, 0x00, 0x00, 0x01, 0x00, 0x00, 0x00,
  0x4b, 0x00, 0x00, 0x00, 0x01, 0x00, 0x00, 0x00, 0x4a, 0x00, 0x00, 0x00,
  0xea, 0xfa, 0xff, 0xff, 0x08, 0x00, 0x00, 0x00, 0x0c, 0x00, 0x00, 0x00,
  0x01, 0x00, 0x00, 0x00, 0x4a, 0x00, 0x00, 0x00, 0x02, 0x00, 0x00, 0x00,
  0x41, 0x00, 0x00, 0x00, 0x06, 0x00, 0x00, 0x00, 0x0a, 0xfb, 0xff, 0xff,
  0x08, 0x00, 0x00, 0x00, 0x0c, 0x00, 0x00, 0x00, 0x01, 0x00, 0x00, 0x00,
  0x49, 0x00, 0x00, 0x00, 0x02, 0x00, 0x00, 0x00, 0x48, 0x00, 0x00, 0x00,
  0x02, 0x00, 0x00, 0x00, 0x86, 0xfb, 0xff, 0xff, 0x14, 0x00, 0x00, 0x00,
  0x00, 0x00, 0x00, 0x01, 0x1c, 0x00, 0x00, 0x00, 0x20, 0x00, 0x00, 0x00,
  0x01, 0x00, 0x00, 0x00, 0x78, 0xfb, 0xff, 0xff, 0x00, 0x00, 0x00, 0x01,
  0x01, 0x00, 0x00, 0x00, 0x01, 0x00, 0x00, 0x00, 0x01, 0x00, 0x00, 0x00,
  0x48, 0x00, 0x00, 0x00, 0x03, 0x00, 0x00, 0x00, 0x43, 0x00, 0x00, 0x00,
  0x23, 0x00, 0x00, 0x00, 0x13, 0x00, 0x00, 0x00, 0x6a, 0xfb, 0xff, 0xff,
  0x08, 0x00, 0x00, 0x00, 0x0c, 0x00, 0x00, 0x00, 0x01, 0x00, 0x00, 0x00,
  0x47, 0x00, 0x00, 0x00, 0x02, 0x00, 0x00, 0x00, 0x46, 0x00, 0x00, 0x00,
  0x02, 0x00, 0x00, 0x00, 0xe6, 0xfb, 0xff, 0xff, 0x14, 0x00, 0x00, 0x00,
  0x00, 0x00, 0x00, 0x01, 0x1c, 0x00, 0x00, 0x00, 0x20, 0x00, 0x00, 0x00,
  0x01, 0x00, 0x00, 0x00, 0xd8, 0xfb, 0xff, 0xff, 0x00, 0x00, 0x00, 0x01,
  0x01, 0x00, 0x00, 0x00, 0x01, 0x00, 0x00, 0x00, 0x01, 0x00, 0x00, 0x00,
  0x46, 0x00, 0x00, 0x00, 0x03, 0x00, 0x00, 0x00, 0x43, 0x00, 0x00, 0x00,
  0x22, 0x00, 0x00, 0x00, 0x12, 0x00, 0x00, 0x00, 0xca, 0xfb, 0xff, 0xff,
  0x08, 0x00, 0x00, 0x00, 0x0c, 0x00, 0x00, 0x00, 0x01, 0x00, 0x00, 0x00,
  0x45, 0x00, 0x00, 0x00, 0x02, 0x00, 0x00, 0x00, 0x44, 0x00, 0x00, 0x00,
  0x02, 0x00, 0x00, 0x00, 0x46, 0xfc, 0xff, 0xff, 0x14, 0x00, 0x00, 0x00,
  0x00, 0x00, 0x00, 0x01, 0x1c, 0x00, 0x00, 0x00, 0x20, 0x00, 0x00, 0x00,
  0x01, 0x00, 0x00, 0x00, 0x38, 0xfc, 0xff, 0xff, 0x00, 0x00, 0x00, 0x01,
  0x01, 0x00, 0x00, 0x00, 0x01, 0x00, 0x00, 0x00, 0x01, 0x00, 0x00, 0x00,
  0x44, 0x00, 0x00, 0x00, 0x03, 0x00, 0x00, 0x00, 0x43, 0x00, 0x00, 0x00,
  0x21, 0x00, 0x00, 0x00, 0x11, 0x00, 0x00, 0x00, 0x86, 0xfc, 0xff, 0xff,
  0x14, 0x00, 0x00, 0x00, 0x00, 0x00, 0x00, 0x01, 0x1c, 0x00, 0x00, 0x00,
  0x20, 0x00, 0x00, 0x00, 0x01, 0x00, 0x00, 0x00, 0x78, 0xfc, 0xff, 0xff,
  0x00, 0x00, 0x00, 0x01, 0x01, 0x00, 0x00, 0x00, 0x01, 0x00, 0x00, 0x00,
  0x01, 0x00, 0x00, 0x00, 0x43, 0x00, 0x00, 0x00, 0x03, 0x00, 0x00, 0x00,
  0x42, 0x00, 0x00, 0x00, 0x20, 0x00, 0x00, 0x00, 0x0a, 0x00, 0x00, 0x00,
  0x6a, 0xfc, 0xff, 0xff, 0x08, 0x00, 0x00, 0x00, 0x0c, 0x00, 0x00, 0x00,
  0x01, 0x00, 0x00, 0x00, 0x42, 0x00, 0x00, 0x00, 0x02, 0x00, 0x00, 0x00,
  0x41, 0x00, 0x00, 0x00, 0x05, 0x00, 0x00, 0x00, 0xe6, 0xfc, 0xff, 0xff,
  0x1c, 0x00, 0x00, 0x00, 0x00, 0x00, 0x00, 0x0b, 0x1c, 0x00, 0x00, 0x00,
  0x20, 0x00, 0x00, 0x00, 0x05, 0x00, 0x00, 0x00, 0x00, 0x00, 0x06, 0x00,
  0x08, 0x00, 0x07, 0x00, 0x06, 0x00, 0x00, 0x00, 0x00, 0x00, 0x00, 0x01,
  0x01, 0x00, 0x00, 0x00, 0x41, 0x00, 0x00, 0x00, 0x02, 0x00, 0x00, 0x00,
  0x40, 0x00, 0x00, 0x00, 0x1f, 0x00, 0x00, 0x00, 0x22, 0xfd, 0xff, 0xff,
  0x14, 0x00, 0x00, 0x00, 0x00, 0x00, 0x00, 0x15, 0x10, 0x00, 0x00, 0x00,
  0x14, 0x00, 0x00, 0x00, 0x04, 0x00, 0x00, 0x00, 0x90, 0xc3, 0xff, 0xff,
  0x01, 0x00, 0x00, 0x00, 0x40, 0x00, 0x00, 0x00, 0x02, 0x00, 0x00, 0x00,
  0x3f, 0x00, 0x00, 0x00, 0x1e, 0x00, 0x00, 0x00, 0x52, 0xfd, 0xff, 0xff,
  0x1c, 0x00, 0x00, 0x00, 0x00, 0x00, 0x00, 0x0a, 0x1c, 0x00, 0x00, 0x00,
  0x20, 0x00, 0x00, 0x00, 0x03, 0x00, 0x00, 0x00, 0x00, 0x00, 0x06, 0x00,
  0x08, 0x00, 0x04, 0x00, 0x06, 0x00, 0x00, 0x00, 0x02, 0x00, 0x00, 0x00,
  0x01, 0x00, 0x00, 0x00, 0x3f, 0x00, 0x00, 0x00, 0x04, 0x00, 0x00, 0x00,
  0x33, 0x00, 0x00, 0x00, 0x35, 0x00, 0x00, 0x00, 0x37, 0x00, 0x00, 0x00,
  0x3e, 0x00, 0x00, 0x00, 0x3a, 0xfd, 0xff, 0xff, 0x08, 0x00, 0x00, 0x00,
  0x0c, 0x00, 0x00, 0x00, 0x01, 0x00, 0x00, 0x00, 0x3e, 0x00, 0x00, 0x00,
  0x02, 0x00, 0x00, 0x00, 0x3d, 0x00, 0x00, 0x00, 0x02, 0x00, 0x00, 0x00,
  0xb6, 0xfd, 0xff, 0xff, 0x14, 0x00, 0x00, 0x00, 0x00, 0x00, 0x00, 0x01,
  0x1c, 0x00, 0x00, 0x00, 0x20, 0x00, 0x00, 0x00, 0x01, 0x00, 0x00, 0x00,
  0xa8, 0xfd, 0xff, 0xff, 0x00, 0x00, 0x00, 0x01, 0x01, 0x00, 0x00, 0x00,
  0x01, 0x00, 0x00, 0x00, 0x01, 0x00, 0x00, 0x00, 0x3d, 0x00, 0x00, 0x00,
  0x03, 0x00, 0x00, 0x00, 0x3c, 0x00, 0x00, 0x00, 0x1d, 0x00, 0x00, 0x00,
  0x10, 0x00, 0x00, 0x00, 0x9a, 0xfd, 0xff, 0xff, 0x08, 0x00, 0x00, 0x00,
  0x0c, 0x00, 0x00, 0x00, 0x01, 0x00, 0x00, 0x00, 0x3c, 0x00, 0x00, 0x00,
  0x02, 0x00, 0x00, 0x00, 0x3b, 0x00, 0x00, 0x00, 0x01, 0x00, 0x00, 0x00,
  0x16, 0xfe, 0xff, 0xff, 0x24, 0x00, 0x00, 0x00, 0x00, 0x00, 0x00, 0x05,
  0x30, 0x00, 0x00, 0x00, 0x34, 0x00, 0x00, 0x00, 0x02, 0x00, 0x00, 0x00,
  0x00, 0x00, 0x0e, 0x00, 0x14, 0x00, 0x00, 0x00, 0x10, 0x00, 0x0c, 0x00,
  0x08, 0x00, 0x04, 0x00, 0x0e, 0x00, 0x00, 0x00, 0x03, 0x00, 0x00, 0x00,
  0x01, 0x00, 0x00, 0x00, 0x01, 0x00, 0x00, 0x00, 0x01, 0x00, 0x00, 0x00,
  0x01, 0x00, 0x00, 0x00, 0x3b, 0x00, 0x00, 0x00, 0x01, 0x00, 0x00, 0x00,
  0x3a, 0x00, 0x00, 0x00, 0x06, 0xfe, 0xff, 0xff, 0x08, 0x00, 0x00, 0x00,
  0x0c, 0x00, 0x00, 0x00, 0x01, 0x00, 0x00, 0x00, 0x3a, 0x00, 0x00, 0x00,
  0x02, 0x00, 0x00, 0x00, 0x00, 0x00, 0x00, 0x00, 0x04, 0x00, 0x00, 0x00,
  0x26, 0xfe, 0xff, 0xff, 0x08, 0x00, 0x00, 0x00, 0x0c, 0x00, 0x00, 0x00,
  0x01, 0x00, 0x00, 0x00, 0x39, 0x00, 0x00, 0x00, 0x02, 0x00, 0x00, 0x00,
  0x38, 0x00, 0x00, 0x00, 0x03, 0x00, 0x00, 0x00, 0xa2, 0xfe, 0xff, 0xff,
  0x14, 0x00, 0x00, 0x00, 0x00, 0x00, 0x00, 0x01, 0x18, 0x00, 0x00, 0x00,
  0x1c, 0x00, 0x00, 0x00, 0x01, 0x00, 0x00, 0x00, 0x5e, 0xfe, 0xff, 0xff,
  0x01, 0x00, 0x00, 0x00, 0x01, 0x00, 0x00, 0x00, 0x01, 0x00, 0x00, 0x00,
  0x38, 0x00, 0x00, 0x00, 0x03, 0x00, 0x00, 0x00, 0x30, 0x00, 0x00, 0x00,
  0x1b, 0x00, 0x00, 0x00, 0x1c, 0x00, 0x00, 0x00, 0x82, 0xfe, 0xff, 0xff,
  0x08, 0x00, 0x00, 0x00, 0x0c, 0x00, 0x00, 0x00, 0x01, 0x00, 0x00, 0x00,
  0x37, 0x00, 0x00, 0x00, 0x02, 0x00, 0x00, 0x00, 0x36, 0x00, 0x00, 0x00,
  0x02, 0x00, 0x00, 0x00, 0xfe, 0xfe, 0xff, 0xff, 0x14, 0x00, 0x00, 0x00,
  0x00, 0x00, 0x00, 0x01, 0x1c, 0x00, 0x00, 0x00, 0x20, 0x00, 0x00, 0x00,
  0x01, 0x00, 0x00, 0x00, 0xf0, 0xfe, 0xff, 0xff, 0x00, 0x00, 0x00, 0x01,
  0x01, 0x00, 0x00, 0x00, 0x01, 0x00, 0x00, 0x00, 0x01, 0x00, 0x00, 0x00,
  0x36, 0x00, 0x00, 0x00, 0x03, 0x00, 0x00, 0x00, 0x31, 0x00, 0x00, 0x00,
  0x1a, 0x00, 0x00, 0x00, 0x0f, 0x00, 0x00, 0x00, 0xe2, 0xfe, 0xff, 0xff,
  0x08, 0x00, 0x00, 0x00, 0x0c, 0x00, 0x00, 0x00, 0x01, 0x00, 0x00, 0x00,
  0x35, 0x00, 0x00, 0x00, 0x02, 0x00, 0x00, 0x00, 0x34, 0x00, 0x00, 0x00,
  0x02, 0x00, 0x00, 0x00, 0x5e, 0xff, 0xff, 0xff, 0x14, 0x00, 0x00, 0x00,
  0x00, 0x00, 0x00, 0x01, 0x1c, 0x00, 0x00, 0x00, 0x20, 0x00, 0x00, 0x00,
  0x01, 0x00, 0x00, 0x00, 0x50, 0xff, 0xff, 0xff, 0x00, 0x00, 0x00, 0x01,
  0x01, 0x00, 0x00, 0x00, 0x01, 0x00, 0x00, 0x00, 0x01, 0x00, 0x00, 0x00,
  0x34, 0x00, 0x00, 0x00, 0x03, 0x00, 0x00, 0x00, 0x31, 0x00, 0x00, 0x00,
  0x19, 0x00, 0x00, 0x00, 0x0e, 0x00, 0x00, 0x00, 0x42, 0xff, 0xff, 0xff,
  0x08, 0x00, 0x00, 0x00, 0x0c, 0x00, 0x00, 0x00, 0x01, 0x00, 0x00, 0x00,
  0x33, 0x00, 0x00, 0x00, 0x02, 0x00, 0x00, 0x00, 0x32, 0x00, 0x00, 0x00,
  0x02, 0x00, 0x00, 0x00, 0xbe, 0xff, 0xff, 0xff, 0x14, 0x00, 0x00, 0x00,
  0x00, 0x00, 0x00, 0x01, 0x1c, 0x00, 0x00, 0x00, 0x20, 0x00, 0x00, 0x00,
  0x01, 0x00, 0x00, 0x00, 0xb0, 0xff, 0xff, 0xff, 0x00, 0x00, 0x00, 0x01,
  0x01, 0x00, 0x00, 0x00, 0x01, 0x00, 0x00, 0x00, 0x01, 0x00, 0x00, 0x00,
  0x32, 0x00, 0x00, 0x00, 0x03, 0x00, 0x00, 0x00, 0x31, 0x00, 0x00, 0x00,
  0x0c, 0x00, 0x00, 0x00, 0x0d, 0x00, 0x00, 0x00, 0x00, 0x00, 0x0e, 0x00,
  0x18, 0x00, 0x14, 0x00, 0x10, 0x00, 0x0c, 0x00, 0x0b, 0x00, 0x04, 0x00,
  0x0e, 0x00, 0x00, 0x00, 0x20, 0x00, 0x00, 0x00, 0x00, 0x00, 0x00, 0x01,
  0x28, 0x00, 0x00, 0x00, 0x2c, 0x00, 0x00, 0x00, 0x01, 0x00, 0x00, 0x00,
  0x0c, 0x00, 0x10, 0x00, 0x00, 0x00, 0x0c, 0x00, 0x08, 0x00, 0x07, 0x00,
  0x0c, 0x00, 0x00, 0x00, 0x00, 0x00, 0x00, 0x01, 0x01, 0x00, 0x00, 0x00,
  0x01, 0x00, 0x00, 0x00, 0x01, 0x00, 0x00, 0x00, 0x31, 0x00, 0x00, 0x00,
  0x03, 0x00, 0x00, 0x00, 0x30, 0x00, 0x00, 0x00, 0x08, 0x00, 0x00, 0x00,
  0x09, 0x00, 0x00, 0x00, 0x00, 0x00, 0x0a, 0x00, 0x0c, 0x00, 0x00, 0x00,
  0x08, 0x00, 0x04, 0x00, 0x0a, 0x00, 0x00, 0x00, 0x08, 0x00, 0x00, 0x00,
  0x0c, 0x00, 0x00, 0x00, 0x01, 0x00, 0x00, 0x00, 0x30, 0x00, 0x00, 0x00,
  0x02, 0x00, 0x00, 0x00, 0x00, 0x00, 0x00, 0x00, 0x01, 0x00, 0x00, 0x00,
  0x01, 0x00, 0x00, 0x00, 0x65, 0x00, 0x00, 0x00, 0x01, 0x00, 0x00, 0x00,
  0x00, 0x00, 0x00, 0x00, 0x66, 0x00, 0x00, 0x00, 0x5c, 0x39, 0x00, 0x00,
  0xf4, 0x38, 0x00, 0x00, 0xa4, 0x38, 0x00, 0x00, 0x54, 0x38, 0x00, 0x00,
  0x00, 0x38, 0x00, 0x00, 0xac, 0x37, 0x00, 0x00, 0x58, 0x37, 0x00, 0x00,
  0x10, 0x37, 0x00, 0x00, 0xa0, 0x36, 0x00, 0x00, 0x3c, 0x36, 0x00, 0x00,
  0xd8, 0x35, 0x00, 0x00, 0x74, 0x35, 0x00, 0x00, 0xe0, 0x34, 0x00, 0x00,
  0x54, 0x34, 0x00, 0x00, 0xc8, 0x33, 0x00, 0x00, 0x3c, 0x33, 0x00, 0x00,
  0xb0, 0x32, 0x00, 0x00, 0x24, 0x32, 0x00, 0x00, 0x98, 0x31, 0x00, 0x00,
  0x0c, 0x31, 0x00, 0x00, 0x80, 0x30, 0x00, 0x00, 0xf4, 0x2f, 0x00, 0x00,
  0x68, 0x2f, 0x00, 0x00, 0xdc, 0x2e, 0x00, 0x00, 0x50, 0x2e, 0x00, 0x00,
  0xbc, 0x2d, 0x00, 0x00, 0x28, 0x2d, 0x00, 0x00, 0x7c, 0x2b, 0x00, 0x00,
  0x80, 0x29, 0x00, 0x00, 0xec, 0x28, 0x00, 0x00, 0x70, 0x28, 0x00, 0x00,
  0xf4, 0x27, 0x00, 0x00, 0x80, 0x27, 0x00, 0x00, 0xec, 0x26, 0x00, 0x00,
  0x58, 0x26, 0x00, 0x00, 0xc4, 0x25, 0x00, 0x00, 0x30, 0x25, 0x00, 0x00,
  0xb4, 0x24, 0x00, 0x00, 0x38, 0x24, 0x00, 0x00, 0xc4, 0x23, 0x00, 0x00,
  0x30, 0x23, 0x00, 0x00, 0x9c, 0x22, 0x00, 0x00, 0x08, 0x22, 0x00, 0x00,
  0x74, 0x21, 0x00, 0x00, 0xf8, 0x20, 0x00, 0x00, 0x7c, 0x20, 0x00, 0x00,
  0x10, 0x20, 0x00, 0x00, 0xb4, 0x1f, 0x00, 0x00, 0x38, 0x1f, 0x00, 0x00,
  0x8c, 0x1e, 0x00, 0x00, 0xe0, 0x1d, 0x00, 0x00, 0x54, 0x1d, 0x00, 0x00,
  0xa8, 0x1c, 0x00, 0x00, 0x1c, 0x1c, 0x00, 0x00, 0x70, 0x1b, 0x00, 0x00,
  0xe4, 0x1a, 0x00, 0x00, 0x90, 0x19, 0x00, 0x00, 0x5c, 0x18, 0x00, 0x00,
  0xe0, 0x17, 0x00, 0x00, 0x64, 0x17, 0x00, 0x00, 0xe8, 0x16, 0x00, 0x00,
  0x3c, 0x16, 0x00, 0x00, 0xb0, 0x15, 0x00, 0x00, 0x3c, 0x15, 0x00, 0x00,
  0xb8, 0x14, 0x00, 0x00, 0x14, 0x14, 0x00, 0x00, 0x98, 0x13, 0x00, 0x00,
  0xec, 0x12, 0x00, 0x00, 0x40, 0x12, 0x00, 0x00, 0xb4, 0x11, 0x00, 0x00,
  0x08, 0x11, 0x00, 0x00, 0x7c, 0x10, 0x00, 0x00, 0xd0, 0x0f, 0x00, 0x00,
  0x44, 0x0f, 0x00, 0x00, 0xc8, 0x0e, 0x00, 0x00, 0x4c, 0x0e, 0x00, 0x00,
  0xd0, 0x0d, 0x00, 0x00, 0x24, 0x0d, 0x00, 0x00, 0x98, 0x0c, 0x00, 0x00,
  0x24, 0x0c, 0x00, 0x00, 0xa0, 0x0b, 0x00, 0x00, 0xfc, 0x0a, 0x00, 0x00,
  0x78, 0x0a, 0x00, 0x00, 0xfc, 0x09, 0x00, 0x00, 0x50, 0x09, 0x00, 0x00,
  0xa4, 0x08, 0x00, 0x00, 0x18, 0x08, 0x00, 0x00, 0x6c, 0x07, 0x00, 0x00,
  0xe0, 0x06, 0x00, 0x00, 0x34, 0x06, 0x00, 0x00, 0xa8, 0x05, 0x00, 0x00,
  0x2c, 0x05, 0x00, 0x00, 0xb0, 0x04, 0x00, 0x00, 0x34, 0x04, 0x00, 0x00,
  0x88, 0x03, 0x00, 0x00, 0xfc, 0x02, 0x00, 0x00, 0x88, 0x02, 0x00, 0x00,
  0x04, 0x02, 0x00, 0x00, 0x60, 0x01, 0x00, 0x00, 0xf4, 0x00, 0x00, 0x00,
  0x70, 0x00, 0x00, 0x00, 0x04, 0x00, 0x00, 0x00, 0x4a, 0xc8, 0xff, 0xff,
  0x14, 0x00, 0x00, 0x00, 0x34, 0x00, 0x00, 0x00, 0x66, 0x00, 0x00, 0x00,
  0x00, 0x00, 0x00, 0x09, 0x48, 0x00, 0x00, 0x00, 0x3c, 0xc8, 0xff, 0xff,
  0x08, 0x00, 0x00, 0x00, 0x14, 0x00, 0x00, 0x00, 0x01, 0x00, 0x00, 0x00,
  0x80, 0xff, 0xff, 0xff, 0xff, 0xff, 0xff, 0xff, 0x00, 0x00, 0x00, 0x00,
  0x01, 0x00, 0x00, 0x00, 0x00, 0x00, 0x80, 0x3b, 0x19, 0x00, 0x00, 0x00,
  0x53, 0x74, 0x61, 0x74, 0x65, 0x66, 0x75, 0x6c, 0x50, 0x61, 0x72, 0x74,
  0x69, 0x74, 0x69, 0x6f, 0x6e, 0x65, 0x64, 0x43, 0x61, 0x6c, 0x6c, 0x3a,
  0x30, 0x00, 0x00, 0x00, 0x02, 0x00, 0x00, 0x00, 0x01, 0x00, 0x00, 0x00,
  0x06, 0x00, 0x00, 0x00, 0xb2, 0xc8, 0xff, 0xff, 0x14, 0x00, 0x00, 0x00,
  0x34, 0x00, 0x00, 0x00, 0x65, 0x00, 0x00, 0x00, 0x00, 0x00, 0x00, 0x09,
  0x60, 0x00, 0x00, 0x00, 0xa4, 0xc8, 0xff, 0xff, 0x08, 0x00, 0x00, 0x00,
  0x14, 0x00, 0x00, 0x00, 0x01, 0x00, 0x00, 0x00, 0xe3, 0xff, 0xff, 0xff,
  0xff, 0xff, 0xff, 0xff, 0x00, 0x00, 0x00, 0x00, 0x01, 0x00, 0x00, 0x00,
  0x7b, 0x32, 0x23, 0x3e, 0x32, 0x00, 0x00, 0x00, 0x6d, 0x6f, 0x64, 0x65,
  0x6c, 0x5f, 0x31, 0x39, 0x2f, 0x64, 0x65, 0x6e, 0x73, 0x65, 0x5f, 0x32,
  0x32, 0x2f, 0x4d, 0x61, 0x74, 0x4d, 0x75, 0x6c, 0x3b, 0x6d, 0x6f, 0x64,
  0x65, 0x6c, 0x5f, 0x31, 0x39, 0x2f, 0x64, 0x65, 0x6e, 0x73, 0x65, 0x5f,
  0x32, 0x32, 0x2f, 0x42, 0x69, 0x61, 0x73, 0x41, 0x64, 0x64, 0x00, 0x00,
  0x02, 0x00, 0x00, 0x00, 0x01, 0x00, 0x00, 0x00, 0x06, 0x00, 0x00, 0x00,
  0x32, 0xc9, 0xff, 0xff, 0x14, 0x00, 0x00, 0x00, 0x34, 0x00, 0x00, 0x00,
  0x64, 0x00, 0x00, 0x00, 0x00, 0x00, 0x00, 0x09, 0x48, 0x00, 0x00, 0x00,
  0x24, 0xc9, 0xff, 0xff, 0x08, 0x00, 0x00, 0x00, 0x14, 0x00, 0x00, 0x00,
  0x01, 0x00, 0x00, 0x00, 0x80, 0xff, 0xff, 0xff, 0xff, 0xff, 0xff, 0xff,
  0x00, 0x00, 0x00, 0x00, 0x01, 0x00, 0x00, 0x00, 0x12, 0x49, 0x13, 0x3d,
  0x1b, 0x00, 0x00, 0x00, 0x6d, 0x6f, 0x64, 0x65, 0x6c, 0x5f, 0x31, 0x39,
  0x2f, 0x66, 0x6c, 0x61, 0x74, 0x74, 0x65, 0x6e, 0x5f, 0x31, 0x34, 0x2f,
  0x52, 0x65, 0x73, 0x68, 0x61, 0x70, 0x65, 0x00, 0x02, 0x00, 0x00, 0x00,
  0x01, 0x00, 0x00, 0x00, 0xe0, 0x01, 0x00, 0x00, 0x9a, 0xc9, 0xff, 0xff,
  0x14, 0x00, 0x00, 0x00, 0x34, 0x00, 0x00, 0x00, 0x63, 0x00, 0x00, 0x00,
  0x00, 0x00, 0x00, 0x09, 0x7c, 0x00, 0x00, 0x00, 0x8c, 0xc9, 0xff, 0xff,
  0x08, 0x00, 0x00, 0x00, 0x14, 0x00, 0x00, 0x00, 0x01, 0x00, 0x00, 0x00,
  0x80, 0xff, 0xff, 0xff, 0xff, 0xff, 0xff, 0xff, 0x00, 0x00, 0x00, 0x00,
  0x01, 0x00, 0x00, 0x00, 0x12, 0x49, 0x13, 0x3d, 0x4d, 0x00, 0x00, 0x00,
  0x6d, 0x6f, 0x64, 0x65, 0x6c, 0x5f, 0x31, 0x39, 0x2f, 0x61, 0x63, 0x74,
  0x69, 0x76, 0x61, 0x74, 0x69, 0x6f, 0x6e, 0x5f, 0x31, 0x32, 0x37, 0x2f,
  0x52, 0x65, 0x6c, 0x75, 0x3b, 0x6d, 0x6f, 0x64, 0x65, 0x6c, 0x5f, 0x31,
  0x39, 0x2f, 0x62, 0x61, 0x74, 0x63, 0x68, 0x5f, 0x6e, 0x6f, 0x72, 0x6d,
  0x61, 0x6c, 0x69, 0x7a, 0x61, 0x74, 0x69, 0x6f, 0x6e, 0x5f, 0x31, 0x32,
  0x37, 0x2f, 0x62, 0x61, 0x74, 0x63, 0x68, 0x6e, 0x6f, 0x72, 0x6d, 0x2f,
  0x61, 0x64, 0x64, 0x5f, 0x31, 0x00, 0x00, 0x00, 0x03, 0x00, 0x00, 0x00,
  0x01, 0x00, 0x00, 0x00, 0x1e, 0x00, 0x00, 0x00, 0x10, 0x00, 0x00, 0x00,
  0x3a, 0xca, 0xff, 0xff, 0x14, 0x00, 0x00, 0x00, 0x30, 0x00, 0x00, 0x00,
  0x62, 0x00, 0x00, 0x00, 0x00, 0x00, 0x00, 0x09, 0x5c, 0x00, 0x00, 0x00,
  0x2c, 0xca, 0xff, 0xff, 0x08, 0x00, 0x00, 0x00, 0x10, 0x00, 0x00, 0x00,
  0x01, 0x00, 0x00, 0x00, 0x80, 0xff, 0xff, 0xff, 0xff, 0xff, 0xff, 0xff,
  0x01, 0x00, 0x00, 0x00, 0x97, 0xb0, 0x17, 0x3d, 0x30, 0x00, 0x00, 0x00,
  0x6d, 0x6f, 0x64, 0x65, 0x6c, 0x5f, 0x31, 0x39, 0x2f, 0x62, 0x61, 0x74,
  0x63, 0x68, 0x5f, 0x6e, 0x6f, 0x72, 0x6d, 0x61, 0x6c, 0x69, 0x7a, 0x61,
  0x74, 0x69, 0x6f, 0x6e, 0x5f, 0x31, 0x32, 0x37, 0x2f, 0x62, 0x61, 0x74,
  0x63, 0x68, 0x6e, 0x6f, 0x72, 0x6d, 0x2f, 0x6d, 0x75, 0x6c, 0x5f, 0x31,
  0x00, 0x00, 0x00, 0x00, 0x03, 0x00, 0x00, 0x00, 0x01, 0x00, 0x00, 0x00,
  0x1e, 0x00, 0x00, 0x00, 0x10, 0x00, 0x00, 0x00, 0xba, 0xca, 0xff, 0xff,
  0x14, 0x00, 0x00, 0x00, 0x34, 0x00, 0x00, 0x00, 0x61, 0x00, 0x00, 0x00,
  0x00, 0x00, 0x00, 0x09, 0x4c, 0x00, 0x00, 0x00, 0xac, 0xca, 0xff, 0xff,
  0x08, 0x00, 0x00, 0x00, 0x14, 0x00, 0x00, 0x00, 0x01, 0x00, 0x00, 0x00,
  0x80, 0xff, 0xff, 0xff, 0xff, 0xff, 0xff, 0xff, 0x00, 0x00, 0x00, 0x00,
  0x01, 0x00, 0x00, 0x00, 0xe1, 0x71, 0xc8, 0x3c, 0x1e, 0x00, 0x00, 0x00,
  0x6d, 0x6f, 0x64, 0x65, 0x6c, 0x5f, 0x31, 0x39, 0x2f, 0x63, 0x6f, 0x6e,
  0x63, 0x61, 0x74, 0x65, 0x6e, 0x61, 0x74, 0x65, 0x5f, 0x39, 0x35, 0x2f,
  0x63, 0x6f, 0x6e, 0x63, 0x61, 0x74, 0x00, 0x00, 0x03, 0x00, 0x00, 0x00,
  0x01, 0x00, 0x00, 0x00, 0x1e, 0x00, 0x00, 0x00, 0x10, 0x00, 0x00, 0x00,
  0x2a, 0xcb, 0xff, 0xff, 0x14, 0x00, 0x00, 0x00, 0x30, 0x00, 0x00, 0x00,
  0x60, 0x00, 0x00, 0x00, 0x00, 0x00, 0x00, 0x09, 0x64, 0x00, 0x00, 0x00,
  0x1c, 0xcb, 0xff, 0xff, 0x08, 0x00, 0x00, 0x00, 0x10, 0x00, 0x00, 0x00,
  0x01, 0x00, 0x00, 0x00, 0x80, 0xff, 0xff, 0xff, 0xff, 0xff, 0xff, 0xff,
  0x01, 0x00, 0x00, 0x00, 0xe1, 0x71, 0xc8, 0x3c, 0x3b, 0x00, 0x00, 0x00,
  0x6d, 0x6f, 0x64, 0x65, 0x6c, 0x5f, 0x31, 0x39, 0x2f, 0x63, 0x6f, 0x6e,
  0x76, 0x31, 0x64, 0x5f, 0x35, 0x31, 0x31, 0x2f, 0x52, 0x65, 0x6c, 0x75,
  0x3b, 0x6d, 0x6f, 0x64, 0x65, 0x6c, 0x5f, 0x31, 0x39, 0x2f, 0x63, 0x6f,
  0x6e, 0x76, 0x31, 0x64, 0x5f, 0x35, 0x31, 0x31, 0x2f, 0x63, 0x6f, 0x6e,
  0x76, 0x31, 0x64, 0x2f, 0x53, 0x71, 0x75, 0x65, 0x65, 0x7a, 0x65, 0x00,
  0x03, 0x00, 0x00, 0x00, 0x01, 0x00, 0x00, 0x00, 0x1e, 0x00, 0x00, 0x00,
  0x04, 0x00, 0x00, 0x00, 0xb2, 0xcb, 0xff, 0xff, 0x14, 0x00, 0x00, 0x00,
  0x30, 0x00, 0x00, 0x00, 0x5f, 0x00, 0x00, 0x00, 0x00, 0x00, 0x00, 0x09,
  0x80, 0x00, 0x00, 0x00, 0xa4, 0xcb, 0xff, 0xff, 0x08, 0x00, 0x00, 0x00,
  0x10, 0x00, 0x00, 0x00, 0x01, 0x00, 0x00, 0x00, 0x80, 0xff, 0xff, 0xff,
  0xff, 0xff, 0xff, 0xff, 0x01, 0x00, 0x00, 0x00, 0xe1, 0x71, 0xc8, 0x3c,
  0x56, 0x00, 0x00, 0x00, 0x6d, 0x6f, 0x64, 0x65, 0x6c, 0x5f, 0x31, 0x39,
  0x2f, 0x63, 0x6f, 0x6e, 0x76, 0x31, 0x64, 0x5f, 0x35, 0x31, 0x31, 0x2f,
  0x52, 0x65, 0x6c, 0x75, 0x3b, 0x6d, 0x6f, 0x64, 0x65, 0x6c, 0x5f, 0x31,
  0x39, 0x2f, 0x63, 0x6f, 0x6e, 0x76, 0x31, 0x64, 0x5f, 0x35, 0x31, 0x31,
  0x2f, 0x63, 0x6f, 0x6e, 0x76, 0x31, 0x64, 0x2f, 0x53, 0x71, 0x75, 0x65,
  0x65, 0x7a, 0x65, 0x3b, 0x6d, 0x6f, 0x64, 0x65, 0x6c, 0x5f, 0x31, 0x39,
  0x2f, 0x63, 0x6f, 0x6e, 0x76, 0x31, 0x64, 0x5f, 0x35, 0x31, 0x31, 0x2f,
  0x63, 0x6f, 0x6e, 0x76, 0x31, 0x64, 0x00, 0x00, 0x04, 0x00, 0x00, 0x00,
  0x01, 0x00, 0x00, 0x00, 0x01, 0x00, 0x00, 0x00, 0x1e, 0x00, 0x00, 0x00,
  0x04, 0x00, 0x00, 0x00, 0x5a, 0xcc, 0xff, 0xff, 0x14, 0x00, 0x00, 0x00,
  0x30, 0x00, 0x00, 0x00, 0x5e, 0x00, 0x00, 0x00, 0x00, 0x00, 0x00, 0x09,
  0x50, 0x00, 0x00, 0x00, 0x4c, 0xcc, 0xff, 0xff, 0x08, 0x00, 0x00, 0x00,
  0x10, 0x00, 0x00, 0x00, 0x01, 0x00, 0x00, 0x00, 0x80, 0xff, 0xff, 0xff,
  0xff, 0xff, 0xff, 0xff, 0x01, 0x00, 0x00, 0x00, 0xfb, 0xd5, 0xa0, 0x3d,
  0x25, 0x00, 0x00, 0x00, 0x6d, 0x6f, 0x64, 0x65, 0x6c, 0x5f, 0x31, 0x39,
  0x2f, 0x63, 0x6f, 0x6e, 0x76, 0x31, 0x64, 0x5f, 0x35, 0x31, 0x31, 0x2f,
  0x63, 0x6f, 0x6e, 0x76, 0x31, 0x64, 0x2f, 0x45, 0x78, 0x70, 0x61, 0x6e,
  0x64, 0x44, 0x69, 0x6d, 0x73, 0x00, 0x00, 0x00, 0x04, 0x00, 0x00, 0x00,
  0x01, 0x00, 0x00, 0x00, 0x01, 0x00, 0x00, 0x00, 0x1e, 0x00, 0x00, 0x00,
  0x10, 0x00, 0x00, 0x00, 0xd2, 0xcc, 0xff, 0xff, 0x14, 0x00, 0x00, 0x00,
  0x34, 0x00, 0x00, 0x00, 0x5d, 0x00, 0x00, 0x00, 0x00, 0x00, 0x00, 0x09,
  0x50, 0x00, 0x00, 0x00, 0xc4, 0xcc, 0xff, 0xff, 0x08, 0x00, 0x00, 0x00,
  0x14, 0x00, 0x00, 0x00, 0x01, 0x00, 0x00, 0x00, 0x80, 0xff, 0xff, 0xff,
  0xff, 0xff, 0xff, 0xff, 0x00, 0x00, 0x00, 0x00, 0x01, 0x00, 0x00, 0x00,
  0xfb, 0xd5, 0xa0, 0x3d, 0x21, 0x00, 0x00, 0x00, 0x6d, 0x6f, 0x64, 0x65,
  0x6c, 0x5f, 0x31, 0x39, 0x2f, 0x6d, 0x61, 0x78, 0x5f, 0x70, 0x6f, 0x6f,
  0x6c, 0x69, 0x6e, 0x67, 0x31, 0x64, 0x5f, 0x39, 0x39, 0x2f, 0x4d, 0x61,
  0x78, 0x50, 0x6f, 0x6f, 0x6c, 0x00, 0x00, 0x00, 0x04, 0x00, 0x00, 0x00,
  0x01, 0x00, 0x00, 0x00, 0x1e, 0x00, 0x00, 0x00, 0x01, 0x00, 0x00, 0x00,
  0x10, 0x00, 0x00, 0x00, 0x4a, 0xcd, 0xff, 0xff, 0x14, 0x00, 0x00, 0x00,
  0x30, 0x00, 0x00, 0x00, 0x5c, 0x00, 0x00, 0x00, 0x00, 0x00, 0x00, 0x09,
  0x50, 0x00, 0x00, 0x00, 0x3c, 0xcd, 0xff, 0xff, 0x08, 0x00, 0x00, 0x00,
  0x10, 0x00, 0x00, 0x00, 0x01, 0x00, 0x00, 0x00, 0x80, 0xff, 0xff, 0xff,
  0xff, 0xff, 0xff, 0xff, 0x01, 0x00, 0x00, 0x00, 0xfb, 0xd5, 0xa0, 0x3d,
  0x24, 0x00, 0x00, 0x00, 0x6d, 0x6f, 0x64, 0x65, 0x6c, 0x5f, 0x31, 0x39,
  0x2f, 0x6d, 0x61, 0x78, 0x5f, 0x70, 0x6f, 0x6f, 0x6c, 0x69, 0x6e, 0x67,
  0x31, 0x64, 0x5f, 0x39, 0x39, 0x2f, 0x45, 0x78, 0x70, 0x61, 0x6e, 0x64,
  0x44, 0x69, 0x6d, 0x73, 0x00, 0x00, 0x00, 0x00, 0x04, 0x00, 0x00, 0x00,
  0x01, 0x00, 0x00, 0x00, 0x1e, 0x00, 0x00, 0x00, 0x01, 0x00, 0x00, 0x00,
  0x10, 0x00, 0x00, 0x00, 0xc2, 0xcd, 0xff, 0xff, 0x14, 0x00, 0x00, 0x00,
  0x30, 0x00, 0x00, 0x00, 0x5b, 0x00, 0x00, 0x00, 0x00, 0x00, 0x00, 0x09,
  0x64, 0x00, 0x00, 0x00, 0xb4, 0xcd, 0xff, 0xff, 0x08, 0x00, 0x00, 0x00,
  0x10, 0x00, 0x00, 0x00, 0x01, 0x00, 0x00, 0x00, 0x80, 0xff, 0xff, 0xff,
  0xff, 0xff, 0xff, 0xff, 0x01, 0x00, 0x00, 0x00, 0xe1, 0x71, 0xc8, 0x3c,
  0x3b, 0x00, 0x00, 0x00, 0x6d, 0x6f, 0x64, 0x65, 0x6c, 0x5f, 0x31, 0x39,
  0x2f, 0x63, 0x6f, 0x6e, 0x76, 0x31, 0x64, 0x5f, 0x35, 0x31, 0x30, 0x2f,
  0x52, 0x65, 0x6c, 0x75, 0x3b, 0x6d, 0x6f, 0x64, 0x65, 0x6c, 0x5f, 0x31,
  0x39, 0x2f, 0x63, 0x6f, 0x6e, 0x76, 0x31, 0x64, 0x5f, 0x35, 0x31, 0x30,
  0x2f, 0x63, 0x6f, 0x6e, 0x76, 0x31, 0x64, 0x2f, 0x53, 0x71, 0x75, 0x65,
  0x65, 0x7a, 0x65, 0x00, 0x03, 0x00, 0x00, 0x00, 0x01, 0x00, 0x00, 0x00,
  0x1e, 0x00, 0x00, 0x00, 0x04, 0x00, 0x00, 0x00, 0x4a, 0xce, 0xff, 0xff,
  0x14, 0x00, 0x00, 0x00, 0x30, 0x00, 0x00, 0x00, 0x5a, 0x00, 0x00, 0x00,
  0x00, 0x00, 0x00, 0x09, 0x80, 0x00, 0x00, 0x00, 0x3c, 0xce, 0xff, 0xff,
  0x08, 0x00, 0x00, 0x00, 0x10, 0x00, 0x00, 0x00, 0x01, 0x00, 0x00, 0x00,
  0x80, 0xff, 0xff, 0xff, 0xff, 0xff, 0xff, 0xff, 0x01, 0x00, 0x00, 0x00,
  0xe1, 0x71, 0xc8, 0x3c, 0x56, 0x00, 0x00, 0x00, 0x6d, 0x6f, 0x64, 0x65,
  0x6c, 0x5f, 0x31, 0x39, 0x2f, 0x63, 0x6f, 0x6e, 0x76, 0x31, 0x64, 0x5f,
  0x35, 0x31, 0x30, 0x2f, 0x52, 0x65, 0x6c, 0x75, 0x3b, 0x6d, 0x6f, 0x64,
  0x65, 0x6c, 0x5f, 0x31, 0x39, 0x2f, 0x63, 0x6f, 0x6e, 0x76, 0x31, 0x64,
  0x5f, 0x35, 0x31, 0x30, 0x2f, 0x63, 0x6f, 0x6e, 0x76, 0x31, 0x64, 0x2f,
  0x53, 0x71, 0x75, 0x65, 0x65, 0x7a, 0x65, 0x3b, 0x6d, 0x6f, 0x64, 0x65,
  0x6c, 0x5f, 0x31, 0x39, 0x2f, 0x63, 0x6f, 0x6e, 0x76, 0x31, 0x64, 0x5f,
  0x35, 0x31, 0x30, 0x2f, 0x63, 0x6f, 0x6e, 0x76, 0x31, 0x64, 0x00, 0x00,
  0x04, 0x00, 0x00, 0x00, 0x01, 0x00, 0x00, 0x00, 0x01, 0x00, 0x00, 0x00,
  0x1e, 0x00, 0x00, 0x00, 0x04, 0x00, 0x00, 0x00, 0xf2, 0xce, 0xff, 0xff,
  0x14, 0x00, 0x00, 0x00, 0x30, 0x00, 0x00, 0x00, 0x59, 0x00, 0x00, 0x00,
  0x00, 0x00, 0x00, 0x09, 0x64, 0x00, 0x00, 0x00, 0xe4, 0xce, 0xff, 0xff,
  0x08, 0x00, 0x00, 0x00, 0x10, 0x00, 0x00, 0x00, 0x01, 0x00, 0x00, 0x00,
  0x80, 0xff, 0xff, 0xff, 0xff, 0xff, 0xff, 0xff, 0x01, 0x00, 0x00, 0x00,
  0xe1, 0x71, 0xc8, 0x3c, 0x3b, 0x00, 0x00, 0x00, 0x6d, 0x6f, 0x64, 0x65,
  0x6c, 0x5f, 0x31, 0x39, 0x2f, 0x63, 0x6f, 0x6e, 0x76, 0x31, 0x64, 0x5f,
  0x35, 0x30, 0x39, 0x2f, 0x52, 0x65, 0x6c, 0x75, 0x3b, 0x6d, 0x6f, 0x64,
  0x65, 0x6c, 0x5f, 0x31, 0x39, 0x2f, 0x63, 0x6f, 0x6e, 0x76, 0x31, 0x64,
  0x5f, 0x35, 0x30, 0x39, 0x2f, 0x63, 0x6f, 0x6e, 0x76, 0x31, 0x64, 0x2f,
  0x53, 0x71, 0x75, 0x65, 0x65, 0x7a, 0x65, 0x00, 0x03, 0x00, 0x00, 0x00,
  0x01, 0x00, 0x00, 0x00, 0x1e, 0x00, 0x00, 0x00, 0x04, 0x00, 0x00, 0x00,
  0x7a, 0xcf, 0xff, 0xff, 0x14, 0x00, 0x00, 0x00, 0x30, 0x00, 0x00, 0x00,
  0x58, 0x00, 0x00, 0x00, 0x00, 0x00, 0x00, 0x09, 0x80, 0x00, 0x00, 0x00,
  0x6c, 0xcf, 0xff, 0xff, 0x08, 0x00, 0x00, 0x00, 0x10, 0x00, 0x00, 0x00,
  0x01, 0x00, 0x00, 0x00, 0x80, 0xff, 0xff, 0xff, 0xff, 0xff, 0xff, 0xff,
  0x01, 0x00, 0x00, 0x00, 0xe1, 0x71, 0xc8, 0x3c, 0x56, 0x00, 0x00, 0x00,
  0x6d, 0x6f, 0x64, 0x65, 0x6c, 0x5f, 0x31, 0x39, 0x2f, 0x63, 0x6f, 0x6e,
  0x76, 0x31, 0x64, 0x5f, 0x35, 0x30, 0x39, 0x2f, 0x52, 0x65, 0x6c, 0x75,
  0x3b, 0x6d, 0x6f, 0x64, 0x65, 0x6c, 0x5f, 0x31, 0x39, 0x2f, 0x63, 0x6f,
  0x6e, 0x76, 0x31, 0x64, 0x5f, 0x35, 0x30, 0x39, 0x2f, 0x63, 0x6f, 0x6e,
  0x76, 0x31, 0x64, 0x2f, 0x53, 0x71, 0x75, 0x65, 0x65, 0x7a, 0x65, 0x3b,
  0x6d, 0x6f, 0x64, 0x65, 0x6c, 0x5f, 0x31, 0x39, 0x2f, 0x63, 0x6f, 0x6e,
  0x76, 0x31, 0x64, 0x5f, 0x35, 0x30, 0x39, 0x2f, 0x63, 0x6f, 0x6e, 0x76,
  0x31, 0x64, 0x00, 0x00, 0x04, 0x00, 0x00, 0x00, 0x01, 0x00, 0x00, 0x00,
  0x01, 0x00, 0x00, 0x00, 0x1e, 0x00, 0x00, 0x00, 0x04, 0x00, 0x00, 0x00,
  0x22, 0xd0, 0xff, 0xff, 0x14, 0x00, 0x00, 0x00, 0x30, 0x00, 0x00, 0x00,
  0x57, 0x00, 0x00, 0x00, 0x00, 0x00, 0x00, 0x09, 0x64, 0x00, 0x00, 0x00,
  0x14, 0xd0, 0xff, 0xff, 0x08, 0x00, 0x00, 0x00, 0x10, 0x00, 0x00, 0x00,
  0x01, 0x00, 0x00, 0x00, 0x80, 0xff, 0xff, 0xff, 0xff, 0xff, 0xff, 0xff,
  0x01, 0x00, 0x00, 0x00, 0xe1, 0x71, 0xc8, 0x3c, 0x3b, 0x00, 0x00, 0x00,
  0x6d, 0x6f, 0x64, 0x65, 0x6c, 0x5f, 0x31, 0x39, 0x2f, 0x63, 0x6f, 0x6e,
  0x76, 0x31, 0x64, 0x5f, 0x35, 0x30, 0x38, 0x2f, 0x52, 0x65, 0x6c, 0x75,
  0x3b, 0x6d, 0x6f, 0x64, 0x65, 0x6c, 0x5f, 0x31, 0x39, 0x2f, 0x63, 0x6f,
  0x6e, 0x76, 0x31, 0x64, 0x5f, 0x35, 0x30, 0x38, 0x2f, 0x63, 0x6f, 0x6e,
  0x76, 0x31, 0x64, 0x2f, 0x53, 0x71, 0x75, 0x65, 0x65, 0x7a, 0x65, 0x00,
  0x03, 0x00, 0x00, 0x00, 0x01, 0x00, 0x00, 0x00, 0x1e, 0x00, 0x00, 0x00,
  0x04, 0x00, 0x00, 0x00, 0xaa, 0xd0, 0xff, 0xff, 0x14, 0x00, 0x00, 0x00,
  0x30, 0x00, 0x00, 0x00, 0x56, 0x00, 0x00, 0x00, 0x00, 0x00, 0x00, 0x09,
  0x80, 0x00, 0x00, 0x00, 0x9c, 0xd0, 0xff, 0xff, 0x08, 0x00, 0x00, 0x00,
  0x10, 0x00, 0x00, 0x00, 0x01, 0x00, 0x00, 0x00, 0x80, 0xff, 0xff, 0xff,
  0xff, 0xff, 0xff, 0xff, 0x01, 0x00, 0x00, 0x00, 0xe1, 0x71, 0xc8, 0x3c,
  0x56, 0x00, 0x00, 0x00, 0x6d, 0x6f, 0x64, 0x65, 0x6c, 0x5f, 0x31, 0x39,
  0x2f, 0x63, 0x6f, 0x6e, 0x76, 0x31, 0x64, 0x5f, 0x35, 0x30, 0x38, 0x2f,
  0x52, 0x65, 0x6c, 0x75, 0x3b, 0x6d, 0x6f, 0x64, 0x65, 0x6c, 0x5f, 0x31,
  0x39, 0x2f, 0x63, 0x6f, 0x6e, 0x76, 0x31, 0x64, 0x5f, 0x35, 0x30, 0x38,
  0x2f, 0x63, 0x6f, 0x6e, 0x76, 0x31, 0x64, 0x2f, 0x53, 0x71, 0x75, 0x65,
  0x65, 0x7a, 0x65, 0x3b, 0x6d, 0x6f, 0x64, 0x65, 0x6c, 0x5f, 0x31, 0x39,
  0x2f, 0x63, 0x6f, 0x6e, 0x76, 0x31, 0x64, 0x5f, 0x35, 0x30, 0x38, 0x2f,
  0x63, 0x6f, 0x6e, 0x76, 0x31, 0x64, 0x00, 0x00, 0x04, 0x00, 0x00, 0x00,
  0x01, 0x00, 0x00, 0x00, 0x01, 0x00, 0x00, 0x00, 0x1e, 0x00, 0x00, 0x00,
  0x04, 0x00, 0x00, 0x00, 0x52, 0xd1, 0xff, 0xff, 0x14, 0x00, 0x00, 0x00,
  0x30, 0x00, 0x00, 0x00, 0x55, 0x00, 0x00, 0x00, 0x00, 0x00, 0x00, 0x09,
  0x80, 0x00, 0x00, 0x00, 0x44, 0xd1, 0xff, 0xff, 0x08, 0x00, 0x00, 0x00,
  0x10, 0x00, 0x00, 0x00, 0x01, 0x00, 0x00, 0x00, 0x80, 0xff, 0xff, 0xff,
  0xff, 0xff, 0xff, 0xff, 0x01, 0x00, 0x00, 0x00, 0xf5, 0xe9, 0xb6, 0x3c,
  0x56, 0x00, 0x00, 0x00, 0x6d, 0x6f, 0x64, 0x65, 0x6c, 0x5f, 0x31, 0x39,
  0x2f, 0x63, 0x6f, 0x6e, 0x76, 0x31, 0x64, 0x5f, 0x35, 0x30, 0x37, 0x2f,
  0x52, 0x65, 0x6c, 0x75, 0x3b, 0x6d, 0x6f, 0x64, 0x65, 0x6c, 0x5f, 0x31,
  0x39, 0x2f, 0x63, 0x6f, 0x6e, 0x76, 0x31, 0x64, 0x5f, 0x35, 0x30, 0x37,
  0x2f, 0x63, 0x6f, 0x6e, 0x76, 0x31, 0x64, 0x2f, 0x53, 0x71, 0x75, 0x65,
  0x65, 0x7a, 0x65, 0x3b, 0x6d, 0x6f, 0x64, 0x65, 0x6c, 0x5f, 0x31, 0x39,
  0x2f, 0x63, 0x6f, 0x6e, 0x76, 0x31, 0x64, 0x5f, 0x35, 0x30, 0x37, 0x2f,
  0x63, 0x6f, 0x6e, 0x76, 0x31, 0x64, 0x00, 0x00, 0x04, 0x00, 0x00, 0x00,
  0x01, 0x00, 0x00, 0x00, 0x01, 0x00, 0x00, 0x00, 0x1e, 0x00, 0x00, 0x00,
  0x01, 0x00, 0x00, 0x00, 0xfa, 0xd1, 0xff, 0xff, 0x14, 0x00, 0x00, 0x00,
  0x30, 0x00, 0x00, 0x00, 0x54, 0x00, 0x00, 0x00, 0x00, 0x00, 0x00, 0x09,
  0x50, 0x00, 0x00, 0x00, 0xec, 0xd1, 0xff, 0xff, 0x08, 0x00, 0x00, 0x00,
  0x10, 0x00, 0x00, 0x00, 0x01, 0x00, 0x00, 0x00, 0x80, 0xff, 0xff, 0xff,
  0xff, 0xff, 0xff, 0xff, 0x01, 0x00, 0x00, 0x00, 0xfb, 0xd5, 0xa0, 0x3d,
  0x25, 0x00, 0x00, 0x00, 0x6d, 0x6f, 0x64, 0x65, 0x6c, 0x5f, 0x31, 0x39,
  0x2f, 0x63, 0x6f, 0x6e, 0x76, 0x31, 0x64, 0x5f, 0x35, 0x30, 0x37, 0x2f,
  0x63, 0x6f, 0x6e, 0x76, 0x31, 0x64, 0x2f, 0x45, 0x78, 0x70, 0x61, 0x6e,
  0x64, 0x44, 0x69, 0x6d, 0x73, 0x00, 0x00, 0x00, 0x04, 0x00, 0x00, 0x00,
  0x01, 0x00, 0x00, 0x00, 0x01, 0x00, 0x00, 0x00, 0x1e, 0x00, 0x00, 0x00,
  0x10, 0x00, 0x00, 0x00, 0x72, 0xd2, 0xff, 0xff, 0x14, 0x00, 0x00, 0x00,
  0x30, 0x00, 0x00, 0x00, 0x53, 0x00, 0x00, 0x00, 0x00, 0x00, 0x00, 0x09,
  0x5c, 0x00, 0x00, 0x00, 0x64, 0xd2, 0xff, 0xff, 0x08, 0x00, 0x00, 0x00,
  0x10, 0x00, 0x00, 0x00, 0x01, 0x00, 0x00, 0x00, 0x80, 0xff, 0xff, 0xff,
  0xff, 0xff, 0xff, 0xff, 0x01, 0x00, 0x00, 0x00, 0xfb, 0xd5, 0xa0, 0x3d,
  0x30, 0x00, 0x00, 0x00, 0x6d, 0x6f, 0x64, 0x65, 0x6c, 0x5f, 0x31, 0x39,
  0x2f, 0x61, 0x63, 0x74, 0x69, 0x76, 0x61, 0x74, 0x69, 0x6f, 0x6e, 0x5f,
  0x31, 0x32, 0x36, 0x2f, 0x52, 0x65, 0x6c, 0x75, 0x3b, 0x6d, 0x6f, 0x64,
  0x65, 0x6c, 0x5f, 0x31, 0x39, 0x2f, 0x61, 0x64, 0x64, 0x5f, 0x33, 0x31,
  0x2f, 0x61, 0x64, 0x64, 0x00, 0x00, 0x00, 0x00, 0x03, 0x00, 0x00, 0x00,
  0x01, 0x00, 0x00, 0x00, 0x1e, 0x00, 0x00, 0x00, 0x10, 0x00, 0x00, 0x00,
  0xf2, 0xd2, 0xff, 0xff, 0x14, 0x00, 0x00, 0x00, 0x34, 0x00, 0x00, 0x00,
  0x52, 0x00, 0x00, 0x00, 0x00, 0x00, 0x00, 0x09, 0x7c, 0x00, 0x00, 0x00,
  0xe4, 0xd2, 0xff, 0xff, 0x08, 0x00, 0x00, 0x00, 0x14, 0x00, 0x00, 0x00,
  0x01, 0x00, 0x00, 0x00, 0x80, 0xff, 0xff, 0xff, 0xff, 0xff, 0xff, 0xff,
  0x00, 0x00, 0x00, 0x00, 0x01, 0x00, 0x00, 0x00, 0x87, 0x2f, 0x9a, 0x3d,
  0x4d, 0x00, 0x00, 0x00, 0x6d, 0x6f, 0x64, 0x65, 0x6c, 0x5f, 0x31, 0x39,
  0x2f, 0x61, 0x63, 0x74, 0x69, 0x76, 0x61, 0x74, 0x69, 0x6f, 0x6e, 0x5f,
  0x31, 0x32, 0x35, 0x2f, 0x52, 0x65, 0x6c, 0x75, 0x3b, 0x6d, 0x6f, 0x64,
  0x65, 0x6c, 0x5f, 0x31, 0x39, 0x2f, 0x62, 0x61, 0x74, 0x63, 0x68, 0x5f,
  0x6e, 0x6f, 0x72, 0x6d, 0x61, 0x6c, 0x69, 0x7a, 0x61, 0x74, 0x69, 0x6f,
  0x6e, 0x5f, 0x31, 0x32, 0x35, 0x2f, 0x62, 0x61, 0x74, 0x63, 0x68, 0x6e,
  0x6f, 0x72, 0x6d, 0x2f, 0x61, 0x64, 0x64, 0x5f, 0x31, 0x00, 0x00, 0x00,
  0x03, 0x00, 0x00, 0x00, 0x01, 0x00, 0x00, 0x00, 0x1e, 0x00, 0x00, 0x00,
  0x10, 0x00, 0x00, 0x00, 0x92, 0xd3, 0xff, 0xff, 0x14, 0x00, 0x00, 0x00,
  0x30, 0x00, 0x00, 0x00, 0x51, 0x00, 0x00, 0x00, 0x00, 0x00, 0x00, 0x09,
  0x5c, 0x00, 0x00, 0x00, 0x84, 0xd3, 0xff, 0xff, 0x08, 0x00, 0x00, 0x00,
  0x10, 0x00, 0x00, 0x00, 0x01, 0x00, 0x00, 0x00, 0x80, 0xff, 0xff, 0xff,
  0xff, 0xff, 0xff, 0xff, 0x01, 0x00, 0x00, 0x00, 0xaf, 0x2f, 0x9c, 0x3d,
  0x30, 0x00, 0x00, 0x00, 0x6d, 0x6f, 0x64, 0x65, 0x6c, 0x5f, 0x31, 0x39,
  0x2f, 0x62, 0x61, 0x74, 0x63, 0x68, 0x5f, 0x6e, 0x6f, 0x72, 0x6d, 0x61,
  0x6c, 0x69, 0x7a, 0x61, 0x74, 0x69, 0x6f, 0x6e, 0x5f, 0x31, 0x32, 0x35,
  0x2f, 0x62, 0x61, 0x74, 0x63, 0x68, 0x6e, 0x6f, 0x72, 0x6d, 0x2f, 0x6d,
  0x75, 0x6c, 0x5f, 0x31, 0x00, 0x00, 0x00, 0x00, 0x03, 0x00, 0x00, 0x00,
  0x01, 0x00, 0x00, 0x00, 0x1e, 0x00, 0x00, 0x00, 0x10, 0x00, 0x00, 0x00,
  0x12, 0xd4, 0xff, 0xff, 0x14, 0x00, 0x00, 0x00, 0x34, 0x00, 0x00, 0x00,
  0x50, 0x00, 0x00, 0x00, 0x00, 0x00, 0x00, 0x09, 0x4c, 0x00, 0x00, 0x00,
  0x04, 0xd4, 0xff, 0xff, 0x08, 0x00, 0x00, 0x00, 0x14, 0x00, 0x00, 0x00,
  0x01, 0x00, 0x00, 0x00, 0x80, 0xff, 0xff, 0xff, 0xff, 0xff, 0xff, 0xff,
  0x00, 0x00, 0x00, 0x00, 0x01, 0x00, 0x00, 0x00, 0x95, 0xf8, 0xb0, 0x3d,
  0x1e, 0x00, 0x00, 0x00, 0x6d, 0x6f, 0x64, 0x65, 0x6c, 0x5f, 0x31, 0x39,
  0x2f, 0x63, 0x6f, 0x6e, 0x63, 0x61, 0x74, 0x65, 0x6e, 0x61, 0x74, 0x65,
  0x5f, 0x39, 0x34, 0x2f, 0x63, 0x6f, 0x6e, 0x63, 0x61, 0x74, 0x00, 0x00,
  0x03, 0x00, 0x00, 0x00, 0x01, 0x00, 0x00, 0x00, 0x1e, 0x00, 0x00, 0x00,
  0x10, 0x00, 0x00, 0x00, 0x82, 0xd4, 0xff, 0xff, 0x14, 0x00, 0x00, 0x00,
  0x30, 0x00, 0x00, 0x00, 0x4f, 0x00, 0x00, 0x00, 0x00, 0x00, 0x00, 0x09,
  0x64, 0x00, 0x00, 0x00, 0x74, 0xd4, 0xff, 0xff, 0x08, 0x00, 0x00, 0x00,
  0x10, 0x00, 0x00, 0x00, 0x01, 0x00, 0x00, 0x00, 0x80, 0xff, 0xff, 0xff,
  0xff, 0xff, 0xff, 0xff, 0x01, 0x00, 0x00, 0x00, 0x95, 0xf8, 0xb0, 0x3d,
  0x3b, 0x00, 0x00, 0x00, 0x6d, 0x6f, 0x64, 0x65, 0x6c, 0x5f, 0x31, 0x39,
  0x2f, 0x63, 0x6f, 0x6e, 0x76, 0x31, 0x64, 0x5f, 0x35, 0x30, 0x35, 0x2f,
  0x52, 0x65, 0x6c, 0x75, 0x3b, 0x6d, 0x6f, 0x64, 0x65, 0x6c, 0x5f, 0x31,
  0x39, 0x2f, 0x63, 0x6f, 0x6e, 0x76, 0x31, 0x64, 0x5f, 0x35, 0x30, 0x35,
  0x2f, 0x63, 0x6f, 0x6e, 0x76, 0x31, 0x64, 0x2f, 0x53, 0x71, 0x75, 0x65,
  0x65, 0x7a, 0x65, 0x00, 0x03, 0x00, 0x00, 0x00, 0x01, 0x00, 0x00, 0x00,
  0x1e, 0x00, 0x00, 0x00, 0x04, 0x00, 0x00, 0x00, 0x0a, 0xd5, 0xff, 0xff,
  0x14, 0x00, 0x00, 0x00, 0x30, 0x00, 0x00, 0x00, 0x4e, 0x00, 0x00, 0x00,
  0x00, 0x00, 0x00, 0x09, 0x80, 0x00, 0x00, 0x00, 0xfc, 0xd4, 0xff, 0xff,
  0x08, 0x00, 0x00, 0x00, 0x10, 0x00, 0x00, 0x00, 0x01, 0x00, 0x00, 0x00,
  0x80, 0xff, 0xff, 0xff, 0xff, 0xff, 0xff, 0xff, 0x01, 0x00, 0x00, 0x00,
  0x95, 0xf8, 0xb0, 0x3d, 0x56, 0x00, 0x00, 0x00, 0x6d, 0x6f, 0x64, 0x65,
  0x6c, 0x5f, 0x31, 0x39, 0x2f, 0x63, 0x6f, 0x6e, 0x76, 0x31, 0x64, 0x5f,
  0x35, 0x30, 0x35, 0x2f, 0x52, 0x65, 0x6c, 0x75, 0x3b, 0x6d, 0x6f, 0x64,
  0x65, 0x6c, 0x5f, 0x31, 0x39, 0x2f, 0x63, 0x6f, 0x6e, 0x76, 0x31, 0x64,
  0x5f, 0x35, 0x30, 0x35, 0x2f, 0x63, 0x6f, 0x6e, 0x76, 0x31, 0x64, 0x2f,
  0x53, 0x71, 0x75, 0x65, 0x65, 0x7a, 0x65, 0x3b, 0x6d, 0x6f, 0x64, 0x65,
  0x6c, 0x5f, 0x31, 0x39, 0x2f, 0x63, 0x6f, 0x6e, 0x76, 0x31, 0x64, 0x5f,
  0x35, 0x30, 0x35, 0x2f, 0x63, 0x6f, 0x6e, 0x76, 0x31, 0x64, 0x00, 0x00,
  0x04, 0x00, 0x00, 0x00, 0x01, 0x00, 0x00, 0x00, 0x01, 0x00, 0x00, 0x00,
  0x1e, 0x00, 0x00, 0x00, 0x04, 0x00, 0x00, 0x00, 0xb2, 0xd5, 0xff, 0xff,
  0x14, 0x00, 0x00, 0x00, 0x30, 0x00, 0x00, 0x00, 0x4d, 0x00, 0x00, 0x00,
  0x00, 0x00, 0x00, 0x09, 0x50, 0x00, 0x00, 0x00, 0xa4, 0xd5, 0xff, 0xff,
  0x08, 0x00, 0x00, 0x00, 0x10, 0x00, 0x00, 0x00, 0x01, 0x00, 0x00, 0x00,
  0x80, 0xff, 0xff, 0xff, 0xff, 0xff, 0xff, 0xff, 0x01, 0x00, 0x00, 0x00,
  0xcf, 0x4d, 0x88, 0x3d, 0x25, 0x00, 0x00, 0x00, 0x6d, 0x6f, 0x64, 0x65,
  0x6c, 0x5f, 0x31, 0x39, 0x2f, 0x63, 0x6f, 0x6e, 0x76, 0x31, 0x64, 0x5f,
  0x35, 0x30, 0x35, 0x2f, 0x63, 0x6f, 0x6e, 0x76, 0x31, 0x64, 0x2f, 0x45,
  0x78, 0x70, 0x61, 0x6e, 0x64, 0x44, 0x69, 0x6d, 0x73, 0x00, 0x00, 0x00,
  0x04, 0x00, 0x00, 0x00, 0x01, 0x00, 0x00, 0x00, 0x01, 0x00, 0x00, 0x00,
  0x1e, 0x00, 0x00, 0x00, 0x10, 0x00, 0x00, 0x00, 0x2a, 0xd6, 0xff, 0xff,
  0x14, 0x00, 0x00, 0x00, 0x34, 0x00, 0x00, 0x00, 0x4c, 0x00, 0x00, 0x00,
  0x00, 0x00, 0x00, 0x09, 0x50, 0x00, 0x00, 0x00, 0x1c, 0xd6, 0xff, 0xff,
  0x08, 0x00, 0x00, 0x00, 0x14, 0x00, 0x00, 0x00, 0x01, 0x00, 0x00, 0x00,
  0x80, 0xff, 0xff, 0xff, 0xff, 0xff, 0xff, 0xff, 0x00, 0x00, 0x00, 0x00,
  0x01, 0x00, 0x00, 0x00, 0xcf, 0x4d, 0x88, 0x3d, 0x21, 0x00, 0x00, 0x00,
  0x6d, 0x6f, 0x64, 0x65, 0x6c, 0x5f, 0x31, 0x39, 0x2f, 0x6d, 0x61, 0x78,
  0x5f, 0x70, 0x6f, 0x6f, 0x6c, 0x69, 0x6e, 0x67, 0x31, 0x64, 0x5f, 0x39,
  0x38, 0x2f, 0x4d, 0x61, 0x78, 0x50, 0x6f, 0x6f, 0x6c, 0x00, 0x00, 0x00,
  0x04, 0x00, 0x00, 0x00, 0x01, 0x00, 0x00, 0x00, 0x1e, 0x00, 0x00, 0x00,
  0x01, 0x00, 0x00, 0x00, 0x10, 0x00, 0x00, 0x00, 0xa2, 0xd6, 0xff, 0xff,
  0x14, 0x00, 0x00, 0x00, 0x30, 0x00, 0x00, 0x00, 0x4b, 0x00, 0x00, 0x00,
  0x00, 0x00, 0x00, 0x09, 0x50, 0x00, 0x00, 0x00, 0x94, 0xd6, 0xff, 0xff,
  0x08, 0x00, 0x00, 0x00, 0x10, 0x00, 0x00, 0x00, 0x01, 0x00, 0x00, 0x00,
  0x80, 0xff, 0xff, 0xff, 0xff, 0xff, 0xff, 0xff, 0x01, 0x00, 0x00, 0x00,
  0xcf, 0x4d, 0x88, 0x3d, 0x25, 0x00, 0x00, 0x00, 0x6d, 0x6f, 0x64, 0x65,
  0x6c, 0x5f, 0x31, 0x39, 0x2f, 0x6d, 0x61, 0x78, 0x5f, 0x70, 0x6f, 0x6f,
  0x6c, 0x69, 0x6e, 0x67, 0x31, 0x64, 0x5f, 0x39, 0x38, 0x2f, 0x45, 0x78,
  0x70, 0x61, 0x6e, 0x64, 0x44, 0x69, 0x6d, 0x73, 0x31, 0x00, 0x00, 0x00,
  0x04, 0x00, 0x00, 0x00, 0x01, 0x00, 0x00, 0x00, 0x1e, 0x00, 0x00, 0x00,
  0x01, 0x00, 0x00, 0x00, 0x10, 0x00, 0x00, 0x00, 0x1a, 0xd7, 0xff, 0xff,
  0x14, 0x00, 0x00, 0x00, 0x30, 0x00, 0x00, 0x00, 0x4a, 0x00, 0x00, 0x00,
  0x00, 0x00, 0x00, 0x09, 0x64, 0x00, 0x00, 0x00, 0x0c, 0xd7, 0xff, 0xff,
  0x08, 0x00, 0x00, 0x00, 0x10, 0x00, 0x00, 0x00, 0x01, 0x00, 0x00, 0x00,
  0x80, 0xff, 0xff, 0xff, 0xff, 0xff, 0xff, 0xff, 0x01, 0x00, 0x00, 0x00,
  0x95, 0xf8, 0xb0, 0x3d, 0x3b, 0x00, 0x00, 0x00, 0x6d, 0x6f, 0x64, 0x65,
  0x6c, 0x5f, 0x31, 0x39, 0x2f, 0x63, 0x6f, 0x6e, 0x76, 0x31, 0x64, 0x5f,
  0x35, 0x30, 0x34, 0x2f, 0x52, 0x65, 0x6c, 0x75, 0x3b, 0x6d, 0x6f, 0x64,
  0x65, 0x6c, 0x5f, 0x31, 0x39, 0x2f, 0x63, 0x6f, 0x6e, 0x76, 0x31, 0x64,
  0x5f, 0x35, 0x30, 0x34, 0x2f, 0x63, 0x6f, 0x6e, 0x76, 0x31, 0x64, 0x2f,
  0x53, 0x71, 0x75, 0x65, 0x65, 0x7a, 0x65, 0x00, 0x03, 0x00, 0x00, 0x00,
  0x01, 0x00, 0x00, 0x00, 0x1e, 0x00, 0x00, 0x00, 0x04, 0x00, 0x00, 0x00,
  0xa2, 0xd7, 0xff, 0xff, 0x14, 0x00, 0x00, 0x00, 0x30, 0x00, 0x00, 0x00,
  0x49, 0x00, 0x00, 0x00, 0x00, 0x00, 0x00, 0x09, 0x80, 0x00, 0x00, 0x00,
  0x94, 0xd7, 0xff, 0xff, 0x08, 0x00, 0x00, 0x00, 0x10, 0x00, 0x00, 0x00,
  0x01, 0x00, 0x00, 0x00, 0x80, 0xff, 0xff, 0xff, 0xff, 0xff, 0xff, 0xff,
  0x01, 0x00, 0x00, 0x00, 0x95, 0xf8, 0xb0, 0x3d, 0x56, 0x00, 0x00, 0x00,
  0x6d, 0x6f, 0x64, 0x65, 0x6c, 0x5f, 0x31, 0x39, 0x2f, 0x63, 0x6f, 0x6e,
  0x76, 0x31, 0x64, 0x5f, 0x35, 0x30, 0x34, 0x2f, 0x52, 0x65, 0x6c, 0x75,
  0x3b, 0x6d, 0x6f, 0x64, 0x65, 0x6c, 0x5f, 0x31, 0x39, 0x2f, 0x63, 0x6f,
  0x6e, 0x76, 0x31, 0x64, 0x5f, 0x35, 0x30, 0x34, 0x2f, 0x63, 0x6f, 0x6e,
  0x76, 0x31, 0x64, 0x2f, 0x53, 0x71, 0x75, 0x65, 0x65, 0x7a, 0x65, 0x3b,
  0x6d, 0x6f, 0x64, 0x65, 0x6c, 0x5f, 0x31, 0x39, 0x2f, 0x63, 0x6f, 0x6e,
  0x76, 0x31, 0x64, 0x5f, 0x35, 0x30, 0x34, 0x2f, 0x63, 0x6f, 0x6e, 0x76,
  0x31, 0x64, 0x00, 0x00, 0x04, 0x00, 0x00, 0x00, 0x01, 0x00, 0x00, 0x00,
  0x01, 0x00, 0x00, 0x00, 0x1e, 0x00, 0x00, 0x00, 0x04, 0x00, 0x00, 0x00,
  0x4a, 0xd8, 0xff, 0xff, 0x14, 0x00, 0x00, 0x00, 0x30, 0x00, 0x00, 0x00,
  0x48, 0x00, 0x00, 0x00, 0x00, 0x00, 0x00, 0x09, 0x64, 0x00, 0x00, 0x00,
  0x3c, 0xd8, 0xff, 0xff, 0x08, 0x00, 0x00, 0x00, 0x10, 0x00, 0x00, 0x00,
  0x01, 0x00, 0x00, 0x00, 0x80, 0xff, 0xff, 0xff, 0xff, 0xff, 0xff, 0xff,
  0x01, 0x00, 0x00, 0x00, 0x95, 0xf8, 0xb0, 0x3d, 0x3b, 0x00, 0x00, 0x00,
  0x6d, 0x6f, 0x64, 0x65, 0x6c, 0x5f, 0x31, 0x39, 0x2f, 0x63, 0x6f, 0x6e,
  0x76, 0x31, 0x64, 0x5f, 0x35, 0x30, 0x33, 0x2f, 0x52, 0x65, 0x6c, 0x75,
  0x3b, 0x6d, 0x6f, 0x64, 0x65, 0x6c, 0x5f, 0x31, 0x39, 0x2f, 0x63, 0x6f,
  0x6e, 0x76, 0x31, 0x64, 0x5f, 0x35, 0x30, 0x33, 0x2f, 0x63, 0x6f, 0x6e,
  0x76, 0x31, 0x64, 0x2f, 0x53, 0x71, 0x75, 0x65, 0x65, 0x7a, 0x65, 0x00,
  0x03, 0x00, 0x00, 0x00, 0x01, 0x00, 0x00, 0x00, 0x1e, 0x00, 0x00, 0x00,
  0x04, 0x00, 0x00, 0x00, 0xd2, 0xd8, 0xff, 0xff, 0x14, 0x00, 0x00, 0x00,
  0x30, 0x00, 0x00, 0x00, 0x47, 0x00, 0x00, 0x00, 0x00, 0x00, 0x00, 0x09,
  0x80, 0x00, 0x00, 0x00, 0xc4, 0xd8, 0xff, 0xff, 0x08, 0x00, 0x00, 0x00,
  0x10, 0x00, 0x00, 0x00, 0x01, 0x00, 0x00, 0x00, 0x80, 0xff, 0xff, 0xff,
  0xff, 0xff, 0xff, 0xff, 0x01, 0x00, 0x00, 0x00, 0x95, 0xf8, 0xb0, 0x3d,
  0x56, 0x00, 0x00, 0x00, 0x6d, 0x6f, 0x64, 0x65, 0x6c, 0x5f, 0x31, 0x39,
  0x2f, 0x63, 0x6f, 0x6e, 0x76, 0x31, 0x64, 0x5f, 0x35, 0x30, 0x33, 0x2f,
  0x52, 0x65, 0x6c, 0x75, 0x3b, 0x6d, 0x6f, 0x64, 0x65, 0x6c, 0x5f, 0x31,
  0x39, 0x2f, 0x63, 0x6f, 0x6e, 0x76, 0x31, 0x64, 0x5f, 0x35, 0x30, 0x33,
  0x2f, 0x63, 0x6f, 0x6e, 0x76, 0x31, 0x64, 0x2f, 0x53, 0x71, 0x75, 0x65,
  0x65, 0x7a, 0x65, 0x3b, 0x6d, 0x6f, 0x64, 0x65, 0x6c, 0x5f, 0x31, 0x39,
  0x2f, 0x63, 0x6f, 0x6e, 0x76, 0x31, 0x64, 0x5f, 0x35, 0x30, 0x33, 0x2f,
  0x63, 0x6f, 0x6e, 0x76, 0x31, 0x64, 0x00, 0x00, 0x04, 0x00, 0x00, 0x00,
  0x01, 0x00, 0x00, 0x00, 0x01, 0x00, 0x00, 0x00, 0x1e, 0x00, 0x00, 0x00,
  0x04, 0x00, 0x00, 0x00, 0x7a, 0xd9, 0xff, 0xff, 0x14, 0x00, 0x00, 0x00,
  0x30, 0x00, 0x00, 0x00, 0x46, 0x00, 0x00, 0x00, 0x00, 0x00, 0x00, 0x09,
  0x64, 0x00, 0x00, 0x00, 0x6c, 0xd9, 0xff, 0xff, 0x08, 0x00, 0x00, 0x00,
  0x10, 0x00, 0x00, 0x00, 0x01, 0x00, 0x00, 0x00, 0x80, 0xff, 0xff, 0xff,
  0xff, 0xff, 0xff, 0xff, 0x01, 0x00, 0x00, 0x00, 0x95, 0xf8, 0xb0, 0x3d,
  0x3b, 0x00, 0x00, 0x00, 0x6d, 0x6f, 0x64, 0x65, 0x6c, 0x5f, 0x31, 0x39,
  0x2f, 0x63, 0x6f, 0x6e, 0x76, 0x31, 0x64, 0x5f, 0x35, 0x30, 0x32, 0x2f,
  0x52, 0x65, 0x6c, 0x75, 0x3b, 0x6d, 0x6f, 0x64, 0x65, 0x6c, 0x5f, 0x31,
  0x39, 0x2f, 0x63, 0x6f, 0x6e, 0x76, 0x31, 0x64, 0x5f, 0x35, 0x30, 0x32,
  0x2f, 0x63, 0x6f, 0x6e, 0x76, 0x31, 0x64, 0x2f, 0x53, 0x71, 0x75, 0x65,
  0x65, 0x7a, 0x65, 0x00, 0x03, 0x00, 0x00, 0x00, 0x01, 0x00, 0x00, 0x00,
  0x1e, 0x00, 0x00, 0x00, 0x04, 0x00, 0x00, 0x00, 0x02, 0xda, 0xff, 0xff,
  0x14, 0x00, 0x00, 0x00, 0x30, 0x00, 0x00, 0x00, 0x45, 0x00, 0x00, 0x00,
  0x00, 0x00, 0x00, 0x09, 0x80, 0x00, 0x00, 0x00, 0xf4, 0xd9, 0xff, 0xff,
  0x08, 0x00, 0x00, 0x00, 0x10, 0x00, 0x00, 0x00, 0x01, 0x00, 0x00, 0x00,
  0x80, 0xff, 0xff, 0xff, 0xff, 0xff, 0xff, 0xff, 0x01, 0x00, 0x00, 0x00,
  0x95, 0xf8, 0xb0, 0x3d, 0x56, 0x00, 0x00, 0x00, 0x6d, 0x6f, 0x64, 0x65,
  0x6c, 0x5f, 0x31, 0x39, 0x2f, 0x63, 0x6f, 0x6e, 0x76, 0x31, 0x64, 0x5f,
  0x35, 0x30, 0x32, 0x2f, 0x52, 0x65, 0x6c, 0x75, 0x3b, 0x6d, 0x6f, 0x64,
  0x65, 0x6c, 0x5f, 0x31, 0x39, 0x2f, 0x63, 0x6f, 0x6e, 0x76, 0x31, 0x64,
  0x5f, 0x35, 0x30, 0x32, 0x2f, 0x63, 0x6f, 0x6e, 0x76, 0x31, 0x64, 0x2f,
  0x53, 0x71, 0x75, 0x65, 0x65, 0x7a, 0x65, 0x3b, 0x6d, 0x6f, 0x64, 0x65,
  0x6c, 0x5f, 0x31, 0x39, 0x2f, 0x63, 0x6f, 0x6e, 0x76, 0x31, 0x64, 0x5f,
  0x35, 0x30, 0x32, 0x2f, 0x63, 0x6f, 0x6e, 0x76, 0x31, 0x64, 0x00, 0x00,
  0x04, 0x00, 0x00, 0x00, 0x01, 0x00, 0x00, 0x00, 0x01, 0x00, 0x00, 0x00,
  0x1e, 0x00, 0x00, 0x00, 0x04, 0x00, 0x00, 0x00, 0xaa, 0xda, 0xff, 0xff,
  0x14, 0x00, 0x00, 0x00, 0x30, 0x00, 0x00, 0x00, 0x44, 0x00, 0x00, 0x00,
  0x00, 0x00, 0x00, 0x09, 0x80, 0x00, 0x00, 0x00, 0x9c, 0xda, 0xff, 0xff,
  0x08, 0x00, 0x00, 0x00, 0x10, 0x00, 0x00, 0x00, 0x01, 0x00, 0x00, 0x00,
  0x80, 0xff, 0xff, 0xff, 0xff, 0xff, 0xff, 0xff, 0x01, 0x00, 0x00, 0x00,
  0xcf, 0xf2, 0x8a, 0x3d, 0x56, 0x00, 0x00, 0x00, 0x6d, 0x6f, 0x64, 0x65,
  0x6c, 0x5f, 0x31, 0x39, 0x2f, 0x63, 0x6f, 0x6e, 0x76, 0x31, 0x64, 0x5f,
  0x35, 0x30, 0x31, 0x2f, 0x52, 0x65, 0x6c, 0x75, 0x3b, 0x6d, 0x6f, 0x64,
  0x65, 0x6c, 0x5f, 0x31, 0x39, 0x2f, 0x63, 0x6f, 0x6e, 0x76, 0x31, 0x64,
  0x5f, 0x35, 0x30, 0x31, 0x2f, 0x63, 0x6f, 0x6e, 0x76, 0x31, 0x64, 0x2f,
  0x53, 0x71, 0x75, 0x65, 0x65, 0x7a, 0x65, 0x3b, 0x6d, 0x6f, 0x64, 0x65,
  0x6c, 0x5f, 0x31, 0x39, 0x2f, 0x63, 0x6f, 0x6e, 0x76, 0x31, 0x64, 0x5f,
  0x35, 0x30, 0x31, 0x2f, 0x63, 0x6f, 0x6e, 0x76, 0x31, 0x64, 0x00, 0x00,
  0x04, 0x00, 0x00, 0x00, 0x01, 0x00, 0x00, 0x00, 0x01, 0x00, 0x00, 0x00,
  0x1e, 0x00, 0x00, 0x00, 0x01, 0x00, 0x00, 0x00, 0x52, 0xdb, 0xff, 0xff,
  0x14, 0x00, 0x00, 0x00, 0x30, 0x00, 0x00, 0x00, 0x43, 0x00, 0x00, 0x00,
  0x00, 0x00, 0x00, 0x09, 0x50, 0x00, 0x00, 0x00, 0x44, 0xdb, 0xff, 0xff,
  0x08, 0x00, 0x00, 0x00, 0x10, 0x00, 0x00, 0x00, 0x01, 0x00, 0x00, 0x00,
  0x80, 0xff, 0xff, 0xff, 0xff, 0xff, 0xff, 0xff, 0x01, 0x00, 0x00, 0x00,
  0xcf, 0x4d, 0x88, 0x3d, 0x26, 0x00, 0x00, 0x00, 0x6d, 0x6f, 0x64, 0x65,
  0x6c, 0x5f, 0x31, 0x39, 0x2f, 0x63, 0x6f, 0x6e, 0x76, 0x31, 0x64, 0x5f,
  0x35, 0x30, 0x31, 0x2f, 0x63, 0x6f, 0x6e, 0x76, 0x31, 0x64, 0x2f, 0x45,
  0x78, 0x70, 0x61, 0x6e, 0x64, 0x44, 0x69, 0x6d, 0x73, 0x31, 0x00, 0x00,
  0x04, 0x00, 0x00, 0x00, 0x01, 0x00, 0x00, 0x00, 0x01, 0x00, 0x00, 0x00,
  0x1e, 0x00, 0x00, 0x00, 0x10, 0x00, 0x00, 0x00, 0xca, 0xdb, 0xff, 0xff,
  0x14, 0x00, 0x00, 0x00, 0x34, 0x00, 0x00, 0x00, 0x42, 0x00, 0x00, 0x00,
  0x00, 0x00, 0x00, 0x09, 0x7c, 0x00, 0x00, 0x00, 0xbc, 0xdb, 0xff, 0xff,
  0x08, 0x00, 0x00, 0x00, 0x14, 0x00, 0x00, 0x00, 0x01, 0x00, 0x00, 0x00,
  0x80, 0xff, 0xff, 0xff, 0xff, 0xff, 0xff, 0xff, 0x00, 0x00, 0x00, 0x00,
  0x01, 0x00, 0x00, 0x00, 0xcf, 0x4d, 0x88, 0x3d, 0x4d, 0x00, 0x00, 0x00,
  0x6d, 0x6f, 0x64, 0x65, 0x6c, 0x5f, 0x31, 0x39, 0x2f, 0x61, 0x63, 0x74,
  0x69, 0x76, 0x61, 0x74, 0x69, 0x6f, 0x6e, 0x5f, 0x31, 0x32, 0x34, 0x2f,
  0x52, 0x65, 0x6c, 0x75, 0x3b, 0x6d, 0x6f, 0x64, 0x65, 0x6c, 0x5f, 0x31,
  0x39, 0x2f, 0x62, 0x61, 0x74, 0x63, 0x68, 0x5f, 0x6e, 0x6f, 0x72, 0x6d,
  0x61, 0x6c, 0x69, 0x7a, 0x61, 0x74, 0x69, 0x6f, 0x6e, 0x5f, 0x31, 0x32,
  0x34, 0x2f, 0x62, 0x61, 0x74, 0x63, 0x68, 0x6e, 0x6f, 0x72, 0x6d, 0x2f,
  0x61, 0x64, 0x64, 0x5f, 0x31, 0x00, 0x00, 0x00, 0x03, 0x00, 0x00, 0x00,
  0x01, 0x00, 0x00, 0x00, 0x1e, 0x00, 0x00, 0x00, 0x10, 0x00, 0x00, 0x00,
  0x6a, 0xdc, 0xff, 0xff, 0x14, 0x00, 0x00, 0x00, 0x30, 0x00, 0x00, 0x00,
  0x41, 0x00, 0x00, 0x00, 0x00, 0x00, 0x00, 0x09, 0x5c, 0x00, 0x00, 0x00,
  0x5c, 0xdc, 0xff, 0xff, 0x08, 0x00, 0x00, 0x00, 0x10, 0x00, 0x00, 0x00,
  0x01, 0x00, 0x00, 0x00, 0x80, 0xff, 0xff, 0xff, 0xff, 0xff, 0xff, 0xff,
  0x01, 0x00, 0x00, 0x00, 0x9c, 0x56, 0x8c, 0x3d, 0x30, 0x00, 0x00, 0x00,
  0x6d, 0x6f, 0x64, 0x65, 0x6c, 0x5f, 0x31, 0x39, 0x2f, 0x62, 0x61, 0x74,
  0x63, 0x68, 0x5f, 0x6e, 0x6f, 0x72, 0x6d, 0x61, 0x6c, 0x69, 0x7a, 0x61,
  0x74, 0x69, 0x6f, 0x6e, 0x5f, 0x31, 0x32, 0x34, 0x2f, 0x62, 0x61, 0x74,
  0x63, 0x68, 0x6e, 0x6f, 0x72, 0x6d, 0x2f, 0x6d, 0x75, 0x6c, 0x5f, 0x31,
  0x00, 0x00, 0x00, 0x00, 0x03, 0x00, 0x00, 0x00, 0x01, 0x00, 0x00, 0x00,
  0x1e, 0x00, 0x00, 0x00, 0x10, 0x00, 0x00, 0x00, 0xea, 0xdc, 0xff, 0xff,
  0x14, 0x00, 0x00, 0x00, 0x34, 0x00, 0x00, 0x00, 0x40, 0x00, 0x00, 0x00,
  0x00, 0x00, 0x00, 0x09, 0x4c, 0x00, 0x00, 0x00, 0xdc, 0xdc, 0xff, 0xff,
  0x08, 0x00, 0x00, 0x00, 0x14, 0x00, 0x00, 0x00, 0x01, 0x00, 0x00, 0x00,
  0x80, 0xff, 0xff, 0xff, 0xff, 0xff, 0xff, 0xff, 0x00, 0x00, 0x00, 0x00,
  0x01, 0x00, 0x00, 0x00, 0xe7, 0x2c, 0xe7, 0x3c, 0x1e, 0x00, 0x00, 0x00,
  0x6d, 0x6f, 0x64, 0x65, 0x6c, 0x5f, 0x31, 0x39, 0x2f, 0x63, 0x6f, 0x6e,
  0x63, 0x61, 0x74, 0x65, 0x6e, 0x61, 0x74, 0x65, 0x5f, 0x39, 0x33, 0x2f,
  0x63, 0x6f, 0x6e, 0x63, 0x61, 0x74, 0x00, 0x00, 0x03, 0x00, 0x00, 0x00,
  0x01, 0x00, 0x00, 0x00, 0x1e, 0x00, 0x00, 0x00, 0x10, 0x00, 0x00, 0x00,
  0x5a, 0xdd, 0xff, 0xff, 0x14, 0x00, 0x00, 0x00, 0x30, 0x00, 0x00, 0x00,
  0x3f, 0x00, 0x00, 0x00, 0x00, 0x00, 0x00, 0x09, 0x64, 0x00, 0x00, 0x00,
  0x4c, 0xdd, 0xff, 0xff, 0x08, 0x00, 0x00, 0x00, 0x10, 0x00, 0x00, 0x00,
  0x01, 0x00, 0x00, 0x00, 0x80, 0xff, 0xff, 0xff, 0xff, 0xff, 0xff, 0xff,
  0x01, 0x00, 0x00, 0x00, 0xe7, 0x2c, 0xe7, 0x3c, 0x3b, 0x00, 0x00, 0x00,
  0x6d, 0x6f, 0x64, 0x65, 0x6c, 0x5f, 0x31, 0x39, 0x2f, 0x63, 0x6f, 0x6e,
  0x76, 0x31, 0x64, 0x5f, 0x35, 0x30, 0x30, 0x2f, 0x52, 0x65, 0x6c, 0x75,
  0x3b, 0x6d, 0x6f, 0x64, 0x65, 0x6c, 0x5f, 0x31, 0x39, 0x2f, 0x63, 0x6f,
  0x6e, 0x76, 0x31, 0x64, 0x5f, 0x35, 0x30, 0x30, 0x2f, 0x63, 0x6f, 0x6e,
  0x76, 0x31, 0x64, 0x2f, 0x53, 0x71, 0x75, 0x65, 0x65, 0x7a, 0x65, 0x00,
  0x03, 0x00, 0x00, 0x00, 0x01, 0x00, 0x00, 0x00, 0x1e, 0x00, 0x00, 0x00,
  0x04, 0x00, 0x00, 0x00, 0xe2, 0xdd, 0xff, 0xff, 0x14, 0x00, 0x00, 0x00,
  0x30, 0x00, 0x00, 0x00, 0x3e, 0x00, 0x00, 0x00, 0x00, 0x00, 0x00, 0x09,
  0x80, 0x00, 0x00, 0x00, 0xd4, 0xdd, 0xff, 0xff, 0x08, 0x00, 0x00, 0x00,
  0x10, 0x00, 0x00, 0x00, 0x01, 0x00, 0x00, 0x00, 0x80, 0xff, 0xff, 0xff,
  0xff, 0xff, 0xff, 0xff, 0x01, 0x00, 0x00, 0x00, 0xe7, 0x2c, 0xe7, 0x3c,
  0x56, 0x00, 0x00, 0x00, 0x6d, 0x6f, 0x64, 0x65, 0x6c, 0x5f, 0x31, 0x39,
  0x2f, 0x63, 0x6f, 0x6e, 0x76, 0x31, 0x64, 0x5f, 0x35, 0x30, 0x30, 0x2f,
  0x52, 0x65, 0x6c, 0x75, 0x3b, 0x6d, 0x6f, 0x64, 0x65, 0x6c, 0x5f, 0x31,
  0x39, 0x2f, 0x63, 0x6f, 0x6e, 0x76, 0x31, 0x64, 0x5f, 0x35, 0x30, 0x30,
  0x2f, 0x63, 0x6f, 0x6e, 0x76, 0x31, 0x64, 0x2f, 0x53, 0x71, 0x75, 0x65,
  0x65, 0x7a, 0x65, 0x3b, 0x6d, 0x6f, 0x64, 0x65, 0x6c, 0x5f, 0x31, 0x39,
  0x2f, 0x63, 0x6f, 0x6e, 0x76, 0x31, 0x64, 0x5f, 0x35, 0x30, 0x30, 0x2f,
  0x63, 0x6f, 0x6e, 0x76, 0x31, 0x64, 0x00, 0x00, 0x04, 0x00, 0x00, 0x00,
  0x01, 0x00, 0x00, 0x00, 0x01, 0x00, 0x00, 0x00, 0x1e, 0x00, 0x00, 0x00,
  0x04, 0x00, 0x00, 0x00, 0x8a, 0xde, 0xff, 0xff, 0x14, 0x00, 0x00, 0x00,
  0x30, 0x00, 0x00, 0x00, 0x3d, 0x00, 0x00, 0x00, 0x00, 0x00, 0x00, 0x09,
  0x50, 0x00, 0x00, 0x00, 0x7c, 0xde, 0xff, 0xff, 0x08, 0x00, 0x00, 0x00,
  0x10, 0x00, 0x00, 0x00, 0x01, 0x00, 0x00, 0x00, 0x28, 0x00, 0x00, 0x00,
  0x00, 0x00, 0x00, 0x00, 0x01, 0x00, 0x00, 0x00, 0x23, 0x82, 0xbe, 0x3d,
  0x25, 0x00, 0x00, 0x00, 0x6d, 0x6f, 0x64, 0x65, 0x6c, 0x5f, 0x31, 0x39,
  0x2f, 0x63, 0x6f, 0x6e, 0x76, 0x31, 0x64, 0x5f, 0x35, 0x30, 0x30, 0x2f,
  0x63, 0x6f, 0x6e, 0x76, 0x31, 0x64, 0x2f, 0x45, 0x78, 0x70, 0x61, 0x6e,
  0x64, 0x44, 0x69, 0x6d, 0x73, 0x00, 0x00, 0x00, 0x04, 0x00, 0x00, 0x00,
  0x01, 0x00, 0x00, 0x00, 0x01, 0x00, 0x00, 0x00, 0x1e, 0x00, 0x00, 0x00,
  0x06, 0x00, 0x00, 0x00, 0x02, 0xdf, 0xff, 0xff, 0x14, 0x00, 0x00, 0x00,
  0x34, 0x00, 0x00, 0x00, 0x3c, 0x00, 0x00, 0x00, 0x00, 0x00, 0x00, 0x09,
  0x50, 0x00, 0x00, 0x00, 0xf4, 0xde, 0xff, 0xff, 0x08, 0x00, 0x00, 0x00,
  0x14, 0x00, 0x00, 0x00, 0x01, 0x00, 0x00, 0x00, 0x28, 0x00, 0x00, 0x00,
  0x00, 0x00, 0x00, 0x00, 0x00, 0x00, 0x00, 0x00, 0x01, 0x00, 0x00, 0x00,
  0x23, 0x82, 0xbe, 0x3d, 0x21, 0x00, 0x00, 0x00, 0x6d, 0x6f, 0x64, 0x65,
  0x6c, 0x5f, 0x31, 0x39, 0x2f, 0x6d, 0x61, 0x78, 0x5f, 0x70, 0x6f, 0x6f,
  0x6c, 0x69, 0x6e, 0x67, 0x31, 0x64, 0x5f, 0x39, 0x37, 0x2f, 0x4d, 0x61,
  0x78, 0x50, 0x6f, 0x6f, 0x6c, 0x00, 0x00, 0x00, 0x04, 0x00, 0x00, 0x00,
  0x01, 0x00, 0x00, 0x00, 0x1e, 0x00, 0x00, 0x00, 0x01, 0x00, 0x00, 0x00,
  0x06, 0x00, 0x00, 0x00, 0x7a, 0xdf, 0xff, 0xff, 0x14, 0x00, 0x00, 0x00,
  0x30, 0x00, 0x00, 0x00, 0x3b, 0x00, 0x00, 0x00, 0x00, 0x00, 0x00, 0x09,
  0x50, 0x00, 0x00, 0x00, 0x6c, 0xdf, 0xff, 0xff, 0x08, 0x00, 0x00, 0x00,
  0x10, 0x00, 0x00, 0x00, 0x01, 0x00, 0x00, 0x00, 0x28, 0x00, 0x00, 0x00,
  0x00, 0x00, 0x00, 0x00, 0x01, 0x00, 0x00, 0x00, 0x23, 0x82, 0xbe, 0x3d,
  0x25, 0x00, 0x00, 0x00, 0x6d, 0x6f, 0x64, 0x65, 0x6c, 0x5f, 0x31, 0x39,
  0x2f, 0x6d, 0x61, 0x78, 0x5f, 0x70, 0x6f, 0x6f, 0x6c, 0x69, 0x6e, 0x67,
  0x31, 0x64, 0x5f, 0x39, 0x37, 0x2f, 0x45, 0x78, 0x70, 0x61, 0x6e, 0x64,
  0x44, 0x69, 0x6d, 0x73, 0x31, 0x00, 0x00, 0x00, 0x04, 0x00, 0x00, 0x00,
  0x01, 0x00, 0x00, 0x00, 0x1e, 0x00, 0x00, 0x00, 0x01, 0x00, 0x00, 0x00,
  0x06, 0x00, 0x00, 0x00, 0xf2, 0xdf, 0xff, 0xff, 0x14, 0x00, 0x00, 0x00,
  0x30, 0x00, 0x00, 0x00, 0x3a, 0x00, 0x00, 0x00, 0x00, 0x00, 0x00, 0x09,
  0x0c, 0x01, 0x00, 0x00, 0xe4, 0xdf, 0xff, 0xff, 0x08, 0x00, 0x00, 0x00,
  0x10, 0x00, 0x00, 0x00, 0x01, 0x00, 0x00, 0x00, 0xfd, 0xff, 0xff, 0xff,
  0xff, 0xff, 0xff, 0xff, 0x01, 0x00, 0x00, 0x00, 0x71, 0x3b, 0x8b, 0x3d,
  0xe2, 0x00, 0x00, 0x00, 0x6d, 0x6f, 0x64, 0x65, 0x6c, 0x5f, 0x31, 0x39,
  0x2f, 0x62, 0x61, 0x74, 0x63, 0x68, 0x5f, 0x6e, 0x6f, 0x72, 0x6d, 0x61,
  0x6c, 0x69, 0x7a, 0x61, 0x74, 0x69, 0x6f, 0x6e, 0x5f, 0x31, 0x32, 0x36,
  0x2f, 0x62, 0x61, 0x74, 0x63, 0x68, 0x6e, 0x6f, 0x72, 0x6d, 0x2f, 0x61,
  0x64, 0x64, 0x5f, 0x31, 0x3b, 0x6d, 0x6f, 0x64, 0x65, 0x6c, 0x5f, 0x31,
  0x39, 0x2f, 0x63, 0x6f, 0x6e, 0x76, 0x31, 0x64, 0x5f, 0x35, 0x30, 0x36,
  0x2f, 0x63, 0x6f, 0x6e, 0x76, 0x31, 0x64, 0x2f, 0x53, 0x71, 0x75, 0x65,
  0x65, 0x7a, 0x65, 0x3b, 0x6d, 0x6f, 0x64, 0x65, 0x6c, 0x5f, 0x31, 0x39,
  0x2f, 0x62, 0x61, 0x74, 0x63, 0x68, 0x5f, 0x6e, 0x6f, 0x72, 0x6d, 0x61,
  0x6c, 0x69, 0x7a, 0x61, 0x74, 0x69, 0x6f, 0x6e, 0x5f, 0x31, 0x32, 0x36,
  0x2f, 0x62, 0x61, 0x74, 0x63, 0x68, 0x6e, 0x6f, 0x72, 0x6d, 0x2f, 0x6d,
  0x75, 0x6c, 0x5f, 0x31, 0x3b, 0x6d, 0x6f, 0x64, 0x65, 0x6c, 0x5f, 0x31,
  0x39, 0x2f, 0x62, 0x61, 0x74, 0x63, 0x68, 0x5f, 0x6e, 0x6f, 0x72, 0x6d,
  0x61, 0x6c, 0x69, 0x7a, 0x61, 0x74, 0x69, 0x6f, 0x6e, 0x5f, 0x31, 0x32,
  0x36, 0x2f, 0x62, 0x61, 0x74, 0x63, 0x68, 0x6e, 0x6f, 0x72, 0x6d, 0x2f,
  0x6d, 0x75, 0x6c, 0x3b, 0x6d, 0x6f, 0x64, 0x65, 0x6c, 0x5f, 0x31, 0x39,
  0x2f, 0x62, 0x61, 0x74, 0x63, 0x68, 0x5f, 0x6e, 0x6f, 0x72, 0x6d, 0x61,
  0x6c, 0x69, 0x7a, 0x61, 0x74, 0x69, 0x6f, 0x6e, 0x5f, 0x31, 0x32, 0x36,
  0x2f, 0x62, 0x61, 0x74, 0x63, 0x68, 0x6e, 0x6f, 0x72, 0x6d, 0x2f, 0x73,
  0x75, 0x62, 0x00, 0x00, 0x03, 0x00, 0x00, 0x00, 0x01, 0x00, 0x00, 0x00,
  0x1e, 0x00, 0x00, 0x00, 0x10, 0x00, 0x00, 0x00, 0x22, 0xe1, 0xff, 0xff,
  0x14, 0x00, 0x00, 0x00, 0x30, 0x00, 0x00, 0x00, 0x39, 0x00, 0x00, 0x00,
  0x00, 0x00, 0x00, 0x09, 0x28, 0x01, 0x00, 0x00, 0x14, 0xe1, 0xff, 0xff,
  0x08, 0x00, 0x00, 0x00, 0x10, 0x00, 0x00, 0x00, 0x01, 0x00, 0x00, 0x00,
  0xfd, 0xff, 0xff, 0xff, 0xff, 0xff, 0xff, 0xff, 0x01, 0x00, 0x00, 0x00,
  0x71, 0x3b, 0x8b, 0x3d, 0xfe, 0x00, 0x00, 0x00, 0x6d, 0x6f, 0x64, 0x65,
  0x6c, 0x5f, 0x31, 0x39, 0x2f, 0x62, 0x61, 0x74, 0x63, 0x68, 0x5f, 0x6e,
  0x6f, 0x72, 0x6d, 0x61, 0x6c, 0x69, 0x7a, 0x61, 0x74, 0x69, 0x6f, 0x6e,
  0x5f, 0x31, 0x32, 0x36, 0x2f, 0x62, 0x61, 0x74, 0x63, 0x68, 0x6e, 0x6f,
  0x72, 0x6d, 0x2f, 0x61, 0x64, 0x64, 0x5f, 0x31, 0x3b, 0x6d, 0x6f, 0x64,
  0x65, 0x6c, 0x5f, 0x31, 0x39, 0x2f, 0x63, 0x6f, 0x6e, 0x76, 0x31, 0x64,
  0x5f, 0x35, 0x30, 0x36, 0x2f, 0x63, 0x6f, 0x6e, 0x76, 0x31, 0x64, 0x2f,
  0x53, 0x71, 0x75, 0x65, 0x65, 0x7a, 0x65, 0x3b, 0x6d, 0x6f, 0x64, 0x65,
  0x6c, 0x5f, 0x31, 0x39, 0x2f, 0x62, 0x61, 0x74, 0x63, 0x68, 0x5f, 0x6e,
  0x6f, 0x72, 0x6d, 0x61, 0x6c, 0x69, 0x7a, 0x61, 0x74, 0x69, 0x6f, 0x6e,
  0x5f, 0x31, 0x32, 0x36, 0x2f, 0x62, 0x61, 0x74, 0x63, 0x68, 0x6e, 0x6f,
  0x72, 0x6d, 0x2f, 0x6d, 0x75, 0x6c, 0x5f, 0x31, 0x3b, 0x6d, 0x6f, 0x64,
  0x65, 0x6c, 0x5f, 0x31, 0x39, 0x2f, 0x62, 0x61, 0x74, 0x63, 0x68, 0x5f,
  0x6e, 0x6f, 0x72, 0x6d, 0x61, 0x6c, 0x69, 0x7a, 0x61, 0x74, 0x69, 0x6f,
  0x6e, 0x5f, 0x31, 0x32, 0x36, 0x2f, 0x62, 0x61, 0x74, 0x63, 0x68, 0x6e,
  0x6f, 0x72, 0x6d, 0x2f, 0x6d, 0x75, 0x6c, 0x3b, 0x6d, 0x6f, 0x64, 0x65,
  0x6c, 0x5f, 0x31, 0x39, 0x2f, 0x62, 0x61, 0x74, 0x63, 0x68, 0x5f, 0x6e,
  0x6f, 0x72, 0x6d, 0x61, 0x6c, 0x69, 0x7a, 0x61, 0x74, 0x69, 0x6f, 0x6e,
  0x5f, 0x31, 0x32, 0x36, 0x2f, 0x62, 0x61, 0x74, 0x63, 0x68, 0x6e, 0x6f,
  0x72, 0x6d, 0x2f, 0x73, 0x75, 0x62, 0x3b, 0x6d, 0x6f, 0x64, 0x65, 0x6c,
  0x5f, 0x31, 0x39, 0x2f, 0x63, 0x6f, 0x6e, 0x76, 0x31, 0x64, 0x5f, 0x35,
  0x30, 0x36, 0x2f, 0x63, 0x6f, 0x6e, 0x76, 0x31, 0x64, 0x31, 0x00, 0x00,
  0x04, 0x00, 0x00, 0x00, 0x01, 0x00, 0x00, 0x00, 0x01, 0x00, 0x00, 0x00,
  0x1e, 0x00, 0x00, 0x00, 0x10, 0x00, 0x00, 0x00, 0x72, 0xe2, 0xff, 0xff,
  0x14, 0x00, 0x00, 0x00, 0x30, 0x00, 0x00, 0x00, 0x38, 0x00, 0x00, 0x00,
  0x00, 0x00, 0x00, 0x09, 0x64, 0x00, 0x00, 0x00, 0x64, 0xe2, 0xff, 0xff,
  0x08, 0x00, 0x00, 0x00, 0x10, 0x00, 0x00, 0x00, 0x01, 0x00, 0x00, 0x00,
  0x80, 0xff, 0xff, 0xff, 0xff, 0xff, 0xff, 0xff, 0x01, 0x00, 0x00, 0x00,
  0xe7, 0x2c, 0xe7, 0x3c, 0x3b, 0x00, 0x00, 0x00, 0x6d, 0x6f, 0x64, 0x65,
  0x6c, 0x5f, 0x31, 0x39, 0x2f, 0x63, 0x6f, 0x6e, 0x76, 0x31, 0x64, 0x5f,
  0x34, 0x39, 0x39, 0x2f, 0x52, 0x65, 0x6c, 0x75, 0x3b, 0x6d, 0x6f, 0x64,
  0x65, 0x6c, 0x5f, 0x31, 0x39, 0x2f, 0x63, 0x6f, 0x6e, 0x76, 0x31, 0x64,
  0x5f, 0x34, 0x39, 0x39, 0x2f, 0x63, 0x6f, 0x6e, 0x76, 0x31, 0x64, 0x2f,
  0x53, 0x71, 0x75, 0x65, 0x65, 0x7a, 0x65, 0x00, 0x03, 0x00, 0x00, 0x00,
  0x01, 0x00, 0x00, 0x00, 0x1e, 0x00, 0x00, 0x00, 0x04, 0x00, 0x00, 0x00,
  0xfa, 0xe2, 0xff, 0xff, 0x14, 0x00, 0x00, 0x00, 0x30, 0x00, 0x00, 0x00,
  0x37, 0x00, 0x00, 0x00, 0x00, 0x00, 0x00, 0x09, 0x80, 0x00, 0x00, 0x00,
  0xec, 0xe2, 0xff, 0xff, 0x08, 0x00, 0x00, 0x00, 0x10, 0x00, 0x00, 0x00,
  0x01, 0x00, 0x00, 0x00, 0x80, 0xff, 0xff, 0xff, 0xff, 0xff, 0xff, 0xff,
  0x01, 0x00, 0x00, 0x00, 0xe7, 0x2c, 0xe7, 0x3c, 0x56, 0x00, 0x00, 0x00,
  0x6d, 0x6f, 0x64, 0x65, 0x6c, 0x5f, 0x31, 0x39, 0x2f, 0x63, 0x6f, 0x6e,
  0x76, 0x31, 0x64, 0x5f, 0x34, 0x39, 0x39, 0x2f, 0x52, 0x65, 0x6c, 0x75,
  0x3b, 0x6d, 0x6f, 0x64, 0x65, 0x6c, 0x5f, 0x31, 0x39, 0x2f, 0x63, 0x6f,
  0x6e, 0x76, 0x31, 0x64, 0x5f, 0x34, 0x39, 0x39, 0x2f, 0x63, 0x6f, 0x6e,
  0x76, 0x31, 0x64, 0x2f, 0x53, 0x71, 0x75, 0x65, 0x65, 0x7a, 0x65, 0x3b,
  0x6d, 0x6f, 0x64, 0x65, 0x6c, 0x5f, 0x31, 0x39, 0x2f, 0x63, 0x6f, 0x6e,
  0x76, 0x31, 0x64, 0x5f, 0x34, 0x39, 0x39, 0x2f, 0x63, 0x6f, 0x6e, 0x76,
  0x31, 0x64, 0x00, 0x00, 0x04, 0x00, 0x00, 0x00, 0x01, 0x00, 0x00, 0x00,
  0x01, 0x00, 0x00, 0x00, 0x1e, 0x00, 0x00, 0x00, 0x04, 0x00, 0x00, 0x00,
  0xa2, 0xe3, 0xff, 0xff, 0x14, 0x00, 0x00, 0x00, 0x30, 0x00, 0x00, 0x00,
  0x36, 0x00, 0x00, 0x00, 0x00, 0x00, 0x00, 0x09, 0x64, 0x00, 0x00, 0x00,
  0x94, 0xe3, 0xff, 0xff, 0x08, 0x00, 0x00, 0x00, 0x10, 0x00, 0x00, 0x00,
  0x01, 0x00, 0x00, 0x00, 0x80, 0xff, 0xff, 0xff, 0xff, 0xff, 0xff, 0xff,
  0x01, 0x00, 0x00, 0x00, 0xe7, 0x2c, 0xe7, 0x3c, 0x3b, 0x00, 0x00, 0x00,
  0x6d, 0x6f, 0x64, 0x65, 0x6c, 0x5f, 0x31, 0x39, 0x2f, 0x63, 0x6f, 0x6e,
  0x76, 0x31, 0x64, 0x5f, 0x34, 0x39, 0x38, 0x2f, 0x52, 0x65, 0x6c, 0x75,
  0x3b, 0x6d, 0x6f, 0x64, 0x65, 0x6c, 0x5f, 0x31, 0x39, 0x2f, 0x63, 0x6f,
  0x6e, 0x76, 0x31, 0x64, 0x5f, 0x34, 0x39, 0x38, 0x2f, 0x63, 0x6f, 0x6e,
  0x76, 0x31, 0x64, 0x2f, 0x53, 0x71, 0x75, 0x65, 0x65, 0x7a, 0x65, 0x00,
  0x03, 0x00, 0x00, 0x00, 0x01, 0x00, 0x00, 0x00, 0x1e, 0x00, 0x00, 0x00,
  0x04, 0x00, 0x00, 0x00, 0x2a, 0xe4, 0xff, 0xff, 0x14, 0x00, 0x00, 0x00,
  0x30, 0x00, 0x00, 0x00, 0x35, 0x00, 0x00, 0x00, 0x00, 0x00, 0x00, 0x09,
  0x80, 0x00, 0x00, 0x00, 0x1c, 0xe4, 0xff, 0xff, 0x08, 0x00, 0x00, 0x00,
  0x10, 0x00, 0x00, 0x00, 0x01, 0x00, 0x00, 0x00, 0x80, 0xff, 0xff, 0xff,
  0xff, 0xff, 0xff, 0xff, 0x01, 0x00, 0x00, 0x00, 0xe7, 0x2c, 0xe7, 0x3c,
  0x56, 0x00, 0x00, 0x00, 0x6d, 0x6f, 0x64, 0x65, 0x6c, 0x5f, 0x31, 0x39,
  0x2f, 0x63, 0x6f, 0x6e, 0x76, 0x31, 0x64, 0x5f, 0x34, 0x39, 0x38, 0x2f,
  0x52, 0x65, 0x6c, 0x75, 0x3b, 0x6d, 0x6f, 0x64, 0x65, 0x6c, 0x5f, 0x31,
  0x39, 0x2f, 0x63, 0x6f, 0x6e, 0x76, 0x31, 0x64, 0x5f, 0x34, 0x39, 0x38,
  0x2f, 0x63, 0x6f, 0x6e, 0x76, 0x31, 0x64, 0x2f, 0x53, 0x71, 0x75, 0x65,
  0x65, 0x7a, 0x65, 0x3b, 0x6d, 0x6f, 0x64, 0x65, 0x6c, 0x5f, 0x31, 0x39,
  0x2f, 0x63, 0x6f, 0x6e, 0x76, 0x31, 0x64, 0x5f, 0x34, 0x39, 0x38, 0x2f,
  0x63, 0x6f, 0x6e, 0x76, 0x31, 0x64, 0x00, 0x00, 0x04, 0x00, 0x00, 0x00,
  0x01, 0x00, 0x00, 0x00, 0x01, 0x00, 0x00, 0x00, 0x1e, 0x00, 0x00, 0x00,
  0x04, 0x00, 0x00, 0x00, 0xd2, 0xe4, 0xff, 0xff, 0x14, 0x00, 0x00, 0x00,
  0x30, 0x00, 0x00, 0x00, 0x34, 0x00, 0x00, 0x00, 0x00, 0x00, 0x00, 0x09,
  0x64, 0x00, 0x00, 0x00, 0xc4, 0xe4, 0xff, 0xff, 0x08, 0x00, 0x00, 0x00,
  0x10, 0x00, 0x00, 0x00, 0x01, 0x00, 0x00, 0x00, 0x80, 0xff, 0xff, 0xff,
  0xff, 0xff, 0xff, 0xff, 0x01, 0x00, 0x00, 0x00, 0xe7, 0x2c, 0xe7, 0x3c,
  0x3b, 0x00, 0x00, 0x00, 0x6d, 0x6f, 0x64, 0x65, 0x6c, 0x5f, 0x31, 0x39,
  0x2f, 0x63, 0x6f, 0x6e, 0x76, 0x31, 0x64, 0x5f, 0x34, 0x39, 0x37, 0x2f,
  0x52, 0x65, 0x6c, 0x75, 0x3b, 0x6d, 0x6f, 0x64, 0x65, 0x6c, 0x5f, 0x31,
  0x39, 0x2f, 0x63, 0x6f, 0x6e, 0x76, 0x31, 0x64, 0x5f, 0x34, 0x39, 0x37,
