unsigned char classifier_tflite[] = {
  0x1c, 0x00, 0x00, 0x00, 0x54, 0x46, 0x4c, 0x33, 0x14, 0x00, 0x20, 0x00,
  0x1c, 0x00, 0x18, 0x00, 0x14, 0x00, 0x10, 0x00, 0x0c, 0x00, 0x00, 0x00,
  0x08, 0x00, 0x04, 0x00, 0x14, 0x00, 0x00, 0x00, 0x1c, 0x00, 0x00, 0x00,
  0x1c, 0x00, 0x00, 0x00, 0x4c, 0x00, 0x00, 0x00, 0xac, 0x15, 0x00, 0x00,
  0xbc, 0x15, 0x00, 0x00, 0xf0, 0x57, 0x00, 0x00, 0x03, 0x00, 0x00, 0x00,
  0x00, 0x00, 0x00, 0x00, 0x01, 0x00, 0x00, 0x00, 0x0c, 0x00, 0x00, 0x00,
  0x08, 0x00, 0x0c, 0x00, 0x08, 0x00, 0x04, 0x00, 0x08, 0x00, 0x00, 0x00,
  0x67, 0x00, 0x00, 0x00, 0x04, 0x00, 0x00, 0x00, 0x13, 0x00, 0x00, 0x00,
  0x6d, 0x69, 0x6e, 0x5f, 0x72, 0x75, 0x6e, 0x74, 0x69, 0x6d, 0x65, 0x5f,
  0x76, 0x65, 0x72, 0x73, 0x69, 0x6f, 0x6e, 0x00, 0x68, 0x00, 0x00, 0x00,
  0x5c, 0x15, 0x00, 0x00, 0x54, 0x15, 0x00, 0x00, 0x34, 0x15, 0x00, 0x00,
  0x18, 0x15, 0x00, 0x00, 0xfc, 0x14, 0x00, 0x00, 0xdc, 0x14, 0x00, 0x00,
  0xbc, 0x14, 0x00, 0x00, 0x9c, 0x14, 0x00, 0x00, 0x84, 0x14, 0x00, 0x00,
  0x6c, 0x14, 0x00, 0x00, 0x58, 0x14, 0x00, 0x00, 0x44, 0x14, 0x00, 0x00,
  0x30, 0x14, 0x00, 0x00, 0xb0, 0x13, 0x00, 0x00, 0x90, 0x13, 0x00, 0x00,
  0x70, 0x13, 0x00, 0x00, 0x50, 0x13, 0x00, 0x00, 0x30, 0x13, 0x00, 0x00,
  0x10, 0x13, 0x00, 0x00, 0xf0, 0x12, 0x00, 0x00, 0xd0, 0x12, 0x00, 0x00,
  0xb0, 0x12, 0x00, 0x00, 0x90, 0x12, 0x00, 0x00, 0x70, 0x12, 0x00, 0x00,
  0x50, 0x12, 0x00, 0x00, 0x30, 0x12, 0x00, 0x00, 0xe8, 0x11, 0x00, 0x00,
  0xbc, 0x11, 0x00, 0x00, 0x4c, 0x11, 0x00, 0x00, 0xfc, 0x10, 0x00, 0x00,
  0xd4, 0x10, 0x00, 0x00, 0xb4, 0x10, 0x00, 0x00, 0x94, 0x10, 0x00, 0x00,
  0x74, 0x10, 0x00, 0x00, 0xf4, 0x0f, 0x00, 0x00, 0xac, 0x0f, 0x00, 0x00,
  0x80, 0x0f, 0x00, 0x00, 0x30, 0x0f, 0x00, 0x00, 0x10, 0x0f, 0x00, 0x00,
  0xf0, 0x0e, 0x00, 0x00, 0xd0, 0x0e, 0x00, 0x00, 0x50, 0x0e, 0x00, 0x00,
  0x08, 0x0e, 0x00, 0x00, 0xdc, 0x0d, 0x00, 0x00, 0x8c, 0x0d, 0x00, 0x00,
  0x6c, 0x0d, 0x00, 0x00, 0x4c, 0x0d, 0x00, 0x00, 0xfc, 0x01, 0x00, 0x00,
  0xd4, 0x01, 0x00, 0x00, 0xcc, 0x01, 0x00, 0x00, 0xc4, 0x01, 0x00, 0x00,
  0xbc, 0x01, 0x00, 0x00, 0xb4, 0x01, 0x00, 0x00, 0xac, 0x01, 0x00, 0x00,
  0xa4, 0x01, 0x00, 0x00, 0x9c, 0x01, 0x00, 0x00, 0x94, 0x01, 0x00, 0x00,
  0x8c, 0x01, 0x00, 0x00, 0x84, 0x01, 0x00, 0x00, 0x7c, 0x01, 0x00, 0x00,
  0x74, 0x01, 0x00, 0x00, 0x6c, 0x01, 0x00, 0x00, 0x64, 0x01, 0x00, 0x00,
  0x5c, 0x01, 0x00, 0x00, 0x54, 0x01, 0x00, 0x00, 0x4c, 0x01, 0x00, 0x00,
  0x44, 0x01, 0x00, 0x00, 0x3c, 0x01, 0x00, 0x00, 0x34, 0x01, 0x00, 0x00,
  0x2c, 0x01, 0x00, 0x00, 0x24, 0x01, 0x00, 0x00, 0x1c, 0x01, 0x00, 0x00,
  0x14, 0x01, 0x00, 0x00, 0x0c, 0x01, 0x00, 0x00, 0x04, 0x01, 0x00, 0x00,
  0xfc, 0x00, 0x00, 0x00, 0xf4, 0x00, 0x00, 0x00, 0xec, 0x00, 0x00, 0x00,
  0xe4, 0x00, 0x00, 0x00, 0xdc, 0x00, 0x00, 0x00, 0xd4, 0x00, 0x00, 0x00,
  0xcc, 0x00, 0x00, 0x00, 0xc4, 0x00, 0x00, 0x00, 0xbc, 0x00, 0x00, 0x00,
  0xb4, 0x00, 0x00, 0x00, 0xac, 0x00, 0x00, 0x00, 0xa4, 0x00, 0x00, 0x00,
  0x9c, 0x00, 0x00, 0x00, 0x94, 0x00, 0x00, 0x00, 0x8c, 0x00, 0x00, 0x00,
  0x84, 0x00, 0x00, 0x00, 0x7c, 0x00, 0x00, 0x00, 0x74, 0x00, 0x00, 0x00,
  0x6c, 0x00, 0x00, 0x00, 0x64, 0x00, 0x00, 0x00, 0x5c, 0x00, 0x00, 0x00,
  0x54, 0x00, 0x00, 0x00, 0x4c, 0x00, 0x00, 0x00, 0x44, 0x00, 0x00, 0x00,
  0x3c, 0x00, 0x00, 0x00, 0x34, 0x00, 0x00, 0x00, 0x2c, 0x00, 0x00, 0x00,
  0x24, 0x00, 0x00, 0x00, 0x04, 0x00, 0x00, 0x00, 0xde, 0xe3, 0xff, 0xff,
  0x04, 0x00, 0x00, 0x00, 0x10, 0x00, 0x00, 0x00, 0x31, 0x2e, 0x31, 0x34,
  0x2e, 0x30, 0x00, 0x00, 0x00, 0x00, 0x00, 0x00, 0x00, 0x00, 0x00, 0x00,
  0xc4, 0xaa, 0xff, 0xff, 0xc8, 0xaa, 0xff, 0xff, 0xcc, 0xaa, 0xff, 0xff,
  0xd0, 0xaa, 0xff, 0xff, 0xd4, 0xaa, 0xff, 0xff, 0xd8, 0xaa, 0xff, 0xff,
  0xdc, 0xaa, 0xff, 0xff, 0xe0, 0xaa, 0xff, 0xff, 0xe4, 0xaa, 0xff, 0xff,
  0xe8, 0xaa, 0xff, 0xff, 0xec, 0xaa, 0xff, 0xff, 0xf0, 0xaa, 0xff, 0xff,
  0xf4, 0xaa, 0xff, 0xff, 0xf8, 0xaa, 0xff, 0xff, 0xfc, 0xaa, 0xff, 0xff,
  0x00, 0xab, 0xff, 0xff, 0x04, 0xab, 0xff, 0xff, 0x08, 0xab, 0xff, 0xff,
  0x0c, 0xab, 0xff, 0xff, 0x10, 0xab, 0xff, 0xff, 0x14, 0xab, 0xff, 0xff,
  0x18, 0xab, 0xff, 0xff, 0x1c, 0xab, 0xff, 0xff, 0x20, 0xab, 0xff, 0xff,
  0x24, 0xab, 0xff, 0xff, 0x28, 0xab, 0xff, 0xff, 0x2c, 0xab, 0xff, 0xff,
  0x30, 0xab, 0xff, 0xff, 0x34, 0xab, 0xff, 0xff, 0x38, 0xab, 0xff, 0xff,
  0x3c, 0xab, 0xff, 0xff, 0x40, 0xab, 0xff, 0xff, 0x44, 0xab, 0xff, 0xff,
  0x48, 0xab, 0xff, 0xff, 0x4c, 0xab, 0xff, 0xff, 0x50, 0xab, 0xff, 0xff,
  0x54, 0xab, 0xff, 0xff, 0x58, 0xab, 0xff, 0xff, 0x5c, 0xab, 0xff, 0xff,
  0x60, 0xab, 0xff, 0xff, 0x64, 0xab, 0xff, 0xff, 0x68, 0xab, 0xff, 0xff,
  0x6c, 0xab, 0xff, 0xff, 0x70, 0xab, 0xff, 0xff, 0x74, 0xab, 0xff, 0xff,
  0x78, 0xab, 0xff, 0xff, 0x7c, 0xab, 0xff, 0xff, 0x80, 0xab, 0xff, 0xff,
  0x84, 0xab, 0xff, 0xff, 0x88, 0xab, 0xff, 0xff, 0x8c, 0xab, 0xff, 0xff,
  0x90, 0xab, 0xff, 0xff, 0x94, 0xab, 0xff, 0xff, 0x98, 0xab, 0xff, 0xff,
  0xd2, 0xe4, 0xff, 0xff, 0x04, 0x00, 0x00, 0x00, 0x18, 0x00, 0x00, 0x00,
  0x81, 0x01, 0x00, 0x00, 0xd5, 0xfd, 0xff, 0xff, 0x40, 0x01, 0x00, 0x00,
  0xf4, 0xff, 0xff, 0xff, 0x0c, 0xfe, 0xff, 0xff, 0x78, 0xfd, 0xff, 0xff,
  0xf6, 0xe4, 0xff, 0xff, 0x04, 0x00, 0x00, 0x00, 0x40, 0x0b, 0x00, 0x00,
  0xf3, 0xd4, 0x1c, 0x0f, 0xbd, 0xa9, 0x10, 0x81, 0xba, 0xfe, 0x3b, 0xd8,
  0x1d, 0xd3, 0xcb, 0x45, 0x03, 0xbe, 0x0c, 0x06, 0xd1, 0xd6, 0xfc, 0xbb,
  0xbe, 0xeb, 0x0c, 0xdf, 0x3c, 0xe1, 0xd2, 0x3b, 0x13, 0xdd, 0x04, 0xdd,
  0xd4, 0xe8, 0xf4, 0xa4, 0xc4, 0xf6, 0x35, 0xfb, 0x34, 0xc7, 0xe9, 0x48,
  0x18, 0xe3, 0xe7, 0x03, 0xf4, 0xc0, 0x16, 0xab, 0xd9, 0x19, 0x1f, 0xe7,
  0x2e, 0xd4, 0xd2, 0x53, 0x00, 0xb5, 0x14, 0xe2, 0xe5, 0xdf, 0xfd, 0xcd,
  0xb5, 0x12, 0x1c, 0x03, 0x25, 0xe5, 0xfb, 0x47, 0x0c, 0xd9, 0x1c, 0x09,
  0xcb, 0xe7, 0x13, 0xb7, 0xc5, 0xde, 0x35, 0xff, 0x12, 0xe2, 0xe8, 0x33,
  0xe8, 0xb6, 0x19, 0x0b, 0xd7, 0xd4, 0xf4, 0xc4, 0xc9, 0x16, 0x38, 0xdf,
  0x42, 0xd2, 0xde, 0x53, 0xfd, 0xe0, 0x13, 0xea, 0xc6, 0xf2, 0x04, 0xf0,
  0xc9, 0x12, 0x25, 0xff, 0x28, 0xd9, 0xe4, 0x55, 0xfe, 0xbe, 0x05, 0x07,
  0xf0, 0xe3, 0x0e, 0xd2, 0xce, 0x02, 0x2d, 0x08, 0x14, 0xdb, 0xf3, 0x37,
  0x14, 0xe8, 0xf9, 0xfa, 0xbb, 0xbf, 0xe5, 0xb1, 0xca, 0xde, 0x1d, 0x05,
  0x10, 0xbd, 0xeb, 0x57, 0x10, 0xc4, 0x08, 0x1c, 0xc1, 0xd4, 0x0d, 0xc2,
  0xb1, 0xef, 0x3b, 0x07, 0x2a, 0xaa, 0xfd, 0x55, 0x02, 0xd6, 0x00, 0x09,
  0xcd, 0xcb, 0x05, 0xd8, 0xbd, 0x12, 0x2d, 0x06, 0x36, 0xc7, 0xec, 0x43,
  0xf2, 0xcb, 0xf0, 0x19, 0xbd, 0xd1, 0xfa, 0xd4, 0xbe, 0xfd, 0x12, 0x08,
  0x03, 0xb7, 0x03, 0x43, 0x19, 0xde, 0x11, 0x02, 0xd9, 0xb3, 0xfa, 0xe5,
  0xbf, 0xe7, 0x07, 0xee, 0x29, 0xc9, 0x07, 0x5a, 0x05, 0xde, 0xfc, 0xff,
  0xe0, 0xd6, 0x0c, 0xcf, 0xdd, 0x00, 0x22, 0xd3, 0x0e, 0xbe, 0xef, 0x50,
  0x14, 0xc9, 0xfb, 0x0c, 0xd4, 0xe8, 0x15, 0xcc, 0xab, 0xe7, 0x1d, 0xd2,
  0x1d, 0xb1, 0x09, 0x4d, 0x10, 0xc5, 0xf6, 0xee, 0xca, 0xbc, 0xf7, 0xbe,
  0xc0, 0x12, 0x23, 0x01, 0x37, 0xba, 0xd7, 0x4d, 0x11, 0xe4, 0x1c, 0x03,
  0xc9, 0xd5, 0x14, 0xd7, 0xbc, 0xf2, 0x3e, 0xe0, 0x1f, 0xe4, 0xfe, 0x48,
  0xfb, 0xcc, 0xed, 0x14, 0xde, 0xc2, 0x11, 0xc6, 0xc2, 0xf7, 0x3e, 0xe4,
  0x26, 0xd8, 0xef, 0x4e, 0xec, 0xc1, 0x1b, 0x01, 0xeb, 0xe8, 0x00, 0xe5,
  0xc4, 0x11, 0x18, 0xf1, 0x0b, 0xed, 0xf7, 0x4a, 0x0d, 0xcd, 0x1d, 0xf8,
  0xcb, 0xc5, 0xf0, 0xbe, 0xc4, 0x08, 0x15, 0xd2, 0x3f, 0xd1, 0xe4, 0x41,
  0xfe, 0xe6, 0x08, 0xf1, 0xeb, 0xeb, 0x18, 0xec, 0xc4, 0xf6, 0x27, 0xdf,
  0x21, 0xbf, 0x01, 0x4a, 0xf7, 0xe0, 0x10, 0x13, 0xd1, 0xd0, 0x21, 0xd8,
  0xca, 0x07, 0x0f, 0xf1, 0x34, 0xe2, 0xf7, 0x35, 0x02, 0xcb, 0xed, 0xe8,
  0xd5, 0xe8, 0x0f, 0xc4, 0xaa, 0xf9, 0x18, 0xf2, 0x17, 0xdd, 0xfb, 0x32,
  0x14, 0xc4, 0xf6, 0xea, 0xdd, 0xe4, 0xe7, 0xca, 0xa5, 0xf5, 0x2a, 0xd9,
  0xf5, 0xd2, 0xec, 0x3d, 0x1c, 0xe0, 0xf9, 0xfb, 0xdc, 0xd8, 0x23, 0xba,
  0xa8, 0x11, 0x34, 0xec, 0xf3, 0xe6, 0xea, 0x2a, 0x00, 0xb6, 0x19, 0xfd,
  0xe9, 0x03, 0x09, 0xfb, 0x9f, 0xe3, 0x1e, 0xcf, 0x0c, 0xef, 0x03, 0x3e,
  0xf8, 0xc7, 0x02, 0xee, 0xd2, 0xfa, 0x00, 0xd5, 0xd4, 0x03, 0x31, 0xa3,
  0x00, 0xcd, 0xf4, 0x39, 0xe9, 0xd7, 0x21, 0xe4, 0xbf, 0xe3, 0x0a, 0xd0,
  0xce, 0xd6, 0x30, 0xc1, 0x1a, 0xc5, 0xfd, 0x2b, 0xe0, 0xbc, 0x15, 0xac,
  0xbe, 0x01, 0x08, 0xdc, 0xc0, 0xe2, 0x2b, 0xc5, 0x14, 0xdd, 0xdf, 0x39,
  0xd8, 0x1f, 0xfd, 0xf3, 0x0f, 0x15, 0xec, 0x6e, 0x2b, 0xc4, 0xf5, 0xd4,
  0xc2, 0x24, 0xfe, 0x34, 0xcf, 0x2b, 0x05, 0x0b, 0x11, 0x35, 0xeb, 0x50,
  0x11, 0xce, 0xe6, 0xe1, 0xb9, 0x12, 0x11, 0x1b, 0xd5, 0x15, 0xe4, 0x0c,
  0x1b, 0x1f, 0xdb, 0x39, 0x11, 0xc2, 0x06, 0xd8, 0xde, 0x2e, 0x09, 0x26,
  0xfc, 0x21, 0x07, 0x06, 0x22, 0x25, 0xe6, 0x33, 0x0b, 0xd7, 0xf8, 0xd6,
  0xc1, 0x0c, 0xf6, 0x25, 0xeb, 0x22, 0xe7, 0xfd, 0x1d, 0x17, 0xcc, 0x33,
  0x06, 0xdc, 0x09, 0xed, 0xdd, 0x13, 0xfa, 0x04, 0xfd, 0x39, 0xe6, 0xf9,
  0x1f, 0x0f, 0xe1, 0x28, 0x0e, 0xd0, 0x03, 0xe3, 0xd3, 0x09, 0xf9, 0xf8,
  0xe2, 0x2b, 0x06, 0x10, 0x2c, 0x2e, 0xf1, 0x2b, 0x0d, 0xc5, 0x04, 0xed,
  0xc6, 0x15, 0xdc, 0x1b, 0xe8, 0x27, 0xf8, 0xff, 0x1b, 0x2e, 0xd8, 0x1f,
  0xfc, 0xdd, 0x14, 0xf4, 0xd4, 0x05, 0xe8, 0x0f, 0xf4, 0x3f, 0xd6, 0x13,
  0x21, 0x26, 0xc9, 0x25, 0x0c, 0xd9, 0x04, 0xf0, 0xca, 0x1f, 0xda, 0x0d,
  0x09, 0x27, 0xe9, 0x0e, 0x1c, 0x20, 0xc0, 0x22, 0xf5, 0xc0, 0x12, 0xef,
  0xb9, 0x08, 0xf0, 0x21, 0x00, 0x43, 0xf0, 0x0f, 0x1b, 0x1b, 0xe0, 0x29,
  0xf7, 0xca, 0x1e, 0xf3, 0xc6, 0x0b, 0xe2, 0x11, 0x05, 0x2f, 0xe8, 0x1a,
  0x1f, 0x36, 0xc8, 0x3a, 0xf2, 0xcc, 0x10, 0xc2, 0xc9, 0xff, 0xef, 0x0e,
  0x03, 0x3d, 0x06, 0x06, 0x1c, 0x2d, 0xdd, 0x34, 0xf4, 0xd0, 0xff, 0xf9,
  0xb0, 0x15, 0xe5, 0x12, 0xef, 0x3c, 0xef, 0x29, 0x30, 0x2f, 0xca, 0x2f,
  0xf0, 0xe4, 0x19, 0xeb, 0xc4, 0xf9, 0xe9, 0x1d, 0x01, 0x41, 0xfc, 0x10,
  0x23, 0x2d, 0xd6, 0x25, 0xfc, 0xd2, 0x0b, 0xdf, 0xd9, 0x0f, 0xd1, 0x1f,
  0x04, 0x3a, 0xc8, 0x14, 0x26, 0x12, 0xe0, 0x38, 0xf4, 0xd6, 0x12, 0xdc,
  0xd9, 0x1c, 0xdf, 0x19, 0x0c, 0x31, 0xfb, 0x0f, 0x0f, 0x28, 0xc0, 0x3a,
  0xfe, 0xdd, 0x04, 0xd6, 0xe0, 0x17, 0xd1, 0x1a, 0xe1, 0x36, 0xdd, 0x2c,
  0x1f, 0x28, 0xd6, 0x23, 0xf7, 0xda, 0xf7, 0xf2, 0xde, 0x10, 0xe0, 0x1a,
  0xe2, 0x2e, 0xf8, 0x02, 0x23, 0x2b, 0xd9, 0x19, 0xfa, 0xd7, 0xf8, 0xe4,
  0xe2, 0x09, 0xe1, 0x16, 0xe1, 0x36, 0xd6, 0x16, 0x19, 0x37, 0xc2, 0x35,
  0xf8, 0x01, 0xfc, 0xdd, 0xc2, 0x1b, 0xf2, 0x1d, 0xfa, 0x38, 0x02, 0x13,
  0x0a, 0x20, 0xd2, 0x1e, 0x04, 0xf9, 0xe6, 0xe1, 0xe7, 0x26, 0xe5, 0x0f,
  0xef, 0x23, 0xf7, 0x1d, 0x0c, 0x1f, 0xbd, 0x28, 0xf4, 0x00, 0xfc, 0xe2,
  0xeb, 0x14, 0xfd, 0x13, 0xea, 0x42, 0xfb, 0x07, 0xff, 0x17, 0xd5, 0x2b,
  0x17, 0xf2, 0xd9, 0xea, 0xeb, 0x19, 0xea, 0x02, 0xf9, 0x2f, 0xef, 0x0b,
  0x0b, 0x1d, 0xbc, 0x19, 0x0a, 0xf0, 0xfb, 0xfa, 0xf3, 0x21, 0xf7, 0x07,
  0x03, 0x2f, 0xe1, 0x0c, 0x0f, 0x2e, 0xd3, 0x1b, 0xf3, 0xfa, 0xe1, 0x04,
  0xf2, 0x0a, 0xf2, 0x08, 0x07, 0x2d, 0xc6, 0x05, 0xfc, 0x23, 0xcd, 0x13,
  0xf7, 0xe1, 0xe8, 0xfb, 0xf2, 0x1f, 0x0f, 0xfa, 0x04, 0x17, 0xf2, 0x14,
  0x03, 0x12, 0xeb, 0x1e, 0xf1, 0xe1, 0xeb, 0xfd, 0xee, 0x2e, 0xdc, 0x0d,
  0xf5, 0x29, 0xe5, 0x10, 0x0c, 0x00, 0xea, 0x08, 0x0b, 0xeb, 0xe0, 0xdb,
  0xf6, 0x29, 0xe7, 0xf4, 0xe8, 0x29, 0xc2, 0x13, 0x0a, 0x05, 0xdd, 0x2f,
  0x0e, 0xfc, 0xee, 0xeb, 0xd7, 0x14, 0xf5, 0xf9, 0xfd, 0x3a, 0xca, 0x2c,
  0x0e, 0x13, 0xf2, 0x2a, 0x12, 0xef, 0xe8, 0x03, 0xc8, 0x2c, 0xc8, 0x04,
  0xff, 0xe6, 0x03, 0x10, 0xe2, 0x11, 0xb7, 0x19, 0x0f, 0x13, 0xf7, 0x00,
  0xe8, 0x27, 0xf5, 0x2c, 0xff, 0x04, 0xe4, 0x19, 0xe6, 0x2a, 0xc8, 0x11,
  0x03, 0x1c, 0xf4, 0x14, 0x09, 0x0a, 0x06, 0x0c, 0xf3, 0xd7, 0xef, 0x0f,
  0xf3, 0x11, 0xb8, 0x04, 0x05, 0xfe, 0x0f, 0x0d, 0x0e, 0x27, 0x21, 0x1f,
  0xf6, 0xf6, 0xdd, 0x17, 0xe6, 0x21, 0xc3, 0x20, 0xf8, 0x18, 0xee, 0x09,
  0x07, 0x07, 0x16, 0x16, 0xf2, 0xef, 0xfe, 0x05, 0xd3, 0x0f, 0xbf, 0x10,
  0x0c, 0x09, 0x08, 0x16, 0xf3, 0x0e, 0xfa, 0xf5, 0xf2, 0xf3, 0xdf, 0x0c,
  0xdd, 0x0b, 0xe4, 0x08, 0x1a, 0x0b, 0xf6, 0x11, 0x07, 0x03, 0x07, 0xe2,
  0x00, 0xd9, 0x14, 0x24, 0xe3, 0x14, 0xf4, 0x0d, 0x01, 0x16, 0xe9, 0x13,
  0xe1, 0x22, 0x16, 0x03, 0xf0, 0xcc, 0x07, 0x1f, 0xcd, 0x20, 0xe8, 0x06,
  0x00, 0xf8, 0xef, 0x17, 0x02, 0x18, 0x12, 0xfa, 0xf5, 0xec, 0x1a, 0x1e,
  0xdb, 0x18, 0xde, 0x0b, 0x1b, 0x07, 0xe9, 0x21, 0xec, 0x28, 0xf7, 0xf4,
  0x15, 0xca, 0xf7, 0x28, 0xcd, 0x13, 0xd3, 0x0b, 0x01, 0x0d, 0x03, 0x20,
  0xe1, 0x15, 0x08, 0xff, 0x15, 0xec, 0xe9, 0x1c, 0xdb, 0x04, 0xf4, 0x09,
  0x03, 0x0a, 0xf9, 0x1c, 0xea, 0x0e, 0x0d, 0xf3, 0x15, 0xd3, 0x01, 0x24,
  0xe6, 0x0e, 0xea, 0x15, 0x03, 0x11, 0xfb, 0xfd, 0xec, 0x0f, 0x0c, 0xef,
  0x12, 0xe5, 0x02, 0x1f, 0xd3, 0x11, 0xef, 0x1c, 0xfc, 0x08, 0xf1, 0x31,
  0xeb, 0x21, 0xf9, 0xef, 0xfd, 0xf3, 0x03, 0x33, 0xdd, 0x20, 0xea, 0x11,
  0xf0, 0xf3, 0x09, 0x25, 0xdc, 0xff, 0xfc, 0x02, 0x09, 0xda, 0xf5, 0x2e,
  0xe5, 0x0b, 0xf6, 0x05, 0xfe, 0x00, 0xf8, 0x1e, 0xf8, 0x28, 0xef, 0xf8,
  0x0e, 0xd4, 0x0e, 0x2a, 0xe6, 0x13, 0x00, 0x21, 0x10, 0x15, 0xfe, 0x11,
  0xd9, 0x14, 0xe0, 0xf9, 0x12, 0xc7, 0x01, 0x1e, 0xd0, 0x07, 0xdb, 0x0f,
  0xf7, 0xf9, 0xfc, 0x12, 0xfd, 0x27, 0x06, 0xee, 0x0a, 0xe5, 0x0c, 0x23,
  0xd9, 0x09, 0x03, 0x0a, 0xf1, 0x15, 0xf1, 0x29, 0x04, 0x18, 0x0e, 0xe6,
  0x11, 0xd7, 0x08, 0x05, 0xe7, 0x1d, 0x03, 0xf8, 0xec, 0xfb, 0xf6, 0x1f,
  0xe3, 0x14, 0x16, 0xec, 0xfe, 0xe2, 0x14, 0x29, 0xe0, 0x23, 0xf7, 0x11,
  0x0b, 0x2d, 0xeb, 0x12, 0xe0, 0x24, 0xef, 0xf5, 0x17, 0xf2, 0xf3, 0x22,
  0xdc, 0x26, 0xff, 0x0f, 0x05, 0x1a, 0xe0, 0x03, 0xf9, 0x16, 0x0f, 0xe4,
  0x21, 0xed, 0xec, 0x12, 0xe3, 0x1a, 0xed, 0xfe, 0xee, 0x0c, 0xe7, 0x31,
  0x02, 0x11, 0x0b, 0xee, 0x04, 0xf5, 0x0e, 0x15, 0xd5, 0x15, 0xec, 0x1a,
  0x12, 0x23, 0xd7, 0x20, 0xf9, 0x17, 0xfd, 0xe0, 0xff, 0xea, 0xfe, 0x20,
  0xdd, 0x17, 0xf0, 0x10, 0x07, 0x1f, 0xfd, 0x2e, 0x04, 0x17, 0xfe, 0xe6,
  0x2b, 0xec, 0x10, 0x1c, 0xe1, 0x1b, 0xed, 0x0c, 0x0e, 0x0f, 0xe3, 0x02,
  0xf7, 0x06, 0x04, 0xed, 0x20, 0xda, 0xf3, 0x15, 0xdb, 0x18, 0xf4, 0xff,
  0x0b, 0xf5, 0xf9, 0x05, 0x02, 0x11, 0x10, 0xdc, 0x1d, 0xd4, 0xdd, 0x18,
  0xe7, 0x09, 0x06, 0x14, 0xec, 0x08, 0xf9, 0x21, 0x07, 0x27, 0xf7, 0xe9,
  0x30, 0xe4, 0xf0, 0x22, 0xe8, 0x14, 0xe9, 0x02, 0xfb, 0x28, 0xfb, 0xfe,
  0xed, 0x13, 0xfc, 0xe2, 0x38, 0xd6, 0xe0, 0x2f, 0xfa, 0x03, 0x02, 0x16,
  0xf0, 0x28, 0x0a, 0x0a, 0xde, 0x08, 0xf6, 0xe2, 0x45, 0xe4, 0xf4, 0x15,
  0x05, 0xff, 0xe8, 0x12, 0xf2, 0x15, 0x00, 0xfc, 0xd0, 0x27, 0x1b, 0xe4,
  0xdf, 0x09, 0x04, 0xd6, 0x09, 0x02, 0xbe, 0xf6, 0x10, 0xf0, 0x12, 0xef,
  0xe0, 0x07, 0x21, 0x16, 0xe7, 0x32, 0x33, 0xee, 0x03, 0x0e, 0xc6, 0xfb,
  0x0a, 0xf7, 0x0c, 0x01, 0xf6, 0xf9, 0x0a, 0x0d, 0xd4, 0x0a, 0x1d, 0xf6,
  0x0d, 0x19, 0xdd, 0x02, 0x09, 0xf8, 0x13, 0x00, 0xfb, 0x08, 0x01, 0x11,
  0xff, 0x15, 0x1f, 0xed, 0x19, 0xfa, 0xdd, 0x00, 0x10, 0xf9, 0xfc, 0x00,
  0xde, 0x07, 0x00, 0x16, 0xf7, 0x18, 0x0e, 0xe6, 0x06, 0xf2, 0xbb, 0x15,
  0x16, 0xe3, 0x14, 0xf9, 0xfc, 0x05, 0xf6, 0xf4, 0xe6, 0x06, 0x1e, 0xf3,
  0x08, 0x0b, 0xf2, 0x18, 0x18, 0xe6, 0x00, 0xeb, 0xf2, 0xfa, 0x15, 0xe5,
  0xe0, 0x23, 0x04, 0xef, 0x14, 0x00, 0xe7, 0x0d, 0x28, 0xe0, 0xe9, 0xf6,
  0xee, 0x18, 0xf4, 0x14, 0xc5, 0x0e, 0x34, 0xe0, 0x0e, 0x01, 0xf8, 0x12,
  0x14, 0xf0, 0xfb, 0xf4, 0xf5, 0x16, 0x19, 0x06, 0xe2, 0x13, 0x40, 0xdd,
  0x1b, 0x06, 0xf3, 0x0a, 0x1e, 0xf6, 0xeb, 0xec, 0xeb, 0x20, 0xfd, 0xfb,
  0xdf, 0x03, 0x05, 0xd8, 0x13, 0xf5, 0xe3, 0xe6, 0x06, 0xf0, 0xef, 0xe8,
  0xdb, 0x12, 0x29, 0x09, 0xcd, 0x0f, 0x28, 0xdd, 0x11, 0x05, 0xf8, 0x04,
  0x04, 0x09, 0x08, 0x0b, 0xe1, 0x12, 0x10, 0xfe, 0xdb, 0xf9, 0x0d, 0xe3,
  0x27, 0x16, 0xf9, 0xee, 0x00, 0x0a, 0xf6, 0xec, 0xe6, 0xfd, 0x12, 0xfb,
  0xc6, 0x12, 0x16, 0xd2, 0x11, 0x03, 0xe2, 0x04, 0x03, 0x00, 0xed, 0x11,
  0xe5, 0x39, 0x24, 0xf3, 0xc6, 0x0e, 0x27, 0xe9, 0x25, 0xfd, 0xec, 0xee,
  0xfd, 0x01, 0xfb, 0x0d, 0xe7, 0x13, 0x0c, 0x03, 0xc9, 0x16, 0x24, 0xc5,
  0x19, 0x06, 0x02, 0xe7, 0xf0, 0xd2, 0xf1, 0x04, 0xef, 0x19, 0x12, 0x0c,
  0xd3, 0x05, 0x0d, 0xe1, 0x1b, 0xfe, 0xfd, 0xf6, 0x00, 0xe6, 0x04, 0x00,
  0xfd, 0x1d, 0x09, 0x02, 0xeb, 0x10, 0x14, 0xe3, 0xfd, 0x0d, 0xf8, 0xf9,
  0xfc, 0xdc, 0xf3, 0xfa, 0xf2, 0x1b, 0xfe, 0x04, 0xda, 0x13, 0x13, 0xd2,
  0x1d, 0x02, 0x04, 0xee, 0x00, 0xf4, 0xeb, 0x06, 0xe7, 0x0e, 0x03, 0x06,
  0xd5, 0xfd, 0x0d, 0xc8, 0x25, 0xf9, 0xf4, 0xe3, 0x02, 0xdf, 0xfb, 0xe8,
  0xeb, 0x25, 0x2d, 0x01, 0xe2, 0x17, 0x06, 0xec, 0x2c, 0x0e, 0x02, 0x03,
  0xf7, 0xf5, 0xff, 0xe7, 0xe3, 0x1b, 0x28, 0x09, 0xf4, 0x05, 0x33, 0xe0,
  0x11, 0x04, 0xec, 0xe1, 0x03, 0xdb, 0xed, 0xef, 0xf4, 0x28, 0x17, 0x06,
  0xdd, 0x0b, 0x17, 0xee, 0x0d, 0xf9, 0xe9, 0xf1, 0xea, 0xef, 0x09, 0xec,
  0xe1, 0x19, 0x24, 0x0e, 0xe3, 0x32, 0x25, 0xe5, 0x00, 0xf0, 0x12, 0xfd,
  0x08, 0xf2, 0xf1, 0xef, 0xe8, 0x1f, 0x08, 0x00, 0xdd, 0x11, 0x1f, 0xe4,
  0x20, 0xfb, 0x0e, 0xfa, 0x01, 0xfa, 0x04, 0xe9, 0xec, 0x14, 0x17, 0x09,
  0xe2, 0x18, 0x36, 0xdb, 0x0c, 0xf7, 0xf7, 0xe7, 0xee, 0xfa, 0x19, 0xfb,
  0xe3, 0x03, 0x0c, 0x0f, 0xf0, 0x2a, 0x1e, 0xca, 0xfe, 0xfc, 0x01, 0xf7,
  0xec, 0xf0, 0x17, 0xf3, 0x01, 0x12, 0x20, 0x00, 0xe6, 0x02, 0x09, 0xe2,
  0x25, 0xef, 0x15, 0xe9, 0xfb, 0x05, 0x22, 0x05, 0xe4, 0x13, 0x09, 0x1d,
  0xc7, 0x00, 0x0b, 0xed, 0x26, 0x1a, 0x19, 0xfc, 0x05, 0xea, 0xfd, 0xdd,
  0xe8, 0x02, 0x1e, 0x0a, 0xc4, 0x0a, 0x02, 0xde, 0x16, 0x0e, 0xfe, 0xe2,
  0x0d, 0xf1, 0x1b, 0xed, 0xd7, 0xdc, 0x29, 0x0a, 0xe3, 0x23, 0x30, 0xbd,
  0x24, 0x0d, 0x1d, 0xe4, 0x15, 0xe3, 0x0a, 0xc9, 0xbd, 0xd0, 0x19, 0x1f,
  0x00, 0x08, 0xe4, 0xe5, 0x0c, 0xe8, 0x19, 0xd8, 0xee, 0x19, 0xef, 0x3d,
  0xfe, 0xd3, 0xe2, 0xf9, 0x05, 0x0c, 0x09, 0xd0, 0x1d, 0xf4, 0x3b, 0x19,
  0x0c, 0x21, 0x1b, 0x1e, 0x1e, 0xe9, 0xe3, 0xc2, 0xec, 0xed, 0xe7, 0xcf,
  0x1c, 0xf6, 0x1e, 0xfa, 0xf7, 0xfe, 0x17, 0x08, 0x26, 0xc5, 0x1c, 0xea,
  0xf5, 0xfe, 0xf0, 0xce, 0x1f, 0xdf, 0x39, 0x17, 0x16, 0x26, 0x07, 0xf2,
  0x35, 0xea, 0x01, 0xda, 0xe9, 0xf7, 0xef, 0xc7, 0xf6, 0xd9, 0x21, 0x22,
  0x05, 0x1e, 0x18, 0x0d, 0x0b, 0xd0, 0xf3, 0xc5, 0xef, 0x0c, 0xe3, 0xd6,
  0xff, 0xee, 0x12, 0x1b, 0x10, 0x0e, 0x17, 0xf8, 0x07, 0xc7, 0x23, 0xd8,
  0xe7, 0xfd, 0xef, 0xc6, 0x14, 0xe9, 0x16, 0x12, 0x1a, 0x21, 0xeb, 0x08,
  0x0d, 0xe1, 0x11, 0xdb, 0xe1, 0x09, 0x02, 0xbe, 0x04, 0xd0, 0x2b, 0x03,
  0x06, 0x21, 0x04, 0x08, 0x28, 0xe8, 0x25, 0xdf, 0xf9, 0x01, 0xe9, 0xca,
  0x0e, 0xf8, 0x25, 0x0d, 0x2a, 0x11, 0x01, 0x11, 0xfd, 0xe0, 0x0a, 0xee,
  0x03, 0xf9, 0x01, 0xdd, 0xef, 0xd0, 0x17, 0xea, 0x14, 0xff, 0xfc, 0xf6,
  0x10, 0xda, 0x05, 0xe1, 0x00, 0x0c, 0xf1, 0xe8, 0xf9, 0xd8, 0x13, 0x07,
  0x13, 0x22, 0x0a, 0x1a, 0x07, 0xda, 0x08, 0xf3, 0xff, 0x10, 0xed, 0xe2,
  0x02, 0xe1, 0x17, 0xfe, 0x09, 0x16, 0xef, 0x03, 0x13, 0xeb, 0x0f, 0xf6,
  0x0b, 0x0a, 0x03, 0xd9, 0x0f, 0xe5, 0x0f, 0x11, 0x2e, 0x0b, 0x0b, 0x24,
  0x20, 0xda, 0x18, 0xe3, 0xf8, 0x26, 0x11, 0xf3, 0xf1, 0xc6, 0x28, 0x16,
  0x0c, 0x22, 0x03, 0x0d, 0x1d, 0xeb, 0x0f, 0xfd, 0xfd, 0x01, 0xee, 0xb2,
  0x01, 0xea, 0x03, 0x0b, 0x1c, 0x1d, 0xe9, 0x2b, 0x21, 0xe9, 0x10, 0xeb,
  0xe0, 0xfa, 0x05, 0xd6, 0xf8, 0xdc, 0x36, 0x03, 0x15, 0x24, 0xfc, 0x29,
  0x24, 0xf6, 0x1a, 0xec, 0x1b, 0x10, 0x03, 0xd4, 0xec, 0xc9, 0x24, 0x14,
  0x18, 0x35, 0xfd, 0x13, 0x0d, 0xe1, 0x0a, 0xe7, 0xd6, 0xfc, 0xed, 0xe2,
  0x0b, 0xd6, 0xf9, 0x13, 0x17, 0x0a, 0x07, 0x40, 0x34, 0xd5, 0x24, 0xea,
  0xe9, 0x00, 0xe5, 0xe1, 0x11, 0xe4, 0xf4, 0x1f, 0x26, 0x1f, 0x16, 0x2b,
  0x03, 0xd6, 0x11, 0xd7, 0xe0, 0x14, 0xf2, 0xd0, 0xeb, 0xf5, 0xfa, 0x22,
  0x07, 0xfc, 0xfd, 0x21, 0x0a, 0xf0, 0xfe, 0xef, 0xfb, 0xf9, 0xf8, 0xc1,
  0xf1, 0xed, 0xfc, 0xf8, 0x12, 0x07, 0x05, 0x21, 0x2a, 0xf1, 0x1f, 0xe2,
  0xf5, 0x20, 0xf4, 0xd4, 0xe7, 0xd7, 0x20, 0xf7, 0x32, 0x07, 0x1d, 0x24,
  0x23, 0xf0, 0x0d, 0xe4, 0x0b, 0x2d, 0xfc, 0xd9, 0xee, 0xef, 0x1c, 0x17,
  0x46, 0x05, 0x08, 0x12, 0x1b, 0xd1, 0x10, 0xe3, 0xef, 0x1c, 0xf8, 0xd0,
  0x02, 0xec, 0x1c, 0x19, 0x3c, 0x18, 0x1d, 0x3d, 0x10, 0xf0, 0x10, 0xdd,
  0xe2, 0x19, 0x1f, 0xd4, 0xe6, 0xe2, 0x05, 0x06, 0x39, 0xed, 0x08, 0x20,
  0x0b, 0xfa, 0x01, 0xe3, 0xd2, 0x28, 0xe8, 0xd0, 0xd7, 0xe0, 0xee, 0xfb,
  0x45, 0xe6, 0xec, 0x44, 0x2d, 0xd9, 0xe4, 0xeb, 0xcb, 0xfd, 0xf7, 0xcb,
  0xd0, 0xd9, 0xef, 0xfb, 0x27, 0xed, 0x00, 0x3e, 0x37, 0xfe, 0xf0, 0xe1,
  0xee, 0x10, 0x17, 0xf7, 0xe3, 0xee, 0x0c, 0xfa, 0x46, 0x00, 0xfb, 0x2b,
  0x24, 0xe2, 0x02, 0xed, 0xe4, 0x04, 0x05, 0xbd, 0xcf, 0xf5, 0xf0, 0x09,
  0x31, 0xdc, 0x01, 0x38, 0x35, 0xe7, 0x12, 0x0a, 0xdd, 0x28, 0x1e, 0xab,
  0xc0, 0x0f, 0x00, 0x27, 0x27, 0x1b, 0x11, 0x4d, 0x39, 0xe2, 0xef, 0xec,
  0x5d, 0xee, 0xce, 0xa6, 0xf6, 0x04, 0x4f, 0xd1, 0x43, 0x00, 0xd4, 0xf3,
  0x05, 0x10, 0x27, 0xa7, 0x3e, 0xd7, 0xe3, 0x9e, 0x03, 0x19, 0x3a, 0xe7,
  0x30, 0xff, 0xe9, 0x1b, 0x0c, 0xfc, 0x13, 0x9e, 0x47, 0xc9, 0xf3, 0xb3,
  0x08, 0x11, 0x3d, 0xec, 0x2e, 0xf6, 0xd3, 0x00, 0xf4, 0x25, 0x37, 0xc0,
  0x62, 0xf4, 0xc4, 0xc4, 0x13, 0x0d, 0x46, 0x05, 0x19, 0xea, 0xec, 0x02,
  0x1b, 0x16, 0x06, 0xb9, 0x2f, 0xe2, 0xd5, 0xbb, 0x25, 0xee, 0x20, 0xf6,
  0x2c, 0xf1, 0xd7, 0x08, 0xf6, 0x11, 0x11, 0xa7, 0x2d, 0xc4, 0xe6, 0xbe,
  0x29, 0x05, 0x27, 0x02, 0x3a, 0xfe, 0xe2, 0x1a, 0x20, 0xfc, 0x04, 0xb2,
  0x2c, 0xe1, 0xbb, 0xec, 0x29, 0x0a, 0x43, 0x02, 0x27, 0x0b, 0xdb, 0x10,
  0x0b, 0x27, 0x07, 0xa0, 0x28, 0x00, 0xc7, 0xab, 0x14, 0xf1, 0x14, 0xf5,
  0x22, 0xe9, 0xce, 0x21, 0x19, 0x22, 0xf6, 0x9c, 0x3c, 0x11, 0xd9, 0xb8,
  0x14, 0xf8, 0x0e, 0xf8, 0x11, 0xf5, 0xfc, 0x27, 0xfc, 0x2a, 0x0f, 0xc0,
  0x2b, 0xf1, 0xc5, 0xd1, 0x0c, 0xe7, 0x41, 0xf5, 0x1c, 0xfa, 0x05, 0x25,
  0xee, 0x12, 0xfd, 0xad, 0x35, 0xdf, 0xab, 0xd5, 0x2d, 0xf7, 0x1f, 0x01,
  0x0e, 0x16, 0xcf, 0x1f, 0x18, 0x00, 0x0a, 0xd4, 0x29, 0xd7, 0xb9, 0xe0,
  0x30, 0xf3, 0x35, 0xfb, 0x0b, 0xf1, 0xf6, 0x06, 0x0c, 0x04, 0x0e, 0xc5,
  0x3d, 0xe2, 0xb0, 0xbf, 0x39, 0xfb, 0x31, 0x0c, 0x29, 0x14, 0xd2, 0x1a,
  0x14, 0x01, 0xf2, 0xc5, 0x28, 0x07, 0xc0, 0xc6, 0x46, 0xfe, 0x34, 0x07,
  0xf9, 0x0f, 0xcd, 0x1d, 0x03, 0xf8, 0x13, 0xc6, 0x1c, 0xfe, 0xdb, 0xcb,
  0x2b, 0xf4, 0x05, 0xff, 0x13, 0x01, 0xf1, 0x01, 0xf7, 0x20, 0x15, 0xd4,
  0x0b, 0xef, 0xab, 0xca, 0x3f, 0xe9, 0x37, 0xfe, 0x2a, 0xf9, 0xeb, 0x22,
  0x0b, 0x0a, 0xfd, 0xa8, 0x07, 0xd5, 0xdd, 0xdb, 0x34, 0xd3, 0x24, 0xe2,
  0x1e, 0xee, 0xd4, 0x26, 0x01, 0x19, 0xfb, 0xb1, 0x10, 0xe6, 0xd2, 0xdb,
  0x3b, 0xff, 0x36, 0xf9, 0x0b, 0x05, 0xfc, 0x30, 0xfc, 0xed, 0x0f, 0xbc,
  0x27, 0x01, 0xc8, 0xe8, 0x43, 0xe0, 0x17, 0xfc, 0x0a, 0x20, 0xd8, 0x3e,
  0x1f, 0x15, 0x03, 0xc2, 0x08, 0xe7, 0xeb, 0xf1, 0x55, 0xf1, 0x23, 0xed,
  0xf9, 0x00, 0xd7, 0x2c, 0x12, 0x08, 0x03, 0xaf, 0x17, 0xfb, 0xcb, 0xe3,
  0x3a, 0xed, 0x1b, 0x00, 0xff, 0xfa, 0xe9, 0x13, 0xff, 0x12, 0x1f, 0xaf,
  0xff, 0xe8, 0xda, 0xd6, 0x3a, 0x03, 0x11, 0xed, 0x1d, 0xeb, 0xfa, 0x3c,
  0xf3, 0xf0, 0xfd, 0xd8, 0x19, 0xf3, 0xe4, 0xeb, 0x39, 0xe6, 0x26, 0xfb,
  0x12, 0x12, 0xe4, 0x3f, 0x09, 0x0c, 0x05, 0xd5, 0xed, 0xe9, 0xe4, 0xef,
  0x2e, 0xf3, 0x2a, 0xf7, 0x11, 0xfc, 0xea, 0x45, 0x20, 0x09, 0x02, 0xac,
  0x19, 0xfc, 0xcd, 0xee, 0x29, 0x03, 0x02, 0xfb, 0xf5, 0x09, 0xd8, 0x37,
  0x1c, 0xf6, 0x05, 0xd6, 0x00, 0xd4, 0xe4, 0xda, 0x35, 0xef, 0x29, 0xff,
  0x15, 0x1a, 0xe3, 0x37, 0x0e, 0x19, 0x12, 0xad, 0x00, 0x07, 0xd4, 0xf3,
  0x2c, 0xf7, 0xfd, 0xfe, 0x16, 0xf9, 0xd8, 0x29, 0xfd, 0x11, 0xd6, 0xcb,
  0xee, 0xfd, 0xda, 0x02, 0x2c, 0xf6, 0x22, 0xe4, 0xec, 0xfd, 0xef, 0x41,
  0xf5, 0x07, 0x0e, 0xb0, 0xf9, 0xe5, 0xe2, 0x0b, 0x3e, 0xf9, 0x31, 0xf1,
  0x17, 0xf6, 0x01, 0x47, 0x1f, 0xea, 0x08, 0xe4, 0xee, 0x12, 0xe2, 0xe0,
  0x32, 0xf8, 0x12, 0xe0, 0x0d, 0xf5, 0x06, 0x51, 0x12, 0xe4, 0x1a, 0xc4,
  0x42, 0xf0, 0xff, 0xff, 0x04, 0x00, 0x00, 0x00, 0x10, 0x00, 0x00, 0x00,
  0x3f, 0xe5, 0x80, 0x5c, 0x01, 0x2c, 0x38, 0x57, 0x6b, 0xdd, 0x73, 0x1a,
  0x33, 0x36, 0x0b, 0x51, 0x5e, 0xf0, 0xff, 0xff, 0x04, 0x00, 0x00, 0x00,
  0x10, 0x00, 0x00, 0x00, 0xa8, 0x9d, 0x90, 0xc7, 0x93, 0x9e, 0xa6, 0xa6,
  0x7f, 0x9f, 0xcf, 0xa3, 0x8e, 0x91, 0x84, 0xfa, 0x7a, 0xf0, 0xff, 0xff,
  0x04, 0x00, 0x00, 0x00, 0x40, 0x00, 0x00, 0x00, 0x0f, 0xba, 0x08, 0xf4,
  0x5b, 0xe2, 0x17, 0x29, 0xf6, 0xc6, 0xfc, 0x6a, 0x03, 0x7f, 0x99, 0x8c,
  0x9e, 0x81, 0x17, 0x05, 0xab, 0x15, 0x64, 0x97, 0x09, 0x2f, 0x41, 0xa0,
  0x1d, 0x4e, 0xac, 0x54, 0x43, 0x0a, 0x6c, 0x61, 0x65, 0x8a, 0x5e, 0x7f,
  0x26, 0xd1, 0x9e, 0x52, 0xc0, 0xf2, 0x1b, 0x5e, 0xb5, 0x49, 0xb2, 0xda,
  0xe0, 0x0a, 0xd9, 0x10, 0x3b, 0x3b, 0xf3, 0xe8, 0x81, 0x2e, 0xf8, 0xb7,
  0xc6, 0xf0, 0xff, 0xff, 0x04, 0x00, 0x00, 0x00, 0x1c, 0x00, 0x00, 0x00,
  0x9c, 0x0b, 0x35, 0x8a, 0xed, 0x0a, 0x81, 0x2b, 0xd8, 0x7f, 0x01, 0x78,
  0xde, 0x24, 0xbb, 0x47, 0x81, 0x41, 0x29, 0xb7, 0xbf, 0x23, 0x27, 0x51,
  0x17, 0x0d, 0x81, 0x3b, 0xee, 0xf0, 0xff, 0xff, 0x04, 0x00, 0x00, 0x00,
  0x38, 0x00, 0x00, 0x00, 0xf6, 0xf3, 0x38, 0xe9, 0xdc, 0x60, 0xfe, 0x38,
  0x02, 0x22, 0x7f, 0xd9, 0x0e, 0x7b, 0x09, 0x15, 0x2d, 0x7f, 0xd7, 0x0b,
  0x3c, 0x19, 0xfb, 0xdc, 0xc5, 0x9a, 0x1a, 0x46, 0xf3, 0x3d, 0x01, 0xeb,
  0x70, 0x5e, 0x6e, 0xf8, 0xe0, 0x10, 0xb8, 0x8d, 0x81, 0xcd, 0x1b, 0x16,
  0x7c, 0xd6, 0x0d, 0x27, 0x40, 0x03, 0x19, 0xe1, 0x81, 0x0b, 0xac, 0x1e,
  0x32, 0xf1, 0xff, 0xff, 0x04, 0x00, 0x00, 0x00, 0x70, 0x00, 0x00, 0x00,
  0x26, 0x51, 0x14, 0x22, 0x8d, 0xf7, 0x81, 0x4f, 0xaf, 0x2a, 0x74, 0x2d,
  0xfb, 0xf9, 0xbb, 0x4e, 0xb6, 0x24, 0xbc, 0xe2, 0x75, 0xba, 0x03, 0xe2,
  0x3e, 0x39, 0x27, 0x17, 0x0f, 0x2b, 0x1f, 0x55, 0x0c, 0xd3, 0xec, 0x9f,
  0x20, 0x0c, 0x0b, 0x13, 0x57, 0x57, 0xe8, 0x0d, 0xec, 0x2f, 0x81, 0x20,
  0x70, 0x19, 0x57, 0x0c, 0xfd, 0x16, 0x03, 0xff, 0x23, 0x1e, 0x06, 0x45,
  0x33, 0x5a, 0x42, 0x32, 0x2e, 0x36, 0x2a, 0xf9, 0x62, 0x56, 0x19, 0x07,
  0x1b, 0x7f, 0x43, 0x3f, 0x19, 0x09, 0x25, 0x16, 0x1d, 0x23, 0x32, 0x4d,
  0x1d, 0xb1, 0x1f, 0x18, 0x05, 0xcc, 0xcf, 0x15, 0x44, 0x0c, 0x1a, 0x9e,
  0x93, 0x2d, 0x47, 0x52, 0x82, 0x26, 0x29, 0x18, 0xcc, 0xde, 0x81, 0xe5,
  0xec, 0xf5, 0x64, 0x09, 0xae, 0xf1, 0xff, 0xff, 0x04, 0x00, 0x00, 0x00,
  0x10, 0x00, 0x00, 0x00, 0xaf, 0x40, 0x3d, 0xbf, 0x51, 0xb7, 0x1a, 0x69,
  0x52, 0x79, 0x0c, 0xc1, 0x0e, 0xa1, 0x7f, 0xb3, 0xca, 0xf1, 0xff, 0xff,
  0x04, 0x00, 0x00, 0x00, 0x10, 0x00, 0x00, 0x00, 0xcc, 0x37, 0x49, 0xdc,
  0x51, 0xd6, 0x22, 0xe5, 0x68, 0x7f, 0x50, 0xf8, 0xf0, 0xa5, 0xb3, 0x80,
  0xe6, 0xf1, 0xff, 0xff, 0x04, 0x00, 0x00, 0x00, 0x10, 0x00, 0x00, 0x00,
  0x09, 0x21, 0xf6, 0x55, 0x7f, 0x0b, 0xfd, 0x1b, 0x34, 0x4e, 0x3a, 0x16,
  0x8e, 0x90, 0x95, 0x8b, 0x02, 0xf2, 0xff, 0xff, 0x04, 0x00, 0x00, 0x00,
  0x40, 0x00, 0x00, 0x00, 0x81, 0xa8, 0x04, 0x02, 0x20, 0x64, 0x57, 0x03,
  0xa9, 0xc4, 0x1f, 0x38, 0xc1, 0x4d, 0x0e, 0x71, 0x0d, 0x9a, 0x5f, 0x88,
  0x7f, 0xc7, 0xc5, 0xc5, 0xe4, 0x5e, 0xf8, 0x0d, 0x29, 0x8d, 0x9e, 0x4d,
  0x2f, 0xd5, 0xff, 0x19, 0x10, 0x81, 0x1f, 0x1b, 0x08, 0xbd, 0x28, 0x15,
  0xe1, 0xe2, 0x2b, 0x18, 0x7f, 0x99, 0x47, 0xd0, 0x24, 0x38, 0x27, 0xb2,
  0x67, 0xf1, 0x9e, 0xca, 0x6c, 0x05, 0x10, 0x77, 0x4e, 0xf2, 0xff, 0xff,
  0x04, 0x00, 0x00, 0x00, 0x1c, 0x00, 0x00, 0x00, 0x92, 0x7d, 0x09, 0x57,
  0xc1, 0xb3, 0x81, 0x81, 0x11, 0xf8, 0xbe, 0xbe, 0x2b, 0xed, 0x01, 0x6f,
  0xc2, 0xe5, 0x06, 0x81, 0x14, 0xe0, 0xa9, 0x71, 0x7f, 0xe4, 0x36, 0x2c,
  0x76, 0xf2, 0xff, 0xff, 0x04, 0x00, 0x00, 0x00, 0x38, 0x00, 0x00, 0x00,
  0x35, 0x14, 0x06, 0xc0, 0xa6, 0xc8, 0x00, 0x2e, 0x81, 0xec, 0xe7, 0xc7,
  0xcb, 0xfc, 0x0b, 0x58, 0x7f, 0xaa, 0xda, 0xff, 0xfd, 0xe5, 0x25, 0xcc,
  0x20, 0x67, 0x6f, 0xd1, 0xff, 0x01, 0x9a, 0x1f, 0x4d, 0x7f, 0x36, 0xdd,
  0x5e, 0xec, 0xb3, 0xee, 0x26, 0x13, 0xc3, 0x21, 0x73, 0xf6, 0x27, 0x0a,
  0xe4, 0x60, 0x7f, 0xa0, 0x71, 0x35, 0xe9, 0x65, 0xba, 0xf2, 0xff, 0xff,
  0x04, 0x00, 0x00, 0x00, 0x70, 0x00, 0x00, 0x00, 0x5a, 0xe1, 0x1b, 0x0a,
  0xfc, 0x2e, 0x0e, 0xe4, 0x07, 0x58, 0xf9, 0x7f, 0x47, 0xb9, 0x54, 0xf7,
  0x10, 0x34, 0x0b, 0xca, 0x57, 0xc8, 0x21, 0xf5, 0x1f, 0xfc, 0x31, 0xb2,
  0xe0, 0x50, 0x4c, 0x44, 0x31, 0x15, 0x17, 0x81, 0x6f, 0xae, 0xa1, 0x1a,
  0xdb, 0xbc, 0x19, 0x18, 0x13, 0x12, 0x88, 0x24, 0xe9, 0x3f, 0xfa, 0xfb,
  0x05, 0x3d, 0x09, 0xda, 0x22, 0x0b, 0xf9, 0x24, 0xdf, 0xf8, 0xcc, 0xf9,
  0x41, 0x7f, 0x25, 0x12, 0x36, 0x11, 0xde, 0xd0, 0x09, 0x14, 0xdd, 0x0e,
  0xf6, 0xf6, 0x14, 0x2a, 0x18, 0xe7, 0x2d, 0x11, 0xe0, 0x31, 0x50, 0x3a,
  0xf9, 0xf7, 0x20, 0x1e, 0xea, 0x15, 0x3d, 0xe8, 0xe6, 0xc3, 0xe6, 0x5a,
  0xdc, 0xfd, 0x02, 0x12, 0xfa, 0x05, 0x17, 0x1d, 0xc3, 0x81, 0xe6, 0xe3,
  0x36, 0xf3, 0xff, 0xff, 0x04, 0x00, 0x00, 0x00, 0x10, 0x00, 0x00, 0x00,
  0xc4, 0x17, 0x18, 0xaf, 0xc4, 0xfc, 0x06, 0x85, 0x32, 0xe6, 0x81, 0xff,
  0x25, 0x38, 0xb6, 0xa6, 0x52, 0xf3, 0xff, 0xff, 0x04, 0x00, 0x00, 0x00,
  0x10, 0x00, 0x00, 0x00, 0xfe, 0xfe, 0x52, 0x1f, 0xea, 0xbb, 0x39, 0x1a,
  0x6f, 0x25, 0x33, 0xe8, 0xed, 0x80, 0xce, 0xb7, 0x6e, 0xf3, 0xff, 0xff,
  0x04, 0x00, 0x00, 0x00, 0x10, 0x00, 0x00, 0x00, 0xb5, 0xb4, 0xca, 0xdc,
  0xc5, 0x9d, 0xce, 0x05, 0x7f, 0xa8, 0xc3, 0xbe, 0x98, 0x92, 0xa1, 0x94,
  0x8a, 0xf3, 0xff, 0xff, 0x04, 0x00, 0x00, 0x00, 0x18, 0x00, 0x00, 0x00,
  0x3b, 0x54, 0xe5, 0xf6, 0xba, 0x7f, 0x99, 0x00, 0xa5, 0x7f, 0x4f, 0x69,
  0x81, 0xfb, 0x62, 0x1d, 0x00, 0x04, 0x53, 0x81, 0x4b, 0x2c, 0x0c, 0x03,
  0xae, 0xf3, 0xff, 0xff, 0x04, 0x00, 0x00, 0x00, 0x40, 0x00, 0x00, 0x00,
  0xf4, 0xff, 0xff, 0xff, 0xbe, 0xfd, 0xff, 0xff, 0x8a, 0x02, 0x00, 0x00,
  0x65, 0x00, 0x00, 0x00, 0x6a, 0xff, 0xff, 0xff, 0x55, 0xff, 0xff, 0xff,
  0xa0, 0x00, 0x00, 0x00, 0xb8, 0xff, 0xff, 0xff, 0xae, 0xff, 0xff, 0xff,
  0xf9, 0xfe, 0xff, 0xff, 0x38, 0x00, 0x00, 0x00, 0x8c, 0xff, 0xff, 0xff,
  0x7a, 0xff, 0xff, 0xff, 0x3b, 0x00, 0x00, 0x00, 0x52, 0x05, 0x00, 0x00,
  0x58, 0x01, 0x00, 0x00, 0xfa, 0xf3, 0xff, 0xff, 0x04, 0x00, 0x00, 0x00,
  0x60, 0x00, 0x00, 0x00, 0xcf, 0x81, 0x56, 0x2c, 0x26, 0x23, 0x7f, 0x41,
  0xc2, 0x8a, 0xdb, 0x2a, 0x19, 0x43, 0x81, 0xf1, 0xf6, 0x19, 0x7f, 0x13,
  0x36, 0xd5, 0x0c, 0x5b, 0x17, 0x06, 0xda, 0xa0, 0x81, 0x26, 0xc4, 0xf4,
  0xef, 0x81, 0xe1, 0xbe, 0xf4, 0x81, 0xce, 0x09, 0x3c, 0xe5, 0x81, 0xf7,
  0x09, 0x67, 0x1a, 0x36, 0x20, 0x41, 0xe8, 0x39, 0x7f, 0x2c, 0x3d, 0xd9,
  0x7f, 0xdd, 0x0b, 0xcc, 0xeb, 0x40, 0x81, 0xf3, 0xf1, 0xe9, 0xf9, 0x7f,
  0x3a, 0x26, 0x35, 0x46, 0xeb, 0x7f, 0x07, 0x17, 0xf5, 0xdc, 0xcc, 0xcd,
  0x0c, 0x81, 0xe3, 0xbd, 0x0e, 0xd4, 0x81, 0xf6, 0x6a, 0x4f, 0x81, 0x1d,
  0xde, 0x46, 0xfb, 0x91, 0x66, 0xf4, 0xff, 0xff, 0x04, 0x00, 0x00, 0x00,
  0x1c, 0x00, 0x00, 0x00, 0x47, 0x81, 0xfe, 0xc7, 0xd2, 0xd5, 0xf1, 0x7f,
  0xf1, 0x86, 0x3d, 0x10, 0x1d, 0x0e, 0x58, 0x81, 0x5f, 0xb0, 0x0e, 0xf1,
  0xf2, 0xf5, 0x81, 0x1a, 0xef, 0xe1, 0x53, 0x1d, 0x8e, 0xf4, 0xff, 0xff,
  0x04, 0x00, 0x00, 0x00, 0x38, 0x00, 0x00, 0x00, 0x09, 0x0b, 0x3e, 0xd2,
  0x7f, 0x1f, 0xa3, 0xbd, 0xed, 0xb2, 0x59, 0x07, 0xf5, 0xdb, 0x81, 0xfe,
  0x48, 0x36, 0x70, 0x52, 0x3d, 0x55, 0x67, 0x60, 0x63, 0xed, 0xfb, 0xe8,
  0x1b, 0x1b, 0x46, 0xba, 0x7f, 0x13, 0xdf, 0xf6, 0xcd, 0xe5, 0xca, 0xb9,
  0xfa, 0xf5, 0x78, 0x46, 0xc2, 0xb7, 0x97, 0x06, 0xec, 0xb0, 0x3a, 0x81,
  0x0d, 0x11, 0x4c, 0x2c, 0xd2, 0xf4, 0xff, 0xff, 0x04, 0x00, 0x00, 0x00,
  0x10, 0x00, 0x00, 0x00, 0x00, 0x00, 0x00, 0x00, 0x00, 0x00, 0x00, 0x00,
  0x00, 0x00, 0x00, 0x00, 0x00, 0x00, 0x00, 0x00, 0xee, 0xf4, 0xff, 0xff,
  0x04, 0x00, 0x00, 0x00, 0x10, 0x00, 0x00, 0x00, 0x00, 0x00, 0x00, 0x00,
  0x00, 0x00, 0x00, 0x00, 0x00, 0x00, 0x00, 0x00, 0x00, 0x00, 0x00, 0x00,
  0x0a, 0xf5, 0xff, 0xff, 0x04, 0x00, 0x00, 0x00, 0x10, 0x00, 0x00, 0x00,
  0x00, 0x00, 0x00, 0x00, 0x00, 0x00, 0x00, 0x00, 0x00, 0x00, 0x00, 0x00,
  0x00, 0x00, 0x00, 0x00, 0x26, 0xf5, 0xff, 0xff, 0x04, 0x00, 0x00, 0x00,
  0x10, 0x00, 0x00, 0x00, 0x00, 0x00, 0x00, 0x00, 0x00, 0x00, 0x00, 0x00,
  0x00, 0x00, 0x00, 0x00, 0x00, 0x00, 0x00, 0x00, 0x42, 0xf5, 0xff, 0xff,
  0x04, 0x00, 0x00, 0x00, 0x10, 0x00, 0x00, 0x00, 0x00, 0x00, 0x00, 0x00,
  0x00, 0x00, 0x00, 0x00, 0x00, 0x00, 0x00, 0x00, 0x00, 0x00, 0x00, 0x00,
  0x5e, 0xf5, 0xff, 0xff, 0x04, 0x00, 0x00, 0x00, 0x10, 0x00, 0x00, 0x00,
  0x00, 0x00, 0x00, 0x00, 0x00, 0x00, 0x00, 0x00, 0x00, 0x00, 0x00, 0x00,
  0x00, 0x00, 0x00, 0x00, 0x7a, 0xf5, 0xff, 0xff, 0x04, 0x00, 0x00, 0x00,
  0x10, 0x00, 0x00, 0x00, 0x00, 0x00, 0x00, 0x00, 0x00, 0x00, 0x00, 0x00,
  0x00, 0x00, 0x00, 0x00, 0x00, 0x00, 0x00, 0x00, 0x96, 0xf5, 0xff, 0xff,
  0x04, 0x00, 0x00, 0x00, 0x10, 0x00, 0x00, 0x00, 0x00, 0x00, 0x00, 0x00,
  0x00, 0x00, 0x00, 0x00, 0x00, 0x00, 0x00, 0x00, 0x00, 0x00, 0x00, 0x00,
  0xb2, 0xf5, 0xff, 0xff, 0x04, 0x00, 0x00, 0x00, 0x10, 0x00, 0x00, 0x00,
  0x00, 0x00, 0x00, 0x00, 0x00, 0x00, 0x00, 0x00, 0x00, 0x00, 0x00, 0x00,
  0x00, 0x00, 0x00, 0x00, 0xce, 0xf5, 0xff, 0xff, 0x04, 0x00, 0x00, 0x00,
  0x10, 0x00, 0x00, 0x00, 0x00, 0x00, 0x00, 0x00, 0x00, 0x00, 0x00, 0x00,
  0x00, 0x00, 0x00, 0x00, 0x00, 0x00, 0x00, 0x00, 0xea, 0xf5, 0xff, 0xff,
  0x04, 0x00, 0x00, 0x00, 0x10, 0x00, 0x00, 0x00, 0x00, 0x00, 0x00, 0x00,
  0x00, 0x00, 0x00, 0x00, 0x00, 0x00, 0x00, 0x00, 0x00, 0x00, 0x00, 0x00,
  0x06, 0xf6, 0xff, 0xff, 0x04, 0x00, 0x00, 0x00, 0x10, 0x00, 0x00, 0x00,
  0x00, 0x00, 0x00, 0x00, 0x00, 0x00, 0x00, 0x00, 0x00, 0x00, 0x00, 0x00,
  0x00, 0x00, 0x00, 0x00, 0x22, 0xf6, 0xff, 0xff, 0x04, 0x00, 0x00, 0x00,
  0x70, 0x00, 0x00, 0x00, 0x93, 0x5f, 0xd9, 0xb1, 0xfe, 0x39, 0xed, 0xf4,
  0xe3, 0x15, 0x81, 0xf1, 0xb8, 0xdc, 0x3c, 0x2f, 0x0e, 0x2c, 0x2f, 0x33,
  0x0f, 0x2c, 0x05, 0x04, 0x07, 0x1a, 0x09, 0xf3, 0xff, 0x4f, 0x06, 0x0c,
  0x47, 0x6f, 0xdc, 0xea, 0x65, 0x12, 0x00, 0x57, 0xc7, 0x38, 0x81, 0x21,
  0x03, 0x9f, 0xe3, 0x13, 0xb0, 0x3a, 0xd9, 0x04, 0xea, 0xf8, 0x1a, 0xf5,
  0x29, 0xf4, 0x26, 0xf4, 0xd5, 0x3e, 0x15, 0x51, 0xa1, 0x19, 0xb7, 0xcc,
  0xd5, 0x62, 0x81, 0xd8, 0x71, 0x71, 0xef, 0xb2, 0xc3, 0xac, 0x58, 0xda,
  0xf8, 0x1e, 0xe9, 0xdd, 0x29, 0x0e, 0xc2, 0x7c, 0x92, 0x25, 0xfb, 0xeb,
  0x21, 0x81, 0x23, 0x63, 0x04, 0x64, 0xb1, 0xb6, 0x92, 0xb8, 0x88, 0x1e,
  0xc4, 0x1a, 0x41, 0xe9, 0x2e, 0x21, 0xfa, 0x47, 0x9e, 0xf6, 0xff, 0xff,
  0x04, 0x00, 0x00, 0x00, 0x04, 0x00, 0x00, 0x00, 0x00, 0x00, 0x00, 0x00,
  0xae, 0xf6, 0xff, 0xff, 0x04, 0x00, 0x00, 0x00, 0x04, 0x00, 0x00, 0x00,
  0x00, 0x00, 0x00, 0x00, 0xbe, 0xf6, 0xff, 0xff, 0x04, 0x00, 0x00, 0x00,
  0x04, 0x00, 0x00, 0x00, 0x00, 0x00, 0x00, 0x00, 0xce, 0xf6, 0xff, 0xff,
  0x04, 0x00, 0x00, 0x00, 0x06, 0x00, 0x00, 0x00, 0x15, 0xea, 0x8b, 0x81,
  0x01, 0x64, 0x00, 0x00, 0xe2, 0xf6, 0xff, 0xff, 0x04, 0x00, 0x00, 0x00,
  0x08, 0x00, 0x00, 0x00, 0xff, 0xff, 0xff, 0xff, 0xe0, 0x01, 0x00, 0x00,
  0xf6, 0xf6, 0xff, 0xff, 0x04, 0x00, 0x00, 0x00, 0x10, 0x00, 0x00, 0x00,
  0x01, 0x00, 0x00, 0x00, 0x1e, 0x00, 0x00, 0x00, 0x01, 0x00, 0x00, 0x00,
  0x10, 0x00, 0x00, 0x00, 0x12, 0xf7, 0xff, 0xff, 0x04, 0x00, 0x00, 0x00,
  0x10, 0x00, 0x00, 0x00, 0x01, 0x00, 0x00, 0x00, 0x01, 0x00, 0x00, 0x00,
  0x1e, 0x00, 0x00, 0x00, 0x10, 0x00, 0x00, 0x00, 0x2e, 0xf7, 0xff, 0xff,
  0x04, 0x00, 0x00, 0x00, 0x10, 0x00, 0x00, 0x00, 0x01, 0x00, 0x00, 0x00,
  0x1e, 0x00, 0x00, 0x00, 0x01, 0x00, 0x00, 0x00, 0x06, 0x00, 0x00, 0x00,
  0x4a, 0xf7, 0xff, 0xff, 0x04, 0x00, 0x00, 0x00, 0x0c, 0x00, 0x00, 0x00,
  0x01, 0x00, 0x00, 0x00, 0x1e, 0x00, 0x00, 0x00, 0x10, 0x00, 0x00, 0x00,
  0x62, 0xf7, 0xff, 0xff, 0x04, 0x00, 0x00, 0x00, 0x0c, 0x00, 0x00, 0x00,
  0x01, 0x00, 0x00, 0x00, 0x1e, 0x00, 0x00, 0x00, 0x04, 0x00, 0x00, 0x00,
  0x7a, 0xf7, 0xff, 0xff, 0x04, 0x00, 0x00, 0x00, 0x10, 0x00, 0x00, 0x00,
  0x01, 0x00, 0x00, 0x00, 0x01, 0x00, 0x00, 0x00, 0x1e, 0x00, 0x00, 0x00,
  0x06, 0x00, 0x00, 0x00, 0x60, 0xbe, 0xff, 0xff, 0x64, 0xbe, 0xff, 0xff,
  0x0f, 0x00, 0x00, 0x00, 0x4d, 0x4c, 0x49, 0x52, 0x20, 0x43, 0x6f, 0x6e,
  0x76, 0x65, 0x72, 0x74, 0x65, 0x64, 0x2e, 0x00, 0x01, 0x00, 0x00, 0x00,
  0x14, 0x00, 0x00, 0x00, 0x00, 0x00, 0x0e, 0x00, 0x18, 0x00, 0x14, 0x00,
  0x10, 0x00, 0x0c, 0x00, 0x08, 0x00, 0x04, 0x00, 0x0e, 0x00, 0x00, 0x00,
  0x14, 0x00, 0x00, 0x00, 0x1c, 0x00, 0x00, 0x00, 0x44, 0x0b, 0x00, 0x00,
  0x48, 0x0b, 0x00, 0x00, 0x4c, 0x0b, 0x00, 0x00, 0x04, 0x00, 0x00, 0x00,
  0x6d, 0x61, 0x69, 0x6e, 0x00, 0x00, 0x00, 0x00, 0x36, 0x00, 0x00, 0x00,
  0x08, 0x0b, 0x00, 0x00, 0xac, 0x0a, 0x00, 0x00, 0x58, 0x0a, 0x00, 0x00,
  0x34, 0x0a, 0x00, 0x00, 0xf0, 0x09, 0x00, 0x00, 0xcc, 0x09, 0x00, 0x00,
  0x88, 0x09, 0x00, 0x00, 0x64, 0x09, 0x00, 0x00, 0x24, 0x09, 0x00, 0x00,
  0x00, 0x09, 0x00, 0x00, 0xdc, 0x08, 0x00, 0x00, 0x8c, 0x08, 0x00, 0x00,
  0x68, 0x08, 0x00, 0x00, 0x24, 0x08, 0x00, 0x00, 0x00, 0x08, 0x00, 0x00,
  0xb8, 0x07, 0x00, 0x00, 0x84, 0x07, 0x00, 0x00, 0x44, 0x07, 0x00, 0x00,
  0x20, 0x07, 0x00, 0x00, 0xdc, 0x06, 0x00, 0x00, 0x98, 0x06, 0x00, 0x00,
  0x74, 0x06, 0x00, 0x00, 0x30, 0x06, 0x00, 0x00, 0x0c, 0x06, 0x00, 0x00,
  0xc8, 0x05, 0x00, 0x00, 0xa4, 0x05, 0x00, 0x00, 0x80, 0x05, 0x00, 0x00,
  0x40, 0x05, 0x00, 0x00, 0x1c, 0x05, 0x00, 0x00, 0xd8, 0x04, 0x00, 0x00,
  0xb4, 0x04, 0x00, 0x00, 0x74, 0x04, 0x00, 0x00, 0x40, 0x04, 0x00, 0x00,
  0x08, 0x04, 0x00, 0x00, 0xe4, 0x03, 0x00, 0x00, 0xa0, 0x03, 0x00, 0x00,
  0x5c, 0x03, 0x00, 0x00, 0x38, 0x03, 0x00, 0x00, 0xf4, 0x02, 0x00, 0x00,
  0xd0, 0x02, 0x00, 0x00, 0x8c, 0x02, 0x00, 0x00, 0x68, 0x02, 0x00, 0x00,
  0x44, 0x02, 0x00, 0x00, 0x04, 0x02, 0x00, 0x00, 0xe0, 0x01, 0x00, 0x00,
  0x9c, 0x01, 0x00, 0x00, 0x78, 0x01, 0x00, 0x00, 0x38, 0x01, 0x00, 0x00,
  0x04, 0x01, 0x00, 0x00, 0xcc, 0x00, 0x00, 0x00, 0x94, 0x00, 0x00, 0x00,
  0x70, 0x00, 0x00, 0x00, 0x38, 0x00, 0x00, 0x00, 0x04, 0x00, 0x00, 0x00,
  0x36, 0xf6, 0xff, 0xff, 0x14, 0x00, 0x00, 0x00, 0x00, 0x00, 0x00, 0x09,
  0x14, 0x00, 0x00, 0x00, 0x18, 0x00, 0x00, 0x00, 0x07, 0x00, 0x00, 0x00,
  0xe2, 0xf8, 0xff, 0xff, 0x00, 0x00, 0x80, 0x3f, 0x01, 0x00, 0x00, 0x00,
  0x65, 0x00, 0x00, 0x00, 0x01, 0x00, 0x00, 0x00, 0x64, 0x00, 0x00, 0x00,
  0x66, 0xf6, 0xff, 0xff, 0x14, 0x00, 0x00, 0x00, 0x00, 0x00, 0x00, 0x08,
  0x10, 0x00, 0x00, 0x00, 0x14, 0x00, 0x00, 0x00, 0x06, 0x00, 0x00, 0x00,
  0xdc, 0xbf, 0xff, 0xff, 0x01, 0x00, 0x00, 0x00, 0x64, 0x00, 0x00, 0x00,
  0x03, 0x00, 0x00, 0x00, 0x63, 0x00, 0x00, 0x00, 0x2e, 0x00, 0x00, 0x00,
  0x2f, 0x00, 0x00, 0x00, 0x3e, 0xf6, 0xff, 0xff, 0x08, 0x00, 0x00, 0x00,
  0x0c, 0x00, 0x00, 0x00, 0x01, 0x00, 0x00, 0x00, 0x63, 0x00, 0x00, 0x00,
  0x02, 0x00, 0x00, 0x00, 0x62, 0x00, 0x00, 0x00, 0x07, 0x00, 0x00, 0x00,
  0xba, 0xf6, 0xff, 0xff, 0x14, 0x00, 0x00, 0x00, 0x00, 0x00, 0x00, 0x0b,
  0x14, 0x00, 0x00, 0x00, 0x18, 0x00, 0x00, 0x00, 0x05, 0x00, 0x00, 0x00,
  0xd2, 0xf9, 0xff, 0xff, 0x00, 0x00, 0x00, 0x01, 0x01, 0x00, 0x00, 0x00,
  0x62, 0x00, 0x00, 0x00, 0x02, 0x00, 0x00, 0x00, 0x39, 0x00, 0x00, 0x00,
  0x61, 0x00, 0x00, 0x00, 0xee, 0xf6, 0xff, 0xff, 0x14, 0x00, 0x00, 0x00,
  0x00, 0x00, 0x00, 0x0b, 0x14, 0x00, 0x00, 0x00, 0x18, 0x00, 0x00, 0x00,
  0x05, 0x00, 0x00, 0x00, 0x06, 0xfa, 0xff, 0xff, 0x00, 0x00, 0x00, 0x01,
  0x01, 0x00, 0x00, 0x00, 0x61, 0x00, 0x00, 0x00, 0x02, 0x00, 0x00, 0x00,
  0x60, 0x00, 0x00, 0x00, 0x2d, 0x00, 0x00, 0x00, 0x22, 0xf7, 0xff, 0xff,
  0x14, 0x00, 0x00, 0x00, 0x00, 0x00, 0x00, 0x15, 0x10, 0x00, 0x00, 0x00,
  0x14, 0x00, 0x00, 0x00, 0x04, 0x00, 0x00, 0x00, 0x98, 0xc0, 0xff, 0xff,
  0x01, 0x00, 0x00, 0x00, 0x60, 0x00, 0x00, 0x00, 0x02, 0x00, 0x00, 0x00,
  0x5f, 0x00, 0x00, 0x00, 0x2c, 0x00, 0x00, 0x00, 0x52, 0xf7, 0xff, 0xff,
  0x14, 0x00, 0x00, 0x00, 0x00, 0x00, 0x00, 0x0a, 0x14, 0x00, 0x00, 0x00,
  0x18, 0x00, 0x00, 0x00, 0x03, 0x00, 0x00, 0x00, 0xfe, 0xf9, 0xff, 0xff,
  0x02, 0x00, 0x00, 0x00, 0x01, 0x00, 0x00, 0x00, 0x5f, 0x00, 0x00, 0x00,
  0x04, 0x00, 0x00, 0x00, 0x55, 0x00, 0x00, 0x00, 0x57, 0x00, 0x00, 0x00,
  0x59, 0x00, 0x00, 0x00, 0x5e, 0x00, 0x00, 0x00, 0x32, 0xf7, 0xff, 0xff,
  0x08, 0x00, 0x00, 0x00, 0x0c, 0x00, 0x00, 0x00, 0x01, 0x00, 0x00, 0x00,
  0x5e, 0x00, 0x00, 0x00, 0x02, 0x00, 0x00, 0x00, 0x5d, 0x00, 0x00, 0x00,
  0x02, 0x00, 0x00, 0x00, 0xae, 0xf7, 0xff, 0xff, 0x14, 0x00, 0x00, 0x00,
  0x00, 0x00, 0x00, 0x01, 0x1c, 0x00, 0x00, 0x00, 0x20, 0x00, 0x00, 0x00,
  0x01, 0x00, 0x00, 0x00, 0xa0, 0xf7, 0xff, 0xff, 0x00, 0x00, 0x00, 0x01,
  0x01, 0x00, 0x00, 0x00, 0x01, 0x00, 0x00, 0x00, 0x01, 0x00, 0x00, 0x00,
  0x5d, 0x00, 0x00, 0x00, 0x03, 0x00, 0x00, 0x00, 0x5c, 0x00, 0x00, 0x00,
  0x2b, 0x00, 0x00, 0x00, 0x18, 0x00, 0x00, 0x00, 0x92, 0xf7, 0xff, 0xff,
  0x08, 0x00, 0x00, 0x00, 0x0c, 0x00, 0x00, 0x00, 0x01, 0x00, 0x00, 0x00,
  0x5c, 0x00, 0x00, 0x00, 0x02, 0x00, 0x00, 0x00, 0x5b, 0x00, 0x00, 0x00,
  0x05, 0x00, 0x00, 0x00, 0x0e, 0xf8, 0xff, 0xff, 0x14, 0x00, 0x00, 0x00,
  0x00, 0x00, 0x00, 0x05, 0x20, 0x00, 0x00, 0x00, 0x24, 0x00, 0x00, 0x00,
  0x02, 0x00, 0x00, 0x00, 0xf6, 0xf9, 0xff, 0xff, 0x03, 0x00, 0x00, 0x00,
  0x01, 0x00, 0x00, 0x00, 0x01, 0x00, 0x00, 0x00, 0x01, 0x00, 0x00, 0x00,
  0x01, 0x00, 0x00, 0x00, 0x5b, 0x00, 0x00, 0x00, 0x01, 0x00, 0x00, 0x00,
  0x5a, 0x00, 0x00, 0x00, 0xee, 0xf7, 0xff, 0xff, 0x08, 0x00, 0x00, 0x00,
  0x0c, 0x00, 0x00, 0x00, 0x01, 0x00, 0x00, 0x00, 0x5a, 0x00, 0x00, 0x00,
  0x02, 0x00, 0x00, 0x00, 0x51, 0x00, 0x00, 0x00, 0x06, 0x00, 0x00, 0x00,
  0x0e, 0xf8, 0xff, 0xff, 0x08, 0x00, 0x00, 0x00, 0x0c, 0x00, 0x00, 0x00,
  0x01, 0x00, 0x00, 0x00, 0x59, 0x00, 0x00, 0x00, 0x02, 0x00, 0x00, 0x00,
  0x58, 0x00, 0x00, 0x00, 0x02, 0x00, 0x00, 0x00, 0x8a, 0xf8, 0xff, 0xff,
  0x14, 0x00, 0x00, 0x00, 0x00, 0x00, 0x00, 0x01, 0x1c, 0x00, 0x00, 0x00,
  0x20, 0x00, 0x00, 0x00, 0x01, 0x00, 0x00, 0x00, 0x7c, 0xf8, 0xff, 0xff,
  0x00, 0x00, 0x00, 0x01, 0x01, 0x00, 0x00, 0x00, 0x01, 0x00, 0x00, 0x00,
  0x01, 0x00, 0x00, 0x00, 0x58, 0x00, 0x00, 0x00, 0x03, 0x00, 0x00, 0x00,
  0x53, 0x00, 0x00, 0x00, 0x2a, 0x00, 0x00, 0x00, 0x17, 0x00, 0x00, 0x00,
  0x6e, 0xf8, 0xff, 0xff, 0x08, 0x00, 0x00, 0x00, 0x0c, 0x00, 0x00, 0x00,
  0x01, 0x00, 0x00, 0x00, 0x57, 0x00, 0x00, 0x00, 0x02, 0x00, 0x00, 0x00,
  0x56, 0x00, 0x00, 0x00, 0x02, 0x00, 0x00, 0x00, 0xea, 0xf8, 0xff, 0xff,
  0x14, 0x00, 0x00, 0x00, 0x00, 0x00, 0x00, 0x01, 0x1c, 0x00, 0x00, 0x00,
  0x20, 0x00, 0x00, 0x00, 0x01, 0x00, 0x00, 0x00, 0xdc, 0xf8, 0xff, 0xff,
  0x00, 0x00, 0x00, 0x01, 0x01, 0x00, 0x00, 0x00, 0x01, 0x00, 0x00, 0x00,
  0x01, 0x00, 0x00, 0x00, 0x56, 0x00, 0x00, 0x00, 0x03, 0x00, 0x00, 0x00,
  0x53, 0x00, 0x00, 0x00, 0x29, 0x00, 0x00, 0x00, 0x16, 0x00, 0x00, 0x00,
  0xce, 0xf8, 0xff, 0xff, 0x08, 0x00, 0x00, 0x00, 0x0c, 0x00, 0x00, 0x00,
  0x01, 0x00, 0x00, 0x00, 0x55, 0x00, 0x00, 0x00, 0x02, 0x00, 0x00, 0x00,
  0x54, 0x00, 0x00, 0x00, 0x02, 0x00, 0x00, 0x00, 0x4a, 0xf9, 0xff, 0xff,
  0x14, 0x00, 0x00, 0x00, 0x00, 0x00, 0x00, 0x01, 0x1c, 0x00, 0x00, 0x00,
  0x20, 0x00, 0x00, 0x00, 0x01, 0x00, 0x00, 0x00, 0x3c, 0xf9, 0xff, 0xff,
  0x00, 0x00, 0x00, 0x01, 0x01, 0x00, 0x00, 0x00, 0x01, 0x00, 0x00, 0x00,
  0x01, 0x00, 0x00, 0x00, 0x54, 0x00, 0x00, 0x00, 0x03, 0x00, 0x00, 0x00,
  0x53, 0x00, 0x00, 0x00, 0x28, 0x00, 0x00, 0x00, 0x15, 0x00, 0x00, 0x00,
  0x8a, 0xf9, 0xff, 0xff, 0x14, 0x00, 0x00, 0x00, 0x00, 0x00, 0x00, 0x01,
  0x1c, 0x00, 0x00, 0x00, 0x20, 0x00, 0x00, 0x00, 0x01, 0x00, 0x00, 0x00,
  0x7c, 0xf9, 0xff, 0xff, 0x00, 0x00, 0x00, 0x01, 0x01, 0x00, 0x00, 0x00,
  0x01, 0x00, 0x00, 0x00, 0x01, 0x00, 0x00, 0x00, 0x53, 0x00, 0x00, 0x00,
  0x03, 0x00, 0x00, 0x00, 0x52, 0x00, 0x00, 0x00, 0x27, 0x00, 0x00, 0x00,
  0x0b, 0x00, 0x00, 0x00, 0x6e, 0xf9, 0xff, 0xff, 0x08, 0x00, 0x00, 0x00,
  0x0c, 0x00, 0x00, 0x00, 0x01, 0x00, 0x00, 0x00, 0x52, 0x00, 0x00, 0x00,
  0x02, 0x00, 0x00, 0x00, 0x51, 0x00, 0x00, 0x00, 0x05, 0x00, 0x00, 0x00,
  0xea, 0xf9, 0xff, 0xff, 0x14, 0x00, 0x00, 0x00, 0x00, 0x00, 0x00, 0x0b,
  0x14, 0x00, 0x00, 0x00, 0x18, 0x00, 0x00, 0x00, 0x05, 0x00, 0x00, 0x00,
  0x02, 0xfd, 0xff, 0xff, 0x00, 0x00, 0x00, 0x01, 0x01, 0x00, 0x00, 0x00,
  0x51, 0x00, 0x00, 0x00, 0x02, 0x00, 0x00, 0x00, 0x50, 0x00, 0x00, 0x00,
  0x26, 0x00, 0x00, 0x00, 0x1e, 0xfa, 0xff, 0xff, 0x14, 0x00, 0x00, 0x00,
  0x00, 0x00, 0x00, 0x15, 0x10, 0x00, 0x00, 0x00, 0x14, 0x00, 0x00, 0x00,
  0x04, 0x00, 0x00, 0x00, 0x94, 0xc3, 0xff, 0xff, 0x01, 0x00, 0x00, 0x00,
  0x50, 0x00, 0x00, 0x00, 0x02, 0x00, 0x00, 0x00, 0x4f, 0x00, 0x00, 0x00,
  0x25, 0x00, 0x00, 0x00, 0x4e, 0xfa, 0xff, 0xff, 0x14, 0x00, 0x00, 0x00,
  0x00, 0x00, 0x00, 0x0a, 0x14, 0x00, 0x00, 0x00, 0x18, 0x00, 0x00, 0x00,
  0x03, 0x00, 0x00, 0x00, 0xfa, 0xfc, 0xff, 0xff, 0x02, 0x00, 0x00, 0x00,
  0x01, 0x00, 0x00, 0x00, 0x4f, 0x00, 0x00, 0x00, 0x04, 0x00, 0x00, 0x00,
  0x45, 0x00, 0x00, 0x00, 0x47, 0x00, 0x00, 0x00, 0x49, 0x00, 0x00, 0x00,
  0x4e, 0x00, 0x00, 0x00, 0x2e, 0xfa, 0xff, 0xff, 0x08, 0x00, 0x00, 0x00,
  0x0c, 0x00, 0x00, 0x00, 0x01, 0x00, 0x00, 0x00, 0x4e, 0x00, 0x00, 0x00,
  0x02, 0x00, 0x00, 0x00, 0x4d, 0x00, 0x00, 0x00, 0x02, 0x00, 0x00, 0x00,
  0xaa, 0xfa, 0xff, 0xff, 0x14, 0x00, 0x00, 0x00, 0x00, 0x00, 0x00, 0x01,
  0x1c, 0x00, 0x00, 0x00, 0x20, 0x00, 0x00, 0x00, 0x01, 0x00, 0x00, 0x00,
  0x9c, 0xfa, 0xff, 0xff, 0x00, 0x00, 0x00, 0x01, 0x01, 0x00, 0x00, 0x00,
  0x01, 0x00, 0x00, 0x00, 0x01, 0x00, 0x00, 0x00, 0x4d, 0x00, 0x00, 0x00,
  0x03, 0x00, 0x00, 0x00, 0x4c, 0x00, 0x00, 0x00, 0x24, 0x00, 0x00, 0x00,
  0x14, 0x00, 0x00, 0x00, 0x8e, 0xfa, 0xff, 0xff, 0x08, 0x00, 0x00, 0x00,
  0x0c, 0x00, 0x00, 0x00, 0x01, 0x00, 0x00, 0x00, 0x4c, 0x00, 0x00, 0x00,
  0x02, 0x00, 0x00, 0x00, 0x4b, 0x00, 0x00, 0x00, 0x05, 0x00, 0x00, 0x00,
  0x0a, 0xfb, 0xff, 0xff, 0x14, 0x00, 0x00, 0x00, 0x00, 0x00, 0x00, 0x05,
  0x20, 0x00, 0x00, 0x00, 0x24, 0x00, 0x00, 0x00, 0x02, 0x00, 0x00, 0x00,
  0xf2, 0xfc, 0xff, 0xff, 0x03, 0x00, 0x00, 0x00, 0x01, 0x00, 0x00, 0x00,
  0x01, 0x00, 0x00, 0x00, 0x01, 0x00, 0x00, 0x00, 0x01, 0x00, 0x00, 0x00,
  0x4b, 0x00, 0x00, 0x00, 0x01, 0x00, 0x00, 0x00, 0x4a, 0x00, 0x00, 0x00,
  0xea, 0xfa, 0xff, 0xff, 0x08, 0x00, 0x00, 0x00, 0x0c, 0x00, 0x00, 0x00,
  0x01, 0x00, 0x00, 0x00, 0x4a, 0x00, 0x00, 0x00, 0x02, 0x00, 0x00, 0x00,
  0x41, 0x00, 0x00, 0x00, 0x06, 0x00, 0x00, 0x00, 0x0a, 0xfb, 0xff, 0xff,
  0x08, 0x00, 0x00, 0x00, 0x0c, 0x00, 0x00, 0x00, 0x01, 0x00, 0x00, 0x00,
  0x49, 0x00, 0x00, 0x00, 0x02, 0x00, 0x00, 0x00, 0x48, 0x00, 0x00, 0x00,
  0x02, 0x00, 0x00, 0x00, 0x86, 0xfb, 0xff, 0xff, 0x14, 0x00, 0x00, 0x00,
  0x00, 0x00, 0x00, 0x01, 0x1c, 0x00, 0x00, 0x00, 0x20, 0x00, 0x00, 0x00,
  0x01, 0x00, 0x00, 0x00, 0x78, 0xfb, 0xff, 0xff, 0x00, 0x00, 0x00, 0x01,
  0x01, 0x00, 0x00, 0x00, 0x01, 0x00, 0x00, 0x00, 0x01, 0x00, 0x00, 0x00,
  0x48, 0x00, 0x00, 0x00, 0x03, 0x00, 0x00, 0x00, 0x43, 0x00, 0x00, 0x00,
  0x23, 0x00, 0x00, 0x00, 0x13, 0x00, 0x00, 0x00, 0x6a, 0xfb, 0xff, 0xff,
  0x08, 0x00, 0x00, 0x00, 0x0c, 0x00, 0x00, 0x00, 0x01, 0x00, 0x00, 0x00,
  0x47, 0x00, 0x00, 0x00, 0x02, 0x00, 0x00, 0x00, 0x46, 0x00, 0x00, 0x00,
  0x02, 0x00, 0x00, 0x00, 0xe6, 0xfb, 0xff, 0xff, 0x14, 0x00, 0x00, 0x00,
  0x00, 0x00, 0x00, 0x01, 0x1c, 0x00, 0x00, 0x00, 0x20, 0x00, 0x00, 0x00,
  0x01, 0x00, 0x00, 0x00, 0xd8, 0xfb, 0xff, 0xff, 0x00, 0x00, 0x00, 0x01,
  0x01, 0x00, 0x00, 0x00, 0x01, 0x00, 0x00, 0x00, 0x01, 0x00, 0x00, 0x00,
  0x46, 0x00, 0x00, 0x00, 0x03, 0x00, 0x00, 0x00, 0x43, 0x00, 0x00, 0x00,
  0x22, 0x00, 0x00, 0x00, 0x12, 0x00, 0x00, 0x00, 0xca, 0xfb, 0xff, 0xff,
  0x08, 0x00, 0x00, 0x00, 0x0c, 0x00, 0x00, 0x00, 0x01, 0x00, 0x00, 0x00,
  0x45, 0x00, 0x00, 0x00, 0x02, 0x00, 0x00, 0x00, 0x44, 0x00, 0x00, 0x00,
  0x02, 0x00, 0x00, 0x00, 0x46, 0xfc, 0xff, 0xff, 0x14, 0x00, 0x00, 0x00,
  0x00, 0x00, 0x00, 0x01, 0x1c, 0x00, 0x00, 0x00, 0x20, 0x00, 0x00, 0x00,
  0x01, 0x00, 0x00, 0x00, 0x38, 0xfc, 0xff, 0xff, 0x00, 0x00, 0x00, 0x01,
  0x01, 0x00, 0x00, 0x00, 0x01, 0x00, 0x00, 0x00, 0x01, 0x00, 0x00, 0x00,
  0x44, 0x00, 0x00, 0x00, 0x03, 0x00, 0x00, 0x00, 0x43, 0x00, 0x00, 0x00,
  0x21, 0x00, 0x00, 0x00, 0x11, 0x00, 0x00, 0x00, 0x86, 0xfc, 0xff, 0xff,
  0x14, 0x00, 0x00, 0x00, 0x00, 0x00, 0x00, 0x01, 0x1c, 0x00, 0x00, 0x00,
  0x20, 0x00, 0x00, 0x00, 0x01, 0x00, 0x00, 0x00, 0x78, 0xfc, 0xff, 0xff,
  0x00, 0x00, 0x00, 0x01, 0x01, 0x00, 0x00, 0x00, 0x01, 0x00, 0x00, 0x00,
  0x01, 0x00, 0x00, 0x00, 0x43, 0x00, 0x00, 0x00, 0x03, 0x00, 0x00, 0x00,
  0x42, 0x00, 0x00, 0x00, 0x20, 0x00, 0x00, 0x00, 0x0a, 0x00, 0x00, 0x00,
  0x6a, 0xfc, 0xff, 0xff, 0x08, 0x00, 0x00, 0x00, 0x0c, 0x00, 0x00, 0x00,
  0x01, 0x00, 0x00, 0x00, 0x42, 0x00, 0x00, 0x00, 0x02, 0x00, 0x00, 0x00,
  0x41, 0x00, 0x00, 0x00, 0x05, 0x00, 0x00, 0x00, 0xe6, 0xfc, 0xff, 0xff,
  0x1c, 0x00, 0x00, 0x00, 0x00, 0x00, 0x00, 0x0b, 0x1c, 0x00, 0x00, 0x00,
  0x20, 0x00, 0x00, 0x00, 0x05, 0x00, 0x00, 0x00, 0x00, 0x00, 0x06, 0x00,
  0x08, 0x00, 0x07, 0x00, 0x06, 0x00, 0x00, 0x00, 0x00, 0x00, 0x00, 0x01,
  0x01, 0x00, 0x00, 0x00, 0x41, 0x00, 0x00, 0x00, 0x02, 0x00, 0x00, 0x00,
  0x40, 0x00, 0x00, 0x00, 0x1f, 0x00, 0x00, 0x00, 0x22, 0xfd, 0xff, 0xff,
  0x14, 0x00, 0x00, 0x00, 0x00, 0x00, 0x00, 0x15, 0x10, 0x00, 0x00, 0x00,
  0x14, 0x00, 0x00, 0x00, 0x04, 0x00, 0x00, 0x00, 0x98, 0xc6, 0xff, 0xff,
  0x01, 0x00, 0x00, 0x00, 0x40, 0x00, 0x00, 0x00, 0x02, 0x00, 0x00, 0x00,
  0x3f, 0x00, 0x00, 0x00, 0x1e, 0x00, 0x00, 0x00, 0x52, 0xfd, 0xff, 0xff,
  0x1c, 0x00, 0x00, 0x00, 0x00, 0x00, 0x00, 0x0a, 0x1c, 0x00, 0x00, 0x00,
  0x20, 0x00, 0x00, 0x00, 0x03, 0x00, 0x00, 0x00, 0x00, 0x00, 0x06, 0x00,
  0x08, 0x00, 0x04, 0x00, 0x06, 0x00, 0x00, 0x00, 0x02, 0x00, 0x00, 0x00,
  0x01, 0x00, 0x00, 0x00, 0x3f, 0x00, 0x00, 0x00, 0x04, 0x00, 0x00, 0x00,
  0x33, 0x00, 0x00, 0x00, 0x35, 0x00, 0x00, 0x00, 0x37, 0x00, 0x00, 0x00,
  0x3e, 0x00, 0x00, 0x00, 0x3a, 0xfd, 0xff, 0xff, 0x08, 0x00, 0x00, 0x00,
  0x0c, 0x00, 0x00, 0x00, 0x01, 0x00, 0x00, 0x00, 0x3e, 0x00, 0x00, 0x00,
  0x02, 0x00, 0x00, 0x00, 0x3d, 0x00, 0x00, 0x00, 0x02, 0x00, 0x00, 0x00,
  0xb6, 0xfd, 0xff, 0xff, 0x14, 0x00, 0x00, 0x00, 0x00, 0x00, 0x00, 0x01,
  0x1c, 0x00, 0x00, 0x00, 0x20, 0x00, 0x00, 0x00, 0x01, 0x00, 0x00, 0x00,
  0xa8, 0xfd, 0xff, 0xff, 0x00, 0x00, 0x00, 0x01, 0x01, 0x00, 0x00, 0x00,
  0x01, 0x00, 0x00, 0x00, 0x01, 0x00, 0x00, 0x00, 0x3d, 0x00, 0x00, 0x00,
  0x03, 0x00, 0x00, 0x00, 0x3c, 0x00, 0x00, 0x00, 0x1d, 0x00, 0x00, 0x00,
  0x10, 0x00, 0x00, 0x00, 0x9a, 0xfd, 0xff, 0xff, 0x08, 0x00, 0x00, 0x00,
  0x0c, 0x00, 0x00, 0x00, 0x01, 0x00, 0x00, 0x00, 0x3c, 0x00, 0x00, 0x00,
  0x02, 0x00, 0x00, 0x00, 0x3b, 0x00, 0x00, 0x00, 0x01, 0x00, 0x00, 0x00,
  0x16, 0xfe, 0xff, 0xff, 0x24, 0x00, 0x00, 0x00, 0x00, 0x00, 0x00, 0x05,
  0x30, 0x00, 0x00, 0x00, 0x34, 0x00, 0x00, 0x00, 0x02, 0x00, 0x00, 0x00,
  0x00, 0x00, 0x0e, 0x00, 0x14, 0x00, 0x00, 0x00, 0x10, 0x00, 0x0c, 0x00,
  0x08, 0x00, 0x04, 0x00, 0x0e, 0x00, 0x00, 0x00, 0x03, 0x00, 0x00, 0x00,
  0x01, 0x00, 0x00, 0x00, 0x01, 0x00, 0x00, 0x00, 0x01, 0x00, 0x00, 0x00,
  0x01, 0x00, 0x00, 0x00, 0x3b, 0x00, 0x00, 0x00, 0x01, 0x00, 0x00, 0x00,
  0x3a, 0x00, 0x00, 0x00, 0x06, 0xfe, 0xff, 0xff, 0x08, 0x00, 0x00, 0x00,
  0x0c, 0x00, 0x00, 0x00, 0x01, 0x00, 0x00, 0x00, 0x3a, 0x00, 0x00, 0x00,
  0x02, 0x00, 0x00, 0x00, 0x00, 0x00, 0x00, 0x00, 0x04, 0x00, 0x00, 0x00,
  0x26, 0xfe, 0xff, 0xff, 0x08, 0x00, 0x00, 0x00, 0x0c, 0x00, 0x00, 0x00,
  0x01, 0x00, 0x00, 0x00, 0x39, 0x00, 0x00, 0x00, 0x02, 0x00, 0x00, 0x00,
  0x38, 0x00, 0x00, 0x00, 0x03, 0x00, 0x00, 0x00, 0xa2, 0xfe, 0xff, 0xff,
  0x14, 0x00, 0x00, 0x00, 0x00, 0x00, 0x00, 0x01, 0x18, 0x00, 0x00, 0x00,
  0x1c, 0x00, 0x00, 0x00, 0x01, 0x00, 0x00, 0x00, 0x5e, 0xfe, 0xff, 0xff,
  0x01, 0x00, 0x00, 0x00, 0x01, 0x00, 0x00, 0x00, 0x01, 0x00, 0x00, 0x00,
  0x38, 0x00, 0x00, 0x00, 0x03, 0x00, 0x00, 0x00, 0x30, 0x00, 0x00, 0x00,
  0x1b, 0x00, 0x00, 0x00, 0x1c, 0x00, 0x00, 0x00, 0x82, 0xfe, 0xff, 0xff,
  0x08, 0x00, 0x00, 0x00, 0x0c, 0x00, 0x00, 0x00, 0x01, 0x00, 0x00, 0x00,
  0x37, 0x00, 0x00, 0x00, 0x02, 0x00, 0x00, 0x00, 0x36, 0x00, 0x00, 0x00,
  0x02, 0x00, 0x00, 0x00, 0xfe, 0xfe, 0xff, 0xff, 0x14, 0x00, 0x00, 0x00,
  0x00, 0x00, 0x00, 0x01, 0x1c, 0x00, 0x00, 0x00, 0x20, 0x00, 0x00, 0x00,
  0x01, 0x00, 0x00, 0x00, 0xf0, 0xfe, 0xff, 0xff, 0x00, 0x00, 0x00, 0x01,
  0x01, 0x00, 0x00, 0x00, 0x01, 0x00, 0x00, 0x00, 0x01, 0x00, 0x00, 0x00,
  0x36, 0x00, 0x00, 0x00, 0x03, 0x00, 0x00, 0x00, 0x31, 0x00, 0x00, 0x00,
  0x1a, 0x00, 0x00, 0x00, 0x0f, 0x00, 0x00, 0x00, 0xe2, 0xfe, 0xff, 0xff,
  0x08, 0x00, 0x00, 0x00, 0x0c, 0x00, 0x00, 0x00, 0x01, 0x00, 0x00, 0x00,
  0x35, 0x00, 0x00, 0x00, 0x02, 0x00, 0x00, 0x00, 0x34, 0x00, 0x00, 0x00,
  0x02, 0x00, 0x00, 0x00, 0x5e, 0xff, 0xff, 0xff, 0x14, 0x00, 0x00, 0x00,
  0x00, 0x00, 0x00, 0x01, 0x1c, 0x00, 0x00, 0x00, 0x20, 0x00, 0x00, 0x00,
  0x01, 0x00, 0x00, 0x00, 0x50, 0xff, 0xff, 0xff, 0x00, 0x00, 0x00, 0x01,
  0x01, 0x00, 0x00, 0x00, 0x01, 0x00, 0x00, 0x00, 0x01, 0x00, 0x00, 0x00,
  0x34, 0x00, 0x00, 0x00, 0x03, 0x00, 0x00, 0x00, 0x31, 0x00, 0x00, 0x00,
  0x19, 0x00, 0x00, 0x00, 0x0e, 0x00, 0x00, 0x00, 0x42, 0xff, 0xff, 0xff,
  0x08, 0x00, 0x00, 0x00, 0x0c, 0x00, 0x00, 0x00, 0x01, 0x00, 0x00, 0x00,
  0x33, 0x00, 0x00, 0x00, 0x02, 0x00, 0x00, 0x00, 0x32, 0x00, 0x00, 0x00,
  0x02, 0x00, 0x00, 0x00, 0xbe, 0xff, 0xff, 0xff, 0x14, 0x00, 0x00, 0x00,
  0x00, 0x00, 0x00, 0x01, 0x1c, 0x00, 0x00, 0x00, 0x20, 0x00, 0x00, 0x00,
  0x01, 0x00, 0x00, 0x00, 0xb0, 0xff, 0xff, 0xff, 0x00, 0x00, 0x00, 0x01,
  0x01, 0x00, 0x00, 0x00, 0x01, 0x00, 0x00, 0x00, 0x01, 0x00, 0x00, 0x00,
  0x32, 0x00, 0x00, 0x00, 0x03, 0x00, 0x00, 0x00, 0x31, 0x00, 0x00, 0x00,
  0x0c, 0x00, 0x00, 0x00, 0x0d, 0x00, 0x00, 0x00, 0x00, 0x00, 0x0e, 0x00,
  0x18, 0x00, 0x14, 0x00, 0x10, 0x00, 0x0c, 0x00, 0x0b, 0x00, 0x04, 0x00,
  0x0e, 0x00, 0x00, 0x00, 0x20, 0x00, 0x00, 0x00, 0x00, 0x00, 0x00, 0x01,
  0x28, 0x00, 0x00, 0x00, 0x2c, 0x00, 0x00, 0x00, 0x01, 0x00, 0x00, 0x00,
  0x0c, 0x00, 0x10, 0x00, 0x00, 0x00, 0x0c, 0x00, 0x08, 0x00, 0x07, 0x00,
  0x0c, 0x00, 0x00, 0x00, 0x00, 0x00, 0x00, 0x01, 0x01, 0x00, 0x00, 0x00,
  0x01, 0x00, 0x00, 0x00, 0x01, 0x00, 0x00, 0x00, 0x31, 0x00, 0x00, 0x00,
  0x03, 0x00, 0x00, 0x00, 0x30, 0x00, 0x00, 0x00, 0x08, 0x00, 0x00, 0x00,
  0x09, 0x00, 0x00, 0x00, 0x00, 0x00, 0x0a, 0x00, 0x0c, 0x00, 0x00, 0x00,
  0x08, 0x00, 0x04, 0x00, 0x0a, 0x00, 0x00, 0x00, 0x08, 0x00, 0x00, 0x00,
  0x0c, 0x00, 0x00, 0x00, 0x01, 0x00, 0x00, 0x00, 0x30, 0x00, 0x00, 0x00,
  0x02, 0x00, 0x00, 0x00, 0x00, 0x00, 0x00, 0x00, 0x01, 0x00, 0x00, 0x00,
  0x01, 0x00, 0x00, 0x00, 0x65, 0x00, 0x00, 0x00, 0x01, 0x00, 0x00, 0x00,
  0x00, 0x00, 0x00, 0x00, 0x66, 0x00, 0x00, 0x00, 0x4c, 0x36, 0x00, 0x00,
  0xec, 0x35, 0x00, 0x00, 0xa0, 0x35, 0x00, 0x00, 0x54, 0x35, 0x00, 0x00,
  0x08, 0x35, 0x00, 0x00, 0xb8, 0x34, 0x00, 0x00, 0x68, 0x34, 0x00, 0x00,
  0x28, 0x34, 0x00, 0x00, 0xb8, 0x33, 0x00, 0x00, 0x5c, 0x33, 0x00, 0x00,
  0xf8, 0x32, 0x00, 0x00, 0x94, 0x32, 0x00, 0x00, 0x00, 0x32, 0x00, 0x00,
  0x7c, 0x31, 0x00, 0x00, 0xf8, 0x30, 0x00, 0x00, 0x74, 0x30, 0x00, 0x00,
  0xf0, 0x2f, 0x00, 0x00, 0x6c, 0x2f, 0x00, 0x00, 0xe8, 0x2e, 0x00, 0x00,
  0x64, 0x2e, 0x00, 0x00, 0xe0, 0x2d, 0x00, 0x00, 0x5c, 0x2d, 0x00, 0x00,
  0xd8, 0x2c, 0x00, 0x00, 0x54, 0x2c, 0x00, 0x00, 0xd0, 0x2b, 0x00, 0x00,
  0x3c, 0x2b, 0x00, 0x00, 0xa8, 0x2a, 0x00, 0x00, 0x14, 0x29, 0x00, 0x00,
  0x30, 0x27, 0x00, 0x00, 0x9c, 0x26, 0x00, 0x00, 0x28, 0x26, 0x00, 0x00,
  0xb4, 0x25, 0x00, 0x00, 0x48, 0x25, 0x00, 0x00, 0xb4, 0x24, 0x00, 0x00,
  0x20, 0x24, 0x00, 0x00, 0x8c, 0x23, 0x00, 0x00, 0xf8, 0x22, 0x00, 0x00,
  0x84, 0x22, 0x00, 0x00, 0x10, 0x22, 0x00, 0x00, 0xa4, 0x21, 0x00, 0x00,
  0x10, 0x21, 0x00, 0x00, 0x7c, 0x20, 0x00, 0x00, 0xe8, 0x1f, 0x00, 0x00,
  0x54, 0x1f, 0x00, 0x00, 0xe0, 0x1e, 0x00, 0x00, 0x6c, 0x1e, 0x00, 0x00,
  0x08, 0x1e, 0x00, 0x00, 0xb4, 0x1d, 0x00, 0x00, 0x40, 0x1d, 0x00, 0x00,
  0xa4, 0x1c, 0x00, 0x00, 0x08, 0x1c, 0x00, 0x00, 0x84, 0x1b, 0x00, 0x00,
  0xe8, 0x1a, 0x00, 0x00, 0x64, 0x1a, 0x00, 0x00, 0xc8, 0x19, 0x00, 0x00,
  0x44, 0x19, 0x00, 0x00, 0x08, 0x18, 0x00, 0x00, 0xec, 0x16, 0x00, 0x00,
  0x78, 0x16, 0x00, 0x00, 0x04, 0x16, 0x00, 0x00, 0x88, 0x15, 0x00, 0x00,
  0xec, 0x14, 0x00, 0x00, 0x68, 0x14, 0x00, 0x00, 0xfc, 0x13, 0x00, 0x00,
  0x80, 0x13, 0x00, 0x00, 0xec, 0x12, 0x00, 0x00, 0x70, 0x12, 0x00, 0x00,
  0xd4, 0x11, 0x00, 0x00, 0x38, 0x11, 0x00, 0x00, 0xb4, 0x10, 0x00, 0x00,
  0x18, 0x10, 0x00, 0x00, 0x94, 0x0f, 0x00, 0x00, 0xf8, 0x0e, 0x00, 0x00,
  0x74, 0x0e, 0x00, 0x00, 0xf8, 0x0d, 0x00, 0x00, 0x84, 0x0d, 0x00, 0x00,
  0x08, 0x0d, 0x00, 0x00, 0x6c, 0x0c, 0x00, 0x00, 0xe8, 0x0b, 0x00, 0x00,
  0x7c, 0x0b, 0x00, 0x00, 0x00, 0x0b, 0x00, 0x00, 0x6c, 0x0a, 0x00, 0x00,
  0xf0, 0x09, 0x00, 0x00, 0x4c, 0x09, 0x00, 0x00, 0xa8, 0x08, 0x00, 0x00,
  0x24, 0x08, 0x00, 0x00, 0x80, 0x07, 0x00, 0x00, 0xfc, 0x06, 0x00, 0x00,
  0x58, 0x06, 0x00, 0x00, 0xd4, 0x05, 0x00, 0x00, 0x58, 0x05, 0x00, 0x00,
  0xe4, 0x04, 0x00, 0x00, 0x68, 0x04, 0x00, 0x00, 0xc4, 0x03, 0x00, 0x00,
  0x40, 0x03, 0x00, 0x00, 0xd4, 0x02, 0x00, 0x00, 0x58, 0x02, 0x00, 0x00,
  0xc4, 0x01, 0x00, 0x00, 0x48, 0x01, 0x00, 0x00, 0xe4, 0x00, 0x00, 0x00,
  0x70, 0x00, 0x00, 0x00, 0x04, 0x00, 0x00, 0x00, 0x5a, 0xcb, 0xff, 0xff,
  0x14, 0x00, 0x00, 0x00, 0x34, 0x00, 0x00, 0x00, 0x66, 0x00, 0x00, 0x00,
  0x00, 0x00, 0x00, 0x09, 0x48, 0x00, 0x00, 0x00, 0x4c, 0xcb, 0xff, 0xff,
  0x08, 0x00, 0x00, 0x00, 0x14, 0x00, 0x00, 0x00, 0x01, 0x00, 0x00, 0x00,
  0x80, 0xff, 0xff, 0xff, 0xff, 0xff, 0xff, 0xff, 0x00, 0x00, 0x00, 0x00,
  0x01, 0x00, 0x00, 0x00, 0x00, 0x00, 0x80, 0x3b, 0x19, 0x00, 0x00, 0x00,
  0x53, 0x74, 0x61, 0x74, 0x65, 0x66, 0x75, 0x6c, 0x50, 0x61, 0x72, 0x74,
  0x69, 0x74, 0x69, 0x6f, 0x6e, 0x65, 0x64, 0x43, 0x61, 0x6c, 0x6c, 0x3a,
  0x30, 0x00, 0x00, 0x00, 0x02, 0x00, 0x00, 0x00, 0x01, 0x00, 0x00, 0x00,
  0x06, 0x00, 0x00, 0x00, 0xc2, 0xcb, 0xff, 0xff, 0x14, 0x00, 0x00, 0x00,
  0x30, 0x00, 0x00, 0x00, 0x65, 0x00, 0x00, 0x00, 0x00, 0x00, 0x00, 0x09,
  0x50, 0x00, 0x00, 0x00, 0xb4, 0xcb, 0xff, 0xff, 0x08, 0x00, 0x00, 0x00,
  0x10, 0x00, 0x00, 0x00, 0x01, 0x00, 0x00, 0x00, 0x17, 0x00, 0x00, 0x00,
  0x00, 0x00, 0x00, 0x00, 0x01, 0x00, 0x00, 0x00, 0xc3, 0xd2, 0xb6, 0x3e,
  0x26, 0x00, 0x00, 0x00, 0x6d, 0x6f, 0x64, 0x65, 0x6c, 0x2f, 0x64, 0x65,
  0x6e, 0x73, 0x65, 0x2f, 0x4d, 0x61, 0x74, 0x4d, 0x75, 0x6c, 0x3b, 0x6d,
  0x6f, 0x64, 0x65, 0x6c, 0x2f, 0x64, 0x65, 0x6e, 0x73, 0x65, 0x2f, 0x42,
  0x69, 0x61, 0x73, 0x41, 0x64, 0x64, 0x00, 0x00, 0x02, 0x00, 0x00, 0x00,
  0x01, 0x00, 0x00, 0x00, 0x06, 0x00, 0x00, 0x00, 0x32, 0xcc, 0xff, 0xff,
  0x14, 0x00, 0x00, 0x00, 0x30, 0x00, 0x00, 0x00, 0x64, 0x00, 0x00, 0x00,
  0x00, 0x00, 0x00, 0x09, 0x40, 0x00, 0x00, 0x00, 0x24, 0xcc, 0xff, 0xff,
  0x08, 0x00, 0x00, 0x00, 0x10, 0x00, 0x00, 0x00, 0x01, 0x00, 0x00, 0x00,
  0x80, 0xff, 0xff, 0xff, 0xff, 0xff, 0xff, 0xff, 0x01, 0x00, 0x00, 0x00,
  0x5a, 0x7a, 0xaa, 0x3d, 0x15, 0x00, 0x00, 0x00, 0x6d, 0x6f, 0x64, 0x65,
  0x6c, 0x2f, 0x66, 0x6c, 0x61, 0x74, 0x74, 0x65, 0x6e, 0x2f, 0x52, 0x65,
  0x73, 0x68, 0x61, 0x70, 0x65, 0x00, 0x00, 0x00, 0x02, 0x00, 0x00, 0x00,
  0x01, 0x00, 0x00, 0x00, 0xe0, 0x01, 0x00, 0x00, 0x92, 0xcc, 0xff, 0xff,
  0x14, 0x00, 0x00, 0x00, 0x34, 0x00, 0x00, 0x00, 0x63, 0x00, 0x00, 0x00,
  0x00, 0x00, 0x00, 0x09, 0x54, 0x00, 0x00, 0x00, 0x84, 0xcc, 0xff, 0xff,
  0x08, 0x00, 0x00, 0x00, 0x14, 0x00, 0x00, 0x00, 0x01, 0x00, 0x00, 0x00,
  0x80, 0xff, 0xff, 0xff, 0xff, 0xff, 0xff, 0xff, 0x00, 0x00, 0x00, 0x00,
  0x01, 0x00, 0x00, 0x00, 0x5a, 0x7a, 0xaa, 0x3d, 0x25, 0x00, 0x00, 0x00,
  0x6d, 0x6f, 0x64, 0x65, 0x6c, 0x2f, 0x61, 0x63, 0x74, 0x69, 0x76, 0x61,
  0x74, 0x69, 0x6f, 0x6e, 0x5f, 0x33, 0x2f, 0x52, 0x65, 0x6c, 0x75, 0x3b,
  0x6d, 0x6f, 0x64, 0x65, 0x6c, 0x2f, 0x61, 0x64, 0x64, 0x2f, 0x61, 0x64,
  0x64, 0x00, 0x00, 0x00, 0x03, 0x00, 0x00, 0x00, 0x01, 0x00, 0x00, 0x00,
  0x1e, 0x00, 0x00, 0x00, 0x10, 0x00, 0x00, 0x00, 0x0a, 0xcd, 0xff, 0xff,
  0x14, 0x00, 0x00, 0x00, 0x30, 0x00, 0x00, 0x00, 0x62, 0x00, 0x00, 0x00,
  0x00, 0x00, 0x00, 0x09, 0x6c, 0x00, 0x00, 0x00, 0xfc, 0xcc, 0xff, 0xff,
  0x08, 0x00, 0x00, 0x00, 0x10, 0x00, 0x00, 0x00, 0x01, 0x00, 0x00, 0x00,
  0x80, 0xff, 0xff, 0xff, 0xff, 0xff, 0xff, 0xff, 0x01, 0x00, 0x00, 0x00,
  0x77, 0xde, 0x98, 0x3d, 0x43, 0x00, 0x00, 0x00, 0x6d, 0x6f, 0x64, 0x65,
  0x6c, 0x2f, 0x61, 0x63, 0x74, 0x69, 0x76, 0x61, 0x74, 0x69, 0x6f, 0x6e,
  0x5f, 0x32, 0x2f, 0x52, 0x65, 0x6c, 0x75, 0x3b, 0x6d, 0x6f, 0x64, 0x65,
  0x6c, 0x2f, 0x62, 0x61, 0x74, 0x63, 0x68, 0x5f, 0x6e, 0x6f, 0x72, 0x6d,
  0x61, 0x6c, 0x69, 0x7a, 0x61, 0x74, 0x69, 0x6f, 0x6e, 0x5f, 0x32, 0x2f,
  0x62, 0x61, 0x74, 0x63, 0x68, 0x6e, 0x6f, 0x72, 0x6d, 0x2f, 0x61, 0x64,
  0x64, 0x5f, 0x31, 0x00, 0x03, 0x00, 0x00, 0x00, 0x01, 0x00, 0x00, 0x00,
  0x1e, 0x00, 0x00, 0x00, 0x10, 0x00, 0x00, 0x00, 0x9a, 0xcd, 0xff, 0xff,
  0x14, 0x00, 0x00, 0x00, 0x30, 0x00, 0x00, 0x00, 0x61, 0x00, 0x00, 0x00,
  0x00, 0x00, 0x00, 0x09, 0x54, 0x00, 0x00, 0x00, 0x8c, 0xcd, 0xff, 0xff,
  0x08, 0x00, 0x00, 0x00, 0x10, 0x00, 0x00, 0x00, 0x01, 0x00, 0x00, 0x00,
  0x80, 0xff, 0xff, 0xff, 0xff, 0xff, 0xff, 0xff, 0x01, 0x00, 0x00, 0x00,
  0xe5, 0x5f, 0x9b, 0x3d, 0x2b, 0x00, 0x00, 0x00, 0x6d, 0x6f, 0x64, 0x65,
  0x6c, 0x2f, 0x62, 0x61, 0x74, 0x63, 0x68, 0x5f, 0x6e, 0x6f, 0x72, 0x6d,
  0x61, 0x6c, 0x69, 0x7a, 0x61, 0x74, 0x69, 0x6f, 0x6e, 0x5f, 0x32, 0x2f,
  0x62, 0x61, 0x74, 0x63, 0x68, 0x6e, 0x6f, 0x72, 0x6d, 0x2f, 0x6d, 0x75,
  0x6c, 0x5f, 0x31, 0x00, 0x03, 0x00, 0x00, 0x00, 0x01, 0x00, 0x00, 0x00,
  0x1e, 0x00, 0x00, 0x00, 0x10, 0x00, 0x00, 0x00, 0x12, 0xce, 0xff, 0xff,
  0x14, 0x00, 0x00, 0x00, 0x30, 0x00, 0x00, 0x00, 0x60, 0x00, 0x00, 0x00,
  0x00, 0x00, 0x00, 0x09, 0x44, 0x00, 0x00, 0x00, 0x04, 0xce, 0xff, 0xff,
  0x08, 0x00, 0x00, 0x00, 0x10, 0x00, 0x00, 0x00, 0x01, 0x00, 0x00, 0x00,
  0x80, 0xff, 0xff, 0xff, 0xff, 0xff, 0xff, 0xff, 0x01, 0x00, 0x00, 0x00,
  0x20, 0x04, 0xb8, 0x3d, 0x1a, 0x00, 0x00, 0x00, 0x6d, 0x6f, 0x64, 0x65,
  0x6c, 0x2f, 0x63, 0x6f, 0x6e, 0x63, 0x61, 0x74, 0x65, 0x6e, 0x61, 0x74,
  0x65, 0x5f, 0x32, 0x2f, 0x63, 0x6f, 0x6e, 0x63, 0x61, 0x74, 0x00, 0x00,
  0x03, 0x00, 0x00, 0x00, 0x01, 0x00, 0x00, 0x00, 0x1e, 0x00, 0x00, 0x00,
  0x10, 0x00, 0x00, 0x00, 0x7a, 0xce, 0xff, 0xff, 0x14, 0x00, 0x00, 0x00,
  0x30, 0x00, 0x00, 0x00, 0x5f, 0x00, 0x00, 0x00, 0x00, 0x00, 0x00, 0x09,
  0x5c, 0x00, 0x00, 0x00, 0x6c, 0xce, 0xff, 0xff, 0x08, 0x00, 0x00, 0x00,
  0x10, 0x00, 0x00, 0x00, 0x01, 0x00, 0x00, 0x00, 0x80, 0xff, 0xff, 0xff,
  0xff, 0xff, 0xff, 0xff, 0x01, 0x00, 0x00, 0x00, 0x20, 0x04, 0xb8, 0x3d,
  0x33, 0x00, 0x00, 0x00, 0x6d, 0x6f, 0x64, 0x65, 0x6c, 0x2f, 0x63, 0x6f,
  0x6e, 0x76, 0x31, 0x64, 0x5f, 0x31, 0x34, 0x2f, 0x52, 0x65, 0x6c, 0x75,
  0x3b, 0x6d, 0x6f, 0x64, 0x65, 0x6c, 0x2f, 0x63, 0x6f, 0x6e, 0x76, 0x31,
  0x64, 0x5f, 0x31, 0x34, 0x2f, 0x63, 0x6f, 0x6e, 0x76, 0x31, 0x64, 0x2f,
  0x53, 0x71, 0x75, 0x65, 0x65, 0x7a, 0x65, 0x00, 0x03, 0x00, 0x00, 0x00,
  0x01, 0x00, 0x00, 0x00, 0x1e, 0x00, 0x00, 0x00, 0x04, 0x00, 0x00, 0x00,
  0xfa, 0xce, 0xff, 0xff, 0x14, 0x00, 0x00, 0x00, 0x34, 0x00, 0x00, 0x00,
  0x5e, 0x00, 0x00, 0x00, 0x00, 0x00, 0x00, 0x09, 0x78, 0x00, 0x00, 0x00,
  0xec, 0xce, 0xff, 0xff, 0x08, 0x00, 0x00, 0x00, 0x14, 0x00, 0x00, 0x00,
  0x01, 0x00, 0x00, 0x00, 0x80, 0xff, 0xff, 0xff, 0xff, 0xff, 0xff, 0xff,
  0x00, 0x00, 0x00, 0x00, 0x01, 0x00, 0x00, 0x00, 0x20, 0x04, 0xb8, 0x3d,
  0x4a, 0x00, 0x00, 0x00, 0x6d, 0x6f, 0x64, 0x65, 0x6c, 0x2f, 0x63, 0x6f,
  0x6e, 0x76, 0x31, 0x64, 0x5f, 0x31, 0x34, 0x2f, 0x52, 0x65, 0x6c, 0x75,
  0x3b, 0x6d, 0x6f, 0x64, 0x65, 0x6c, 0x2f, 0x63, 0x6f, 0x6e, 0x76, 0x31,
  0x64, 0x5f, 0x31, 0x34, 0x2f, 0x63, 0x6f, 0x6e, 0x76, 0x31, 0x64, 0x2f,
  0x53, 0x71, 0x75, 0x65, 0x65, 0x7a, 0x65, 0x3b, 0x6d, 0x6f, 0x64, 0x65,
  0x6c, 0x2f, 0x63, 0x6f, 0x6e, 0x76, 0x31, 0x64, 0x5f, 0x31, 0x34, 0x2f,
  0x63, 0x6f, 0x6e, 0x76, 0x31, 0x64, 0x00, 0x00, 0x04, 0x00, 0x00, 0x00,
  0x01, 0x00, 0x00, 0x00, 0x01, 0x00, 0x00, 0x00, 0x1e, 0x00, 0x00, 0x00,
  0x04, 0x00, 0x00, 0x00, 0x9a, 0xcf, 0xff, 0xff, 0x14, 0x00, 0x00, 0x00,
  0x34, 0x00, 0x00, 0x00, 0x5d, 0x00, 0x00, 0x00, 0x00, 0x00, 0x00, 0x09,
  0x50, 0x00, 0x00, 0x00, 0x8c, 0xcf, 0xff, 0xff, 0x08, 0x00, 0x00, 0x00,
  0x14, 0x00, 0x00, 0x00, 0x01, 0x00, 0x00, 0x00, 0x80, 0xff, 0xff, 0xff,
  0xff, 0xff, 0xff, 0xff, 0x00, 0x00, 0x00, 0x00, 0x01, 0x00, 0x00, 0x00,
  0x4f, 0x18, 0x81, 0x3d, 0x21, 0x00, 0x00, 0x00, 0x6d, 0x6f, 0x64, 0x65,
  0x6c, 0x2f, 0x63, 0x6f, 0x6e, 0x76, 0x31, 0x64, 0x5f, 0x31, 0x34, 0x2f,
  0x63, 0x6f, 0x6e, 0x76, 0x31, 0x64, 0x2f, 0x45, 0x78, 0x70, 0x61, 0x6e,
  0x64, 0x44, 0x69, 0x6d, 0x73, 0x00, 0x00, 0x00, 0x04, 0x00, 0x00, 0x00,
  0x01, 0x00, 0x00, 0x00, 0x01, 0x00, 0x00, 0x00, 0x1e, 0x00, 0x00, 0x00,
  0x10, 0x00, 0x00, 0x00, 0x12, 0xd0, 0xff, 0xff, 0x14, 0x00, 0x00, 0x00,
  0x30, 0x00, 0x00, 0x00, 0x5c, 0x00, 0x00, 0x00, 0x00, 0x00, 0x00, 0x09,
  0x48, 0x00, 0x00, 0x00, 0x04, 0xd0, 0xff, 0xff, 0x08, 0x00, 0x00, 0x00,
  0x10, 0x00, 0x00, 0x00, 0x01, 0x00, 0x00, 0x00, 0x80, 0xff, 0xff, 0xff,
  0xff, 0xff, 0xff, 0xff, 0x01, 0x00, 0x00, 0x00, 0x4f, 0x18, 0x81, 0x3d,
  0x1d, 0x00, 0x00, 0x00, 0x6d, 0x6f, 0x64, 0x65, 0x6c, 0x2f, 0x6d, 0x61,
  0x78, 0x5f, 0x70, 0x6f, 0x6f, 0x6c, 0x69, 0x6e, 0x67, 0x31, 0x64, 0x5f,
  0x32, 0x2f, 0x4d, 0x61, 0x78, 0x50, 0x6f, 0x6f, 0x6c, 0x00, 0x00, 0x00,
  0x04, 0x00, 0x00, 0x00, 0x01, 0x00, 0x00, 0x00, 0x1e, 0x00, 0x00, 0x00,
  0x01, 0x00, 0x00, 0x00, 0x10, 0x00, 0x00, 0x00, 0x82, 0xd0, 0xff, 0xff,
  0x14, 0x00, 0x00, 0x00, 0x34, 0x00, 0x00, 0x00, 0x5b, 0x00, 0x00, 0x00,
  0x00, 0x00, 0x00, 0x09, 0x50, 0x00, 0x00, 0x00, 0x74, 0xd0, 0xff, 0xff,
  0x08, 0x00, 0x00, 0x00, 0x14, 0x00, 0x00, 0x00, 0x01, 0x00, 0x00, 0x00,
  0x80, 0xff, 0xff, 0xff, 0xff, 0xff, 0xff, 0xff, 0x00, 0x00, 0x00, 0x00,
  0x01, 0x00, 0x00, 0x00, 0x4f, 0x18, 0x81, 0x3d, 0x20, 0x00, 0x00, 0x00,
  0x6d, 0x6f, 0x64, 0x65, 0x6c, 0x2f, 0x6d, 0x61, 0x78, 0x5f, 0x70, 0x6f,
  0x6f, 0x6c, 0x69, 0x6e, 0x67, 0x31, 0x64, 0x5f, 0x32, 0x2f, 0x45, 0x78,
  0x70, 0x61, 0x6e, 0x64, 0x44, 0x69, 0x6d, 0x73, 0x00, 0x00, 0x00, 0x00,
  0x04, 0x00, 0x00, 0x00, 0x01, 0x00, 0x00, 0x00, 0x1e, 0x00, 0x00, 0x00,
  0x01, 0x00, 0x00, 0x00, 0x10, 0x00, 0x00, 0x00, 0xfa, 0xd0, 0xff, 0xff,
  0x14, 0x00, 0x00, 0x00, 0x30, 0x00, 0x00, 0x00, 0x5a, 0x00, 0x00, 0x00,
  0x00, 0x00, 0x00, 0x09, 0x5c, 0x00, 0x00, 0x00, 0xec, 0xd0, 0xff, 0xff,
  0x08, 0x00, 0x00, 0x00, 0x10, 0x00, 0x00, 0x00, 0x01, 0x00, 0x00, 0x00,
  0x80, 0xff, 0xff, 0xff, 0xff, 0xff, 0xff, 0xff, 0x01, 0x00, 0x00, 0x00,
  0x20, 0x04, 0xb8, 0x3d, 0x33, 0x00, 0x00, 0x00, 0x6d, 0x6f, 0x64, 0x65,
  0x6c, 0x2f, 0x63, 0x6f, 0x6e, 0x76, 0x31, 0x64, 0x5f, 0x31, 0x33, 0x2f,
  0x52, 0x65, 0x6c, 0x75, 0x3b, 0x6d, 0x6f, 0x64, 0x65, 0x6c, 0x2f, 0x63,
  0x6f, 0x6e, 0x76, 0x31, 0x64, 0x5f, 0x31, 0x33, 0x2f, 0x63, 0x6f, 0x6e,
  0x76, 0x31, 0x64, 0x2f, 0x53, 0x71, 0x75, 0x65, 0x65, 0x7a, 0x65, 0x00,
  0x03, 0x00, 0x00, 0x00, 0x01, 0x00, 0x00, 0x00, 0x1e, 0x00, 0x00, 0x00,
  0x04, 0x00, 0x00, 0x00, 0x7a, 0xd1, 0xff, 0xff, 0x14, 0x00, 0x00, 0x00,
  0x34, 0x00, 0x00, 0x00, 0x59, 0x00, 0x00, 0x00, 0x00, 0x00, 0x00, 0x09,
  0x78, 0x00, 0x00, 0x00, 0x6c, 0xd1, 0xff, 0xff, 0x08, 0x00, 0x00, 0x00,
  0x14, 0x00, 0x00, 0x00, 0x01, 0x00, 0x00, 0x00, 0x80, 0xff, 0xff, 0xff,
  0xff, 0xff, 0xff, 0xff, 0x00, 0x00, 0x00, 0x00, 0x01, 0x00, 0x00, 0x00,
  0x20, 0x04, 0xb8, 0x3d, 0x4a, 0x00, 0x00, 0x00, 0x6d, 0x6f, 0x64, 0x65,
  0x6c, 0x2f, 0x63, 0x6f, 0x6e, 0x76, 0x31, 0x64, 0x5f, 0x31, 0x33, 0x2f,
  0x52, 0x65, 0x6c, 0x75, 0x3b, 0x6d, 0x6f, 0x64, 0x65, 0x6c, 0x2f, 0x63,
  0x6f, 0x6e, 0x76, 0x31, 0x64, 0x5f, 0x31, 0x33, 0x2f, 0x63, 0x6f, 0x6e,
  0x76, 0x31, 0x64, 0x2f, 0x53, 0x71, 0x75, 0x65, 0x65, 0x7a, 0x65, 0x3b,
  0x6d, 0x6f, 0x64, 0x65, 0x6c, 0x2f, 0x63, 0x6f, 0x6e, 0x76, 0x31, 0x64,
  0x5f, 0x31, 0x33, 0x2f, 0x63, 0x6f, 0x6e, 0x76, 0x31, 0x64, 0x00, 0x00,
  0x04, 0x00, 0x00, 0x00, 0x01, 0x00, 0x00, 0x00, 0x01, 0x00, 0x00, 0x00,
  0x1e, 0x00, 0x00, 0x00, 0x04, 0x00, 0x00, 0x00, 0x1a, 0xd2, 0xff, 0xff,
  0x14, 0x00, 0x00, 0x00, 0x30, 0x00, 0x00, 0x00, 0x58, 0x00, 0x00, 0x00,
  0x00, 0x00, 0x00, 0x09, 0x5c, 0x00, 0x00, 0x00, 0x0c, 0xd2, 0xff, 0xff,
  0x08, 0x00, 0x00, 0x00, 0x10, 0x00, 0x00, 0x00, 0x01, 0x00, 0x00, 0x00,
  0x80, 0xff, 0xff, 0xff, 0xff, 0xff, 0xff, 0xff, 0x01, 0x00, 0x00, 0x00,
  0x20, 0x04, 0xb8, 0x3d, 0x33, 0x00, 0x00, 0x00, 0x6d, 0x6f, 0x64, 0x65,
  0x6c, 0x2f, 0x63, 0x6f, 0x6e, 0x76, 0x31, 0x64, 0x5f, 0x31, 0x32, 0x2f,
  0x52, 0x65, 0x6c, 0x75, 0x3b, 0x6d, 0x6f, 0x64, 0x65, 0x6c, 0x2f, 0x63,
  0x6f, 0x6e, 0x76, 0x31, 0x64, 0x5f, 0x31, 0x32, 0x2f, 0x63, 0x6f, 0x6e,
  0x76, 0x31, 0x64, 0x2f, 0x53, 0x71, 0x75, 0x65, 0x65, 0x7a, 0x65, 0x00,
  0x03, 0x00, 0x00, 0x00, 0x01, 0x00, 0x00, 0x00, 0x1e, 0x00, 0x00, 0x00,
  0x04, 0x00, 0x00, 0x00, 0x9a, 0xd2, 0xff, 0xff, 0x14, 0x00, 0x00, 0x00,
  0x34, 0x00, 0x00, 0x00, 0x57, 0x00, 0x00, 0x00, 0x00, 0x00, 0x00, 0x09,
  0x78, 0x00, 0x00, 0x00, 0x8c, 0xd2, 0xff, 0xff, 0x08, 0x00, 0x00, 0x00,
  0x14, 0x00, 0x00, 0x00, 0x01, 0x00, 0x00, 0x00, 0x80, 0xff, 0xff, 0xff,
  0xff, 0xff, 0xff, 0xff, 0x00, 0x00, 0x00, 0x00, 0x01, 0x00, 0x00, 0x00,
  0x20, 0x04, 0xb8, 0x3d, 0x4a, 0x00, 0x00, 0x00, 0x6d, 0x6f, 0x64, 0x65,
  0x6c, 0x2f, 0x63, 0x6f, 0x6e, 0x76, 0x31, 0x64, 0x5f, 0x31, 0x32, 0x2f,
  0x52, 0x65, 0x6c, 0x75, 0x3b, 0x6d, 0x6f, 0x64, 0x65, 0x6c, 0x2f, 0x63,
  0x6f, 0x6e, 0x76, 0x31, 0x64, 0x5f, 0x31, 0x32, 0x2f, 0x63, 0x6f, 0x6e,
  0x76, 0x31, 0x64, 0x2f, 0x53, 0x71, 0x75, 0x65, 0x65, 0x7a, 0x65, 0x3b,
  0x6d, 0x6f, 0x64, 0x65, 0x6c, 0x2f, 0x63, 0x6f, 0x6e, 0x76, 0x31, 0x64,
  0x5f, 0x31, 0x32, 0x2f, 0x63, 0x6f, 0x6e, 0x76, 0x31, 0x64, 0x00, 0x00,
  0x04, 0x00, 0x00, 0x00, 0x01, 0x00, 0x00, 0x00, 0x01, 0x00, 0x00, 0x00,
  0x1e, 0x00, 0x00, 0x00, 0x04, 0x00, 0x00, 0x00, 0x3a, 0xd3, 0xff, 0xff,
  0x14, 0x00, 0x00, 0x00, 0x30, 0x00, 0x00, 0x00, 0x56, 0x00, 0x00, 0x00,
  0x00, 0x00, 0x00, 0x09, 0x5c, 0x00, 0x00, 0x00, 0x2c, 0xd3, 0xff, 0xff,
  0x08, 0x00, 0x00, 0x00, 0x10, 0x00, 0x00, 0x00, 0x01, 0x00, 0x00, 0x00,
  0x80, 0xff, 0xff, 0xff, 0xff, 0xff, 0xff, 0xff, 0x01, 0x00, 0x00, 0x00,
  0x20, 0x04, 0xb8, 0x3d, 0x33, 0x00, 0x00, 0x00, 0x6d, 0x6f, 0x64, 0x65,
  0x6c, 0x2f, 0x63, 0x6f, 0x6e, 0x76, 0x31, 0x64, 0x5f, 0x31, 0x31, 0x2f,
  0x52, 0x65, 0x6c, 0x75, 0x3b, 0x6d, 0x6f, 0x64, 0x65, 0x6c, 0x2f, 0x63,
  0x6f, 0x6e, 0x76, 0x31, 0x64, 0x5f, 0x31, 0x31, 0x2f, 0x63, 0x6f, 0x6e,
  0x76, 0x31, 0x64, 0x2f, 0x53, 0x71, 0x75, 0x65, 0x65, 0x7a, 0x65, 0x00,
  0x03, 0x00, 0x00, 0x00, 0x01, 0x00, 0x00, 0x00, 0x1e, 0x00, 0x00, 0x00,
  0x04, 0x00, 0x00, 0x00, 0xba, 0xd3, 0xff, 0xff, 0x14, 0x00, 0x00, 0x00,
  0x34, 0x00, 0x00, 0x00, 0x55, 0x00, 0x00, 0x00, 0x00, 0x00, 0x00, 0x09,
  0x78, 0x00, 0x00, 0x00, 0xac, 0xd3, 0xff, 0xff, 0x08, 0x00, 0x00, 0x00,
  0x14, 0x00, 0x00, 0x00, 0x01, 0x00, 0x00, 0x00, 0x80, 0xff, 0xff, 0xff,
  0xff, 0xff, 0xff, 0xff, 0x00, 0x00, 0x00, 0x00, 0x01, 0x00, 0x00, 0x00,
  0x20, 0x04, 0xb8, 0x3d, 0x4a, 0x00, 0x00, 0x00, 0x6d, 0x6f, 0x64, 0x65,
  0x6c, 0x2f, 0x63, 0x6f, 0x6e, 0x76, 0x31, 0x64, 0x5f, 0x31, 0x31, 0x2f,
  0x52, 0x65, 0x6c, 0x75, 0x3b, 0x6d, 0x6f, 0x64, 0x65, 0x6c, 0x2f, 0x63,
  0x6f, 0x6e, 0x76, 0x31, 0x64, 0x5f, 0x31, 0x31, 0x2f, 0x63, 0x6f, 0x6e,
  0x76, 0x31, 0x64, 0x2f, 0x53, 0x71, 0x75, 0x65, 0x65, 0x7a, 0x65, 0x3b,
  0x6d, 0x6f, 0x64, 0x65, 0x6c, 0x2f, 0x63, 0x6f, 0x6e, 0x76, 0x31, 0x64,
  0x5f, 0x31, 0x31, 0x2f, 0x63, 0x6f, 0x6e, 0x76, 0x31, 0x64, 0x00, 0x00,
  0x04, 0x00, 0x00, 0x00, 0x01, 0x00, 0x00, 0x00, 0x01, 0x00, 0x00, 0x00,
  0x1e, 0x00, 0x00, 0x00, 0x04, 0x00, 0x00, 0x00, 0x5a, 0xd4, 0xff, 0xff,
  0x14, 0x00, 0x00, 0x00, 0x34, 0x00, 0x00, 0x00, 0x54, 0x00, 0x00, 0x00,
  0x00, 0x00, 0x00, 0x09, 0x78, 0x00, 0x00, 0x00, 0x4c, 0xd4, 0xff, 0xff,
  0x08, 0x00, 0x00, 0x00, 0x14, 0x00, 0x00, 0x00, 0x01, 0x00, 0x00, 0x00,
  0x80, 0xff, 0xff, 0xff, 0xff, 0xff, 0xff, 0xff, 0x00, 0x00, 0x00, 0x00,
  0x01, 0x00, 0x00, 0x00, 0xf3, 0xd5, 0xe8, 0x3c, 0x4a, 0x00, 0x00, 0x00,
  0x6d, 0x6f, 0x64, 0x65, 0x6c, 0x2f, 0x63, 0x6f, 0x6e, 0x76, 0x31, 0x64,
  0x5f, 0x31, 0x30, 0x2f, 0x52, 0x65, 0x6c, 0x75, 0x3b, 0x6d, 0x6f, 0x64,
  0x65, 0x6c, 0x2f, 0x63, 0x6f, 0x6e, 0x76, 0x31, 0x64, 0x5f, 0x31, 0x30,
  0x2f, 0x63, 0x6f, 0x6e, 0x76, 0x31, 0x64, 0x2f, 0x53, 0x71, 0x75, 0x65,
  0x65, 0x7a, 0x65, 0x3b, 0x6d, 0x6f, 0x64, 0x65, 0x6c, 0x2f, 0x63, 0x6f,
  0x6e, 0x76, 0x31, 0x64, 0x5f, 0x31, 0x30, 0x2f, 0x63, 0x6f, 0x6e, 0x76,
  0x31, 0x64, 0x00, 0x00, 0x04, 0x00, 0x00, 0x00, 0x01, 0x00, 0x00, 0x00,
  0x01, 0x00, 0x00, 0x00, 0x1e, 0x00, 0x00, 0x00, 0x01, 0x00, 0x00, 0x00,
  0xfa, 0xd4, 0xff, 0xff, 0x14, 0x00, 0x00, 0x00, 0x34, 0x00, 0x00, 0x00,
  0x53, 0x00, 0x00, 0x00, 0x00, 0x00, 0x00, 0x09, 0x50, 0x00, 0x00, 0x00,
  0xec, 0xd4, 0xff, 0xff, 0x08, 0x00, 0x00, 0x00, 0x14, 0x00, 0x00, 0x00,
  0x01, 0x00, 0x00, 0x00, 0x80, 0xff, 0xff, 0xff, 0xff, 0xff, 0xff, 0xff,
  0x00, 0x00, 0x00, 0x00, 0x01, 0x00, 0x00, 0x00, 0x4f, 0x18, 0x81, 0x3d,
  0x21, 0x00, 0x00, 0x00, 0x6d, 0x6f, 0x64, 0x65, 0x6c, 0x2f, 0x63, 0x6f,
  0x6e, 0x76, 0x31, 0x64, 0x5f, 0x31, 0x30, 0x2f, 0x63, 0x6f, 0x6e, 0x76,
  0x31, 0x64, 0x2f, 0x45, 0x78, 0x70, 0x61, 0x6e, 0x64, 0x44, 0x69, 0x6d,
  0x73, 0x00, 0x00, 0x00, 0x04, 0x00, 0x00, 0x00, 0x01, 0x00, 0x00, 0x00,
  0x01, 0x00, 0x00, 0x00, 0x1e, 0x00, 0x00, 0x00, 0x10, 0x00, 0x00, 0x00,
  0x72, 0xd5, 0xff, 0xff, 0x14, 0x00, 0x00, 0x00, 0x30, 0x00, 0x00, 0x00,
  0x52, 0x00, 0x00, 0x00, 0x00, 0x00, 0x00, 0x09, 0x6c, 0x00, 0x00, 0x00,
  0x64, 0xd5, 0xff, 0xff, 0x08, 0x00, 0x00, 0x00, 0x10, 0x00, 0x00, 0x00,
  0x01, 0x00, 0x00, 0x00, 0x80, 0xff, 0xff, 0xff, 0xff, 0xff, 0xff, 0xff,
  0x01, 0x00, 0x00, 0x00, 0x4f, 0x18, 0x81, 0x3d, 0x43, 0x00, 0x00, 0x00,
  0x6d, 0x6f, 0x64, 0x65, 0x6c, 0x2f, 0x61, 0x63, 0x74, 0x69, 0x76, 0x61,
  0x74, 0x69, 0x6f, 0x6e, 0x5f, 0x31, 0x2f, 0x52, 0x65, 0x6c, 0x75, 0x3b,
  0x6d, 0x6f, 0x64, 0x65, 0x6c, 0x2f, 0x62, 0x61, 0x74, 0x63, 0x68, 0x5f,
  0x6e, 0x6f, 0x72, 0x6d, 0x61, 0x6c, 0x69, 0x7a, 0x61, 0x74, 0x69, 0x6f,
  0x6e, 0x5f, 0x31, 0x2f, 0x62, 0x61, 0x74, 0x63, 0x68, 0x6e, 0x6f, 0x72,
  0x6d, 0x2f, 0x61, 0x64, 0x64, 0x5f, 0x31, 0x00, 0x03, 0x00, 0x00, 0x00,
  0x01, 0x00, 0x00, 0x00, 0x1e, 0x00, 0x00, 0x00, 0x10, 0x00, 0x00, 0x00,
  0x02, 0xd6, 0xff, 0xff, 0x14, 0x00, 0x00, 0x00, 0x30, 0x00, 0x00, 0x00,
  0x51, 0x00, 0x00, 0x00, 0x00, 0x00, 0x00, 0x09, 0x54, 0x00, 0x00, 0x00,
  0xf4, 0xd5, 0xff, 0xff, 0x08, 0x00, 0x00, 0x00, 0x10, 0x00, 0x00, 0x00,
  0x01, 0x00, 0x00, 0x00, 0x80, 0xff, 0xff, 0xff, 0xff, 0xff, 0xff, 0xff,
  0x01, 0x00, 0x00, 0x00, 0x37, 0xe2, 0x80, 0x3d, 0x2b, 0x00, 0x00, 0x00,
  0x6d, 0x6f, 0x64, 0x65, 0x6c, 0x2f, 0x62, 0x61, 0x74, 0x63, 0x68, 0x5f,
  0x6e, 0x6f, 0x72, 0x6d, 0x61, 0x6c, 0x69, 0x7a, 0x61, 0x74, 0x69, 0x6f,
  0x6e, 0x5f, 0x31, 0x2f, 0x62, 0x61, 0x74, 0x63, 0x68, 0x6e, 0x6f, 0x72,
  0x6d, 0x2f, 0x6d, 0x75, 0x6c, 0x5f, 0x31, 0x00, 0x03, 0x00, 0x00, 0x00,
  0x01, 0x00, 0x00, 0x00, 0x1e, 0x00, 0x00, 0x00, 0x10, 0x00, 0x00, 0x00,
  0x7a, 0xd6, 0xff, 0xff, 0x14, 0x00, 0x00, 0x00, 0x30, 0x00, 0x00, 0x00,
  0x50, 0x00, 0x00, 0x00, 0x00, 0x00, 0x00, 0x09, 0x44, 0x00, 0x00, 0x00,
  0x6c, 0xd6, 0xff, 0xff, 0x08, 0x00, 0x00, 0x00, 0x10, 0x00, 0x00, 0x00,
  0x01, 0x00, 0x00, 0x00, 0x80, 0xff, 0xff, 0xff, 0xff, 0xff, 0xff, 0xff,
  0x01, 0x00, 0x00, 0x00, 0xb6, 0x9f, 0xd3, 0x3c, 0x1a, 0x00, 0x00, 0x00,
  0x6d, 0x6f, 0x64, 0x65, 0x6c, 0x2f, 0x63, 0x6f, 0x6e, 0x63, 0x61, 0x74,
  0x65, 0x6e, 0x61, 0x74, 0x65, 0x5f, 0x31, 0x2f, 0x63, 0x6f, 0x6e, 0x63,
  0x61, 0x74, 0x00, 0x00, 0x03, 0x00, 0x00, 0x00, 0x01, 0x00, 0x00, 0x00,
  0x1e, 0x00, 0x00, 0x00, 0x10, 0x00, 0x00, 0x00, 0xe2, 0xd6, 0xff, 0xff,
  0x14, 0x00, 0x00, 0x00, 0x30, 0x00, 0x00, 0x00, 0x4f, 0x00, 0x00, 0x00,
  0x00, 0x00, 0x00, 0x09, 0x5c, 0x00, 0x00, 0x00, 0xd4, 0xd6, 0xff, 0xff,
  0x08, 0x00, 0x00, 0x00, 0x10, 0x00, 0x00, 0x00, 0x01, 0x00, 0x00, 0x00,
  0x80, 0xff, 0xff, 0xff, 0xff, 0xff, 0xff, 0xff, 0x01, 0x00, 0x00, 0x00,
  0xb6, 0x9f, 0xd3, 0x3c, 0x31, 0x00, 0x00, 0x00, 0x6d, 0x6f, 0x64, 0x65,
  0x6c, 0x2f, 0x63, 0x6f, 0x6e, 0x76, 0x31, 0x64, 0x5f, 0x39, 0x2f, 0x52,
  0x65, 0x6c, 0x75, 0x3b, 0x6d, 0x6f, 0x64, 0x65, 0x6c, 0x2f, 0x63, 0x6f,
  0x6e, 0x76, 0x31, 0x64, 0x5f, 0x39, 0x2f, 0x63, 0x6f, 0x6e, 0x76, 0x31,
  0x64, 0x2f, 0x53, 0x71, 0x75, 0x65, 0x65, 0x7a, 0x65, 0x00, 0x00, 0x00,
  0x03, 0x00, 0x00, 0x00, 0x01, 0x00, 0x00, 0x00, 0x1e, 0x00, 0x00, 0x00,
  0x04, 0x00, 0x00, 0x00, 0x62, 0xd7, 0xff, 0xff, 0x14, 0x00, 0x00, 0x00,
  0x30, 0x00, 0x00, 0x00, 0x4e, 0x00, 0x00, 0x00, 0x00, 0x00, 0x00, 0x09,
  0x70, 0x00, 0x00, 0x00, 0x54, 0xd7, 0xff, 0xff, 0x08, 0x00, 0x00, 0x00,
  0x10, 0x00, 0x00, 0x00, 0x01, 0x00, 0x00, 0x00, 0x80, 0xff, 0xff, 0xff,
  0xff, 0xff, 0xff, 0xff, 0x01, 0x00, 0x00, 0x00, 0xb6, 0x9f, 0xd3, 0x3c,
  0x47, 0x00, 0x00, 0x00, 0x6d, 0x6f, 0x64, 0x65, 0x6c, 0x2f, 0x63, 0x6f,
  0x6e, 0x76, 0x31, 0x64, 0x5f, 0x39, 0x2f, 0x52, 0x65, 0x6c, 0x75, 0x3b,
  0x6d, 0x6f, 0x64, 0x65, 0x6c, 0x2f, 0x63, 0x6f, 0x6e, 0x76, 0x31, 0x64,
  0x5f, 0x39, 0x2f, 0x63, 0x6f, 0x6e, 0x76, 0x31, 0x64, 0x2f, 0x53, 0x71,
  0x75, 0x65, 0x65, 0x7a, 0x65, 0x3b, 0x6d, 0x6f, 0x64, 0x65, 0x6c, 0x2f,
  0x63, 0x6f, 0x6e, 0x76, 0x31, 0x64, 0x5f, 0x39, 0x2f, 0x63, 0x6f, 0x6e,
  0x76, 0x31, 0x64, 0x00, 0x04, 0x00, 0x00, 0x00, 0x01, 0x00, 0x00, 0x00,
  0x01, 0x00, 0x00, 0x00, 0x1e, 0x00, 0x00, 0x00, 0x04, 0x00, 0x00, 0x00,
  0xfa, 0xd7, 0xff, 0xff, 0x14, 0x00, 0x00, 0x00, 0x34, 0x00, 0x00, 0x00,
  0x4d, 0x00, 0x00, 0x00, 0x00, 0x00, 0x00, 0x09, 0x50, 0x00, 0x00, 0x00,
  0xec, 0xd7, 0xff, 0xff, 0x08, 0x00, 0x00, 0x00, 0x14, 0x00, 0x00, 0x00,
  0x01, 0x00, 0x00, 0x00, 0x80, 0xff, 0xff, 0xff, 0xff, 0xff, 0xff, 0xff,
  0x00, 0x00, 0x00, 0x00, 0x01, 0x00, 0x00, 0x00, 0x34, 0xc6, 0x5b, 0x3d,
  0x20, 0x00, 0x00, 0x00, 0x6d, 0x6f, 0x64, 0x65, 0x6c, 0x2f, 0x63, 0x6f,
  0x6e, 0x76, 0x31, 0x64, 0x5f, 0x39, 0x2f, 0x63, 0x6f, 0x6e, 0x76, 0x31,
  0x64, 0x2f, 0x45, 0x78, 0x70, 0x61, 0x6e, 0x64, 0x44, 0x69, 0x6d, 0x73,
  0x00, 0x00, 0x00, 0x00, 0x04, 0x00, 0x00, 0x00, 0x01, 0x00, 0x00, 0x00,
  0x01, 0x00, 0x00, 0x00, 0x1e, 0x00, 0x00, 0x00, 0x10, 0x00, 0x00, 0x00,
  0x72, 0xd8, 0xff, 0xff, 0x14, 0x00, 0x00, 0x00, 0x30, 0x00, 0x00, 0x00,
  0x4c, 0x00, 0x00, 0x00, 0x00, 0x00, 0x00, 0x09, 0x48, 0x00, 0x00, 0x00,
  0x64, 0xd8, 0xff, 0xff, 0x08, 0x00, 0x00, 0x00, 0x10, 0x00, 0x00, 0x00,
  0x01, 0x00, 0x00, 0x00, 0x80, 0xff, 0xff, 0xff, 0xff, 0xff, 0xff, 0xff,
  0x01, 0x00, 0x00, 0x00, 0x34, 0xc6, 0x5b, 0x3d, 0x1d, 0x00, 0x00, 0x00,
  0x6d, 0x6f, 0x64, 0x65, 0x6c, 0x2f, 0x6d, 0x61, 0x78, 0x5f, 0x70, 0x6f,
  0x6f, 0x6c, 0x69, 0x6e, 0x67, 0x31, 0x64, 0x5f, 0x31, 0x2f, 0x4d, 0x61,
  0x78, 0x50, 0x6f, 0x6f, 0x6c, 0x00, 0x00, 0x00, 0x04, 0x00, 0x00, 0x00,
  0x01, 0x00, 0x00, 0x00, 0x1e, 0x00, 0x00, 0x00, 0x01, 0x00, 0x00, 0x00,
  0x10, 0x00, 0x00, 0x00, 0xe2, 0xd8, 0xff, 0xff, 0x14, 0x00, 0x00, 0x00,
  0x34, 0x00, 0x00, 0x00, 0x4b, 0x00, 0x00, 0x00, 0x00, 0x00, 0x00, 0x09,
  0x50, 0x00, 0x00, 0x00, 0xd4, 0xd8, 0xff, 0xff, 0x08, 0x00, 0x00, 0x00,
  0x14, 0x00, 0x00, 0x00, 0x01, 0x00, 0x00, 0x00, 0x80, 0xff, 0xff, 0xff,
  0xff, 0xff, 0xff, 0xff, 0x00, 0x00, 0x00, 0x00, 0x01, 0x00, 0x00, 0x00,
  0x34, 0xc6, 0x5b, 0x3d, 0x21, 0x00, 0x00, 0x00, 0x6d, 0x6f, 0x64, 0x65,
  0x6c, 0x2f, 0x6d, 0x61, 0x78, 0x5f, 0x70, 0x6f, 0x6f, 0x6c, 0x69, 0x6e,
  0x67, 0x31, 0x64, 0x5f, 0x31, 0x2f, 0x45, 0x78, 0x70, 0x61, 0x6e, 0x64,
  0x44, 0x69, 0x6d, 0x73, 0x31, 0x00, 0x00, 0x00, 0x04, 0x00, 0x00, 0x00,
  0x01, 0x00, 0x00, 0x00, 0x1e, 0x00, 0x00, 0x00, 0x01, 0x00, 0x00, 0x00,
  0x10, 0x00, 0x00, 0x00, 0x5a, 0xd9, 0xff, 0xff, 0x14, 0x00, 0x00, 0x00,
  0x30, 0x00, 0x00, 0x00, 0x4a, 0x00, 0x00, 0x00, 0x00, 0x00, 0x00, 0x09,
  0x5c, 0x00, 0x00, 0x00, 0x4c, 0xd9, 0xff, 0xff, 0x08, 0x00, 0x00, 0x00,
  0x10, 0x00, 0x00, 0x00, 0x01, 0x00, 0x00, 0x00, 0x80, 0xff, 0xff, 0xff,
  0xff, 0xff, 0xff, 0xff, 0x01, 0x00, 0x00, 0x00, 0xb6, 0x9f, 0xd3, 0x3c,
  0x31, 0x00, 0x00, 0x00, 0x6d, 0x6f, 0x64, 0x65, 0x6c, 0x2f, 0x63, 0x6f,
  0x6e, 0x76, 0x31, 0x64, 0x5f, 0x38, 0x2f, 0x52, 0x65, 0x6c, 0x75, 0x3b,
  0x6d, 0x6f, 0x64, 0x65, 0x6c, 0x2f, 0x63, 0x6f, 0x6e, 0x76, 0x31, 0x64,
  0x5f, 0x38, 0x2f, 0x63, 0x6f, 0x6e, 0x76, 0x31, 0x64, 0x2f, 0x53, 0x71,
  0x75, 0x65, 0x65, 0x7a, 0x65, 0x00, 0x00, 0x00, 0x03, 0x00, 0x00, 0x00,
  0x01, 0x00, 0x00, 0x00, 0x1e, 0x00, 0x00, 0x00, 0x04, 0x00, 0x00, 0x00,
  0xda, 0xd9, 0xff, 0xff, 0x14, 0x00, 0x00, 0x00, 0x30, 0x00, 0x00, 0x00,
  0x49, 0x00, 0x00, 0x00, 0x00, 0x00, 0x00, 0x09, 0x70, 0x00, 0x00, 0x00,
  0xcc, 0xd9, 0xff, 0xff, 0x08, 0x00, 0x00, 0x00, 0x10, 0x00, 0x00, 0x00,
  0x01, 0x00, 0x00, 0x00, 0x80, 0xff, 0xff, 0xff, 0xff, 0xff, 0xff, 0xff,
  0x01, 0x00, 0x00, 0x00, 0xb6, 0x9f, 0xd3, 0x3c, 0x47, 0x00, 0x00, 0x00,
  0x6d, 0x6f, 0x64, 0x65, 0x6c, 0x2f, 0x63, 0x6f, 0x6e, 0x76, 0x31, 0x64,
  0x5f, 0x38, 0x2f, 0x52, 0x65, 0x6c, 0x75, 0x3b, 0x6d, 0x6f, 0x64, 0x65,
  0x6c, 0x2f, 0x63, 0x6f, 0x6e, 0x76, 0x31, 0x64, 0x5f, 0x38, 0x2f, 0x63,
  0x6f, 0x6e, 0x76, 0x31, 0x64, 0x2f, 0x53, 0x71, 0x75, 0x65, 0x65, 0x7a,
  0x65, 0x3b, 0x6d, 0x6f, 0x64, 0x65, 0x6c, 0x2f, 0x63, 0x6f, 0x6e, 0x76,
  0x31, 0x64, 0x5f, 0x38, 0x2f, 0x63, 0x6f, 0x6e, 0x76, 0x31, 0x64, 0x00,
  0x04, 0x00, 0x00, 0x00, 0x01, 0x00, 0x00, 0x00, 0x01, 0x00, 0x00, 0x00,
  0x1e, 0x00, 0x00, 0x00, 0x04, 0x00, 0x00, 0x00, 0x72, 0xda, 0xff, 0xff,
  0x14, 0x00, 0x00, 0x00, 0x30, 0x00, 0x00, 0x00, 0x48, 0x00, 0x00, 0x00,
  0x00, 0x00, 0x00, 0x09, 0x5c, 0x00, 0x00, 0x00, 0x64, 0xda, 0xff, 0xff,
  0x08, 0x00, 0x00, 0x00, 0x10, 0x00, 0x00, 0x00, 0x01, 0x00, 0x00, 0x00,
  0x80, 0xff, 0xff, 0xff, 0xff, 0xff, 0xff, 0xff, 0x01, 0x00, 0x00, 0x00,
  0xb6, 0x9f, 0xd3, 0x3c, 0x31, 0x00, 0x00, 0x00, 0x6d, 0x6f, 0x64, 0x65,
  0x6c, 0x2f, 0x63, 0x6f, 0x6e, 0x76, 0x31, 0x64, 0x5f, 0x37, 0x2f, 0x52,
  0x65, 0x6c, 0x75, 0x3b, 0x6d, 0x6f, 0x64, 0x65, 0x6c, 0x2f, 0x63, 0x6f,
  0x6e, 0x76, 0x31, 0x64, 0x5f, 0x37, 0x2f, 0x63, 0x6f, 0x6e, 0x76, 0x31,
  0x64, 0x2f, 0x53, 0x71, 0x75, 0x65, 0x65, 0x7a, 0x65, 0x00, 0x00, 0x00,
  0x03, 0x00, 0x00, 0x00, 0x01, 0x00, 0x00, 0x00, 0x1e, 0x00, 0x00, 0x00,
  0x04, 0x00, 0x00, 0x00, 0xf2, 0xda, 0xff, 0xff, 0x14, 0x00, 0x00, 0x00,
  0x30, 0x00, 0x00, 0x00, 0x47, 0x00, 0x00, 0x00, 0x00, 0x00, 0x00, 0x09,
  0x70, 0x00, 0x00, 0x00, 0xe4, 0xda, 0xff, 0xff, 0x08, 0x00, 0x00, 0x00,
  0x10, 0x00, 0x00, 0x00, 0x01, 0x00, 0x00, 0x00, 0x80, 0xff, 0xff, 0xff,
  0xff, 0xff, 0xff, 0xff, 0x01, 0x00, 0x00, 0x00, 0xb6, 0x9f, 0xd3, 0x3c,
  0x47, 0x00, 0x00, 0x00, 0x6d, 0x6f, 0x64, 0x65, 0x6c, 0x2f, 0x63, 0x6f,
  0x6e, 0x76, 0x31, 0x64, 0x5f, 0x37, 0x2f, 0x52, 0x65, 0x6c, 0x75, 0x3b,
  0x6d, 0x6f, 0x64, 0x65, 0x6c, 0x2f, 0x63, 0x6f, 0x6e, 0x76, 0x31, 0x64,
  0x5f, 0x37, 0x2f, 0x63, 0x6f, 0x6e, 0x76, 0x31, 0x64, 0x2f, 0x53, 0x71,
  0x75, 0x65, 0x65, 0x7a, 0x65, 0x3b, 0x6d, 0x6f, 0x64, 0x65, 0x6c, 0x2f,
  0x63, 0x6f, 0x6e, 0x76, 0x31, 0x64, 0x5f, 0x37, 0x2f, 0x63, 0x6f, 0x6e,
  0x76, 0x31, 0x64, 0x00, 0x04, 0x00, 0x00, 0x00, 0x01, 0x00, 0x00, 0x00,
  0x01, 0x00, 0x00, 0x00, 0x1e, 0x00, 0x00, 0x00, 0x04, 0x00, 0x00, 0x00,
  0x8a, 0xdb, 0xff, 0xff, 0x14, 0x00, 0x00, 0x00, 0x30, 0x00, 0x00, 0x00,
  0x46, 0x00, 0x00, 0x00, 0x00, 0x00, 0x00, 0x09, 0x5c, 0x00, 0x00, 0x00,
  0x7c, 0xdb, 0xff, 0xff, 0x08, 0x00, 0x00, 0x00, 0x10, 0x00, 0x00, 0x00,
  0x01, 0x00, 0x00, 0x00, 0x80, 0xff, 0xff, 0xff, 0xff, 0xff, 0xff, 0xff,
  0x01, 0x00, 0x00, 0x00, 0xb6, 0x9f, 0xd3, 0x3c, 0x31, 0x00, 0x00, 0x00,
  0x6d, 0x6f, 0x64, 0x65, 0x6c, 0x2f, 0x63, 0x6f, 0x6e, 0x76, 0x31, 0x64,
  0x5f, 0x36, 0x2f, 0x52, 0x65, 0x6c, 0x75, 0x3b, 0x6d, 0x6f, 0x64, 0x65,
  0x6c, 0x2f, 0x63, 0x6f, 0x6e, 0x76, 0x31, 0x64, 0x5f, 0x36, 0x2f, 0x63,
  0x6f, 0x6e, 0x76, 0x31, 0x64, 0x2f, 0x53, 0x71, 0x75, 0x65, 0x65, 0x7a,
  0x65, 0x00, 0x00, 0x00, 0x03, 0x00, 0x00, 0x00, 0x01, 0x00, 0x00, 0x00,
  0x1e, 0x00, 0x00, 0x00, 0x04, 0x00, 0x00, 0x00, 0x0a, 0xdc, 0xff, 0xff,
  0x14, 0x00, 0x00, 0x00, 0x30, 0x00, 0x00, 0x00, 0x45, 0x00, 0x00, 0x00,
  0x00, 0x00, 0x00, 0x09, 0x70, 0x00, 0x00, 0x00, 0xfc, 0xdb, 0xff, 0xff,
  0x08, 0x00, 0x00, 0x00, 0x10, 0x00, 0x00, 0x00, 0x01, 0x00, 0x00, 0x00,
  0x80, 0xff, 0xff, 0xff, 0xff, 0xff, 0xff, 0xff, 0x01, 0x00, 0x00, 0x00,
  0xb6, 0x9f, 0xd3, 0x3c, 0x47, 0x00, 0x00, 0x00, 0x6d, 0x6f, 0x64, 0x65,
  0x6c, 0x2f, 0x63, 0x6f, 0x6e, 0x76, 0x31, 0x64, 0x5f, 0x36, 0x2f, 0x52,
  0x65, 0x6c, 0x75, 0x3b, 0x6d, 0x6f, 0x64, 0x65, 0x6c, 0x2f, 0x63, 0x6f,
  0x6e, 0x76, 0x31, 0x64, 0x5f, 0x36, 0x2f, 0x63, 0x6f, 0x6e, 0x76, 0x31,
  0x64, 0x2f, 0x53, 0x71, 0x75, 0x65, 0x65, 0x7a, 0x65, 0x3b, 0x6d, 0x6f,
  0x64, 0x65, 0x6c, 0x2f, 0x63, 0x6f, 0x6e, 0x76, 0x31, 0x64, 0x5f, 0x36,
  0x2f, 0x63, 0x6f, 0x6e, 0x76, 0x31, 0x64, 0x00, 0x04, 0x00, 0x00, 0x00,
  0x01, 0x00, 0x00, 0x00, 0x01, 0x00, 0x00, 0x00, 0x1e, 0x00, 0x00, 0x00,
  0x04, 0x00, 0x00, 0x00, 0xa2, 0xdc, 0xff, 0xff, 0x14, 0x00, 0x00, 0x00,
  0x30, 0x00, 0x00, 0x00, 0x44, 0x00, 0x00, 0x00, 0x00, 0x00, 0x00, 0x09,
  0x70, 0x00, 0x00, 0x00, 0x94, 0xdc, 0xff, 0xff, 0x08, 0x00, 0x00, 0x00,
  0x10, 0x00, 0x00, 0x00, 0x01, 0x00, 0x00, 0x00, 0x80, 0xff, 0xff, 0xff,
  0xff, 0xff, 0xff, 0xff, 0x01, 0x00, 0x00, 0x00, 0x92, 0x2d, 0x25, 0x3c,
  0x47, 0x00, 0x00, 0x00, 0x6d, 0x6f, 0x64, 0x65, 0x6c, 0x2f, 0x63, 0x6f,
  0x6e, 0x76, 0x31, 0x64, 0x5f, 0x35, 0x2f, 0x52, 0x65, 0x6c, 0x75, 0x3b,
  0x6d, 0x6f, 0x64, 0x65, 0x6c, 0x2f, 0x63, 0x6f, 0x6e, 0x76, 0x31, 0x64,
  0x5f, 0x35, 0x2f, 0x63, 0x6f, 0x6e, 0x76, 0x31, 0x64, 0x2f, 0x53, 0x71,
  0x75, 0x65, 0x65, 0x7a, 0x65, 0x3b, 0x6d, 0x6f, 0x64, 0x65, 0x6c, 0x2f,
  0x63, 0x6f, 0x6e, 0x76, 0x31, 0x64, 0x5f, 0x35, 0x2f, 0x63, 0x6f, 0x6e,
  0x76, 0x31, 0x64, 0x00, 0x04, 0x00, 0x00, 0x00, 0x01, 0x00, 0x00, 0x00,
  0x01, 0x00, 0x00, 0x00, 0x1e, 0x00, 0x00, 0x00, 0x01, 0x00, 0x00, 0x00,
  0x3a, 0xdd, 0xff, 0xff, 0x14, 0x00, 0x00, 0x00, 0x34, 0x00, 0x00, 0x00,
  0x43, 0x00, 0x00, 0x00, 0x00, 0x00, 0x00, 0x09, 0x50, 0x00, 0x00, 0x00,
  0x2c, 0xdd, 0xff, 0xff, 0x08, 0x00, 0x00, 0x00, 0x14, 0x00, 0x00, 0x00,
  0x01, 0x00, 0x00, 0x00, 0x80, 0xff, 0xff, 0xff, 0xff, 0xff, 0xff, 0xff,
  0x00, 0x00, 0x00, 0x00, 0x01, 0x00, 0x00, 0x00, 0x34, 0xc6, 0x5b, 0x3d,
  0x21, 0x00, 0x00, 0x00, 0x6d, 0x6f, 0x64, 0x65, 0x6c, 0x2f, 0x63, 0x6f,
  0x6e, 0x76, 0x31, 0x64, 0x5f, 0x35, 0x2f, 0x63, 0x6f, 0x6e, 0x76, 0x31,
  0x64, 0x2f, 0x45, 0x78, 0x70, 0x61, 0x6e, 0x64, 0x44, 0x69, 0x6d, 0x73,
  0x31, 0x00, 0x00, 0x00, 0x04, 0x00, 0x00, 0x00, 0x01, 0x00, 0x00, 0x00,
  0x01, 0x00, 0x00, 0x00, 0x1e, 0x00, 0x00, 0x00, 0x10, 0x00, 0x00, 0x00,
  0xb2, 0xdd, 0xff, 0xff, 0x14, 0x00, 0x00, 0x00, 0x34, 0x00, 0x00, 0x00,
  0x42, 0x00, 0x00, 0x00, 0x00, 0x00, 0x00, 0x09, 0x6c, 0x00, 0x00, 0x00,
  0xa4, 0xdd, 0xff, 0xff, 0x08, 0x00, 0x00, 0x00, 0x14, 0x00, 0x00, 0x00,
  0x01, 0x00, 0x00, 0x00, 0x80, 0xff, 0xff, 0xff, 0xff, 0xff, 0xff, 0xff,
  0x00, 0x00, 0x00, 0x00, 0x01, 0x00, 0x00, 0x00, 0x34, 0xc6, 0x5b, 0x3d,
  0x3f, 0x00, 0x00, 0x00, 0x6d, 0x6f, 0x64, 0x65, 0x6c, 0x2f, 0x61, 0x63,
  0x74, 0x69, 0x76, 0x61, 0x74, 0x69, 0x6f, 0x6e, 0x2f, 0x52, 0x65, 0x6c,
  0x75, 0x3b, 0x6d, 0x6f, 0x64, 0x65, 0x6c, 0x2f, 0x62, 0x61, 0x74, 0x63,
  0x68, 0x5f, 0x6e, 0x6f, 0x72, 0x6d, 0x61, 0x6c, 0x69, 0x7a, 0x61, 0x74,
  0x69, 0x6f, 0x6e, 0x2f, 0x62, 0x61, 0x74, 0x63, 0x68, 0x6e, 0x6f, 0x72,
  0x6d, 0x2f, 0x61, 0x64, 0x64, 0x5f, 0x31, 0x00, 0x03, 0x00, 0x00, 0x00,
  0x01, 0x00, 0x00, 0x00, 0x1e, 0x00, 0x00, 0x00, 0x10, 0x00, 0x00, 0x00,
  0x42, 0xde, 0xff, 0xff, 0x14, 0x00, 0x00, 0x00, 0x30, 0x00, 0x00, 0x00,
  0x41, 0x00, 0x00, 0x00, 0x00, 0x00, 0x00, 0x09, 0x54, 0x00, 0x00, 0x00,
  0x34, 0xde, 0xff, 0xff, 0x08, 0x00, 0x00, 0x00, 0x10, 0x00, 0x00, 0x00,
  0x01, 0x00, 0x00, 0x00, 0x80, 0xff, 0xff, 0xff, 0xff, 0xff, 0xff, 0xff,
  0x01, 0x00, 0x00, 0x00, 0x27, 0xe8, 0x5c, 0x3d, 0x29, 0x00, 0x00, 0x00,
  0x6d, 0x6f, 0x64, 0x65, 0x6c, 0x2f, 0x62, 0x61, 0x74, 0x63, 0x68, 0x5f,
  0x6e, 0x6f, 0x72, 0x6d, 0x61, 0x6c, 0x69, 0x7a, 0x61, 0x74, 0x69, 0x6f,
  0x6e, 0x2f, 0x62, 0x61, 0x74, 0x63, 0x68, 0x6e, 0x6f, 0x72, 0x6d, 0x2f,
  0x6d, 0x75, 0x6c, 0x5f, 0x31, 0x00, 0x00, 0x00, 0x03, 0x00, 0x00, 0x00,
  0x01, 0x00, 0x00, 0x00, 0x1e, 0x00, 0x00, 0x00, 0x10, 0x00, 0x00, 0x00,
  0xba, 0xde, 0xff, 0xff, 0x14, 0x00, 0x00, 0x00, 0x30, 0x00, 0x00, 0x00,
  0x40, 0x00, 0x00, 0x00, 0x00, 0x00, 0x00, 0x09, 0x44, 0x00, 0x00, 0x00,
  0xac, 0xde, 0xff, 0xff, 0x08, 0x00, 0x00, 0x00, 0x10, 0x00, 0x00, 0x00,
  0x01, 0x00, 0x00, 0x00, 0x80, 0xff, 0xff, 0xff, 0xff, 0xff, 0xff, 0xff,
  0x01, 0x00, 0x00, 0x00, 0xc8, 0x8c, 0xd9, 0x3c, 0x18, 0x00, 0x00, 0x00,
  0x6d, 0x6f, 0x64, 0x65, 0x6c, 0x2f, 0x63, 0x6f, 0x6e, 0x63, 0x61, 0x74,
  0x65, 0x6e, 0x61, 0x74, 0x65, 0x2f, 0x63, 0x6f, 0x6e, 0x63, 0x61, 0x74,
  0x00, 0x00, 0x00, 0x00, 0x03, 0x00, 0x00, 0x00, 0x01, 0x00, 0x00, 0x00,
  0x1e, 0x00, 0x00, 0x00, 0x10, 0x00, 0x00, 0x00, 0x22, 0xdf, 0xff, 0xff,
  0x14, 0x00, 0x00, 0x00, 0x30, 0x00, 0x00, 0x00, 0x3f, 0x00, 0x00, 0x00,
  0x00, 0x00, 0x00, 0x09, 0x5c, 0x00, 0x00, 0x00, 0x14, 0xdf, 0xff, 0xff,
  0x08, 0x00, 0x00, 0x00, 0x10, 0x00, 0x00, 0x00, 0x01, 0x00, 0x00, 0x00,
  0x80, 0xff, 0xff, 0xff, 0xff, 0xff, 0xff, 0xff, 0x01, 0x00, 0x00, 0x00,
  0xc8, 0x8c, 0xd9, 0x3c, 0x31, 0x00, 0x00, 0x00, 0x6d, 0x6f, 0x64, 0x65,
  0x6c, 0x2f, 0x63, 0x6f, 0x6e, 0x76, 0x31, 0x64, 0x5f, 0x34, 0x2f, 0x52,
  0x65, 0x6c, 0x75, 0x3b, 0x6d, 0x6f, 0x64, 0x65, 0x6c, 0x2f, 0x63, 0x6f,
  0x6e, 0x76, 0x31, 0x64, 0x5f, 0x34, 0x2f, 0x63, 0x6f, 0x6e, 0x76, 0x31,
  0x64, 0x2f, 0x53, 0x71, 0x75, 0x65, 0x65, 0x7a, 0x65, 0x00, 0x00, 0x00,
  0x03, 0x00, 0x00, 0x00, 0x01, 0x00, 0x00, 0x00, 0x1e, 0x00, 0x00, 0x00,
  0x04, 0x00, 0x00, 0x00, 0xa2, 0xdf, 0xff, 0xff, 0x14, 0x00, 0x00, 0x00,
  0x30, 0x00, 0x00, 0x00, 0x3e, 0x00, 0x00, 0x00, 0x00, 0x00, 0x00, 0x09,
  0x70, 0x00, 0x00, 0x00, 0x94, 0xdf, 0xff, 0xff, 0x08, 0x00, 0x00, 0x00,
  0x10, 0x00, 0x00, 0x00, 0x01, 0x00, 0x00, 0x00, 0x80, 0xff, 0xff, 0xff,
  0xff, 0xff, 0xff, 0xff, 0x01, 0x00, 0x00, 0x00, 0xc8, 0x8c, 0xd9, 0x3c,
  0x47, 0x00, 0x00, 0x00, 0x6d, 0x6f, 0x64, 0x65, 0x6c, 0x2f, 0x63, 0x6f,
  0x6e, 0x76, 0x31, 0x64, 0x5f, 0x34, 0x2f, 0x52, 0x65, 0x6c, 0x75, 0x3b,
  0x6d, 0x6f, 0x64, 0x65, 0x6c, 0x2f, 0x63, 0x6f, 0x6e, 0x76, 0x31, 0x64,
  0x5f, 0x34, 0x2f, 0x63, 0x6f, 0x6e, 0x76, 0x31, 0x64, 0x2f, 0x53, 0x71,
  0x75, 0x65, 0x65, 0x7a, 0x65, 0x3b, 0x6d, 0x6f, 0x64, 0x65, 0x6c, 0x2f,
  0x63, 0x6f, 0x6e, 0x76, 0x31, 0x64, 0x5f, 0x34, 0x2f, 0x63, 0x6f, 0x6e,
  0x76, 0x31, 0x64, 0x00, 0x04, 0x00, 0x00, 0x00, 0x01, 0x00, 0x00, 0x00,
  0x01, 0x00, 0x00, 0x00, 0x1e, 0x00, 0x00, 0x00, 0x04, 0x00, 0x00, 0x00,
  0x3a, 0xe0, 0xff, 0xff, 0x14, 0x00, 0x00, 0x00, 0x34, 0x00, 0x00, 0x00,
  0x3d, 0x00, 0x00, 0x00, 0x00, 0x00, 0x00, 0x09, 0x50, 0x00, 0x00, 0x00,
  0x2c, 0xe0, 0xff, 0xff, 0x08, 0x00, 0x00, 0x00, 0x14, 0x00, 0x00, 0x00,
  0x01, 0x00, 0x00, 0x00, 0xfe, 0xff, 0xff, 0xff, 0xff, 0xff, 0xff, 0xff,
  0x00, 0x00, 0x00, 0x00, 0x01, 0x00, 0x00, 0x00, 0x40, 0xb1, 0x67, 0x3d,
  0x20, 0x00, 0x00, 0x00, 0x6d, 0x6f, 0x64, 0x65, 0x6c, 0x2f, 0x63, 0x6f,
  0x6e, 0x76, 0x31, 0x64, 0x5f, 0x34, 0x2f, 0x63, 0x6f, 0x6e, 0x76, 0x31,
  0x64, 0x2f, 0x45, 0x78, 0x70, 0x61, 0x6e, 0x64, 0x44, 0x69, 0x6d, 0x73,
  0x00, 0x00, 0x00, 0x00, 0x04, 0x00, 0x00, 0x00, 0x01, 0x00, 0x00, 0x00,
  0x01, 0x00, 0x00, 0x00, 0x1e, 0x00, 0x00, 0x00, 0x06, 0x00, 0x00, 0x00,
  0xb2, 0xe0, 0xff, 0xff, 0x14, 0x00, 0x00, 0x00, 0x34, 0x00, 0x00, 0x00,
  0x3c, 0x00, 0x00, 0x00, 0x00, 0x00, 0x00, 0x09, 0x48, 0x00, 0x00, 0x00,
  0xa4, 0xe0, 0xff, 0xff, 0x08, 0x00, 0x00, 0x00, 0x14, 0x00, 0x00, 0x00,
  0x01, 0x00, 0x00, 0x00, 0xfe, 0xff, 0xff, 0xff, 0xff, 0xff, 0xff, 0xff,
  0x00, 0x00, 0x00, 0x00, 0x01, 0x00, 0x00, 0x00, 0x40, 0xb1, 0x67, 0x3d,
  0x1b, 0x00, 0x00, 0x00, 0x6d, 0x6f, 0x64, 0x65, 0x6c, 0x2f, 0x6d, 0x61,
  0x78, 0x5f, 0x70, 0x6f, 0x6f, 0x6c, 0x69, 0x6e, 0x67, 0x31, 0x64, 0x2f,
  0x4d, 0x61, 0x78, 0x50, 0x6f, 0x6f, 0x6c, 0x00, 0x04, 0x00, 0x00, 0x00,
  0x01, 0x00, 0x00, 0x00, 0x1e, 0x00, 0x00, 0x00, 0x01, 0x00, 0x00, 0x00,
  0x06, 0x00, 0x00, 0x00, 0x22, 0xe1, 0xff, 0xff, 0x14, 0x00, 0x00, 0x00,
  0x30, 0x00, 0x00, 0x00, 0x3b, 0x00, 0x00, 0x00, 0x00, 0x00, 0x00, 0x09,
  0x48, 0x00, 0x00, 0x00, 0x14, 0xe1, 0xff, 0xff, 0x08, 0x00, 0x00, 0x00,
  0x10, 0x00, 0x00, 0x00, 0x01, 0x00, 0x00, 0x00, 0xfe, 0xff, 0xff, 0xff,
  0xff, 0xff, 0xff, 0xff, 0x01, 0x00, 0x00, 0x00, 0x40, 0xb1, 0x67, 0x3d,
  0x1f, 0x00, 0x00, 0x00, 0x6d, 0x6f, 0x64, 0x65, 0x6c, 0x2f, 0x6d, 0x61,
  0x78, 0x5f, 0x70, 0x6f, 0x6f, 0x6c, 0x69, 0x6e, 0x67, 0x31, 0x64, 0x2f,
  0x45, 0x78, 0x70, 0x61, 0x6e, 0x64, 0x44, 0x69, 0x6d, 0x73, 0x31, 0x00,
  0x04, 0x00, 0x00, 0x00, 0x01, 0x00, 0x00, 0x00, 0x1e, 0x00, 0x00, 0x00,
  0x01, 0x00, 0x00, 0x00, 0x06, 0x00, 0x00, 0x00, 0x92, 0xe1, 0xff, 0xff,
  0x14, 0x00, 0x00, 0x00, 0x30, 0x00, 0x00, 0x00, 0x3a, 0x00, 0x00, 0x00,
  0x00, 0x00, 0x00, 0x09, 0xf4, 0x00, 0x00, 0x00, 0x84, 0xe1, 0xff, 0xff,
  0x08, 0x00, 0x00, 0x00, 0x10, 0x00, 0x00, 0x00, 0x01, 0x00, 0x00, 0x00,
  0xf4, 0xff, 0xff, 0xff, 0xff, 0xff, 0xff, 0xff, 0x01, 0x00, 0x00, 0x00,
  0xe6, 0xcd, 0xa1, 0x3d, 0xca, 0x00, 0x00, 0x00, 0x6d, 0x6f, 0x64, 0x65,
  0x6c, 0x2f, 0x62, 0x61, 0x74, 0x63, 0x68, 0x5f, 0x6e, 0x6f, 0x72, 0x6d,
  0x61, 0x6c, 0x69, 0x7a, 0x61, 0x74, 0x69, 0x6f, 0x6e, 0x5f, 0x33, 0x2f,
  0x62, 0x61, 0x74, 0x63, 0x68, 0x6e, 0x6f, 0x72, 0x6d, 0x2f, 0x61, 0x64,
  0x64, 0x5f, 0x31, 0x3b, 0x6d, 0x6f, 0x64, 0x65, 0x6c, 0x2f, 0x63, 0x6f,
  0x6e, 0x76, 0x31, 0x64, 0x5f, 0x31, 0x35, 0x2f, 0x63, 0x6f, 0x6e, 0x76,
  0x31, 0x64, 0x2f, 0x53, 0x71, 0x75, 0x65, 0x65, 0x7a, 0x65, 0x3b, 0x6d,
  0x6f, 0x64, 0x65, 0x6c, 0x2f, 0x62, 0x61, 0x74, 0x63, 0x68, 0x5f, 0x6e,
  0x6f, 0x72, 0x6d, 0x61, 0x6c, 0x69, 0x7a, 0x61, 0x74, 0x69, 0x6f, 0x6e,
  0x5f, 0x33, 0x2f, 0x62, 0x61, 0x74, 0x63, 0x68, 0x6e, 0x6f, 0x72, 0x6d,
  0x2f, 0x6d, 0x75, 0x6c, 0x5f, 0x31, 0x3b, 0x6d, 0x6f, 0x64, 0x65, 0x6c,
  0x2f, 0x62, 0x61, 0x74, 0x63, 0x68, 0x5f, 0x6e, 0x6f, 0x72, 0x6d, 0x61,
  0x6c, 0x69, 0x7a, 0x61, 0x74, 0x69, 0x6f, 0x6e, 0x5f, 0x33, 0x2f, 0x62,
  0x61, 0x74, 0x63, 0x68, 0x6e, 0x6f, 0x72, 0x6d, 0x2f, 0x6d, 0x75, 0x6c,
  0x3b, 0x6d, 0x6f, 0x64, 0x65, 0x6c, 0x2f, 0x62, 0x61, 0x74, 0x63, 0x68,
  0x5f, 0x6e, 0x6f, 0x72, 0x6d, 0x61, 0x6c, 0x69, 0x7a, 0x61, 0x74, 0x69,
  0x6f, 0x6e, 0x5f, 0x33, 0x2f, 0x62, 0x61, 0x74, 0x63, 0x68, 0x6e, 0x6f,
  0x72, 0x6d, 0x2f, 0x73, 0x75, 0x62, 0x00, 0x00, 0x03, 0x00, 0x00, 0x00,
  0x01, 0x00, 0x00, 0x00, 0x1e, 0x00, 0x00, 0x00, 0x10, 0x00, 0x00, 0x00,
  0xaa, 0xe2, 0xff, 0xff, 0x14, 0x00, 0x00, 0x00, 0x34, 0x00, 0x00, 0x00,
  0x39, 0x00, 0x00, 0x00, 0x00, 0x00, 0x00, 0x09, 0x10, 0x01, 0x00, 0x00,
  0x9c, 0xe2, 0xff, 0xff, 0x08, 0x00, 0x00, 0x00, 0x14, 0x00, 0x00, 0x00,
  0x01, 0x00, 0x00, 0x00, 0xf4, 0xff, 0xff, 0xff, 0xff, 0xff, 0xff, 0xff,
  0x00, 0x00, 0x00, 0x00, 0x01, 0x00, 0x00, 0x00, 0xe6, 0xcd, 0xa1, 0x3d,
  0xe2, 0x00, 0x00, 0x00, 0x6d, 0x6f, 0x64, 0x65, 0x6c, 0x2f, 0x62, 0x61,
  0x74, 0x63, 0x68, 0x5f, 0x6e, 0x6f, 0x72, 0x6d, 0x61, 0x6c, 0x69, 0x7a,
  0x61, 0x74, 0x69, 0x6f, 0x6e, 0x5f, 0x33, 0x2f, 0x62, 0x61, 0x74, 0x63,
  0x68, 0x6e, 0x6f, 0x72, 0x6d, 0x2f, 0x61, 0x64, 0x64, 0x5f, 0x31, 0x3b,
  0x6d, 0x6f, 0x64, 0x65, 0x6c, 0x2f, 0x63, 0x6f, 0x6e, 0x76, 0x31, 0x64,
  0x5f, 0x31, 0x35, 0x2f, 0x63, 0x6f, 0x6e, 0x76, 0x31, 0x64, 0x2f, 0x53,
  0x71, 0x75, 0x65, 0x65, 0x7a, 0x65, 0x3b, 0x6d, 0x6f, 0x64, 0x65, 0x6c,
  0x2f, 0x62, 0x61, 0x74, 0x63, 0x68, 0x5f, 0x6e, 0x6f, 0x72, 0x6d, 0x61,
  0x6c, 0x69, 0x7a, 0x61, 0x74, 0x69, 0x6f, 0x6e, 0x5f, 0x33, 0x2f, 0x62,
  0x61, 0x74, 0x63, 0x68, 0x6e, 0x6f, 0x72, 0x6d, 0x2f, 0x6d, 0x75, 0x6c,
  0x5f, 0x31, 0x3b, 0x6d, 0x6f, 0x64, 0x65, 0x6c, 0x2f, 0x62, 0x61, 0x74,
  0x63, 0x68, 0x5f, 0x6e, 0x6f, 0x72, 0x6d, 0x61, 0x6c, 0x69, 0x7a, 0x61,
  0x74, 0x69, 0x6f, 0x6e, 0x5f, 0x33, 0x2f, 0x62, 0x61, 0x74, 0x63, 0x68,
  0x6e, 0x6f, 0x72, 0x6d, 0x2f, 0x6d, 0x75, 0x6c, 0x3b, 0x6d, 0x6f, 0x64,
  0x65, 0x6c, 0x2f, 0x62, 0x61, 0x74, 0x63, 0x68, 0x5f, 0x6e, 0x6f, 0x72,
  0x6d, 0x61, 0x6c, 0x69, 0x7a, 0x61, 0x74, 0x69, 0x6f, 0x6e, 0x5f, 0x33,
  0x2f, 0x62, 0x61, 0x74, 0x63, 0x68, 0x6e, 0x6f, 0x72, 0x6d, 0x2f, 0x73,
  0x75, 0x62, 0x3b, 0x6d, 0x6f, 0x64, 0x65, 0x6c, 0x2f, 0x63, 0x6f, 0x6e,
  0x76, 0x31, 0x64, 0x5f, 0x31, 0x35, 0x2f, 0x63, 0x6f, 0x6e, 0x76, 0x31,
  0x64, 0x31, 0x00, 0x00, 0x04, 0x00, 0x00, 0x00, 0x01, 0x00, 0x00, 0x00,
  0x01, 0x00, 0x00, 0x00, 0x1e, 0x00, 0x00, 0x00, 0x10, 0x00, 0x00, 0x00,
  0xe2, 0xe3, 0xff, 0xff, 0x14, 0x00, 0x00, 0x00, 0x30, 0x00, 0x00, 0x00,
  0x38, 0x00, 0x00, 0x00, 0x00, 0x00, 0x00, 0x09, 0x5c, 0x00, 0x00, 0x00,
  0xd4, 0xe3, 0xff, 0xff, 0x08, 0x00, 0x00, 0x00, 0x10, 0x00, 0x00, 0x00,
  0x01, 0x00, 0x00, 0x00, 0x80, 0xff, 0xff, 0xff, 0xff, 0xff, 0xff, 0xff,
  0x01, 0x00, 0x00, 0x00, 0xc8, 0x8c, 0xd9, 0x3c, 0x31, 0x00, 0x00, 0x00,
  0x6d, 0x6f, 0x64, 0x65, 0x6c, 0x2f, 0x63, 0x6f, 0x6e, 0x76, 0x31, 0x64,
  0x5f, 0x33, 0x2f, 0x52, 0x65, 0x6c, 0x75, 0x3b, 0x6d, 0x6f, 0x64, 0x65,
  0x6c, 0x2f, 0x63, 0x6f, 0x6e, 0x76, 0x31, 0x64, 0x5f, 0x33, 0x2f, 0x63,
  0x6f, 0x6e, 0x76, 0x31, 0x64, 0x2f, 0x53, 0x71, 0x75, 0x65, 0x65, 0x7a,
  0x65, 0x00, 0x00, 0x00, 0x03, 0x00, 0x00, 0x00, 0x01, 0x00, 0x00, 0x00,
  0x1e, 0x00, 0x00, 0x00, 0x04, 0x00, 0x00, 0x00, 0x62, 0xe4, 0xff, 0xff,
  0x14, 0x00, 0x00, 0x00, 0x30, 0x00, 0x00, 0x00, 0x37, 0x00, 0x00, 0x00,
  0x00, 0x00, 0x00, 0x09, 0x70, 0x00, 0x00, 0x00, 0x54, 0xe4, 0xff, 0xff,
  0x08, 0x00, 0x00, 0x00, 0x10, 0x00, 0x00, 0x00, 0x01, 0x00, 0x00, 0x00,
  0x80, 0xff, 0xff, 0xff, 0xff, 0xff, 0xff, 0xff, 0x01, 0x00, 0x00, 0x00,
  0xc8, 0x8c, 0xd9, 0x3c, 0x47, 0x00, 0x00, 0x00, 0x6d, 0x6f, 0x64, 0x65,
  0x6c, 0x2f, 0x63, 0x6f, 0x6e, 0x76, 0x31, 0x64, 0x5f, 0x33, 0x2f, 0x52,
  0x65, 0x6c, 0x75, 0x3b, 0x6d, 0x6f, 0x64, 0x65, 0x6c, 0x2f, 0x63, 0x6f,
  0x6e, 0x76, 0x31, 0x64, 0x5f, 0x33, 0x2f, 0x63, 0x6f, 0x6e, 0x76, 0x31,
  0x64, 0x2f, 0x53, 0x71, 0x75, 0x65, 0x65, 0x7a, 0x65, 0x3b, 0x6d, 0x6f,
  0x64, 0x65, 0x6c, 0x2f, 0x63, 0x6f, 0x6e, 0x76, 0x31, 0x64, 0x5f, 0x33,
  0x2f, 0x63, 0x6f, 0x6e, 0x76, 0x31, 0x64, 0x00, 0x04, 0x00, 0x00, 0x00,
  0x01, 0x00, 0x00, 0x00, 0x01, 0x00, 0x00, 0x00, 0x1e, 0x00, 0x00, 0x00,
  0x04, 0x00, 0x00, 0x00, 0xfa, 0xe4, 0xff, 0xff, 0x14, 0x00, 0x00, 0x00,
  0x30, 0x00, 0x00, 0x00, 0x36, 0x00, 0x00, 0x00, 0x00, 0x00, 0x00, 0x09,
  0x5c, 0x00, 0x00, 0x00, 0xec, 0xe4, 0xff, 0xff, 0x08, 0x00, 0x00, 0x00,
  0x10, 0x00, 0x00, 0x00, 0x01, 0x00, 0x00, 0x00, 0x80, 0xff, 0xff, 0xff,
  0xff, 0xff, 0xff, 0xff, 0x01, 0x00, 0x00, 0x00, 0xc8, 0x8c, 0xd9, 0x3c,
  0x31, 0x00, 0x00, 0x00, 0x6d, 0x6f, 0x64, 0x65, 0x6c, 0x2f, 0x63, 0x6f,
  0x6e, 0x76, 0x31, 0x64, 0x5f, 0x32, 0x2f, 0x52, 0x65, 0x6c, 0x75, 0x3b,
  0x6d, 0x6f, 0x64, 0x65, 0x6c, 0x2f, 0x63, 0x6f, 0x6e, 0x76, 0x31, 0x64,
  0x5f, 0x32, 0x2f, 0x63, 0x6f, 0x6e, 0x76, 0x31, 0x64, 0x2f, 0x53, 0x71,
  0x75, 0x65, 0x65, 0x7a, 0x65, 0x00, 0x00, 0x00, 0x03, 0x00, 0x00, 0x00,
  0x01, 0x00, 0x00, 0x00, 0x1e, 0x00, 0x00, 0x00, 0x04, 0x00, 0x00, 0x00,
  0x7a, 0xe5, 0xff, 0xff, 0x14, 0x00, 0x00, 0x00, 0x30, 0x00, 0x00, 0x00,
  0x35, 0x00, 0x00, 0x00, 0x00, 0x00, 0x00, 0x09, 0x70, 0x00, 0x00, 0x00,
  0x6c, 0xe5, 0xff, 0xff, 0x08, 0x00, 0x00, 0x00, 0x10, 0x00, 0x00, 0x00,
  0x01, 0x00, 0x00, 0x00, 0x80, 0xff, 0xff, 0xff, 0xff, 0xff, 0xff, 0xff,
  0x01, 0x00, 0x00, 0x00, 0xc8, 0x8c, 0xd9, 0x3c, 0x47, 0x00, 0x00, 0x00,
  0x6d, 0x6f, 0x64, 0x65, 0x6c, 0x2f, 0x63, 0x6f, 0x6e, 0x76, 0x31, 0x64,
  0x5f, 0x32, 0x2f, 0x52, 0x65, 0x6c, 0x75, 0x3b, 0x6d, 0x6f, 0x64, 0x65,
  0x6c, 0x2f, 0x63, 0x6f, 0x6e, 0x76, 0x31, 0x64, 0x5f, 0x32, 0x2f, 0x63,
  0x6f, 0x6e, 0x76, 0x31, 0x64, 0x2f, 0x53, 0x71, 0x75, 0x65, 0x65, 0x7a,
  0x65, 0x3b, 0x6d, 0x6f, 0x64, 0x65, 0x6c, 0x2f, 0x63, 0x6f, 0x6e, 0x76,
  0x31, 0x64, 0x5f, 0x32, 0x2f, 0x63, 0x6f, 0x6e, 0x76, 0x31, 0x64, 0x00,
  0x04, 0x00, 0x00, 0x00, 0x01, 0x00, 0x00, 0x00, 0x01, 0x00, 0x00, 0x00,
  0x1e, 0x00, 0x00, 0x00, 0x04, 0x00, 0x00, 0x00, 0x12, 0xe6, 0xff, 0xff,
  0x14, 0x00, 0x00, 0x00, 0x30, 0x00, 0x00, 0x00, 0x34, 0x00, 0x00, 0x00,
  0x00, 0x00, 0x00, 0x09, 0x5c, 0x00, 0x00, 0x00, 0x04, 0xe6, 0xff, 0xff,
  0x08, 0x00, 0x00, 0x00, 0x10, 0x00, 0x00, 0x00, 0x01, 0x00, 0x00, 0x00,
  0x80, 0xff, 0xff, 0xff, 0xff, 0xff, 0xff, 0xff, 0x01, 0x00, 0x00, 0x00,
  0xc8, 0x8c, 0xd9, 0x3c, 0x31, 0x00, 0x00, 0x00, 0x6d, 0x6f, 0x64, 0x65,
  0x6c, 0x2f, 0x63, 0x6f, 0x6e, 0x76, 0x31, 0x64, 0x5f, 0x31, 0x2f, 0x52,
  0x65, 0x6c, 0x75, 0x3b, 0x6d, 0x6f, 0x64, 0x65, 0x6c, 0x2f, 0x63, 0x6f,
  0x6e, 0x76, 0x31, 0x64, 0x5f, 0x31, 0x2f, 0x63, 0x6f, 0x6e, 0x76, 0x31,
  0x64, 0x2f, 0x53, 0x71, 0x75, 0x65, 0x65, 0x7a, 0x65, 0x00, 0x00, 0x00,
  0x03, 0x00, 0x00, 0x00, 0x01, 0x00, 0x00, 0x00, 0x1e, 0x00, 0x00, 0x00,
  0x04, 0x00, 0x00, 0x00, 0x92, 0xe6, 0xff, 0xff, 0x14, 0x00, 0x00, 0x00,
  0x30, 0x00, 0x00, 0x00, 0x33, 0x00, 0x00, 0x00, 0x00, 0x00, 0x00, 0x09,
  0x70, 0x00, 0x00, 0x00, 0x84, 0xe6, 0xff, 0xff, 0x08, 0x00, 0x00, 0x00,
  0x10, 0x00, 0x00, 0x00, 0x01, 0x00, 0x00, 0x00, 0x80, 0xff, 0xff, 0xff,
  0xff, 0xff, 0xff, 0xff, 0x01, 0x00, 0x00, 0x00, 0xc8, 0x8c, 0xd9, 0x3c,
  0x47, 0x00, 0x00, 0x00, 0x6d, 0x6f, 0x64, 0x65, 0x6c, 0x2f, 0x63, 0x6f,
  0x6e, 0x76, 0x31, 0x64, 0x5f, 0x31, 0x2f, 0x52, 0x65, 0x6c, 0x75, 0x3b,
  0x6d, 0x6f, 0x64, 0x65, 0x6c, 0x2f, 0x63, 0x6f, 0x6e, 0x76, 0x31, 0x64,
  0x5f, 0x31, 0x2f, 0x63, 0x6f, 0x6e, 0x76, 0x31, 0x64, 0x2f, 0x53, 0x71,
  0x75, 0x65, 0x65, 0x7a, 0x65, 0x3b, 0x6d, 0x6f, 0x64, 0x65, 0x6c, 0x2f,
  0x63, 0x6f, 0x6e, 0x76, 0x31, 0x64, 0x5f, 0x31, 0x2f, 0x63, 0x6f, 0x6e,
  0x76, 0x31, 0x64, 0x00, 0x04, 0x00, 0x00, 0x00, 0x01, 0x00, 0x00, 0x00,
  0x01, 0x00, 0x00, 0x00, 0x1e, 0x00, 0x00, 0x00, 0x04, 0x00, 0x00, 0x00,
  0x2a, 0xe7, 0xff, 0xff, 0x14, 0x00, 0x00, 0x00, 0x34, 0x00, 0x00, 0x00,
  0x32, 0x00, 0x00, 0x00, 0x00, 0x00, 0x00, 0x09, 0x70, 0x00, 0x00, 0x00,
  0x1c, 0xe7, 0xff, 0xff, 0x08, 0x00, 0x00, 0x00, 0x14, 0x00, 0x00, 0x00,
  0x01, 0x00, 0x00, 0x00, 0x80, 0xff, 0xff, 0xff, 0xff, 0xff, 0xff, 0xff,
  0x00, 0x00, 0x00, 0x00, 0x01, 0x00, 0x00, 0x00, 0x34, 0x35, 0x02, 0x3d,
  0x41, 0x00, 0x00, 0x00, 0x6d, 0x6f, 0x64, 0x65, 0x6c, 0x2f, 0x63, 0x6f,
  0x6e, 0x76, 0x31, 0x64, 0x2f, 0x52, 0x65, 0x6c, 0x75, 0x3b, 0x6d, 0x6f,
  0x64, 0x65, 0x6c, 0x2f, 0x63, 0x6f, 0x6e, 0x76, 0x31, 0x64, 0x2f, 0x63,
  0x6f, 0x6e, 0x76, 0x31, 0x64, 0x2f, 0x53, 0x71, 0x75, 0x65, 0x65, 0x7a,
  0x65, 0x3b, 0x6d, 0x6f, 0x64, 0x65, 0x6c, 0x2f, 0x63, 0x6f, 0x6e, 0x76,
