unsigned char classifier_tflite[] = {
  0x1c, 0x00, 0x00, 0x00, 0x54, 0x46, 0x4c, 0x33, 0x14, 0x00, 0x20, 0x00,
  0x1c, 0x00, 0x18, 0x00, 0x14, 0x00, 0x10, 0x00, 0x0c, 0x00, 0x00, 0x00,
  0x08, 0x00, 0x04, 0x00, 0x14, 0x00, 0x00, 0x00, 0x1c, 0x00, 0x00, 0x00,
  0x1c, 0x00, 0x00, 0x00, 0x4c, 0x00, 0x00, 0x00, 0xac, 0x15, 0x00, 0x00,
  0xbc, 0x15, 0x00, 0x00, 0x40, 0x5a, 0x00, 0x00, 0x03, 0x00, 0x00, 0x00,
  0x00, 0x00, 0x00, 0x00, 0x01, 0x00, 0x00, 0x00, 0x0c, 0x00, 0x00, 0x00,
  0x08, 0x00, 0x0c, 0x00, 0x08, 0x00, 0x04, 0x00, 0x08, 0x00, 0x00, 0x00,
  0x67, 0x00, 0x00, 0x00, 0x04, 0x00, 0x00, 0x00, 0x13, 0x00, 0x00, 0x00,
  0x6d, 0x69, 0x6e, 0x5f, 0x72, 0x75, 0x6e, 0x74, 0x69, 0x6d, 0x65, 0x5f,
  0x76, 0x65, 0x72, 0x73, 0x69, 0x6f, 0x6e, 0x00, 0x68, 0x00, 0x00, 0x00,
  0x5c, 0x15, 0x00, 0x00, 0x54, 0x15, 0x00, 0x00, 0x34, 0x15, 0x00, 0x00,
  0x18, 0x15, 0x00, 0x00, 0xfc, 0x14, 0x00, 0x00, 0xdc, 0x14, 0x00, 0x00,
  0xbc, 0x14, 0x00, 0x00, 0x9c, 0x14, 0x00, 0x00, 0x84, 0x14, 0x00, 0x00,
  0x6c, 0x14, 0x00, 0x00, 0x58, 0x14, 0x00, 0x00, 0x44, 0x14, 0x00, 0x00,
  0x30, 0x14, 0x00, 0x00, 0xb0, 0x13, 0x00, 0x00, 0x90, 0x13, 0x00, 0x00,
  0x70, 0x13, 0x00, 0x00, 0x50, 0x13, 0x00, 0x00, 0x30, 0x13, 0x00, 0x00,
  0x10, 0x13, 0x00, 0x00, 0xf0, 0x12, 0x00, 0x00, 0xd0, 0x12, 0x00, 0x00,
  0xb0, 0x12, 0x00, 0x00, 0x90, 0x12, 0x00, 0x00, 0x70, 0x12, 0x00, 0x00,
  0x50, 0x12, 0x00, 0x00, 0x30, 0x12, 0x00, 0x00, 0xe8, 0x11, 0x00, 0x00,
  0xbc, 0x11, 0x00, 0x00, 0x4c, 0x11, 0x00, 0x00, 0xfc, 0x10, 0x00, 0x00,
  0xd4, 0x10, 0x00, 0x00, 0xb4, 0x10, 0x00, 0x00, 0x94, 0x10, 0x00, 0x00,
  0x74, 0x10, 0x00, 0x00, 0xf4, 0x0f, 0x00, 0x00, 0xac, 0x0f, 0x00, 0x00,
  0x80, 0x0f, 0x00, 0x00, 0x30, 0x0f, 0x00, 0x00, 0x10, 0x0f, 0x00, 0x00,
  0xf0, 0x0e, 0x00, 0x00, 0xd0, 0x0e, 0x00, 0x00, 0x50, 0x0e, 0x00, 0x00,
  0x08, 0x0e, 0x00, 0x00, 0xdc, 0x0d, 0x00, 0x00, 0x8c, 0x0d, 0x00, 0x00,
  0x6c, 0x0d, 0x00, 0x00, 0x4c, 0x0d, 0x00, 0x00, 0xfc, 0x01, 0x00, 0x00,
  0xd4, 0x01, 0x00, 0x00, 0xcc, 0x01, 0x00, 0x00, 0xc4, 0x01, 0x00, 0x00,
  0xbc, 0x01, 0x00, 0x00, 0xb4, 0x01, 0x00, 0x00, 0xac, 0x01, 0x00, 0x00,
  0xa4, 0x01, 0x00, 0x00, 0x9c, 0x01, 0x00, 0x00, 0x94, 0x01, 0x00, 0x00,
  0x8c, 0x01, 0x00, 0x00, 0x84, 0x01, 0x00, 0x00, 0x7c, 0x01, 0x00, 0x00,
  0x74, 0x01, 0x00, 0x00, 0x6c, 0x01, 0x00, 0x00, 0x64, 0x01, 0x00, 0x00,
  0x5c, 0x01, 0x00, 0x00, 0x54, 0x01, 0x00, 0x00, 0x4c, 0x01, 0x00, 0x00,
  0x44, 0x01, 0x00, 0x00, 0x3c, 0x01, 0x00, 0x00, 0x34, 0x01, 0x00, 0x00,
  0x2c, 0x01, 0x00, 0x00, 0x24, 0x01, 0x00, 0x00, 0x1c, 0x01, 0x00, 0x00,
  0x14, 0x01, 0x00, 0x00, 0x0c, 0x01, 0x00, 0x00, 0x04, 0x01, 0x00, 0x00,
  0xfc, 0x00, 0x00, 0x00, 0xf4, 0x00, 0x00, 0x00, 0xec, 0x00, 0x00, 0x00,
  0xe4, 0x00, 0x00, 0x00, 0xdc, 0x00, 0x00, 0x00, 0xd4, 0x00, 0x00, 0x00,
  0xcc, 0x00, 0x00, 0x00, 0xc4, 0x00, 0x00, 0x00, 0xbc, 0x00, 0x00, 0x00,
  0xb4, 0x00, 0x00, 0x00, 0xac, 0x00, 0x00, 0x00, 0xa4, 0x00, 0x00, 0x00,
  0x9c, 0x00, 0x00, 0x00, 0x94, 0x00, 0x00, 0x00, 0x8c, 0x00, 0x00, 0x00,
  0x84, 0x00, 0x00, 0x00, 0x7c, 0x00, 0x00, 0x00, 0x74, 0x00, 0x00, 0x00,
  0x6c, 0x00, 0x00, 0x00, 0x64, 0x00, 0x00, 0x00, 0x5c, 0x00, 0x00, 0x00,
  0x54, 0x00, 0x00, 0x00, 0x4c, 0x00, 0x00, 0x00, 0x44, 0x00, 0x00, 0x00,
  0x3c, 0x00, 0x00, 0x00, 0x34, 0x00, 0x00, 0x00, 0x2c, 0x00, 0x00, 0x00,
  0x24, 0x00, 0x00, 0x00, 0x04, 0x00, 0x00, 0x00, 0xde, 0xe3, 0xff, 0xff,
  0x04, 0x00, 0x00, 0x00, 0x10, 0x00, 0x00, 0x00, 0x31, 0x2e, 0x31, 0x34,
  0x2e, 0x30, 0x00, 0x00, 0x00, 0x00, 0x00, 0x00, 0x00, 0x00, 0x00, 0x00,
  0x78, 0xa8, 0xff, 0xff, 0x7c, 0xa8, 0xff, 0xff, 0x80, 0xa8, 0xff, 0xff,
  0x84, 0xa8, 0xff, 0xff, 0x88, 0xa8, 0xff, 0xff, 0x8c, 0xa8, 0xff, 0xff,
  0x90, 0xa8, 0xff, 0xff, 0x94, 0xa8, 0xff, 0xff, 0x98, 0xa8, 0xff, 0xff,
  0x9c, 0xa8, 0xff, 0xff, 0xa0, 0xa8, 0xff, 0xff, 0xa4, 0xa8, 0xff, 0xff,
  0xa8, 0xa8, 0xff, 0xff, 0xac, 0xa8, 0xff, 0xff, 0xb0, 0xa8, 0xff, 0xff,
  0xb4, 0xa8, 0xff, 0xff, 0xb8, 0xa8, 0xff, 0xff, 0xbc, 0xa8, 0xff, 0xff,
  0xc0, 0xa8, 0xff, 0xff, 0xc4, 0xa8, 0xff, 0xff, 0xc8, 0xa8, 0xff, 0xff,
  0xcc, 0xa8, 0xff, 0xff, 0xd0, 0xa8, 0xff, 0xff, 0xd4, 0xa8, 0xff, 0xff,
  0xd8, 0xa8, 0xff, 0xff, 0xdc, 0xa8, 0xff, 0xff, 0xe0, 0xa8, 0xff, 0xff,
  0xe4, 0xa8, 0xff, 0xff, 0xe8, 0xa8, 0xff, 0xff, 0xec, 0xa8, 0xff, 0xff,
  0xf0, 0xa8, 0xff, 0xff, 0xf4, 0xa8, 0xff, 0xff, 0xf8, 0xa8, 0xff, 0xff,
  0xfc, 0xa8, 0xff, 0xff, 0x00, 0xa9, 0xff, 0xff, 0x04, 0xa9, 0xff, 0xff,
  0x08, 0xa9, 0xff, 0xff, 0x0c, 0xa9, 0xff, 0xff, 0x10, 0xa9, 0xff, 0xff,
  0x14, 0xa9, 0xff, 0xff, 0x18, 0xa9, 0xff, 0xff, 0x1c, 0xa9, 0xff, 0xff,
  0x20, 0xa9, 0xff, 0xff, 0x24, 0xa9, 0xff, 0xff, 0x28, 0xa9, 0xff, 0xff,
  0x2c, 0xa9, 0xff, 0xff, 0x30, 0xa9, 0xff, 0xff, 0x34, 0xa9, 0xff, 0xff,
  0x38, 0xa9, 0xff, 0xff, 0x3c, 0xa9, 0xff, 0xff, 0x40, 0xa9, 0xff, 0xff,
  0x44, 0xa9, 0xff, 0xff, 0x48, 0xa9, 0xff, 0xff, 0x4c, 0xa9, 0xff, 0xff,
  0xd2, 0xe4, 0xff, 0xff, 0x04, 0x00, 0x00, 0x00, 0x18, 0x00, 0x00, 0x00,
  0x94, 0x05, 0x00, 0x00, 0x90, 0xfe, 0xff, 0xff, 0x61, 0xfb, 0xff, 0xff,
  0x5b, 0x01, 0x00, 0x00, 0x38, 0xfb, 0xff, 0xff, 0x21, 0xfa, 0xff, 0xff,
  0xf6, 0xe4, 0xff, 0xff, 0x04, 0x00, 0x00, 0x00, 0x40, 0x0b, 0x00, 0x00,
  0x8c, 0x0c, 0xd4, 0x3f, 0xc0, 0x2b, 0x22, 0xbf, 0xc1, 0x18, 0xd8, 0xa5,
  0x11, 0xff, 0xfc, 0xbd, 0xb9, 0x22, 0x87, 0x50, 0xc6, 0x28, 0x23, 0xd2,
  0xa8, 0x04, 0xe6, 0xa8, 0x0d, 0xde, 0x2a, 0xcc, 0x9f, 0xd4, 0xc0, 0x4c,
  0x9a, 0x3c, 0x36, 0xf3, 0xce, 0x18, 0x4d, 0xdf, 0x12, 0xda, 0x0a, 0xb7,
  0xd6, 0xd7, 0xe2, 0x10, 0xbf, 0x57, 0xed, 0x05, 0xc0, 0x13, 0xe6, 0xc4,
  0x47, 0xf3, 0x05, 0x9a, 0xb5, 0x13, 0xd0, 0x34, 0xaa, 0xfe, 0xfc, 0xb4,
  0xd8, 0xd5, 0x35, 0xe3, 0x45, 0x00, 0xfe, 0xe9, 0x8f, 0x46, 0xc6, 0x31,
  0xa0, 0xf3, 0x3f, 0xe8, 0xf4, 0xdd, 0x1f, 0xf4, 0x00, 0xfc, 0x29, 0xac,
  0x9a, 0x34, 0xd2, 0x1a, 0xc5, 0x17, 0x45, 0x99, 0xfb, 0x32, 0x2a, 0x09,
  0x36, 0x40, 0x41, 0xa7, 0xc3, 0x0f, 0xb4, 0x3c, 0xa3, 0xdc, 0x62, 0xd5,
  0xda, 0x09, 0xf5, 0xba, 0x00, 0xeb, 0x1e, 0xa9, 0xa7, 0x39, 0x88, 0x06,
  0xac, 0x00, 0x6d, 0xa1, 0x9d, 0x00, 0xfe, 0xd9, 0x26, 0x1c, 0x40, 0xb3,
  0xd1, 0x1e, 0xd1, 0xf3, 0xc6, 0xf3, 0x3a, 0xbd, 0xab, 0x36, 0x37, 0xfa,
  0x20, 0x1b, 0x31, 0xe7, 0xb8, 0x49, 0x81, 0x18, 0x00, 0x2f, 0x3f, 0xe0,
  0xeb, 0xd7, 0xff, 0x00, 0x20, 0x29, 0x31, 0xaf, 0xa4, 0x62, 0x87, 0x08,
  0xf7, 0x28, 0x23, 0x9f, 0xa6, 0xe9, 0xed, 0xc8, 0x2b, 0x31, 0x15, 0xe9,
  0xb4, 0x3f, 0xa3, 0x3f, 0xd4, 0xef, 0x4b, 0xa4, 0xb0, 0xea, 0x0a, 0xf2,
  0x3e, 0x03, 0x0c, 0xcd, 0xf9, 0x2d, 0xf5, 0xea, 0xd0, 0xf7, 0x1a, 0xb6,
  0xae, 0x2f, 0x0f, 0xc3, 0x45, 0x25, 0x08, 0xc3, 0x92, 0x46, 0xc7, 0x40,
  0xb9, 0x0b, 0x18, 0x02, 0xf2, 0x28, 0xd2, 0xdd, 0xfb, 0x4a, 0x02, 0xbc,
  0xb6, 0x0d, 0x95, 0x05, 0xff, 0xfa, 0x4f, 0xe4, 0xd1, 0xe4, 0xeb, 0xf2,
  0x23, 0x06, 0x33, 0xfc, 0xab, 0x41, 0x9d, 0x1b, 0xa2, 0x19, 0x2b, 0xb1,
  0x0f, 0x25, 0x03, 0xf7, 0x1d, 0xf0, 0x13, 0xb1, 0xd8, 0x0e, 0xc1, 0x04,
  0xce, 0xed, 0x3b, 0xb5, 0xc9, 0x13, 0x1c, 0xfb, 0x47, 0x0f, 0x0a, 0xf4,
  0x97, 0x30, 0x86, 0x07, 0xf0, 0x1d, 0x75, 0xa5, 0xdc, 0xe2, 0x16, 0xce,
  0x01, 0x34, 0x2c, 0xcc, 0x98, 0x44, 0xf4, 0x27, 0xa5, 0xe3, 0x24, 0xf4,
  0xd3, 0x0e, 0x31, 0x0a, 0xf9, 0x43, 0x1f, 0xc7, 0xac, 0x04, 0x82, 0x0b,
  0xba, 0x22, 0x75, 0xe1, 0x00, 0x34, 0x14, 0xfa, 0xf4, 0x0c, 0xee, 0xde,
  0xc7, 0x46, 0xc7, 0x2e, 0xc8, 0x09, 0x1e, 0x0f, 0xdf, 0x29, 0x39, 0xcf,
  0x11, 0x41, 0xeb, 0x02, 0x04, 0x31, 0xc0, 0x41, 0xe1, 0x12, 0x62, 0xc7,
  0xcd, 0x4a, 0x2d, 0xfc, 0xf2, 0x56, 0xe5, 0xde, 0xd7, 0x3b, 0xb3, 0x25,
  0xda, 0xe2, 0x47, 0xfb, 0xf3, 0xf2, 0x38, 0xbe, 0x1a, 0x42, 0x04, 0xc6,
  0x06, 0x42, 0x98, 0x26, 0xe2, 0xcb, 0x4c, 0xb7, 0xdd, 0x2b, 0x0f, 0x12,
  0xdf, 0x58, 0xe9, 0xd1, 0xe1, 0x60, 0x9f, 0xfc, 0xc8, 0xd6, 0x51, 0x13,
  0xd9, 0x48, 0x13, 0xab, 0x20, 0x4c, 0xc7, 0xe9, 0xa6, 0x03, 0xe3, 0x0f,
  0xdd, 0xea, 0x4e, 0xff, 0xb7, 0x40, 0x0e, 0xa8, 0xd8, 0x22, 0x07, 0xae,
  0xff, 0x31, 0xa8, 0x41, 0xda, 0xec, 0x71, 0xd5, 0xa8, 0x54, 0x15, 0xf5,
  0x13, 0x3a, 0x00, 0xe2, 0xce, 0x56, 0xd2, 0x50, 0xe5, 0xf6, 0x38, 0x01,
  0xf7, 0x2e, 0x4a, 0xcd, 0x2d, 0x50, 0xf9, 0xee, 0xeb, 0x42, 0x93, 0x40,
  0xa2, 0x39, 0x24, 0xe2, 0xde, 0xea, 0x20, 0xaf, 0x31, 0x2b, 0x41, 0xd1,
  0xf6, 0xee, 0x2f, 0x0d, 0x03, 0x01, 0xe0, 0x2b, 0x2c, 0xe3, 0xe9, 0xc9,
  0x00, 0xe4, 0x37, 0xf7, 0x09, 0x12, 0x40, 0x0f, 0x21, 0x05, 0xfa, 0x11,
  0x3c, 0xe9, 0xe2, 0xd9, 0x04, 0x0a, 0x0f, 0x23, 0x16, 0x09, 0x5c, 0x31,
  0x32, 0x05, 0xf4, 0xeb, 0x37, 0xea, 0xad, 0xd6, 0xef, 0xd9, 0x1b, 0xd6,
  0x0f, 0x24, 0x1c, 0x1c, 0x1c, 0xf1, 0xe5, 0x31, 0x34, 0xf8, 0xc2, 0x0d,
  0xe5, 0xec, 0x13, 0xd9, 0x30, 0x08, 0x2c, 0x01, 0x2c, 0xe6, 0x0d, 0x22,
  0x30, 0xf5, 0xbb, 0x0d, 0xe1, 0xeb, 0x3a, 0xd8, 0x29, 0x31, 0x4e, 0x15,
  0x2c, 0x02, 0x11, 0x38, 0x1c, 0xe4, 0xae, 0xf1, 0xfa, 0xfa, 0x0f, 0xfc,
  0x0f, 0xe5, 0x27, 0x17, 0x30, 0x14, 0xd0, 0x29, 0x33, 0xe5, 0xd4, 0xfc,
  0x00, 0x08, 0x12, 0xef, 0x1d, 0x04, 0x51, 0xfa, 0x2b, 0x03, 0x13, 0x18,
  0xe9, 0xea, 0xb8, 0xcd, 0xe8, 0x13, 0x16, 0xe6, 0x05, 0xee, 0x01, 0xfa,
  0xea, 0xe9, 0xde, 0x34, 0xfb, 0xc4, 0xf2, 0xdc, 0xf0, 0xf4, 0xf2, 0x08,
  0x1f, 0xf5, 0x0e, 0x0e, 0xe4, 0xf3, 0xf1, 0x1d, 0x36, 0x00, 0xc3, 0x16,
  0xef, 0xee, 0x25, 0xe3, 0x2d, 0xd9, 0x38, 0x17, 0x15, 0x09, 0x07, 0xf0,
  0x17, 0xfb, 0xde, 0xe1, 0xea, 0xeb, 0x17, 0xde, 0x2d, 0xe9, 0x15, 0x02,
  0xe6, 0x15, 0x1e, 0x19, 0xf2, 0x01, 0xc2, 0x00, 0xda, 0x17, 0x37, 0xee,
  0x15, 0xcb, 0x3b, 0xfd, 0xf5, 0x0a, 0x14, 0x30, 0x10, 0xe5, 0xab, 0xd3,
  0xf4, 0x10, 0x17, 0x02, 0x01, 0xf9, 0xf3, 0x28, 0x2d, 0xd9, 0x04, 0xf0,
  0xf6, 0xf1, 0xd1, 0xf0, 0xea, 0xcc, 0x28, 0xfd, 0x19, 0xf0, 0x11, 0x2a,
  0x0f, 0xf4, 0xe5, 0x3e, 0xf9, 0x09, 0xad, 0xed, 0xef, 0x0c, 0x25, 0xf6,
  0x29, 0xff, 0x12, 0x20, 0x01, 0xde, 0x1d, 0x17, 0x45, 0xdc, 0xee, 0xca,
  0xfa, 0xfc, 0x3a, 0xd9, 0xfe, 0xd4, 0x2e, 0x1a, 0x03, 0xf8, 0xe8, 0x26,
  0x00, 0xee, 0xbc, 0x22, 0xd3, 0xfe, 0x14, 0xd2, 0x27, 0xf5, 0x0d, 0x11,
  0x1d, 0xf1, 0xf6, 0xf2, 0x0f, 0x02, 0xeb, 0xf4, 0xde, 0xec, 0x01, 0xd2,
  0x1a, 0x16, 0x49, 0x0e, 0xf9, 0x37, 0x25, 0xf1, 0x10, 0xe5, 0xe2, 0x01,
  0x18, 0xd5, 0x28, 0xde, 0x21, 0xda, 0x14, 0xfb, 0x1d, 0x11, 0x01, 0x07,
  0x26, 0xd7, 0xdd, 0xdc, 0x0d, 0x06, 0x01, 0xe1, 0xf5, 0xd9, 0x31, 0x06,
  0xeb, 0xe7, 0xdb, 0x1a, 0xff, 0xfe, 0xfa, 0xf3, 0xe5, 0x08, 0x06, 0xd2,
  0x0f, 0xf4, 0x50, 0x16, 0xfd, 0x05, 0x20, 0x43, 0x05, 0xc3, 0xb2, 0x02,
  0xe0, 0xc1, 0x21, 0xeb, 0x1b, 0x11, 0x0d, 0x2f, 0x02, 0xe3, 0x1c, 0xfe,
  0x06, 0xf3, 0xb6, 0xbc, 0x0c, 0x0b, 0x06, 0xef, 0x08, 0xe2, 0x44, 0x16,
  0x06, 0x21, 0x0d, 0x46, 0x1f, 0xab, 0xa4, 0xba, 0x0b, 0xb9, 0xf0, 0xe3,
  0x04, 0x00, 0x1b, 0x1c, 0xdc, 0xf0, 0xff, 0x1a, 0x25, 0xd5, 0xe4, 0xca,
  0xfb, 0xd6, 0x14, 0xb1, 0xe5, 0x03, 0x35, 0x26, 0x1a, 0xf1, 0x04, 0x35,
  0x16, 0xb4, 0x02, 0xcf, 0xc3, 0xd9, 0x06, 0xf2, 0xf3, 0xd4, 0x30, 0xf8,
  0xe7, 0x00, 0x1a, 0x1d, 0x45, 0xdd, 0x01, 0xd9, 0xd3, 0xc7, 0xf5, 0xd1,
  0xda, 0xd0, 0xf9, 0x16, 0xfa, 0x47, 0xfc, 0x0c, 0x4a, 0xa4, 0xfa, 0x00,
  0xce, 0xec, 0x37, 0xe6, 0xe8, 0xe5, 0x05, 0x03, 0x1b, 0x0b, 0x14, 0x4c,
  0x11, 0xc6, 0xc5, 0xe1, 0x12, 0xcc, 0x19, 0x11, 0xef, 0xda, 0x08, 0x2f,
  0xeb, 0x34, 0xed, 0x0c, 0x0f, 0xe5, 0xdc, 0xf9, 0xc9, 0x02, 0x2b, 0xf2,
  0xf6, 0x3f, 0xe0, 0xb8, 0x10, 0xb3, 0x15, 0x1d, 0x36, 0xea, 0x15, 0x1c,
  0xcd, 0xc9, 0x25, 0xfa, 0xd9, 0x36, 0xed, 0xdf, 0xff, 0xdb, 0x26, 0x06,
  0x56, 0xe0, 0x1e, 0x10, 0xb4, 0xc1, 0xe5, 0x04, 0xfe, 0xff, 0xe0, 0xc8,
  0xee, 0x0a, 0x2f, 0x21, 0x43, 0x11, 0xf6, 0x32, 0x21, 0xa0, 0xc8, 0x02,
  0x18, 0x35, 0xad, 0xad, 0x2f, 0xed, 0x06, 0x4a, 0xff, 0xc7, 0x15, 0x48,
  0xd6, 0xab, 0xeb, 0x0f, 0x32, 0x26, 0xb2, 0xa7, 0xf6, 0xe3, 0x16, 0x45,
  0x40, 0x0e, 0xe4, 0x2b, 0xea, 0xfe, 0xf5, 0x23, 0xef, 0x44, 0x0c, 0xc0,
  0x06, 0xe6, 0x05, 0x38, 0x10, 0xc9, 0xe8, 0x29, 0xe2, 0xda, 0xe3, 0x12,
  0xd8, 0xf3, 0xc7, 0xce, 0x0c, 0xd8, 0xf1, 0x28, 0x57, 0xf7, 0xee, 0xf4,
  0x12, 0xdd, 0xf0, 0x35, 0xfc, 0x3e, 0xe0, 0xf5, 0x03, 0x14, 0xf5, 0x44,
  0x31, 0xcf, 0xf1, 0xfc, 0xfd, 0xc6, 0xf7, 0x60, 0xd1, 0x0b, 0xf5, 0xbb,
  0x0a, 0xe4, 0xe1, 0x3e, 0x2a, 0xd5, 0x06, 0x3f, 0xe0, 0xcf, 0xd7, 0x4b,
  0x19, 0x05, 0xf7, 0xdd, 0x21, 0xf1, 0x04, 0x39, 0x39, 0xee, 0xfb, 0x2c,
  0xdc, 0xae, 0x16, 0x38, 0x20, 0x1e, 0xf7, 0xf7, 0xe4, 0xf1, 0x00, 0x08,
  0x1c, 0xeb, 0x19, 0x21, 0xde, 0xd2, 0xe4, 0x00, 0xf3, 0x04, 0xfa, 0x07,
  0xef, 0x02, 0x19, 0x0d, 0x26, 0xf3, 0x06, 0x12, 0xac, 0xb7, 0x0b, 0x22,
  0x48, 0x27, 0x1a, 0xd2, 0x20, 0xe7, 0xf0, 0x26, 0xff, 0xf2, 0x10, 0x1b,
  0xd8, 0xaa, 0x06, 0x06, 0x08, 0x3a, 0xc1, 0xec, 0x05, 0xdc, 0xf9, 0x32,
  0x0f, 0xf4, 0xf6, 0x18, 0xf8, 0xae, 0x02, 0x5e, 0x1b, 0x0e, 0xf8, 0xbe,
  0x2e, 0xfb, 0xe1, 0x0e, 0x17, 0x18, 0xf7, 0xf6, 0xc3, 0xde, 0xce, 0x32,
  0x0b, 0x01, 0xba, 0x0a, 0xf7, 0xf7, 0xef, 0x36, 0x1a, 0xe7, 0x0d, 0x3a,
  0xb4, 0xdb, 0xe5, 0x3f, 0xfb, 0xf3, 0x02, 0xdc, 0xd9, 0xfa, 0x00, 0x44,
  0x39, 0xed, 0x0f, 0x10, 0xc1, 0xa4, 0x07, 0x2d, 0x06, 0x27, 0x01, 0xc0,
  0x23, 0xd3, 0x09, 0x10, 0xf5, 0x05, 0xf1, 0x06, 0xc0, 0xe9, 0xd8, 0x46,
  0xf8, 0x2a, 0x18, 0xdc, 0xf1, 0x1d, 0xf6, 0x2c, 0x42, 0xd7, 0x03, 0xf2,
  0xf4, 0x9d, 0x02, 0x36, 0x3e, 0x25, 0xfd, 0xf8, 0x24, 0xff, 0xc9, 0x2c,
  0xf8, 0x07, 0xcd, 0x42, 0xb0, 0xb5, 0xef, 0x21, 0x05, 0x19, 0xfd, 0xc1,
  0x1f, 0xf9, 0x05, 0x0f, 0x23, 0xeb, 0x0a, 0x03, 0xc5, 0xb1, 0x24, 0x4d,
  0x0f, 0xfd, 0x17, 0xaa, 0x1d, 0xd6, 0xf7, 0x0e, 0x0e, 0xd2, 0x15, 0xf5,
  0xcb, 0xb2, 0xea, 0x08, 0x26, 0x1a, 0xef, 0xec, 0x04, 0xcb, 0x20, 0xf9,
  0x44, 0xfc, 0x17, 0xeb, 0xc0, 0xc8, 0x04, 0xfa, 0xd4, 0x1f, 0x11, 0xe4,
  0x44, 0xd6, 0x22, 0x32, 0x13, 0xe0, 0xc9, 0x4d, 0xf3, 0x0c, 0x18, 0x1c,
  0xe0, 0xfc, 0xb7, 0xff, 0x4e, 0x0c, 0x02, 0xf3, 0x20, 0xb9, 0xf5, 0xf5,
  0xcb, 0xba, 0x12, 0x3d, 0xd1, 0x36, 0x09, 0xd5, 0x1b, 0x07, 0x19, 0x11,
  0x06, 0x10, 0xe6, 0x13, 0xca, 0xef, 0x15, 0x49, 0x10, 0x1b, 0xe7, 0xbf,
  0x22, 0xbf, 0x40, 0x17, 0x27, 0xd8, 0x06, 0x0e, 0xb7, 0xe7, 0x25, 0x3c,
  0x1b, 0x3b, 0x03, 0xd7, 0x1a, 0xed, 0x1a, 0xed, 0x16, 0xd1, 0xc1, 0x0d,
  0xe8, 0xd4, 0x36, 0x31, 0x18, 0xf5, 0xd6, 0xa7, 0x3e, 0xcf, 0x28, 0x0d,
  0x1a, 0xdb, 0x12, 0xee, 0xe1, 0xc2, 0x2d, 0x23, 0xec, 0x23, 0x09, 0xd9,
  0xd6, 0xe7, 0x2c, 0x03, 0x0d, 0xeb, 0xc3, 0x0d, 0xd6, 0xf5, 0xfa, 0x32,
  0xca, 0xd7, 0x1b, 0x02, 0x19, 0xc6, 0xf8, 0xe8, 0xf0, 0xf0, 0x1b, 0xd7,
  0xf6, 0x22, 0x1b, 0x02, 0xfc, 0xee, 0x51, 0xf4, 0x09, 0x0c, 0x2a, 0xde,
  0xd1, 0xfc, 0xfd, 0x02, 0xd2, 0xfc, 0xe4, 0x1a, 0x30, 0xf0, 0x66, 0xee,
  0xfb, 0xf8, 0x0b, 0xe3, 0xe8, 0x43, 0xd8, 0xf5, 0xd0, 0xf8, 0xe9, 0xe9,
  0x0f, 0xf2, 0x18, 0x15, 0x13, 0x20, 0xde, 0xd3, 0xec, 0x2f, 0xe0, 0xf6,
  0xce, 0x01, 0xee, 0xde, 0x08, 0xd5, 0x1d, 0x36, 0x0c, 0xf7, 0x11, 0xd1,
  0x0a, 0x45, 0xc8, 0x03, 0xb7, 0xea, 0x06, 0x05, 0x00, 0x22, 0x33, 0x38,
  0xf6, 0xed, 0x03, 0x02, 0x0c, 0x27, 0xe4, 0xd1, 0xbf, 0x25, 0xd4, 0x0c,
  0xf9, 0xe6, 0x1f, 0xfb, 0x06, 0x10, 0x1d, 0xe3, 0xe9, 0x3f, 0x09, 0x0d,
  0xcb, 0x48, 0xdd, 0x13, 0xf4, 0x17, 0x1c, 0x13, 0x19, 0x1a, 0x08, 0xd8,
  0xdc, 0x15, 0xd7, 0xeb, 0xd0, 0x10, 0xc2, 0x12, 0xc8, 0xd6, 0x1f, 0x04,
  0xef, 0xf8, 0x06, 0xf2, 0xf6, 0x0a, 0xe1, 0xd0, 0xe9, 0x10, 0xbd, 0x08,
  0x0e, 0xef, 0xf0, 0x37, 0x0b, 0x07, 0xe6, 0x0a, 0xc5, 0xfa, 0xdd, 0xd6,
  0xda, 0xec, 0xb1, 0x21, 0xf1, 0xd8, 0x3b, 0x11, 0x12, 0x27, 0x16, 0xf7,
  0xca, 0x24, 0xce, 0x19, 0xd6, 0x26, 0xd0, 0xf2, 0x01, 0xf9, 0x38, 0x02,
  0x04, 0x1a, 0x04, 0xd6, 0x01, 0x2c, 0xdb, 0xbd, 0xd6, 0x22, 0xce, 0xec,
  0x0d, 0xc9, 0x08, 0x31, 0xf7, 0xf8, 0x19, 0xe0, 0xe8, 0x33, 0xd3, 0xdc,
  0xb4, 0x33, 0xaf, 0x18, 0x05, 0xd8, 0xf9, 0x33, 0x21, 0x17, 0xde, 0xf2,
  0xd3, 0x4c, 0xc7, 0x0f, 0xf6, 0x0a, 0xcf, 0xe9, 0x0a, 0x20, 0xeb, 0x41,
  0xfd, 0x06, 0x08, 0x01, 0xf1, 0x15, 0xc8, 0x1d, 0xf6, 0xf2, 0xe3, 0xe2,
  0x25, 0x15, 0x0c, 0x20, 0x09, 0x03, 0xfd, 0xfb, 0x03, 0x0f, 0x0c, 0xc7,
  0xd7, 0x07, 0xe7, 0xee, 0xf6, 0xbd, 0x1c, 0x0f, 0xe6, 0x0b, 0x13, 0xe4,
  0x11, 0x3b, 0x10, 0x02, 0xd1, 0xf9, 0xb6, 0xd7, 0x11, 0xd9, 0x27, 0x01,
  0x15, 0x03, 0x20, 0xe7, 0xc9, 0x3b, 0x25, 0xf7, 0xfb, 0xea, 0xc8, 0xf8,
  0xf6, 0xd7, 0x31, 0x19, 0x17, 0xfd, 0x22, 0xe7, 0xf0, 0x24, 0x21, 0xbf,
  0xe1, 0x22, 0xf2, 0xd2, 0x0b, 0xe9, 0xff, 0x27, 0x01, 0xe9, 0x22, 0xde,
  0xce, 0xf6, 0x0f, 0xed, 0xe6, 0xe3, 0xa6, 0x0b, 0xf5, 0xeb, 0x14, 0xfb,
  0xfd, 0x2c, 0x16, 0x10, 0xc8, 0x17, 0xd8, 0x12, 0xea, 0x15, 0xe7, 0xfe,
  0xd4, 0xcc, 0x33, 0x26, 0x18, 0x15, 0x11, 0x05, 0x05, 0x1b, 0xbe, 0x16,
  0xe2, 0x0e, 0x0b, 0x09, 0x1f, 0x12, 0xed, 0xff, 0xe7, 0xe2, 0x03, 0xf2,
  0xd3, 0x34, 0xfa, 0x15, 0x09, 0x14, 0xd4, 0xd2, 0xe6, 0xc0, 0x29, 0xf9,
  0x35, 0x1f, 0xfc, 0xe7, 0xe7, 0x03, 0x2e, 0xe2, 0xd4, 0x27, 0xc7, 0x0f,
  0xeb, 0xd3, 0x2c, 0x39, 0xf6, 0xf3, 0x19, 0xc8, 0xc1, 0x47, 0x09, 0xb6,
  0xd2, 0xea, 0xc5, 0xf3, 0xf0, 0xe8, 0x21, 0x2a, 0x43, 0x3c, 0x30, 0xe4,
  0xd3, 0xfd, 0x12, 0xee, 0xc7, 0xfa, 0xbd, 0x0e, 0xbb, 0xc9, 0x15, 0x0c,
  0x16, 0x26, 0x03, 0x0a, 0xf3, 0xf3, 0xd1, 0xf4, 0xe1, 0xf4, 0xc4, 0xd2,
  0xf0, 0x08, 0x22, 0xf1, 0x43, 0x42, 0xe8, 0xef, 0xdd, 0x17, 0xc4, 0xd3,
  0xf4, 0x35, 0xf8, 0x1f, 0xd2, 0xf3, 0x24, 0x3d, 0x04, 0x02, 0x0e, 0x02,
  0xe7, 0x39, 0xd3, 0xff, 0xc6, 0x17, 0x00, 0x13, 0xdc, 0xf7, 0xef, 0x49,
  0xd4, 0xf9, 0xe0, 0xe0, 0xef, 0x32, 0xd4, 0xcf, 0xd7, 0x22, 0xf8, 0xf8,
  0xfe, 0x28, 0xd8, 0xb4, 0x23, 0x16, 0xc3, 0x00, 0x03, 0xb8, 0xdf, 0xf5,
  0xf6, 0xe5, 0xfc, 0x15, 0xea, 0x00, 0x1e, 0xab, 0x0f, 0xc7, 0xf9, 0xd5,
  0x04, 0x0a, 0xc6, 0x4b, 0x18, 0x18, 0x0b, 0x04, 0xf8, 0x0a, 0x1f, 0xa9,
  0xd4, 0xff, 0xbb, 0x24, 0x03, 0xf0, 0xc5, 0x20, 0x00, 0xfa, 0xde, 0xf4,
  0xf4, 0xf4, 0xe7, 0xa2, 0x0e, 0xc7, 0x0f, 0xe3, 0xf3, 0xc2, 0x13, 0xe7,
  0x27, 0x00, 0x09, 0xf7, 0x5f, 0x44, 0x0c, 0xeb, 0xdc, 0xfd, 0xb8, 0x0c,
  0x17, 0x1e, 0x0c, 0x2f, 0xfc, 0xeb, 0x15, 0x23, 0x1d, 0x0e, 0x2e, 0xda,
  0x08, 0xb1, 0xbf, 0x08, 0x08, 0x19, 0xcb, 0x3a, 0xea, 0x39, 0xd2, 0xe9,
  0x28, 0x15, 0x29, 0xf8, 0xd0, 0xef, 0xb5, 0xe3, 0x1e, 0xdc, 0xf5, 0xf1,
  0x09, 0xf9, 0xfc, 0xf7, 0x3b, 0x1d, 0x4c, 0xf3, 0xda, 0xf8, 0xb2, 0xcb,
  0xde, 0xfa, 0xd6, 0xee, 0xec, 0x2c, 0xb4, 0xc2, 0x35, 0x05, 0x18, 0xcf,
  0x18, 0xf2, 0xf7, 0xd0, 0xe1, 0xd0, 0xea, 0x10, 0x39, 0x2b, 0xd0, 0x10,
  0xf9, 0xd7, 0x54, 0xd6, 0x17, 0xfc, 0x08, 0xe1, 0x13, 0xde, 0x16, 0x3d,
  0x3e, 0x0b, 0xf8, 0xf1, 0x03, 0x09, 0x02, 0xdd, 0xd8, 0xee, 0xfd, 0xf1,
  0xe0, 0xcd, 0xc4, 0x2d, 0xe7, 0x29, 0xfe, 0x1a, 0x37, 0xe1, 0x1d, 0xd4,
  0x13, 0x0b, 0xfd, 0xe2, 0xd4, 0xbb, 0x00, 0x2b, 0xe6, 0x18, 0x1b, 0xc0,
  0x04, 0x04, 0x55, 0x06, 0xc2, 0x0d, 0xae, 0xfc, 0xf3, 0xd0, 0xfd, 0x1e,
  0x1c, 0x38, 0xf1, 0xf4, 0x44, 0x29, 0x05, 0xfd, 0x14, 0x00, 0xad, 0xd9,
  0xfd, 0xfb, 0xec, 0x13, 0x08, 0x20, 0x05, 0xf0, 0x3f, 0x3a, 0x26, 0xc1,
  0x0f, 0x03, 0xb3, 0xf8, 0xe6, 0xd1, 0xbe, 0x1d, 0x3a, 0x40, 0xdd, 0xd7,
  0x4c, 0xe1, 0x31, 0xd6, 0x13, 0xf4, 0xd1, 0xfd, 0xb9, 0xe8, 0x07, 0x1a,
  0x00, 0x3e, 0xc5, 0xdf, 0xfe, 0xd2, 0x2a, 0xef, 0xdb, 0x08, 0xeb, 0x08,
  0xd3, 0x0c, 0xcd, 0x0d, 0x4b, 0x09, 0xeb, 0xf1, 0x11, 0x2c, 0x5b, 0xe0,
  0x0b, 0xb4, 0xf5, 0xd2, 0xf5, 0xdd, 0xeb, 0x1b, 0x02, 0x00, 0x0d, 0x0a,
  0x1f, 0x2b, 0x3f, 0x11, 0x0f, 0x18, 0xba, 0xc9, 0x19, 0xcf, 0x16, 0xef,
  0x0e, 0x30, 0xde, 0xc9, 0x30, 0xf8, 0x49, 0x08, 0x0a, 0x12, 0xef, 0xda,
  0xfa, 0xb5, 0x0e, 0x34, 0x2d, 0xf0, 0x04, 0x01, 0x4c, 0xf5, 0x23, 0xd4,
  0x0d, 0xfb, 0xb9, 0xf5, 0xcd, 0x03, 0xe0, 0x18, 0x20, 0xf4, 0xe5, 0xfc,
  0x25, 0xe0, 0x45, 0xc1, 0xe3, 0xb8, 0xb4, 0xfe, 0xd5, 0xcd, 0x0a, 0xf1,
  0x0d, 0x35, 0xe9, 0x15, 0x1c, 0x00, 0x18, 0x09, 0xc7, 0xce, 0xd4, 0xc6,
  0xd5, 0x0d, 0xb3, 0x09, 0xfe, 0x3b, 0x21, 0xe3, 0x45, 0xfe, 0x37, 0xf0,
  0xc3, 0xf4, 0xbc, 0x0d, 0xcb, 0xbf, 0xdc, 0xe8, 0x33, 0x47, 0xeb, 0x29,
  0xfb, 0xe0, 0x17, 0xd0, 0xe3, 0xdd, 0xe9, 0xba, 0xe0, 0xd0, 0xc9, 0xff,
  0x4c, 0x07, 0xc6, 0x22, 0x11, 0xfb, 0x35, 0xcf, 0x09, 0xa0, 0xec, 0xfe,
  0x0d, 0x04, 0x06, 0x33, 0xf9, 0x24, 0xf5, 0xd6, 0x48, 0x28, 0x47, 0xb3,
  0xfc, 0xf9, 0xe1, 0xb2, 0xc8, 0x0c, 0xef, 0x4b, 0xf9, 0x45, 0x26, 0xf6,
  0x26, 0x21, 0x1e, 0xbe, 0xf8, 0x94, 0xef, 0xa4, 0xd8, 0xfb, 0xb2, 0x11,
  0xfa, 0x4a, 0x1b, 0xde, 0x10, 0x01, 0x08, 0xda, 0x08, 0xa5, 0xea, 0xa8,
  0x07, 0xc8, 0xc3, 0xef, 0xf1, 0x41, 0x08, 0x1d, 0x46, 0x1a, 0x2a, 0xf3,
  0xea, 0xe5, 0xb8, 0xb8, 0xf4, 0xc4, 0x01, 0xf3, 0x25, 0x5a, 0xbf, 0x18,
  0x12, 0xbd, 0x9a, 0xef, 0x58, 0x39, 0xf3, 0x0b, 0x61, 0xd1, 0x45, 0xe1,
  0xd1, 0xfb, 0x47, 0x01, 0xf0, 0xe4, 0xbb, 0xc7, 0x40, 0x04, 0x23, 0x27,
  0x36, 0xe1, 0x31, 0xde, 0xfb, 0xde, 0xf0, 0x1c, 0xca, 0xe2, 0x9d, 0xf1,
  0x0c, 0x06, 0x03, 0x2e, 0x1b, 0xbf, 0x48, 0xbb, 0x0f, 0x0b, 0xec, 0x59,
  0xe8, 0xa5, 0xd0, 0xd0, 0x53, 0x3b, 0x02, 0x2f, 0xec, 0xcd, 0x56, 0xd8,
  0xfe, 0xd2, 0x11, 0xf8, 0x06, 0xca, 0xc6, 0xe4, 0x2a, 0x03, 0x2a, 0xf8,
  0x0f, 0xec, 0x3b, 0xea, 0x07, 0xbc, 0xef, 0x4a, 0x08, 0xd0, 0xf1, 0xcf,
  0x49, 0x4a, 0x43, 0x06, 0x52, 0x05, 0x46, 0xf8, 0xd3, 0x0f, 0x20, 0x2a,
  0xff, 0xb6, 0xf3, 0xcf, 0x27, 0x1b, 0xef, 0x42, 0x12, 0x07, 0x0f, 0x08,
  0x16, 0xf6, 0x13, 0x30, 0x10, 0xa2, 0xcf, 0xee, 0x43, 0x31, 0xf1, 0x21,
  0xe9, 0x05, 0x41, 0xe6, 0xe8, 0xd7, 0xec, 0x4e, 0xc3, 0xb8, 0xf6, 0xd5,
  0x21, 0x05, 0x24, 0x05, 0x05, 0xd5, 0x42, 0xfd, 0xd8, 0xcb, 0x12, 0x17,
  0x0e, 0xbd, 0xbd, 0xed, 0x44, 0x06, 0x0a, 0x26, 0x21, 0xfa, 0x1c, 0xbc,
  0xdc, 0xc1, 0x38, 0x0f, 0xcd, 0xdc, 0xad, 0xf7, 0x23, 0x21, 0x1f, 0x01,
  0x10, 0x1e, 0x15, 0x0d, 0xf7, 0x04, 0xfc, 0x21, 0xc4, 0xab, 0xd8, 0x06,
  0x07, 0x25, 0xe9, 0x08, 0x01, 0xfa, 0x46, 0xbf, 0xe1, 0xcb, 0xe4, 0xf5,
  0xf2, 0xd1, 0xc6, 0xd4, 0x12, 0xf5, 0x29, 0x27, 0xf8, 0xc6, 0x47, 0xf7,
  0x21, 0xfd, 0x21, 0x14, 0xc4, 0xcd, 0xc6, 0xd3, 0x39, 0xf3, 0x2d, 0x0b,
  0xfc, 0xde, 0xf8, 0xe9, 0x18, 0xdb, 0xe1, 0x36, 0x12, 0xed, 0xfa, 0xf4,
  0xf6, 0x2d, 0xe1, 0x46, 0xeb, 0xfc, 0x0f, 0x06, 0xcf, 0xf0, 0x0c, 0x28,
  0xd7, 0xa4, 0xf1, 0xdd, 0x18, 0x36, 0x38, 0x0c, 0xfa, 0xe0, 0x3e, 0xd5,
  0x01, 0xb6, 0x24, 0xff, 0x0f, 0xe8, 0xfb, 0xc0, 0xee, 0x07, 0x28, 0x3a,
  0x4e, 0xe4, 0x1e, 0x05, 0x17, 0xc7, 0x17, 0x30, 0xdb, 0xbc, 0xbe, 0xbd,
  0x41, 0x27, 0x12, 0x0b, 0x08, 0x0b, 0x2e, 0x0b, 0xcb, 0xeb, 0xee, 0x1b,
  0xf4, 0xe1, 0xf5, 0xf3, 0xfb, 0x30, 0x0a, 0xbf, 0x12, 0x22, 0x2e, 0x14,
  0x02, 0xbc, 0x25, 0x3b, 0xca, 0xb1, 0xa0, 0xc0, 0x58, 0x1d, 0x23, 0xe5,
  0x4a, 0xdc, 0xf5, 0x1f, 0x09, 0x14, 0xe4, 0x30, 0xf4, 0xad, 0xc2, 0xfb,
  0x14, 0x48, 0x01, 0xe1, 0xfe, 0xfe, 0x35, 0xec, 0x01, 0xba, 0x20, 0x40,
  0x10, 0x9a, 0xe8, 0x01, 0xfc, 0x0d, 0xcf, 0x0e, 0x3a, 0x08, 0x4c, 0xeb,
  0xcb, 0x0b, 0x15, 0xf3, 0x09, 0xea, 0xe5, 0xf6, 0x1c, 0x16, 0x09, 0xd7,
  0x0e, 0x35, 0x2d, 0x18, 0x01, 0xd2, 0xf0, 0x4a, 0xd2, 0xba, 0xbf, 0xe3,
  0x43, 0x16, 0xf1, 0xd6, 0x2f, 0x0b, 0x1e, 0xeb, 0xff, 0xc0, 0xd9, 0x49,
  0xe9, 0xe9, 0xc8, 0x10, 0x3a, 0xe1, 0xf2, 0xd3, 0x17, 0x1f, 0x03, 0xc6,
  0xd1, 0xb4, 0x04, 0x1a, 0x05, 0xa2, 0xcf, 0x15, 0x3b, 0x3d, 0xf0, 0xf2,
  0x06, 0x31, 0x11, 0x1d, 0x0a, 0xb7, 0xf3, 0x3c, 0xb4, 0xbc, 0xf9, 0xdf,
  0x12, 0xde, 0x0a, 0xe2, 0xf2, 0x49, 0x21, 0x09, 0xe0, 0xdd, 0xf8, 0xfa,
  0x00, 0xdc, 0xf8, 0x03, 0x3f, 0x2f, 0x14, 0xce, 0x0d, 0xfb, 0x00, 0x01,
  0x24, 0xb7, 0x3a, 0x4b, 0xc7, 0xe6, 0xc4, 0x11, 0x5e, 0xe5, 0xd0, 0xd5,
  0xfa, 0x29, 0x38, 0x0e, 0xe1, 0xcc, 0xe6, 0x43, 0xbd, 0xaf, 0xb0, 0x11,
  0x2a, 0x0a, 0xf3, 0xd1, 0xf5, 0x20, 0x39, 0x10, 0x0c, 0x03, 0x11, 0x23,
  0x42, 0xf0, 0xff, 0xff, 0x04, 0x00, 0x00, 0x00, 0x10, 0x00, 0x00, 0x00,
  0xc7, 0x0e, 0xdc, 0xd6, 0x0d, 0x0f, 0xe5, 0xfe, 0x0a, 0xb5, 0x01, 0x80,
  0x19, 0x14, 0x22, 0x47, 0x5e, 0xf0, 0xff, 0xff, 0x04, 0x00, 0x00, 0x00,
  0x10, 0x00, 0x00, 0x00, 0xef, 0x67, 0xef, 0xd6, 0x1b, 0x21, 0x2c, 0x24,
  0x11, 0xf9, 0x7f, 0xd2, 0xa1, 0xbc, 0xf7, 0xca, 0x7a, 0xf0, 0xff, 0xff,
  0x04, 0x00, 0x00, 0x00, 0x40, 0x00, 0x00, 0x00, 0x0d, 0xe5, 0xb9, 0x2e,
  0xdc, 0x83, 0x72, 0x45, 0xd8, 0xb5, 0xf8, 0x6b, 0x81, 0x50, 0x0d, 0x8c,
  0x20, 0xa9, 0x56, 0xc5, 0xd8, 0x19, 0x73, 0xb5, 0xff, 0xa9, 0x15, 0xc5,
  0x81, 0x11, 0xd4, 0x36, 0x81, 0xa9, 0x8f, 0x5f, 0xc2, 0x00, 0x07, 0x9c,
  0x46, 0xa3, 0x9b, 0x6f, 0x4e, 0xb6, 0x3e, 0x11, 0xde, 0xea, 0xfd, 0x2c,
  0xeb, 0x5a, 0xa6, 0x17, 0xa4, 0x81, 0xeb, 0x8b, 0x62, 0x8b, 0x8a, 0x66,
  0xc6, 0xf0, 0xff, 0xff, 0x04, 0x00, 0x00, 0x00, 0x1c, 0x00, 0x00, 0x00,
  0x4f, 0xb9, 0x81, 0x2a, 0x5b, 0x31, 0x04, 0x3b, 0xdf, 0x3f, 0x7f, 0xe0,
  0xba, 0x19, 0x2a, 0xad, 0xda, 0x2c, 0xe0, 0x81, 0x5c, 0x06, 0xeb, 0xf0,
  0x7f, 0x6b, 0x7f, 0x03, 0xee, 0xf0, 0xff, 0xff, 0x04, 0x00, 0x00, 0x00,
  0x38, 0x00, 0x00, 0x00, 0x15, 0xe8, 0xcd, 0xcc, 0x0f, 0x49, 0x01, 0xe6,
  0xe3, 0x7f, 0xb9, 0x49, 0x26, 0x4f, 0x69, 0xd6, 0x58, 0x3e, 0x15, 0x06,
  0xe7, 0x14, 0xf7, 0xae, 0xe5, 0xc6, 0x81, 0xf0, 0x83, 0x0b, 0x05, 0x68,
  0x49, 0xf6, 0x50, 0x8e, 0xeb, 0x57, 0x61, 0x81, 0xf5, 0x60, 0x32, 0xeb,
  0xd8, 0xd6, 0x39, 0x81, 0x62, 0x4e, 0x63, 0x79, 0xe2, 0xf8, 0xea, 0xdd,
  0x32, 0xf1, 0xff, 0xff, 0x04, 0x00, 0x00, 0x00, 0x70, 0x00, 0x00, 0x00,
  0x00, 0xea, 0xe4, 0x02, 0x81, 0x1b, 0x13, 0x54, 0x46, 0x6e, 0x44, 0x4e,
  0xbd, 0x13, 0xb8, 0x43, 0x67, 0x5e, 0xf8, 0xfc, 0x0c, 0x11, 0xdc, 0xf8,
  0xfd, 0x6a, 0x7e, 0x11, 0x41, 0x31, 0xba, 0xf1, 0xd7, 0xf9, 0xff, 0x99,
  0x99, 0x97, 0x29, 0x2d, 0x45, 0x12, 0x9c, 0x9b, 0x53, 0x46, 0x64, 0xac,
  0xf3, 0xeb, 0x69, 0xf8, 0x54, 0x31, 0x7f, 0x7c, 0x22, 0x66, 0x59, 0xf2,
  0x7f, 0xec, 0xef, 0x1f, 0x03, 0x22, 0xea, 0xfd, 0xec, 0xfd, 0x01, 0x42,
  0x51, 0x0a, 0xe0, 0xd0, 0xb9, 0x07, 0xbd, 0x0d, 0xe6, 0x7a, 0x02, 0x3c,
  0xcc, 0x15, 0x4c, 0xcd, 0x71, 0x22, 0x15, 0x7f, 0x04, 0x62, 0xed, 0x1c,
  0x38, 0xf6, 0xb2, 0x47, 0xf2, 0xfe, 0x34, 0xf2, 0x3a, 0xca, 0xe7, 0xb6,
  0x05, 0xdd, 0x5d, 0xdc, 0xae, 0xf1, 0xff, 0xff, 0x04, 0x00, 0x00, 0x00,
  0x10, 0x00, 0x00, 0x00, 0x2b, 0x81, 0x6c, 0x8b, 0x82, 0x55, 0x27, 0xfd,
  0x41, 0x17, 0x83, 0x40, 0x06, 0x18, 0x38, 0x18, 0xca, 0xf1, 0xff, 0xff,
  0x04, 0x00, 0x00, 0x00, 0x10, 0x00, 0x00, 0x00, 0x33, 0x88, 0x48, 0x2b,
  0x80, 0x7d, 0x2e, 0x94, 0x67, 0x25, 0x87, 0x4e, 0x4f, 0x3a, 0x27, 0x2d,
  0xe6, 0xf1, 0xff, 0xff, 0x04, 0x00, 0x00, 0x00, 0x10, 0x00, 0x00, 0x00,
  0xf7, 0xae, 0x04, 0x0e, 0xbe, 0x61, 0xd2, 0xc3, 0xfa, 0x7f, 0xcb, 0xfe,
  0xed, 0xc6, 0xb6, 0xd6, 0x02, 0xf2, 0xff, 0xff, 0x04, 0x00, 0x00, 0x00,
  0x40, 0x00, 0x00, 0x00, 0xee, 0x81, 0x29, 0x96, 0xcd, 0xea, 0x88, 0xa7,
  0x01, 0xdc, 0x50, 0x12, 0xe0, 0x62, 0x00, 0xb3, 0x7f, 0x90, 0xda, 0xdb,
  0xaf, 0xf1, 0x36, 0xfc, 0xdd, 0x43, 0x2b, 0x11, 0xd0, 0xb1, 0xaf, 0x00,
  0x44, 0x24, 0x02, 0xcd, 0x3c, 0x05, 0xbf, 0x1d, 0x2e, 0xfb, 0xdd, 0x24,
  0xc2, 0x47, 0x81, 0xb9, 0x25, 0x6f, 0x23, 0xf0, 0x61, 0xc4, 0x89, 0xeb,
  0x73, 0xbc, 0xc6, 0x81, 0xeb, 0xe6, 0x7a, 0xf3, 0x4e, 0xf2, 0xff, 0xff,
  0x04, 0x00, 0x00, 0x00, 0x1c, 0x00, 0x00, 0x00, 0x7f, 0xbb, 0xff, 0x92,
  0xb9, 0x34, 0x25, 0x52, 0xba, 0x92, 0xf4, 0x64, 0xac, 0x81, 0x7f, 0x27,
  0x73, 0xc2, 0xd0, 0x72, 0xc5, 0x81, 0xa7, 0x40, 0x20, 0x32, 0x62, 0x9d,
  0x76, 0xf2, 0xff, 0xff, 0x04, 0x00, 0x00, 0x00, 0x38, 0x00, 0x00, 0x00,
  0x41, 0x4d, 0x2b, 0xa7, 0xb5, 0x09, 0x29, 0x4b, 0x51, 0x1b, 0x52, 0x7f,
  0x9a, 0xe9, 0x10, 0x00, 0xf8, 0xd4, 0x81, 0xc3, 0xf9, 0xed, 0x01, 0x02,
  0x34, 0x2a, 0x25, 0x27, 0x1d, 0xc5, 0x08, 0xf9, 0x2e, 0x35, 0xc3, 0xc1,
  0x1f, 0x14, 0x1d, 0xba, 0x7f, 0x12, 0xd6, 0xe7, 0xf9, 0x23, 0x77, 0x1b,
  0x20, 0x13, 0xdc, 0x60, 0x58, 0x47, 0x81, 0xcb, 0xba, 0xf2, 0xff, 0xff,
  0x04, 0x00, 0x00, 0x00, 0x70, 0x00, 0x00, 0x00, 0x1e, 0x93, 0x4c, 0x34,
  0x32, 0x7f, 0x27, 0x3c, 0x1f, 0xb9, 0xf0, 0x2a, 0xac, 0x2f, 0xab, 0xda,
  0xc9, 0x20, 0xc7, 0x0c, 0x0e, 0xeb, 0x3b, 0xae, 0xe0, 0xeb, 0xd3, 0x10,
  0xf0, 0x5f, 0x18, 0x70, 0xd5, 0x2a, 0xc7, 0x9b, 0x26, 0x49, 0x05, 0xc8,
  0xff, 0xc7, 0x49, 0x0a, 0x70, 0x7f, 0x7b, 0xf7, 0x7f, 0x46, 0x33, 0x58,
  0xe3, 0x21, 0x47, 0xc1, 0xb1, 0xaa, 0x83, 0x01, 0xf5, 0x4c, 0x13, 0x00,
  0xc1, 0xdc, 0xab, 0x68, 0x33, 0x02, 0xf0, 0x02, 0x76, 0xac, 0x02, 0x0f,
  0x1d, 0xbb, 0x0d, 0x7f, 0x4c, 0xd6, 0x03, 0xed, 0x29, 0x43, 0x2d, 0xcd,
  0xe4, 0x09, 0x53, 0xf9, 0xef, 0xf3, 0x3b, 0x1e, 0xba, 0xf1, 0x1b, 0x19,
  0x1c, 0xe6, 0x22, 0xd6, 0x1d, 0xb3, 0x83, 0xde, 0x96, 0x89, 0xd5, 0x81,
  0x36, 0xf3, 0xff, 0xff, 0x04, 0x00, 0x00, 0x00, 0x10, 0x00, 0x00, 0x00,
  0xce, 0xcf, 0x6c, 0x63, 0x6e, 0x7f, 0xc1, 0x5a, 0x64, 0xbe, 0xdb, 0xdd,
  0x14, 0x22, 0x26, 0x38, 0x52, 0xf3, 0xff, 0xff, 0x04, 0x00, 0x00, 0x00,
  0x10, 0x00, 0x00, 0x00, 0x03, 0x80, 0x72, 0xde, 0x2a, 0x7f, 0xa8, 0xe8,
  0x04, 0xf5, 0xf9, 0xea, 0xb6, 0xeb, 0x0b, 0xe0, 0x6e, 0xf3, 0xff, 0xff,
  0x04, 0x00, 0x00, 0x00, 0x10, 0x00, 0x00, 0x00, 0x47, 0xcd, 0x31, 0xc0,
  0xee, 0x7f, 0x0a, 0xec, 0xea, 0xc7, 0xe6, 0xdb, 0x8d, 0x99, 0xa0, 0xab,
  0x8a, 0xf3, 0xff, 0xff, 0x04, 0x00, 0x00, 0x00, 0x18, 0x00, 0x00, 0x00,
  0xc3, 0x7f, 0x3a, 0x70, 0x3b, 0xec, 0x7f, 0x85, 0xdc, 0x3a, 0x34, 0x42,
  0xd2, 0x15, 0x81, 0xc3, 0x19, 0x56, 0x1f, 0xb6, 0x7f, 0xa8, 0x6c, 0xeb,
  0xae, 0xf3, 0xff, 0xff, 0x04, 0x00, 0x00, 0x00, 0x40, 0x00, 0x00, 0x00,
  0x09, 0xfe, 0xff, 0xff, 0xe1, 0x04, 0x00, 0x00, 0x68, 0xfe, 0xff, 0xff,
  0x01, 0x03, 0x00, 0x00, 0xf2, 0xfd, 0xff, 0xff, 0xd2, 0x01, 0x00, 0x00,
  0xcd, 0x06, 0x00, 0x00, 0xb0, 0xfc, 0xff, 0xff, 0x48, 0xfe, 0xff, 0xff,
  0x9d, 0x04, 0x00, 0x00, 0x6c, 0x00, 0x00, 0x00, 0x4c, 0xfd, 0xff, 0xff,
  0x33, 0x01, 0x00, 0x00, 0xe9, 0x02, 0x00, 0x00, 0x32, 0x02, 0x00, 0x00,
  0x89, 0xfc, 0xff, 0xff, 0xfa, 0xf3, 0xff, 0xff, 0x04, 0x00, 0x00, 0x00,
  0x60, 0x00, 0x00, 0x00, 0xba, 0x40, 0xdb, 0x7a, 0x7f, 0x51, 0x0f, 0x67,
  0x72, 0xcb, 0xc2, 0x81, 0x7f, 0x21, 0xc7, 0x00, 0x52, 0x04, 0xe2, 0xe2,
  0xd7, 0x7f, 0x47, 0xb4, 0x05, 0x81, 0xf8, 0x2b, 0xa5, 0xf6, 0xa0, 0x81,
  0xee, 0xfd, 0xf1, 0xc1, 0x31, 0x97, 0x3c, 0x7f, 0xdf, 0x88, 0x81, 0xbc,
  0x4e, 0x5c, 0x9e, 0xc6, 0x7f, 0xed, 0x30, 0x0d, 0x16, 0x30, 0x2e, 0xdb,
  0x81, 0xdb, 0xbd, 0xcc, 0xf9, 0x81, 0x1f, 0xff, 0xf5, 0xe2, 0xe5, 0x7f,
  0x70, 0x48, 0x1e, 0x38, 0xff, 0x7f, 0x21, 0xff, 0x03, 0xfc, 0x1b, 0x7f,
  0x9b, 0x28, 0x33, 0xe9, 0x81, 0x9f, 0x65, 0x8c, 0x2e, 0x45, 0x49, 0xcd,
  0x66, 0xdb, 0x7f, 0x63, 0x66, 0xf4, 0xff, 0xff, 0x04, 0x00, 0x00, 0x00,
  0x1c, 0x00, 0x00, 0x00, 0x48, 0x73, 0x3b, 0x6b, 0x29, 0x81, 0xac, 0x20,
  0x97, 0x49, 0x7f, 0x12, 0x21, 0x26, 0x05, 0xef, 0x46, 0x7f, 0x0d, 0xef,
  0xe2, 0xc9, 0x4a, 0xda, 0x2e, 0x66, 0xa4, 0x7f, 0x8e, 0xf4, 0xff, 0xff,
  0x04, 0x00, 0x00, 0x00, 0x38, 0x00, 0x00, 0x00, 0xd5, 0xe5, 0x03, 0xed,
  0xd3, 0xd0, 0x01, 0x1e, 0x1c, 0xf3, 0xee, 0x7f, 0x0a, 0x36, 0x59, 0x20,
  0x1a, 0x47, 0xab, 0xd4, 0xde, 0x9f, 0x09, 0x81, 0x44, 0xd3, 0xfb, 0xb0,
  0x32, 0x45, 0xb9, 0x28, 0x49, 0x19, 0x4d, 0xbd, 0xf1, 0xe2, 0x7f, 0x47,
  0x16, 0xad, 0xd8, 0x0c, 0x7f, 0xa1, 0x75, 0x51, 0x58, 0x03, 0xfb, 0x1b,
  0xe8, 0x0f, 0xcf, 0x53, 0xd2, 0xf4, 0xff, 0xff, 0x04, 0x00, 0x00, 0x00,
  0x10, 0x00, 0x00, 0x00, 0x00, 0x00, 0x00, 0x00, 0x00, 0x00, 0x00, 0x00,
  0x00, 0x00, 0x00, 0x00, 0x00, 0x00, 0x00, 0x00, 0xee, 0xf4, 0xff, 0xff,
  0x04, 0x00, 0x00, 0x00, 0x10, 0x00, 0x00, 0x00, 0x00, 0x00, 0x00, 0x00,
  0x00, 0x00, 0x00, 0x00, 0x00, 0x00, 0x00, 0x00, 0x00, 0x00, 0x00, 0x00,
  0x0a, 0xf5, 0xff, 0xff, 0x04, 0x00, 0x00, 0x00, 0x10, 0x00, 0x00, 0x00,
  0x00, 0x00, 0x00, 0x00, 0x00, 0x00, 0x00, 0x00, 0x00, 0x00, 0x00, 0x00,
  0x00, 0x00, 0x00, 0x00, 0x26, 0xf5, 0xff, 0xff, 0x04, 0x00, 0x00, 0x00,
  0x10, 0x00, 0x00, 0x00, 0x00, 0x00, 0x00, 0x00, 0x00, 0x00, 0x00, 0x00,
  0x00, 0x00, 0x00, 0x00, 0x00, 0x00, 0x00, 0x00, 0x42, 0xf5, 0xff, 0xff,
  0x04, 0x00, 0x00, 0x00, 0x10, 0x00, 0x00, 0x00, 0x00, 0x00, 0x00, 0x00,
  0x00, 0x00, 0x00, 0x00, 0x00, 0x00, 0x00, 0x00, 0x00, 0x00, 0x00, 0x00,
  0x5e, 0xf5, 0xff, 0xff, 0x04, 0x00, 0x00, 0x00, 0x10, 0x00, 0x00, 0x00,
  0x00, 0x00, 0x00, 0x00, 0x00, 0x00, 0x00, 0x00, 0x00, 0x00, 0x00, 0x00,
  0x00, 0x00, 0x00, 0x00, 0x7a, 0xf5, 0xff, 0xff, 0x04, 0x00, 0x00, 0x00,
  0x10, 0x00, 0x00, 0x00, 0x00, 0x00, 0x00, 0x00, 0x00, 0x00, 0x00, 0x00,
  0x00, 0x00, 0x00, 0x00, 0x00, 0x00, 0x00, 0x00, 0x96, 0xf5, 0xff, 0xff,
  0x04, 0x00, 0x00, 0x00, 0x10, 0x00, 0x00, 0x00, 0x00, 0x00, 0x00, 0x00,
  0x00, 0x00, 0x00, 0x00, 0x00, 0x00, 0x00, 0x00, 0x00, 0x00, 0x00, 0x00,
  0xb2, 0xf5, 0xff, 0xff, 0x04, 0x00, 0x00, 0x00, 0x10, 0x00, 0x00, 0x00,
  0x00, 0x00, 0x00, 0x00, 0x00, 0x00, 0x00, 0x00, 0x00, 0x00, 0x00, 0x00,
  0x00, 0x00, 0x00, 0x00, 0xce, 0xf5, 0xff, 0xff, 0x04, 0x00, 0x00, 0x00,
  0x10, 0x00, 0x00, 0x00, 0x00, 0x00, 0x00, 0x00, 0x00, 0x00, 0x00, 0x00,
  0x00, 0x00, 0x00, 0x00, 0x00, 0x00, 0x00, 0x00, 0xea, 0xf5, 0xff, 0xff,
  0x04, 0x00, 0x00, 0x00, 0x10, 0x00, 0x00, 0x00, 0x00, 0x00, 0x00, 0x00,
  0x00, 0x00, 0x00, 0x00, 0x00, 0x00, 0x00, 0x00, 0x00, 0x00, 0x00, 0x00,
  0x06, 0xf6, 0xff, 0xff, 0x04, 0x00, 0x00, 0x00, 0x10, 0x00, 0x00, 0x00,
  0x00, 0x00, 0x00, 0x00, 0x00, 0x00, 0x00, 0x00, 0x00, 0x00, 0x00, 0x00,
  0x00, 0x00, 0x00, 0x00, 0x22, 0xf6, 0xff, 0xff, 0x04, 0x00, 0x00, 0x00,
  0x70, 0x00, 0x00, 0x00, 0xb4, 0x21, 0x19, 0x43, 0x08, 0xf8, 0xbf, 0xd6,
  0xd0, 0x63, 0x1d, 0x5f, 0xcc, 0x3d, 0xd1, 0xf6, 0xf3, 0x87, 0x0c, 0xf5,
  0x7f, 0xf8, 0x60, 0xe3, 0xc1, 0x07, 0xef, 0x0b, 0x39, 0x1c, 0xe6, 0x52,
  0x5e, 0x3c, 0xfa, 0x3f, 0x47, 0xe9, 0x43, 0x3b, 0x59, 0x13, 0x18, 0xc3,
  0xb9, 0x16, 0x61, 0xce, 0xd5, 0x2a, 0xda, 0xb2, 0x7f, 0x4a, 0xb0, 0xd0,
  0x2a, 0xab, 0x0c, 0x68, 0xb3, 0xba, 0x63, 0x4b, 0xc2, 0x8d, 0x0c, 0x47,
  0xca, 0xdf, 0xf7, 0x74, 0x1a, 0xe3, 0x54, 0x8e, 0x73, 0x99, 0x81, 0x92,
  0xae, 0xcc, 0xcf, 0xd6, 0x23, 0xee, 0xf6, 0x2e, 0x22, 0x40, 0x4d, 0x9a,
  0xed, 0x79, 0xf9, 0x2e, 0x04, 0x14, 0x5a, 0x18, 0xe6, 0x06, 0xf7, 0xa4,
  0xdf, 0x6a, 0x29, 0xfb, 0x44, 0x7f, 0xc4, 0x0c, 0x9e, 0xf6, 0xff, 0xff,
  0x04, 0x00, 0x00, 0x00, 0x04, 0x00, 0x00, 0x00, 0x00, 0x00, 0x00, 0x00,
  0xae, 0xf6, 0xff, 0xff, 0x04, 0x00, 0x00, 0x00, 0x04, 0x00, 0x00, 0x00,
  0x00, 0x00, 0x00, 0x00, 0xbe, 0xf6, 0xff, 0xff, 0x04, 0x00, 0x00, 0x00,
  0x04, 0x00, 0x00, 0x00, 0x00, 0x00, 0x00, 0x00, 0xce, 0xf6, 0xff, 0xff,
  0x04, 0x00, 0x00, 0x00, 0x06, 0x00, 0x00, 0x00, 0x04, 0x2a, 0x54, 0x7f,
  0x44, 0xc2, 0x00, 0x00, 0xe2, 0xf6, 0xff, 0xff, 0x04, 0x00, 0x00, 0x00,
  0x08, 0x00, 0x00, 0x00, 0xff, 0xff, 0xff, 0xff, 0xe0, 0x01, 0x00, 0x00,
  0xf6, 0xf6, 0xff, 0xff, 0x04, 0x00, 0x00, 0x00, 0x10, 0x00, 0x00, 0x00,
  0x01, 0x00, 0x00, 0x00, 0x1e, 0x00, 0x00, 0x00, 0x01, 0x00, 0x00, 0x00,
  0x10, 0x00, 0x00, 0x00, 0x12, 0xf7, 0xff, 0xff, 0x04, 0x00, 0x00, 0x00,
  0x10, 0x00, 0x00, 0x00, 0x01, 0x00, 0x00, 0x00, 0x01, 0x00, 0x00, 0x00,
  0x1e, 0x00, 0x00, 0x00, 0x10, 0x00, 0x00, 0x00, 0x2e, 0xf7, 0xff, 0xff,
  0x04, 0x00, 0x00, 0x00, 0x10, 0x00, 0x00, 0x00, 0x01, 0x00, 0x00, 0x00,
  0x1e, 0x00, 0x00, 0x00, 0x01, 0x00, 0x00, 0x00, 0x06, 0x00, 0x00, 0x00,
  0x4a, 0xf7, 0xff, 0xff, 0x04, 0x00, 0x00, 0x00, 0x0c, 0x00, 0x00, 0x00,
  0x01, 0x00, 0x00, 0x00, 0x1e, 0x00, 0x00, 0x00, 0x10, 0x00, 0x00, 0x00,
  0x62, 0xf7, 0xff, 0xff, 0x04, 0x00, 0x00, 0x00, 0x0c, 0x00, 0x00, 0x00,
  0x01, 0x00, 0x00, 0x00, 0x1e, 0x00, 0x00, 0x00, 0x04, 0x00, 0x00, 0x00,
  0x7a, 0xf7, 0xff, 0xff, 0x04, 0x00, 0x00, 0x00, 0x10, 0x00, 0x00, 0x00,
  0x01, 0x00, 0x00, 0x00, 0x01, 0x00, 0x00, 0x00, 0x1e, 0x00, 0x00, 0x00,
  0x06, 0x00, 0x00, 0x00, 0x14, 0xbc, 0xff, 0xff, 0x18, 0xbc, 0xff, 0xff,
  0x0f, 0x00, 0x00, 0x00, 0x4d, 0x4c, 0x49, 0x52, 0x20, 0x43, 0x6f, 0x6e,
  0x76, 0x65, 0x72, 0x74, 0x65, 0x64, 0x2e, 0x00, 0x01, 0x00, 0x00, 0x00,
  0x14, 0x00, 0x00, 0x00, 0x00, 0x00, 0x0e, 0x00, 0x18, 0x00, 0x14, 0x00,
  0x10, 0x00, 0x0c, 0x00, 0x08, 0x00, 0x04, 0x00, 0x0e, 0x00, 0x00, 0x00,
  0x14, 0x00, 0x00, 0x00, 0x1c, 0x00, 0x00, 0x00, 0x44, 0x0b, 0x00, 0x00,
  0x48, 0x0b, 0x00, 0x00, 0x4c, 0x0b, 0x00, 0x00, 0x04, 0x00, 0x00, 0x00,
  0x6d, 0x61, 0x69, 0x6e, 0x00, 0x00, 0x00, 0x00, 0x36, 0x00, 0x00, 0x00,
  0x08, 0x0b, 0x00, 0x00, 0xac, 0x0a, 0x00, 0x00, 0x58, 0x0a, 0x00, 0x00,
  0x34, 0x0a, 0x00, 0x00, 0xf0, 0x09, 0x00, 0x00, 0xcc, 0x09, 0x00, 0x00,
  0x88, 0x09, 0x00, 0x00, 0x64, 0x09, 0x00, 0x00, 0x24, 0x09, 0x00, 0x00,
  0x00, 0x09, 0x00, 0x00, 0xdc, 0x08, 0x00, 0x00, 0x8c, 0x08, 0x00, 0x00,
  0x68, 0x08, 0x00, 0x00, 0x24, 0x08, 0x00, 0x00, 0x00, 0x08, 0x00, 0x00,
  0xb8, 0x07, 0x00, 0x00, 0x84, 0x07, 0x00, 0x00, 0x44, 0x07, 0x00, 0x00,
  0x20, 0x07, 0x00, 0x00, 0xdc, 0x06, 0x00, 0x00, 0x98, 0x06, 0x00, 0x00,
  0x74, 0x06, 0x00, 0x00, 0x30, 0x06, 0x00, 0x00, 0x0c, 0x06, 0x00, 0x00,
  0xc8, 0x05, 0x00, 0x00, 0xa4, 0x05, 0x00, 0x00, 0x80, 0x05, 0x00, 0x00,
  0x40, 0x05, 0x00, 0x00, 0x1c, 0x05, 0x00, 0x00, 0xd8, 0x04, 0x00, 0x00,
  0xb4, 0x04, 0x00, 0x00, 0x74, 0x04, 0x00, 0x00, 0x40, 0x04, 0x00, 0x00,
  0x08, 0x04, 0x00, 0x00, 0xe4, 0x03, 0x00, 0x00, 0xa0, 0x03, 0x00, 0x00,
  0x5c, 0x03, 0x00, 0x00, 0x38, 0x03, 0x00, 0x00, 0xf4, 0x02, 0x00, 0x00,
  0xd0, 0x02, 0x00, 0x00, 0x8c, 0x02, 0x00, 0x00, 0x68, 0x02, 0x00, 0x00,
  0x44, 0x02, 0x00, 0x00, 0x04, 0x02, 0x00, 0x00, 0xe0, 0x01, 0x00, 0x00,
  0x9c, 0x01, 0x00, 0x00, 0x78, 0x01, 0x00, 0x00, 0x38, 0x01, 0x00, 0x00,
  0x04, 0x01, 0x00, 0x00, 0xcc, 0x00, 0x00, 0x00, 0x94, 0x00, 0x00, 0x00,
  0x70, 0x00, 0x00, 0x00, 0x38, 0x00, 0x00, 0x00, 0x04, 0x00, 0x00, 0x00,
  0x36, 0xf6, 0xff, 0xff, 0x14, 0x00, 0x00, 0x00, 0x00, 0x00, 0x00, 0x09,
  0x14, 0x00, 0x00, 0x00, 0x18, 0x00, 0x00, 0x00, 0x07, 0x00, 0x00, 0x00,
  0xe2, 0xf8, 0xff, 0xff, 0x00, 0x00, 0x80, 0x3f, 0x01, 0x00, 0x00, 0x00,
  0x65, 0x00, 0x00, 0x00, 0x01, 0x00, 0x00, 0x00, 0x64, 0x00, 0x00, 0x00,
  0x66, 0xf6, 0xff, 0xff, 0x14, 0x00, 0x00, 0x00, 0x00, 0x00, 0x00, 0x08,
  0x10, 0x00, 0x00, 0x00, 0x14, 0x00, 0x00, 0x00, 0x06, 0x00, 0x00, 0x00,
  0x90, 0xbd, 0xff, 0xff, 0x01, 0x00, 0x00, 0x00, 0x64, 0x00, 0x00, 0x00,
  0x03, 0x00, 0x00, 0x00, 0x63, 0x00, 0x00, 0x00, 0x2e, 0x00, 0x00, 0x00,
  0x2f, 0x00, 0x00, 0x00, 0x3e, 0xf6, 0xff, 0xff, 0x08, 0x00, 0x00, 0x00,
  0x0c, 0x00, 0x00, 0x00, 0x01, 0x00, 0x00, 0x00, 0x63, 0x00, 0x00, 0x00,
  0x02, 0x00, 0x00, 0x00, 0x62, 0x00, 0x00, 0x00, 0x07, 0x00, 0x00, 0x00,
  0xba, 0xf6, 0xff, 0xff, 0x14, 0x00, 0x00, 0x00, 0x00, 0x00, 0x00, 0x0b,
  0x14, 0x00, 0x00, 0x00, 0x18, 0x00, 0x00, 0x00, 0x05, 0x00, 0x00, 0x00,
  0xd2, 0xf9, 0xff, 0xff, 0x00, 0x00, 0x00, 0x01, 0x01, 0x00, 0x00, 0x00,
  0x62, 0x00, 0x00, 0x00, 0x02, 0x00, 0x00, 0x00, 0x39, 0x00, 0x00, 0x00,
  0x61, 0x00, 0x00, 0x00, 0xee, 0xf6, 0xff, 0xff, 0x14, 0x00, 0x00, 0x00,
  0x00, 0x00, 0x00, 0x0b, 0x14, 0x00, 0x00, 0x00, 0x18, 0x00, 0x00, 0x00,
  0x05, 0x00, 0x00, 0x00, 0x06, 0xfa, 0xff, 0xff, 0x00, 0x00, 0x00, 0x01,
  0x01, 0x00, 0x00, 0x00, 0x61, 0x00, 0x00, 0x00, 0x02, 0x00, 0x00, 0x00,
  0x60, 0x00, 0x00, 0x00, 0x2d, 0x00, 0x00, 0x00, 0x22, 0xf7, 0xff, 0xff,
  0x14, 0x00, 0x00, 0x00, 0x00, 0x00, 0x00, 0x15, 0x10, 0x00, 0x00, 0x00,
  0x14, 0x00, 0x00, 0x00, 0x04, 0x00, 0x00, 0x00, 0x4c, 0xbe, 0xff, 0xff,
  0x01, 0x00, 0x00, 0x00, 0x60, 0x00, 0x00, 0x00, 0x02, 0x00, 0x00, 0x00,
  0x5f, 0x00, 0x00, 0x00, 0x2c, 0x00, 0x00, 0x00, 0x52, 0xf7, 0xff, 0xff,
  0x14, 0x00, 0x00, 0x00, 0x00, 0x00, 0x00, 0x0a, 0x14, 0x00, 0x00, 0x00,
  0x18, 0x00, 0x00, 0x00, 0x03, 0x00, 0x00, 0x00, 0xfe, 0xf9, 0xff, 0xff,
  0x02, 0x00, 0x00, 0x00, 0x01, 0x00, 0x00, 0x00, 0x5f, 0x00, 0x00, 0x00,
  0x04, 0x00, 0x00, 0x00, 0x55, 0x00, 0x00, 0x00, 0x57, 0x00, 0x00, 0x00,
  0x59, 0x00, 0x00, 0x00, 0x5e, 0x00, 0x00, 0x00, 0x32, 0xf7, 0xff, 0xff,
  0x08, 0x00, 0x00, 0x00, 0x0c, 0x00, 0x00, 0x00, 0x01, 0x00, 0x00, 0x00,
  0x5e, 0x00, 0x00, 0x00, 0x02, 0x00, 0x00, 0x00, 0x5d, 0x00, 0x00, 0x00,
  0x02, 0x00, 0x00, 0x00, 0xae, 0xf7, 0xff, 0xff, 0x14, 0x00, 0x00, 0x00,
  0x00, 0x00, 0x00, 0x01, 0x1c, 0x00, 0x00, 0x00, 0x20, 0x00, 0x00, 0x00,
  0x01, 0x00, 0x00, 0x00, 0xa0, 0xf7, 0xff, 0xff, 0x00, 0x00, 0x00, 0x01,
  0x01, 0x00, 0x00, 0x00, 0x01, 0x00, 0x00, 0x00, 0x01, 0x00, 0x00, 0x00,
  0x5d, 0x00, 0x00, 0x00, 0x03, 0x00, 0x00, 0x00, 0x5c, 0x00, 0x00, 0x00,
  0x2b, 0x00, 0x00, 0x00, 0x18, 0x00, 0x00, 0x00, 0x92, 0xf7, 0xff, 0xff,
  0x08, 0x00, 0x00, 0x00, 0x0c, 0x00, 0x00, 0x00, 0x01, 0x00, 0x00, 0x00,
  0x5c, 0x00, 0x00, 0x00, 0x02, 0x00, 0x00, 0x00, 0x5b, 0x00, 0x00, 0x00,
  0x05, 0x00, 0x00, 0x00, 0x0e, 0xf8, 0xff, 0xff, 0x14, 0x00, 0x00, 0x00,
  0x00, 0x00, 0x00, 0x05, 0x20, 0x00, 0x00, 0x00, 0x24, 0x00, 0x00, 0x00,
  0x02, 0x00, 0x00, 0x00, 0xf6, 0xf9, 0xff, 0xff, 0x03, 0x00, 0x00, 0x00,
  0x01, 0x00, 0x00, 0x00, 0x01, 0x00, 0x00, 0x00, 0x01, 0x00, 0x00, 0x00,
  0x01, 0x00, 0x00, 0x00, 0x5b, 0x00, 0x00, 0x00, 0x01, 0x00, 0x00, 0x00,
  0x5a, 0x00, 0x00, 0x00, 0xee, 0xf7, 0xff, 0xff, 0x08, 0x00, 0x00, 0x00,
  0x0c, 0x00, 0x00, 0x00, 0x01, 0x00, 0x00, 0x00, 0x5a, 0x00, 0x00, 0x00,
  0x02, 0x00, 0x00, 0x00, 0x51, 0x00, 0x00, 0x00, 0x06, 0x00, 0x00, 0x00,
  0x0e, 0xf8, 0xff, 0xff, 0x08, 0x00, 0x00, 0x00, 0x0c, 0x00, 0x00, 0x00,
  0x01, 0x00, 0x00, 0x00, 0x59, 0x00, 0x00, 0x00, 0x02, 0x00, 0x00, 0x00,
  0x58, 0x00, 0x00, 0x00, 0x02, 0x00, 0x00, 0x00, 0x8a, 0xf8, 0xff, 0xff,
  0x14, 0x00, 0x00, 0x00, 0x00, 0x00, 0x00, 0x01, 0x1c, 0x00, 0x00, 0x00,
  0x20, 0x00, 0x00, 0x00, 0x01, 0x00, 0x00, 0x00, 0x7c, 0xf8, 0xff, 0xff,
  0x00, 0x00, 0x00, 0x01, 0x01, 0x00, 0x00, 0x00, 0x01, 0x00, 0x00, 0x00,
  0x01, 0x00, 0x00, 0x00, 0x58, 0x00, 0x00, 0x00, 0x03, 0x00, 0x00, 0x00,
  0x53, 0x00, 0x00, 0x00, 0x2a, 0x00, 0x00, 0x00, 0x17, 0x00, 0x00, 0x00,
  0x6e, 0xf8, 0xff, 0xff, 0x08, 0x00, 0x00, 0x00, 0x0c, 0x00, 0x00, 0x00,
  0x01, 0x00, 0x00, 0x00, 0x57, 0x00, 0x00, 0x00, 0x02, 0x00, 0x00, 0x00,
  0x56, 0x00, 0x00, 0x00, 0x02, 0x00, 0x00, 0x00, 0xea, 0xf8, 0xff, 0xff,
  0x14, 0x00, 0x00, 0x00, 0x00, 0x00, 0x00, 0x01, 0x1c, 0x00, 0x00, 0x00,
  0x20, 0x00, 0x00, 0x00, 0x01, 0x00, 0x00, 0x00, 0xdc, 0xf8, 0xff, 0xff,
  0x00, 0x00, 0x00, 0x01, 0x01, 0x00, 0x00, 0x00, 0x01, 0x00, 0x00, 0x00,
  0x01, 0x00, 0x00, 0x00, 0x56, 0x00, 0x00, 0x00, 0x03, 0x00, 0x00, 0x00,
  0x53, 0x00, 0x00, 0x00, 0x29, 0x00, 0x00, 0x00, 0x16, 0x00, 0x00, 0x00,
  0xce, 0xf8, 0xff, 0xff, 0x08, 0x00, 0x00, 0x00, 0x0c, 0x00, 0x00, 0x00,
  0x01, 0x00, 0x00, 0x00, 0x55, 0x00, 0x00, 0x00, 0x02, 0x00, 0x00, 0x00,
  0x54, 0x00, 0x00, 0x00, 0x02, 0x00, 0x00, 0x00, 0x4a, 0xf9, 0xff, 0xff,
  0x14, 0x00, 0x00, 0x00, 0x00, 0x00, 0x00, 0x01, 0x1c, 0x00, 0x00, 0x00,
  0x20, 0x00, 0x00, 0x00, 0x01, 0x00, 0x00, 0x00, 0x3c, 0xf9, 0xff, 0xff,
  0x00, 0x00, 0x00, 0x01, 0x01, 0x00, 0x00, 0x00, 0x01, 0x00, 0x00, 0x00,
  0x01, 0x00, 0x00, 0x00, 0x54, 0x00, 0x00, 0x00, 0x03, 0x00, 0x00, 0x00,
  0x53, 0x00, 0x00, 0x00, 0x28, 0x00, 0x00, 0x00, 0x15, 0x00, 0x00, 0x00,
  0x8a, 0xf9, 0xff, 0xff, 0x14, 0x00, 0x00, 0x00, 0x00, 0x00, 0x00, 0x01,
  0x1c, 0x00, 0x00, 0x00, 0x20, 0x00, 0x00, 0x00, 0x01, 0x00, 0x00, 0x00,
  0x7c, 0xf9, 0xff, 0xff, 0x00, 0x00, 0x00, 0x01, 0x01, 0x00, 0x00, 0x00,
  0x01, 0x00, 0x00, 0x00, 0x01, 0x00, 0x00, 0x00, 0x53, 0x00, 0x00, 0x00,
  0x03, 0x00, 0x00, 0x00, 0x52, 0x00, 0x00, 0x00, 0x27, 0x00, 0x00, 0x00,
  0x0b, 0x00, 0x00, 0x00, 0x6e, 0xf9, 0xff, 0xff, 0x08, 0x00, 0x00, 0x00,
  0x0c, 0x00, 0x00, 0x00, 0x01, 0x00, 0x00, 0x00, 0x52, 0x00, 0x00, 0x00,
  0x02, 0x00, 0x00, 0x00, 0x51, 0x00, 0x00, 0x00, 0x05, 0x00, 0x00, 0x00,
  0xea, 0xf9, 0xff, 0xff, 0x14, 0x00, 0x00, 0x00, 0x00, 0x00, 0x00, 0x0b,
  0x14, 0x00, 0x00, 0x00, 0x18, 0x00, 0x00, 0x00, 0x05, 0x00, 0x00, 0x00,
  0x02, 0xfd, 0xff, 0xff, 0x00, 0x00, 0x00, 0x01, 0x01, 0x00, 0x00, 0x00,
  0x51, 0x00, 0x00, 0x00, 0x02, 0x00, 0x00, 0x00, 0x50, 0x00, 0x00, 0x00,
  0x26, 0x00, 0x00, 0x00, 0x1e, 0xfa, 0xff, 0xff, 0x14, 0x00, 0x00, 0x00,
  0x00, 0x00, 0x00, 0x15, 0x10, 0x00, 0x00, 0x00, 0x14, 0x00, 0x00, 0x00,
  0x04, 0x00, 0x00, 0x00, 0x48, 0xc1, 0xff, 0xff, 0x01, 0x00, 0x00, 0x00,
  0x50, 0x00, 0x00, 0x00, 0x02, 0x00, 0x00, 0x00, 0x4f, 0x00, 0x00, 0x00,
  0x25, 0x00, 0x00, 0x00, 0x4e, 0xfa, 0xff, 0xff, 0x14, 0x00, 0x00, 0x00,
  0x00, 0x00, 0x00, 0x0a, 0x14, 0x00, 0x00, 0x00, 0x18, 0x00, 0x00, 0x00,
  0x03, 0x00, 0x00, 0x00, 0xfa, 0xfc, 0xff, 0xff, 0x02, 0x00, 0x00, 0x00,
  0x01, 0x00, 0x00, 0x00, 0x4f, 0x00, 0x00, 0x00, 0x04, 0x00, 0x00, 0x00,
  0x45, 0x00, 0x00, 0x00, 0x47, 0x00, 0x00, 0x00, 0x49, 0x00, 0x00, 0x00,
  0x4e, 0x00, 0x00, 0x00, 0x2e, 0xfa, 0xff, 0xff, 0x08, 0x00, 0x00, 0x00,
  0x0c, 0x00, 0x00, 0x00, 0x01, 0x00, 0x00, 0x00, 0x4e, 0x00, 0x00, 0x00,
  0x02, 0x00, 0x00, 0x00, 0x4d, 0x00, 0x00, 0x00, 0x02, 0x00, 0x00, 0x00,
  0xaa, 0xfa, 0xff, 0xff, 0x14, 0x00, 0x00, 0x00, 0x00, 0x00, 0x00, 0x01,
  0x1c, 0x00, 0x00, 0x00, 0x20, 0x00, 0x00, 0x00, 0x01, 0x00, 0x00, 0x00,
  0x9c, 0xfa, 0xff, 0xff, 0x00, 0x00, 0x00, 0x01, 0x01, 0x00, 0x00, 0x00,
  0x01, 0x00, 0x00, 0x00, 0x01, 0x00, 0x00, 0x00, 0x4d, 0x00, 0x00, 0x00,
  0x03, 0x00, 0x00, 0x00, 0x4c, 0x00, 0x00, 0x00, 0x24, 0x00, 0x00, 0x00,
  0x14, 0x00, 0x00, 0x00, 0x8e, 0xfa, 0xff, 0xff, 0x08, 0x00, 0x00, 0x00,
  0x0c, 0x00, 0x00, 0x00, 0x01, 0x00, 0x00, 0x00, 0x4c, 0x00, 0x00, 0x00,
  0x02, 0x00, 0x00, 0x00, 0x4b, 0x00, 0x00, 0x00, 0x05, 0x00, 0x00, 0x00,
  0x0a, 0xfb, 0xff, 0xff, 0x14, 0x00, 0x00, 0x00, 0x00, 0x00, 0x00, 0x05,
  0x20, 0x00, 0x00, 0x00, 0x24, 0x00, 0x00, 0x00, 0x02, 0x00, 0x00, 0x00,
  0xf2, 0xfc, 0xff, 0xff, 0x03, 0x00, 0x00, 0x00, 0x01, 0x00, 0x00, 0x00,
  0x01, 0x00, 0x00, 0x00, 0x01, 0x00, 0x00, 0x00, 0x01, 0x00, 0x00, 0x00,
  0x4b, 0x00, 0x00, 0x00, 0x01, 0x00, 0x00, 0x00, 0x4a, 0x00, 0x00, 0x00,
  0xea, 0xfa, 0xff, 0xff, 0x08, 0x00, 0x00, 0x00, 0x0c, 0x00, 0x00, 0x00,
  0x01, 0x00, 0x00, 0x00, 0x4a, 0x00, 0x00, 0x00, 0x02, 0x00, 0x00, 0x00,
  0x41, 0x00, 0x00, 0x00, 0x06, 0x00, 0x00, 0x00, 0x0a, 0xfb, 0xff, 0xff,
  0x08, 0x00, 0x00, 0x00, 0x0c, 0x00, 0x00, 0x00, 0x01, 0x00, 0x00, 0x00,
  0x49, 0x00, 0x00, 0x00, 0x02, 0x00, 0x00, 0x00, 0x48, 0x00, 0x00, 0x00,
  0x02, 0x00, 0x00, 0x00, 0x86, 0xfb, 0xff, 0xff, 0x14, 0x00, 0x00, 0x00,
  0x00, 0x00, 0x00, 0x01, 0x1c, 0x00, 0x00, 0x00, 0x20, 0x00, 0x00, 0x00,
  0x01, 0x00, 0x00, 0x00, 0x78, 0xfb, 0xff, 0xff, 0x00, 0x00, 0x00, 0x01,
  0x01, 0x00, 0x00, 0x00, 0x01, 0x00, 0x00, 0x00, 0x01, 0x00, 0x00, 0x00,
  0x48, 0x00, 0x00, 0x00, 0x03, 0x00, 0x00, 0x00, 0x43, 0x00, 0x00, 0x00,
  0x23, 0x00, 0x00, 0x00, 0x13, 0x00, 0x00, 0x00, 0x6a, 0xfb, 0xff, 0xff,
  0x08, 0x00, 0x00, 0x00, 0x0c, 0x00, 0x00, 0x00, 0x01, 0x00, 0x00, 0x00,
  0x47, 0x00, 0x00, 0x00, 0x02, 0x00, 0x00, 0x00, 0x46, 0x00, 0x00, 0x00,
  0x02, 0x00, 0x00, 0x00, 0xe6, 0xfb, 0xff, 0xff, 0x14, 0x00, 0x00, 0x00,
  0x00, 0x00, 0x00, 0x01, 0x1c, 0x00, 0x00, 0x00, 0x20, 0x00, 0x00, 0x00,
  0x01, 0x00, 0x00, 0x00, 0xd8, 0xfb, 0xff, 0xff, 0x00, 0x00, 0x00, 0x01,
  0x01, 0x00, 0x00, 0x00, 0x01, 0x00, 0x00, 0x00, 0x01, 0x00, 0x00, 0x00,
  0x46, 0x00, 0x00, 0x00, 0x03, 0x00, 0x00, 0x00, 0x43, 0x00, 0x00, 0x00,
  0x22, 0x00, 0x00, 0x00, 0x12, 0x00, 0x00, 0x00, 0xca, 0xfb, 0xff, 0xff,
  0x08, 0x00, 0x00, 0x00, 0x0c, 0x00, 0x00, 0x00, 0x01, 0x00, 0x00, 0x00,
  0x45, 0x00, 0x00, 0x00, 0x02, 0x00, 0x00, 0x00, 0x44, 0x00, 0x00, 0x00,
  0x02, 0x00, 0x00, 0x00, 0x46, 0xfc, 0xff, 0xff, 0x14, 0x00, 0x00, 0x00,
  0x00, 0x00, 0x00, 0x01, 0x1c, 0x00, 0x00, 0x00, 0x20, 0x00, 0x00, 0x00,
  0x01, 0x00, 0x00, 0x00, 0x38, 0xfc, 0xff, 0xff, 0x00, 0x00, 0x00, 0x01,
  0x01, 0x00, 0x00, 0x00, 0x01, 0x00, 0x00, 0x00, 0x01, 0x00, 0x00, 0x00,
  0x44, 0x00, 0x00, 0x00, 0x03, 0x00, 0x00, 0x00, 0x43, 0x00, 0x00, 0x00,
  0x21, 0x00, 0x00, 0x00, 0x11, 0x00, 0x00, 0x00, 0x86, 0xfc, 0xff, 0xff,
  0x14, 0x00, 0x00, 0x00, 0x00, 0x00, 0x00, 0x01, 0x1c, 0x00, 0x00, 0x00,
  0x20, 0x00, 0x00, 0x00, 0x01, 0x00, 0x00, 0x00, 0x78, 0xfc, 0xff, 0xff,
  0x00, 0x00, 0x00, 0x01, 0x01, 0x00, 0x00, 0x00, 0x01, 0x00, 0x00, 0x00,
  0x01, 0x00, 0x00, 0x00, 0x43, 0x00, 0x00, 0x00, 0x03, 0x00, 0x00, 0x00,
  0x42, 0x00, 0x00, 0x00, 0x20, 0x00, 0x00, 0x00, 0x0a, 0x00, 0x00, 0x00,
  0x6a, 0xfc, 0xff, 0xff, 0x08, 0x00, 0x00, 0x00, 0x0c, 0x00, 0x00, 0x00,
  0x01, 0x00, 0x00, 0x00, 0x42, 0x00, 0x00, 0x00, 0x02, 0x00, 0x00, 0x00,
  0x41, 0x00, 0x00, 0x00, 0x05, 0x00, 0x00, 0x00, 0xe6, 0xfc, 0xff, 0xff,
  0x1c, 0x00, 0x00, 0x00, 0x00, 0x00, 0x00, 0x0b, 0x1c, 0x00, 0x00, 0x00,
  0x20, 0x00, 0x00, 0x00, 0x05, 0x00, 0x00, 0x00, 0x00, 0x00, 0x06, 0x00,
  0x08, 0x00, 0x07, 0x00, 0x06, 0x00, 0x00, 0x00, 0x00, 0x00, 0x00, 0x01,
  0x01, 0x00, 0x00, 0x00, 0x41, 0x00, 0x00, 0x00, 0x02, 0x00, 0x00, 0x00,
  0x40, 0x00, 0x00, 0x00, 0x1f, 0x00, 0x00, 0x00, 0x22, 0xfd, 0xff, 0xff,
  0x14, 0x00, 0x00, 0x00, 0x00, 0x00, 0x00, 0x15, 0x10, 0x00, 0x00, 0x00,
  0x14, 0x00, 0x00, 0x00, 0x04, 0x00, 0x00, 0x00, 0x4c, 0xc4, 0xff, 0xff,
  0x01, 0x00, 0x00, 0x00, 0x40, 0x00, 0x00, 0x00, 0x02, 0x00, 0x00, 0x00,
  0x3f, 0x00, 0x00, 0x00, 0x1e, 0x00, 0x00, 0x00, 0x52, 0xfd, 0xff, 0xff,
  0x1c, 0x00, 0x00, 0x00, 0x00, 0x00, 0x00, 0x0a, 0x1c, 0x00, 0x00, 0x00,
  0x20, 0x00, 0x00, 0x00, 0x03, 0x00, 0x00, 0x00, 0x00, 0x00, 0x06, 0x00,
  0x08, 0x00, 0x04, 0x00, 0x06, 0x00, 0x00, 0x00, 0x02, 0x00, 0x00, 0x00,
  0x01, 0x00, 0x00, 0x00, 0x3f, 0x00, 0x00, 0x00, 0x04, 0x00, 0x00, 0x00,
  0x33, 0x00, 0x00, 0x00, 0x35, 0x00, 0x00, 0x00, 0x37, 0x00, 0x00, 0x00,
  0x3e, 0x00, 0x00, 0x00, 0x3a, 0xfd, 0xff, 0xff, 0x08, 0x00, 0x00, 0x00,
  0x0c, 0x00, 0x00, 0x00, 0x01, 0x00, 0x00, 0x00, 0x3e, 0x00, 0x00, 0x00,
  0x02, 0x00, 0x00, 0x00, 0x3d, 0x00, 0x00, 0x00, 0x02, 0x00, 0x00, 0x00,
  0xb6, 0xfd, 0xff, 0xff, 0x14, 0x00, 0x00, 0x00, 0x00, 0x00, 0x00, 0x01,
  0x1c, 0x00, 0x00, 0x00, 0x20, 0x00, 0x00, 0x00, 0x01, 0x00, 0x00, 0x00,
  0xa8, 0xfd, 0xff, 0xff, 0x00, 0x00, 0x00, 0x01, 0x01, 0x00, 0x00, 0x00,
  0x01, 0x00, 0x00, 0x00, 0x01, 0x00, 0x00, 0x00, 0x3d, 0x00, 0x00, 0x00,
  0x03, 0x00, 0x00, 0x00, 0x3c, 0x00, 0x00, 0x00, 0x1d, 0x00, 0x00, 0x00,
  0x10, 0x00, 0x00, 0x00, 0x9a, 0xfd, 0xff, 0xff, 0x08, 0x00, 0x00, 0x00,
  0x0c, 0x00, 0x00, 0x00, 0x01, 0x00, 0x00, 0x00, 0x3c, 0x00, 0x00, 0x00,
  0x02, 0x00, 0x00, 0x00, 0x3b, 0x00, 0x00, 0x00, 0x01, 0x00, 0x00, 0x00,
  0x16, 0xfe, 0xff, 0xff, 0x24, 0x00, 0x00, 0x00, 0x00, 0x00, 0x00, 0x05,
  0x30, 0x00, 0x00, 0x00, 0x34, 0x00, 0x00, 0x00, 0x02, 0x00, 0x00, 0x00,
  0x00, 0x00, 0x0e, 0x00, 0x14, 0x00, 0x00, 0x00, 0x10, 0x00, 0x0c, 0x00,
  0x08, 0x00, 0x04, 0x00, 0x0e, 0x00, 0x00, 0x00, 0x03, 0x00, 0x00, 0x00,
  0x01, 0x00, 0x00, 0x00, 0x01, 0x00, 0x00, 0x00, 0x01, 0x00, 0x00, 0x00,
  0x01, 0x00, 0x00, 0x00, 0x3b, 0x00, 0x00, 0x00, 0x01, 0x00, 0x00, 0x00,
  0x3a, 0x00, 0x00, 0x00, 0x06, 0xfe, 0xff, 0xff, 0x08, 0x00, 0x00, 0x00,
  0x0c, 0x00, 0x00, 0x00, 0x01, 0x00, 0x00, 0x00, 0x3a, 0x00, 0x00, 0x00,
  0x02, 0x00, 0x00, 0x00, 0x00, 0x00, 0x00, 0x00, 0x04, 0x00, 0x00, 0x00,
  0x26, 0xfe, 0xff, 0xff, 0x08, 0x00, 0x00, 0x00, 0x0c, 0x00, 0x00, 0x00,
  0x01, 0x00, 0x00, 0x00, 0x39, 0x00, 0x00, 0x00, 0x02, 0x00, 0x00, 0x00,
  0x38, 0x00, 0x00, 0x00, 0x03, 0x00, 0x00, 0x00, 0xa2, 0xfe, 0xff, 0xff,
  0x14, 0x00, 0x00, 0x00, 0x00, 0x00, 0x00, 0x01, 0x18, 0x00, 0x00, 0x00,
  0x1c, 0x00, 0x00, 0x00, 0x01, 0x00, 0x00, 0x00, 0x5e, 0xfe, 0xff, 0xff,
  0x01, 0x00, 0x00, 0x00, 0x01, 0x00, 0x00, 0x00, 0x01, 0x00, 0x00, 0x00,
  0x38, 0x00, 0x00, 0x00, 0x03, 0x00, 0x00, 0x00, 0x30, 0x00, 0x00, 0x00,
  0x1b, 0x00, 0x00, 0x00, 0x1c, 0x00, 0x00, 0x00, 0x82, 0xfe, 0xff, 0xff,
  0x08, 0x00, 0x00, 0x00, 0x0c, 0x00, 0x00, 0x00, 0x01, 0x00, 0x00, 0x00,
  0x37, 0x00, 0x00, 0x00, 0x02, 0x00, 0x00, 0x00, 0x36, 0x00, 0x00, 0x00,
  0x02, 0x00, 0x00, 0x00, 0xfe, 0xfe, 0xff, 0xff, 0x14, 0x00, 0x00, 0x00,
  0x00, 0x00, 0x00, 0x01, 0x1c, 0x00, 0x00, 0x00, 0x20, 0x00, 0x00, 0x00,
  0x01, 0x00, 0x00, 0x00, 0xf0, 0xfe, 0xff, 0xff, 0x00, 0x00, 0x00, 0x01,
  0x01, 0x00, 0x00, 0x00, 0x01, 0x00, 0x00, 0x00, 0x01, 0x00, 0x00, 0x00,
  0x36, 0x00, 0x00, 0x00, 0x03, 0x00, 0x00, 0x00, 0x31, 0x00, 0x00, 0x00,
  0x1a, 0x00, 0x00, 0x00, 0x0f, 0x00, 0x00, 0x00, 0xe2, 0xfe, 0xff, 0xff,
  0x08, 0x00, 0x00, 0x00, 0x0c, 0x00, 0x00, 0x00, 0x01, 0x00, 0x00, 0x00,
  0x35, 0x00, 0x00, 0x00, 0x02, 0x00, 0x00, 0x00, 0x34, 0x00, 0x00, 0x00,
  0x02, 0x00, 0x00, 0x00, 0x5e, 0xff, 0xff, 0xff, 0x14, 0x00, 0x00, 0x00,
  0x00, 0x00, 0x00, 0x01, 0x1c, 0x00, 0x00, 0x00, 0x20, 0x00, 0x00, 0x00,
  0x01, 0x00, 0x00, 0x00, 0x50, 0xff, 0xff, 0xff, 0x00, 0x00, 0x00, 0x01,
  0x01, 0x00, 0x00, 0x00, 0x01, 0x00, 0x00, 0x00, 0x01, 0x00, 0x00, 0x00,
  0x34, 0x00, 0x00, 0x00, 0x03, 0x00, 0x00, 0x00, 0x31, 0x00, 0x00, 0x00,
  0x19, 0x00, 0x00, 0x00, 0x0e, 0x00, 0x00, 0x00, 0x42, 0xff, 0xff, 0xff,
  0x08, 0x00, 0x00, 0x00, 0x0c, 0x00, 0x00, 0x00, 0x01, 0x00, 0x00, 0x00,
  0x33, 0x00, 0x00, 0x00, 0x02, 0x00, 0x00, 0x00, 0x32, 0x00, 0x00, 0x00,
  0x02, 0x00, 0x00, 0x00, 0xbe, 0xff, 0xff, 0xff, 0x14, 0x00, 0x00, 0x00,
  0x00, 0x00, 0x00, 0x01, 0x1c, 0x00, 0x00, 0x00, 0x20, 0x00, 0x00, 0x00,
  0x01, 0x00, 0x00, 0x00, 0xb0, 0xff, 0xff, 0xff, 0x00, 0x00, 0x00, 0x01,
  0x01, 0x00, 0x00, 0x00, 0x01, 0x00, 0x00, 0x00, 0x01, 0x00, 0x00, 0x00,
  0x32, 0x00, 0x00, 0x00, 0x03, 0x00, 0x00, 0x00, 0x31, 0x00, 0x00, 0x00,
  0x0c, 0x00, 0x00, 0x00, 0x0d, 0x00, 0x00, 0x00, 0x00, 0x00, 0x0e, 0x00,
  0x18, 0x00, 0x14, 0x00, 0x10, 0x00, 0x0c, 0x00, 0x0b, 0x00, 0x04, 0x00,
  0x0e, 0x00, 0x00, 0x00, 0x20, 0x00, 0x00, 0x00, 0x00, 0x00, 0x00, 0x01,
  0x28, 0x00, 0x00, 0x00, 0x2c, 0x00, 0x00, 0x00, 0x01, 0x00, 0x00, 0x00,
  0x0c, 0x00, 0x10, 0x00, 0x00, 0x00, 0x0c, 0x00, 0x08, 0x00, 0x07, 0x00,
  0x0c, 0x00, 0x00, 0x00, 0x00, 0x00, 0x00, 0x01, 0x01, 0x00, 0x00, 0x00,
  0x01, 0x00, 0x00, 0x00, 0x01, 0x00, 0x00, 0x00, 0x31, 0x00, 0x00, 0x00,
  0x03, 0x00, 0x00, 0x00, 0x30, 0x00, 0x00, 0x00, 0x08, 0x00, 0x00, 0x00,
  0x09, 0x00, 0x00, 0x00, 0x00, 0x00, 0x0a, 0x00, 0x0c, 0x00, 0x00, 0x00,
  0x08, 0x00, 0x04, 0x00, 0x0a, 0x00, 0x00, 0x00, 0x08, 0x00, 0x00, 0x00,
  0x0c, 0x00, 0x00, 0x00, 0x01, 0x00, 0x00, 0x00, 0x30, 0x00, 0x00, 0x00,
  0x02, 0x00, 0x00, 0x00, 0x00, 0x00, 0x00, 0x00, 0x01, 0x00, 0x00, 0x00,
  0x01, 0x00, 0x00, 0x00, 0x65, 0x00, 0x00, 0x00, 0x01, 0x00, 0x00, 0x00,
  0x00, 0x00, 0x00, 0x00, 0x66, 0x00, 0x00, 0x00, 0x9c, 0x38, 0x00, 0x00,
  0x38, 0x38, 0x00, 0x00, 0xe8, 0x37, 0x00, 0x00, 0x98, 0x37, 0x00, 0x00,
  0x48, 0x37, 0x00, 0x00, 0xf8, 0x36, 0x00, 0x00, 0xa8, 0x36, 0x00, 0x00,
  0x64, 0x36, 0x00, 0x00, 0xf0, 0x35, 0x00, 0x00, 0x8c, 0x35, 0x00, 0x00,
  0x28, 0x35, 0x00, 0x00, 0xc4, 0x34, 0x00, 0x00, 0x30, 0x34, 0x00, 0x00,
  0xa4, 0x33, 0x00, 0x00, 0x18, 0x33, 0x00, 0x00, 0x8c, 0x32, 0x00, 0x00,
  0x00, 0x32, 0x00, 0x00, 0x74, 0x31, 0x00, 0x00, 0xe8, 0x30, 0x00, 0x00,
  0x5c, 0x30, 0x00, 0x00, 0xd0, 0x2f, 0x00, 0x00, 0x44, 0x2f, 0x00, 0x00,
  0xb8, 0x2e, 0x00, 0x00, 0x2c, 0x2e, 0x00, 0x00, 0xa0, 0x2d, 0x00, 0x00,
  0x0c, 0x2d, 0x00, 0x00, 0x78, 0x2c, 0x00, 0x00, 0xdc, 0x2a, 0x00, 0x00,
  0xf0, 0x28, 0x00, 0x00, 0x5c, 0x28, 0x00, 0x00, 0xe8, 0x27, 0x00, 0x00,
  0x74, 0x27, 0x00, 0x00, 0x00, 0x27, 0x00, 0x00, 0x6c, 0x26, 0x00, 0x00,
  0xd8, 0x25, 0x00, 0x00, 0x44, 0x25, 0x00, 0x00, 0xb0, 0x24, 0x00, 0x00,
  0x3c, 0x24, 0x00, 0x00, 0xc8, 0x23, 0x00, 0x00, 0x54, 0x23, 0x00, 0x00,
  0xc0, 0x22, 0x00, 0x00, 0x2c, 0x22, 0x00, 0x00, 0x98, 0x21, 0x00, 0x00,
  0x04, 0x21, 0x00, 0x00, 0x90, 0x20, 0x00, 0x00, 0x1c, 0x20, 0x00, 0x00,
  0xb8, 0x1f, 0x00, 0x00, 0x5c, 0x1f, 0x00, 0x00, 0xe0, 0x1e, 0x00, 0x00,
  0x34, 0x1e, 0x00, 0x00, 0x88, 0x1d, 0x00, 0x00, 0xfc, 0x1c, 0x00, 0x00,
  0x50, 0x1c, 0x00, 0x00, 0xc4, 0x1b, 0x00, 0x00, 0x18, 0x1b, 0x00, 0x00,
  0x8c, 0x1a, 0x00, 0x00, 0x48, 0x19, 0x00, 0x00, 0x1c, 0x18, 0x00, 0x00,
  0xa0, 0x17, 0x00, 0x00, 0x2c, 0x17, 0x00, 0x00, 0xb0, 0x16, 0x00, 0x00,
  0x04, 0x16, 0x00, 0x00, 0x78, 0x15, 0x00, 0x00, 0x04, 0x15, 0x00, 0x00,
  0x80, 0x14, 0x00, 0x00, 0xe4, 0x13, 0x00, 0x00, 0x68, 0x13, 0x00, 0x00,
  0xbc, 0x12, 0x00, 0x00, 0x10, 0x12, 0x00, 0x00, 0x84, 0x11, 0x00, 0x00,
  0xd8, 0x10, 0x00, 0x00, 0x4c, 0x10, 0x00, 0x00, 0xa0, 0x0f, 0x00, 0x00,
  0x14, 0x0f, 0x00, 0x00, 0x98, 0x0e, 0x00, 0x00, 0x24, 0x0e, 0x00, 0x00,
  0xa8, 0x0d, 0x00, 0x00, 0xfc, 0x0c, 0x00, 0x00, 0x70, 0x0c, 0x00, 0x00,
  0xfc, 0x0b, 0x00, 0x00, 0x78, 0x0b, 0x00, 0x00, 0xdc, 0x0a, 0x00, 0x00,
  0x60, 0x0a, 0x00, 0x00, 0xb4, 0x09, 0x00, 0x00, 0x08, 0x09, 0x00, 0x00,
  0x7c, 0x08, 0x00, 0x00, 0xd0, 0x07, 0x00, 0x00, 0x44, 0x07, 0x00, 0x00,
  0x98, 0x06, 0x00, 0x00, 0x0c, 0x06, 0x00, 0x00, 0x90, 0x05, 0x00, 0x00,
  0x1c, 0x05, 0x00, 0x00, 0xa0, 0x04, 0x00, 0x00, 0xf4, 0x03, 0x00, 0x00,
  0x68, 0x03, 0x00, 0x00, 0xf4, 0x02, 0x00, 0x00, 0x70, 0x02, 0x00, 0x00,
  0xd4, 0x01, 0x00, 0x00, 0x58, 0x01, 0x00, 0x00, 0xec, 0x00, 0x00, 0x00,
  0x70, 0x00, 0x00, 0x00, 0x04, 0x00, 0x00, 0x00, 0x0a, 0xc9, 0xff, 0xff,
  0x14, 0x00, 0x00, 0x00, 0x34, 0x00, 0x00, 0x00, 0x66, 0x00, 0x00, 0x00,
  0x00, 0x00, 0x00, 0x09, 0x48, 0x00, 0x00, 0x00, 0xfc, 0xc8, 0xff, 0xff,
  0x08, 0x00, 0x00, 0x00, 0x14, 0x00, 0x00, 0x00, 0x01, 0x00, 0x00, 0x00,
  0x80, 0xff, 0xff, 0xff, 0xff, 0xff, 0xff, 0xff, 0x00, 0x00, 0x00, 0x00,
  0x01, 0x00, 0x00, 0x00, 0x00, 0x00, 0x80, 0x3b, 0x19, 0x00, 0x00, 0x00,
  0x53, 0x74, 0x61, 0x74, 0x65, 0x66, 0x75, 0x6c, 0x50, 0x61, 0x72, 0x74,
  0x69, 0x74, 0x69, 0x6f, 0x6e, 0x65, 0x64, 0x43, 0x61, 0x6c, 0x6c, 0x3a,
  0x30, 0x00, 0x00, 0x00, 0x02, 0x00, 0x00, 0x00, 0x01, 0x00, 0x00, 0x00,
  0x06, 0x00, 0x00, 0x00, 0x72, 0xc9, 0xff, 0xff, 0x14, 0x00, 0x00, 0x00,
  0x30, 0x00, 0x00, 0x00, 0x65, 0x00, 0x00, 0x00, 0x00, 0x00, 0x00, 0x09,
  0x58, 0x00, 0x00, 0x00, 0x64, 0xc9, 0xff, 0xff, 0x08, 0x00, 0x00, 0x00,
  0x10, 0x00, 0x00, 0x00, 0x01, 0x00, 0x00, 0x00, 0x17, 0x00, 0x00, 0x00,
  0x00, 0x00, 0x00, 0x00, 0x01, 0x00, 0x00, 0x00, 0x3b, 0x82, 0x60, 0x3e,
  0x2e, 0x00, 0x00, 0x00, 0x6d, 0x6f, 0x64, 0x65, 0x6c, 0x5f, 0x31, 0x2f,
  0x64, 0x65, 0x6e, 0x73, 0x65, 0x5f, 0x31, 0x2f, 0x4d, 0x61, 0x74, 0x4d,
  0x75, 0x6c, 0x3b, 0x6d, 0x6f, 0x64, 0x65, 0x6c, 0x5f, 0x31, 0x2f, 0x64,
  0x65, 0x6e, 0x73, 0x65, 0x5f, 0x31, 0x2f, 0x42, 0x69, 0x61, 0x73, 0x41,
  0x64, 0x64, 0x00, 0x00, 0x02, 0x00, 0x00, 0x00, 0x01, 0x00, 0x00, 0x00,
  0x06, 0x00, 0x00, 0x00, 0xea, 0xc9, 0xff, 0xff, 0x14, 0x00, 0x00, 0x00,
  0x34, 0x00, 0x00, 0x00, 0x64, 0x00, 0x00, 0x00, 0x00, 0x00, 0x00, 0x09,
  0x48, 0x00, 0x00, 0x00, 0xdc, 0xc9, 0xff, 0xff, 0x08, 0x00, 0x00, 0x00,
  0x14, 0x00, 0x00, 0x00, 0x01, 0x00, 0x00, 0x00, 0x80, 0xff, 0xff, 0xff,
  0xff, 0xff, 0xff, 0xff, 0x00, 0x00, 0x00, 0x00, 0x01, 0x00, 0x00, 0x00,
  0x66, 0x37, 0x68, 0x3d, 0x19, 0x00, 0x00, 0x00, 0x6d, 0x6f, 0x64, 0x65,
  0x6c, 0x5f, 0x31, 0x2f, 0x66, 0x6c, 0x61, 0x74, 0x74, 0x65, 0x6e, 0x5f,
  0x31, 0x2f, 0x52, 0x65, 0x73, 0x68, 0x61, 0x70, 0x65, 0x00, 0x00, 0x00,
  0x02, 0x00, 0x00, 0x00, 0x01, 0x00, 0x00, 0x00, 0xe0, 0x01, 0x00, 0x00,
  0x52, 0xca, 0xff, 0xff, 0x14, 0x00, 0x00, 0x00, 0x30, 0x00, 0x00, 0x00,
  0x63, 0x00, 0x00, 0x00, 0x00, 0x00, 0x00, 0x09, 0x54, 0x00, 0x00, 0x00,
  0x44, 0xca, 0xff, 0xff, 0x08, 0x00, 0x00, 0x00, 0x10, 0x00, 0x00, 0x00,
  0x01, 0x00, 0x00, 0x00, 0x80, 0xff, 0xff, 0xff, 0xff, 0xff, 0xff, 0xff,
  0x01, 0x00, 0x00, 0x00, 0x66, 0x37, 0x68, 0x3d, 0x2b, 0x00, 0x00, 0x00,
  0x6d, 0x6f, 0x64, 0x65, 0x6c, 0x5f, 0x31, 0x2f, 0x61, 0x63, 0x74, 0x69,
  0x76, 0x61, 0x74, 0x69, 0x6f, 0x6e, 0x5f, 0x37, 0x2f, 0x52, 0x65, 0x6c,
  0x75, 0x3b, 0x6d, 0x6f, 0x64, 0x65, 0x6c, 0x5f, 0x31, 0x2f, 0x61, 0x64,
  0x64, 0x5f, 0x31, 0x2f, 0x61, 0x64, 0x64, 0x00, 0x03, 0x00, 0x00, 0x00,
  0x01, 0x00, 0x00, 0x00, 0x1e, 0x00, 0x00, 0x00, 0x10, 0x00, 0x00, 0x00,
  0xca, 0xca, 0xff, 0xff, 0x14, 0x00, 0x00, 0x00, 0x34, 0x00, 0x00, 0x00,
  0x62, 0x00, 0x00, 0x00, 0x00, 0x00, 0x00, 0x09, 0x74, 0x00, 0x00, 0x00,
  0xbc, 0xca, 0xff, 0xff, 0x08, 0x00, 0x00, 0x00, 0x14, 0x00, 0x00, 0x00,
  0x01, 0x00, 0x00, 0x00, 0x80, 0xff, 0xff, 0xff, 0xff, 0xff, 0xff, 0xff,
  0x00, 0x00, 0x00, 0x00, 0x01, 0x00, 0x00, 0x00, 0xaa, 0xb8, 0x62, 0x3d,
  0x47, 0x00, 0x00, 0x00, 0x6d, 0x6f, 0x64, 0x65, 0x6c, 0x5f, 0x31, 0x2f,
  0x61, 0x63, 0x74, 0x69, 0x76, 0x61, 0x74, 0x69, 0x6f, 0x6e, 0x5f, 0x36,
  0x2f, 0x52, 0x65, 0x6c, 0x75, 0x3b, 0x6d, 0x6f, 0x64, 0x65, 0x6c, 0x5f,
  0x31, 0x2f, 0x62, 0x61, 0x74, 0x63, 0x68, 0x5f, 0x6e, 0x6f, 0x72, 0x6d,
  0x61, 0x6c, 0x69, 0x7a, 0x61, 0x74, 0x69, 0x6f, 0x6e, 0x5f, 0x36, 0x2f,
  0x62, 0x61, 0x74, 0x63, 0x68, 0x6e, 0x6f, 0x72, 0x6d, 0x2f, 0x61, 0x64,
  0x64, 0x5f, 0x31, 0x00, 0x03, 0x00, 0x00, 0x00, 0x01, 0x00, 0x00, 0x00,
  0x1e, 0x00, 0x00, 0x00, 0x10, 0x00, 0x00, 0x00, 0x62, 0xcb, 0xff, 0xff,
  0x14, 0x00, 0x00, 0x00, 0x34, 0x00, 0x00, 0x00, 0x61, 0x00, 0x00, 0x00,
  0x00, 0x00, 0x00, 0x09, 0x5c, 0x00, 0x00, 0x00, 0x54, 0xcb, 0xff, 0xff,
  0x08, 0x00, 0x00, 0x00, 0x14, 0x00, 0x00, 0x00, 0x01, 0x00, 0x00, 0x00,
  0x80, 0xff, 0xff, 0xff, 0xff, 0xff, 0xff, 0xff, 0x00, 0x00, 0x00, 0x00,
  0x01, 0x00, 0x00, 0x00, 0x97, 0xab, 0x6a, 0x3d, 0x2d, 0x00, 0x00, 0x00,
  0x6d, 0x6f, 0x64, 0x65, 0x6c, 0x5f, 0x31, 0x2f, 0x62, 0x61, 0x74, 0x63,
  0x68, 0x5f, 0x6e, 0x6f, 0x72, 0x6d, 0x61, 0x6c, 0x69, 0x7a, 0x61, 0x74,
  0x69, 0x6f, 0x6e, 0x5f, 0x36, 0x2f, 0x62, 0x61, 0x74, 0x63, 0x68, 0x6e,
  0x6f, 0x72, 0x6d, 0x2f, 0x6d, 0x75, 0x6c, 0x5f, 0x31, 0x00, 0x00, 0x00,
  0x03, 0x00, 0x00, 0x00, 0x01, 0x00, 0x00, 0x00, 0x1e, 0x00, 0x00, 0x00,
  0x10, 0x00, 0x00, 0x00, 0xe2, 0xcb, 0xff, 0xff, 0x14, 0x00, 0x00, 0x00,
  0x34, 0x00, 0x00, 0x00, 0x60, 0x00, 0x00, 0x00, 0x00, 0x00, 0x00, 0x09,
  0x4c, 0x00, 0x00, 0x00, 0xd4, 0xcb, 0xff, 0xff, 0x08, 0x00, 0x00, 0x00,
  0x14, 0x00, 0x00, 0x00, 0x01, 0x00, 0x00, 0x00, 0x80, 0xff, 0xff, 0xff,
  0xff, 0xff, 0xff, 0xff, 0x00, 0x00, 0x00, 0x00, 0x01, 0x00, 0x00, 0x00,
  0x70, 0x27, 0x0b, 0x3d, 0x1c, 0x00, 0x00, 0x00, 0x6d, 0x6f, 0x64, 0x65,
  0x6c, 0x5f, 0x31, 0x2f, 0x63, 0x6f, 0x6e, 0x63, 0x61, 0x74, 0x65, 0x6e,
  0x61, 0x74, 0x65, 0x5f, 0x35, 0x2f, 0x63, 0x6f, 0x6e, 0x63, 0x61, 0x74,
  0x00, 0x00, 0x00, 0x00, 0x03, 0x00, 0x00, 0x00, 0x01, 0x00, 0x00, 0x00,
  0x1e, 0x00, 0x00, 0x00, 0x10, 0x00, 0x00, 0x00, 0x52, 0xcc, 0xff, 0xff,
  0x14, 0x00, 0x00, 0x00, 0x34, 0x00, 0x00, 0x00, 0x5f, 0x00, 0x00, 0x00,
  0x00, 0x00, 0x00, 0x09, 0x64, 0x00, 0x00, 0x00, 0x44, 0xcc, 0xff, 0xff,
  0x08, 0x00, 0x00, 0x00, 0x14, 0x00, 0x00, 0x00, 0x01, 0x00, 0x00, 0x00,
  0x80, 0xff, 0xff, 0xff, 0xff, 0xff, 0xff, 0xff, 0x00, 0x00, 0x00, 0x00,
  0x01, 0x00, 0x00, 0x00, 0x70, 0x27, 0x0b, 0x3d, 0x37, 0x00, 0x00, 0x00,
  0x6d, 0x6f, 0x64, 0x65, 0x6c, 0x5f, 0x31, 0x2f, 0x63, 0x6f, 0x6e, 0x76,
  0x31, 0x64, 0x5f, 0x33, 0x30, 0x2f, 0x52, 0x65, 0x6c, 0x75, 0x3b, 0x6d,
  0x6f, 0x64, 0x65, 0x6c, 0x5f, 0x31, 0x2f, 0x63, 0x6f, 0x6e, 0x76, 0x31,
  0x64, 0x5f, 0x33, 0x30, 0x2f, 0x63, 0x6f, 0x6e, 0x76, 0x31, 0x64, 0x2f,
  0x53, 0x71, 0x75, 0x65, 0x65, 0x7a, 0x65, 0x00, 0x03, 0x00, 0x00, 0x00,
  0x01, 0x00, 0x00, 0x00, 0x1e, 0x00, 0x00, 0x00, 0x04, 0x00, 0x00, 0x00,
  0xda, 0xcc, 0xff, 0xff, 0x14, 0x00, 0x00, 0x00, 0x34, 0x00, 0x00, 0x00,
  0x5e, 0x00, 0x00, 0x00, 0x00, 0x00, 0x00, 0x09, 0x80, 0x00, 0x00, 0x00,
  0xcc, 0xcc, 0xff, 0xff, 0x08, 0x00, 0x00, 0x00, 0x14, 0x00, 0x00, 0x00,
  0x01, 0x00, 0x00, 0x00, 0x80, 0xff, 0xff, 0xff, 0xff, 0xff, 0xff, 0xff,
  0x00, 0x00, 0x00, 0x00, 0x01, 0x00, 0x00, 0x00, 0x70, 0x27, 0x0b, 0x3d,
  0x50, 0x00, 0x00, 0x00, 0x6d, 0x6f, 0x64, 0x65, 0x6c, 0x5f, 0x31, 0x2f,
  0x63, 0x6f, 0x6e, 0x76, 0x31, 0x64, 0x5f, 0x33, 0x30, 0x2f, 0x52, 0x65,
  0x6c, 0x75, 0x3b, 0x6d, 0x6f, 0x64, 0x65, 0x6c, 0x5f, 0x31, 0x2f, 0x63,
  0x6f, 0x6e, 0x76, 0x31, 0x64, 0x5f, 0x33, 0x30, 0x2f, 0x63, 0x6f, 0x6e,
  0x76, 0x31, 0x64, 0x2f, 0x53, 0x71, 0x75, 0x65, 0x65, 0x7a, 0x65, 0x3b,
  0x6d, 0x6f, 0x64, 0x65, 0x6c, 0x5f, 0x31, 0x2f, 0x63, 0x6f, 0x6e, 0x76,
  0x31, 0x64, 0x5f, 0x33, 0x30, 0x2f, 0x63, 0x6f, 0x6e, 0x76, 0x31, 0x64,
  0x00, 0x00, 0x00, 0x00, 0x04, 0x00, 0x00, 0x00, 0x01, 0x00, 0x00, 0x00,
  0x01, 0x00, 0x00, 0x00, 0x1e, 0x00, 0x00, 0x00, 0x04, 0x00, 0x00, 0x00,
  0x82, 0xcd, 0xff, 0xff, 0x14, 0x00, 0x00, 0x00, 0x34, 0x00, 0x00, 0x00,
  0x5d, 0x00, 0x00, 0x00, 0x00, 0x00, 0x00, 0x09, 0x50, 0x00, 0x00, 0x00,
  0x74, 0xcd, 0xff, 0xff, 0x08, 0x00, 0x00, 0x00, 0x14, 0x00, 0x00, 0x00,
  0x01, 0x00, 0x00, 0x00, 0x80, 0xff, 0xff, 0xff, 0xff, 0xff, 0xff, 0xff,
  0x00, 0x00, 0x00, 0x00, 0x01, 0x00, 0x00, 0x00, 0xd5, 0x36, 0x68, 0x3d,
  0x23, 0x00, 0x00, 0x00, 0x6d, 0x6f, 0x64, 0x65, 0x6c, 0x5f, 0x31, 0x2f,
  0x63, 0x6f, 0x6e, 0x76, 0x31, 0x64, 0x5f, 0x33, 0x30, 0x2f, 0x63, 0x6f,
  0x6e, 0x76, 0x31, 0x64, 0x2f, 0x45, 0x78, 0x70, 0x61, 0x6e, 0x64, 0x44,
  0x69, 0x6d, 0x73, 0x00, 0x04, 0x00, 0x00, 0x00, 0x01, 0x00, 0x00, 0x00,
  0x01, 0x00, 0x00, 0x00, 0x1e, 0x00, 0x00, 0x00, 0x10, 0x00, 0x00, 0x00,
  0xfa, 0xcd, 0xff, 0xff, 0x14, 0x00, 0x00, 0x00, 0x30, 0x00, 0x00, 0x00,
  0x5c, 0x00, 0x00, 0x00, 0x00, 0x00, 0x00, 0x09, 0x48, 0x00, 0x00, 0x00,
  0xec, 0xcd, 0xff, 0xff, 0x08, 0x00, 0x00, 0x00, 0x10, 0x00, 0x00, 0x00,
  0x01, 0x00, 0x00, 0x00, 0x80, 0xff, 0xff, 0xff, 0xff, 0xff, 0xff, 0xff,
  0x01, 0x00, 0x00, 0x00, 0xd5, 0x36, 0x68, 0x3d, 0x1f, 0x00, 0x00, 0x00,
  0x6d, 0x6f, 0x64, 0x65, 0x6c, 0x5f, 0x31, 0x2f, 0x6d, 0x61, 0x78, 0x5f,
  0x70, 0x6f, 0x6f, 0x6c, 0x69, 0x6e, 0x67, 0x31, 0x64, 0x5f, 0x35, 0x2f,
  0x4d, 0x61, 0x78, 0x50, 0x6f, 0x6f, 0x6c, 0x00, 0x04, 0x00, 0x00, 0x00,
  0x01, 0x00, 0x00, 0x00, 0x1e, 0x00, 0x00, 0x00, 0x01, 0x00, 0x00, 0x00,
  0x10, 0x00, 0x00, 0x00, 0x6a, 0xce, 0xff, 0xff, 0x14, 0x00, 0x00, 0x00,
  0x34, 0x00, 0x00, 0x00, 0x5b, 0x00, 0x00, 0x00, 0x00, 0x00, 0x00, 0x09,
  0x50, 0x00, 0x00, 0x00, 0x5c, 0xce, 0xff, 0xff, 0x08, 0x00, 0x00, 0x00,
  0x14, 0x00, 0x00, 0x00, 0x01, 0x00, 0x00, 0x00, 0x80, 0xff, 0xff, 0xff,
  0xff, 0xff, 0xff, 0xff, 0x00, 0x00, 0x00, 0x00, 0x01, 0x00, 0x00, 0x00,
  0xd5, 0x36, 0x68, 0x3d, 0x22, 0x00, 0x00, 0x00, 0x6d, 0x6f, 0x64, 0x65,
  0x6c, 0x5f, 0x31, 0x2f, 0x6d, 0x61, 0x78, 0x5f, 0x70, 0x6f, 0x6f, 0x6c,
  0x69, 0x6e, 0x67, 0x31, 0x64, 0x5f, 0x35, 0x2f, 0x45, 0x78, 0x70, 0x61,
  0x6e, 0x64, 0x44, 0x69, 0x6d, 0x73, 0x00, 0x00, 0x04, 0x00, 0x00, 0x00,
  0x01, 0x00, 0x00, 0x00, 0x1e, 0x00, 0x00, 0x00, 0x01, 0x00, 0x00, 0x00,
  0x10, 0x00, 0x00, 0x00, 0xe2, 0xce, 0xff, 0xff, 0x14, 0x00, 0x00, 0x00,
  0x34, 0x00, 0x00, 0x00, 0x5a, 0x00, 0x00, 0x00, 0x00, 0x00, 0x00, 0x09,
  0x64, 0x00, 0x00, 0x00, 0xd4, 0xce, 0xff, 0xff, 0x08, 0x00, 0x00, 0x00,
  0x14, 0x00, 0x00, 0x00, 0x01, 0x00, 0x00, 0x00, 0x80, 0xff, 0xff, 0xff,
  0xff, 0xff, 0xff, 0xff, 0x00, 0x00, 0x00, 0x00, 0x01, 0x00, 0x00, 0x00,
  0x70, 0x27, 0x0b, 0x3d, 0x37, 0x00, 0x00, 0x00, 0x6d, 0x6f, 0x64, 0x65,
  0x6c, 0x5f, 0x31, 0x2f, 0x63, 0x6f, 0x6e, 0x76, 0x31, 0x64, 0x5f, 0x32,
  0x39, 0x2f, 0x52, 0x65, 0x6c, 0x75, 0x3b, 0x6d, 0x6f, 0x64, 0x65, 0x6c,
  0x5f, 0x31, 0x2f, 0x63, 0x6f, 0x6e, 0x76, 0x31, 0x64, 0x5f, 0x32, 0x39,
  0x2f, 0x63, 0x6f, 0x6e, 0x76, 0x31, 0x64, 0x2f, 0x53, 0x71, 0x75, 0x65,
  0x65, 0x7a, 0x65, 0x00, 0x03, 0x00, 0x00, 0x00, 0x01, 0x00, 0x00, 0x00,
  0x1e, 0x00, 0x00, 0x00, 0x04, 0x00, 0x00, 0x00, 0x6a, 0xcf, 0xff, 0xff,
  0x14, 0x00, 0x00, 0x00, 0x34, 0x00, 0x00, 0x00, 0x59, 0x00, 0x00, 0x00,
  0x00, 0x00, 0x00, 0x09, 0x80, 0x00, 0x00, 0x00, 0x5c, 0xcf, 0xff, 0xff,
  0x08, 0x00, 0x00, 0x00, 0x14, 0x00, 0x00, 0x00, 0x01, 0x00, 0x00, 0x00,
  0x80, 0xff, 0xff, 0xff, 0xff, 0xff, 0xff, 0xff, 0x00, 0x00, 0x00, 0x00,
  0x01, 0x00, 0x00, 0x00, 0x70, 0x27, 0x0b, 0x3d, 0x50, 0x00, 0x00, 0x00,
  0x6d, 0x6f, 0x64, 0x65, 0x6c, 0x5f, 0x31, 0x2f, 0x63, 0x6f, 0x6e, 0x76,
  0x31, 0x64, 0x5f, 0x32, 0x39, 0x2f, 0x52, 0x65, 0x6c, 0x75, 0x3b, 0x6d,
  0x6f, 0x64, 0x65, 0x6c, 0x5f, 0x31, 0x2f, 0x63, 0x6f, 0x6e, 0x76, 0x31,
  0x64, 0x5f, 0x32, 0x39, 0x2f, 0x63, 0x6f, 0x6e, 0x76, 0x31, 0x64, 0x2f,
  0x53, 0x71, 0x75, 0x65, 0x65, 0x7a, 0x65, 0x3b, 0x6d, 0x6f, 0x64, 0x65,
  0x6c, 0x5f, 0x31, 0x2f, 0x63, 0x6f, 0x6e, 0x76, 0x31, 0x64, 0x5f, 0x32,
  0x39, 0x2f, 0x63, 0x6f, 0x6e, 0x76, 0x31, 0x64, 0x00, 0x00, 0x00, 0x00,
  0x04, 0x00, 0x00, 0x00, 0x01, 0x00, 0x00, 0x00, 0x01, 0x00, 0x00, 0x00,
  0x1e, 0x00, 0x00, 0x00, 0x04, 0x00, 0x00, 0x00, 0x12, 0xd0, 0xff, 0xff,
  0x14, 0x00, 0x00, 0x00, 0x34, 0x00, 0x00, 0x00, 0x58, 0x00, 0x00, 0x00,
  0x00, 0x00, 0x00, 0x09, 0x64, 0x00, 0x00, 0x00, 0x04, 0xd0, 0xff, 0xff,
  0x08, 0x00, 0x00, 0x00, 0x14, 0x00, 0x00, 0x00, 0x01, 0x00, 0x00, 0x00,
  0x80, 0xff, 0xff, 0xff, 0xff, 0xff, 0xff, 0xff, 0x00, 0x00, 0x00, 0x00,
  0x01, 0x00, 0x00, 0x00, 0x70, 0x27, 0x0b, 0x3d, 0x37, 0x00, 0x00, 0x00,
  0x6d, 0x6f, 0x64, 0x65, 0x6c, 0x5f, 0x31, 0x2f, 0x63, 0x6f, 0x6e, 0x76,
  0x31, 0x64, 0x5f, 0x32, 0x38, 0x2f, 0x52, 0x65, 0x6c, 0x75, 0x3b, 0x6d,
  0x6f, 0x64, 0x65, 0x6c, 0x5f, 0x31, 0x2f, 0x63, 0x6f, 0x6e, 0x76, 0x31,
  0x64, 0x5f, 0x32, 0x38, 0x2f, 0x63, 0x6f, 0x6e, 0x76, 0x31, 0x64, 0x2f,
  0x53, 0x71, 0x75, 0x65, 0x65, 0x7a, 0x65, 0x00, 0x03, 0x00, 0x00, 0x00,
  0x01, 0x00, 0x00, 0x00, 0x1e, 0x00, 0x00, 0x00, 0x04, 0x00, 0x00, 0x00,
  0x9a, 0xd0, 0xff, 0xff, 0x14, 0x00, 0x00, 0x00, 0x34, 0x00, 0x00, 0x00,
  0x57, 0x00, 0x00, 0x00, 0x00, 0x00, 0x00, 0x09, 0x80, 0x00, 0x00, 0x00,
  0x8c, 0xd0, 0xff, 0xff, 0x08, 0x00, 0x00, 0x00, 0x14, 0x00, 0x00, 0x00,
  0x01, 0x00, 0x00, 0x00, 0x80, 0xff, 0xff, 0xff, 0xff, 0xff, 0xff, 0xff,
  0x00, 0x00, 0x00, 0x00, 0x01, 0x00, 0x00, 0x00, 0x70, 0x27, 0x0b, 0x3d,
  0x50, 0x00, 0x00, 0x00, 0x6d, 0x6f, 0x64, 0x65, 0x6c, 0x5f, 0x31, 0x2f,
  0x63, 0x6f, 0x6e, 0x76, 0x31, 0x64, 0x5f, 0x32, 0x38, 0x2f, 0x52, 0x65,
  0x6c, 0x75, 0x3b, 0x6d, 0x6f, 0x64, 0x65, 0x6c, 0x5f, 0x31, 0x2f, 0x63,
  0x6f, 0x6e, 0x76, 0x31, 0x64, 0x5f, 0x32, 0x38, 0x2f, 0x63, 0x6f, 0x6e,
  0x76, 0x31, 0x64, 0x2f, 0x53, 0x71, 0x75, 0x65, 0x65, 0x7a, 0x65, 0x3b,
  0x6d, 0x6f, 0x64, 0x65, 0x6c, 0x5f, 0x31, 0x2f, 0x63, 0x6f, 0x6e, 0x76,
  0x31, 0x64, 0x5f, 0x32, 0x38, 0x2f, 0x63, 0x6f, 0x6e, 0x76, 0x31, 0x64,
  0x00, 0x00, 0x00, 0x00, 0x04, 0x00, 0x00, 0x00, 0x01, 0x00, 0x00, 0x00,
  0x01, 0x00, 0x00, 0x00, 0x1e, 0x00, 0x00, 0x00, 0x04, 0x00, 0x00, 0x00,
  0x42, 0xd1, 0xff, 0xff, 0x14, 0x00, 0x00, 0x00, 0x34, 0x00, 0x00, 0x00,
  0x56, 0x00, 0x00, 0x00, 0x00, 0x00, 0x00, 0x09, 0x64, 0x00, 0x00, 0x00,
  0x34, 0xd1, 0xff, 0xff, 0x08, 0x00, 0x00, 0x00, 0x14, 0x00, 0x00, 0x00,
  0x01, 0x00, 0x00, 0x00, 0x80, 0xff, 0xff, 0xff, 0xff, 0xff, 0xff, 0xff,
  0x00, 0x00, 0x00, 0x00, 0x01, 0x00, 0x00, 0x00, 0x70, 0x27, 0x0b, 0x3d,
  0x37, 0x00, 0x00, 0x00, 0x6d, 0x6f, 0x64, 0x65, 0x6c, 0x5f, 0x31, 0x2f,
  0x63, 0x6f, 0x6e, 0x76, 0x31, 0x64, 0x5f, 0x32, 0x37, 0x2f, 0x52, 0x65,
  0x6c, 0x75, 0x3b, 0x6d, 0x6f, 0x64, 0x65, 0x6c, 0x5f, 0x31, 0x2f, 0x63,
  0x6f, 0x6e, 0x76, 0x31, 0x64, 0x5f, 0x32, 0x37, 0x2f, 0x63, 0x6f, 0x6e,
  0x76, 0x31, 0x64, 0x2f, 0x53, 0x71, 0x75, 0x65, 0x65, 0x7a, 0x65, 0x00,
  0x03, 0x00, 0x00, 0x00, 0x01, 0x00, 0x00, 0x00, 0x1e, 0x00, 0x00, 0x00,
  0x04, 0x00, 0x00, 0x00, 0xca, 0xd1, 0xff, 0xff, 0x14, 0x00, 0x00, 0x00,
  0x34, 0x00, 0x00, 0x00, 0x55, 0x00, 0x00, 0x00, 0x00, 0x00, 0x00, 0x09,
  0x80, 0x00, 0x00, 0x00, 0xbc, 0xd1, 0xff, 0xff, 0x08, 0x00, 0x00, 0x00,
  0x14, 0x00, 0x00, 0x00, 0x01, 0x00, 0x00, 0x00, 0x80, 0xff, 0xff, 0xff,
  0xff, 0xff, 0xff, 0xff, 0x00, 0x00, 0x00, 0x00, 0x01, 0x00, 0x00, 0x00,
  0x70, 0x27, 0x0b, 0x3d, 0x50, 0x00, 0x00, 0x00, 0x6d, 0x6f, 0x64, 0x65,
  0x6c, 0x5f, 0x31, 0x2f, 0x63, 0x6f, 0x6e, 0x76, 0x31, 0x64, 0x5f, 0x32,
  0x37, 0x2f, 0x52, 0x65, 0x6c, 0x75, 0x3b, 0x6d, 0x6f, 0x64, 0x65, 0x6c,
  0x5f, 0x31, 0x2f, 0x63, 0x6f, 0x6e, 0x76, 0x31, 0x64, 0x5f, 0x32, 0x37,
  0x2f, 0x63, 0x6f, 0x6e, 0x76, 0x31, 0x64, 0x2f, 0x53, 0x71, 0x75, 0x65,
  0x65, 0x7a, 0x65, 0x3b, 0x6d, 0x6f, 0x64, 0x65, 0x6c, 0x5f, 0x31, 0x2f,
  0x63, 0x6f, 0x6e, 0x76, 0x31, 0x64, 0x5f, 0x32, 0x37, 0x2f, 0x63, 0x6f,
  0x6e, 0x76, 0x31, 0x64, 0x00, 0x00, 0x00, 0x00, 0x04, 0x00, 0x00, 0x00,
  0x01, 0x00, 0x00, 0x00, 0x01, 0x00, 0x00, 0x00, 0x1e, 0x00, 0x00, 0x00,
  0x04, 0x00, 0x00, 0x00, 0x72, 0xd2, 0xff, 0xff, 0x14, 0x00, 0x00, 0x00,
  0x34, 0x00, 0x00, 0x00, 0x54, 0x00, 0x00, 0x00, 0x00, 0x00, 0x00, 0x09,
  0x80, 0x00, 0x00, 0x00, 0x64, 0xd2, 0xff, 0xff, 0x08, 0x00, 0x00, 0x00,
  0x14, 0x00, 0x00, 0x00, 0x01, 0x00, 0x00, 0x00, 0x80, 0xff, 0xff, 0xff,
  0xff, 0xff, 0xff, 0xff, 0x00, 0x00, 0x00, 0x00, 0x01, 0x00, 0x00, 0x00,
  0x50, 0x30, 0xc9, 0x3c, 0x50, 0x00, 0x00, 0x00, 0x6d, 0x6f, 0x64, 0x65,
  0x6c, 0x5f, 0x31, 0x2f, 0x63, 0x6f, 0x6e, 0x76, 0x31, 0x64, 0x5f, 0x32,
  0x36, 0x2f, 0x52, 0x65, 0x6c, 0x75, 0x3b, 0x6d, 0x6f, 0x64, 0x65, 0x6c,
  0x5f, 0x31, 0x2f, 0x63, 0x6f, 0x6e, 0x76, 0x31, 0x64, 0x5f, 0x32, 0x36,
  0x2f, 0x63, 0x6f, 0x6e, 0x76, 0x31, 0x64, 0x2f, 0x53, 0x71, 0x75, 0x65,
  0x65, 0x7a, 0x65, 0x3b, 0x6d, 0x6f, 0x64, 0x65, 0x6c, 0x5f, 0x31, 0x2f,
  0x63, 0x6f, 0x6e, 0x76, 0x31, 0x64, 0x5f, 0x32, 0x36, 0x2f, 0x63, 0x6f,
  0x6e, 0x76, 0x31, 0x64, 0x00, 0x00, 0x00, 0x00, 0x04, 0x00, 0x00, 0x00,
  0x01, 0x00, 0x00, 0x00, 0x01, 0x00, 0x00, 0x00, 0x1e, 0x00, 0x00, 0x00,
  0x01, 0x00, 0x00, 0x00, 0x1a, 0xd3, 0xff, 0xff, 0x14, 0x00, 0x00, 0x00,
  0x34, 0x00, 0x00, 0x00, 0x53, 0x00, 0x00, 0x00, 0x00, 0x00, 0x00, 0x09,
  0x50, 0x00, 0x00, 0x00, 0x0c, 0xd3, 0xff, 0xff, 0x08, 0x00, 0x00, 0x00,
  0x14, 0x00, 0x00, 0x00, 0x01, 0x00, 0x00, 0x00, 0x80, 0xff, 0xff, 0xff,
  0xff, 0xff, 0xff, 0xff, 0x00, 0x00, 0x00, 0x00, 0x01, 0x00, 0x00, 0x00,
  0xd5, 0x36, 0x68, 0x3d, 0x23, 0x00, 0x00, 0x00, 0x6d, 0x6f, 0x64, 0x65,
  0x6c, 0x5f, 0x31, 0x2f, 0x63, 0x6f, 0x6e, 0x76, 0x31, 0x64, 0x5f, 0x32,
  0x36, 0x2f, 0x63, 0x6f, 0x6e, 0x76, 0x31, 0x64, 0x2f, 0x45, 0x78, 0x70,
  0x61, 0x6e, 0x64, 0x44, 0x69, 0x6d, 0x73, 0x00, 0x04, 0x00, 0x00, 0x00,
  0x01, 0x00, 0x00, 0x00, 0x01, 0x00, 0x00, 0x00, 0x1e, 0x00, 0x00, 0x00,
  0x10, 0x00, 0x00, 0x00, 0x92, 0xd3, 0xff, 0xff, 0x14, 0x00, 0x00, 0x00,
  0x34, 0x00, 0x00, 0x00, 0x52, 0x00, 0x00, 0x00, 0x00, 0x00, 0x00, 0x09,
  0x74, 0x00, 0x00, 0x00, 0x84, 0xd3, 0xff, 0xff, 0x08, 0x00, 0x00, 0x00,
  0x14, 0x00, 0x00, 0x00, 0x01, 0x00, 0x00, 0x00, 0x80, 0xff, 0xff, 0xff,
  0xff, 0xff, 0xff, 0xff, 0x00, 0x00, 0x00, 0x00, 0x01, 0x00, 0x00, 0x00,
  0xd5, 0x36, 0x68, 0x3d, 0x47, 0x00, 0x00, 0x00, 0x6d, 0x6f, 0x64, 0x65,
  0x6c, 0x5f, 0x31, 0x2f, 0x61, 0x63, 0x74, 0x69, 0x76, 0x61, 0x74, 0x69,
  0x6f, 0x6e, 0x5f, 0x35, 0x2f, 0x52, 0x65, 0x6c, 0x75, 0x3b, 0x6d, 0x6f,
  0x64, 0x65, 0x6c, 0x5f, 0x31, 0x2f, 0x62, 0x61, 0x74, 0x63, 0x68, 0x5f,
  0x6e, 0x6f, 0x72, 0x6d, 0x61, 0x6c, 0x69, 0x7a, 0x61, 0x74, 0x69, 0x6f,
  0x6e, 0x5f, 0x35, 0x2f, 0x62, 0x61, 0x74, 0x63, 0x68, 0x6e, 0x6f, 0x72,
  0x6d, 0x2f, 0x61, 0x64, 0x64, 0x5f, 0x31, 0x00, 0x03, 0x00, 0x00, 0x00,
  0x01, 0x00, 0x00, 0x00, 0x1e, 0x00, 0x00, 0x00, 0x10, 0x00, 0x00, 0x00,
  0x2a, 0xd4, 0xff, 0xff, 0x14, 0x00, 0x00, 0x00, 0x34, 0x00, 0x00, 0x00,
  0x51, 0x00, 0x00, 0x00, 0x00, 0x00, 0x00, 0x09, 0x5c, 0x00, 0x00, 0x00,
  0x1c, 0xd4, 0xff, 0xff, 0x08, 0x00, 0x00, 0x00, 0x14, 0x00, 0x00, 0x00,
  0x01, 0x00, 0x00, 0x00, 0x80, 0xff, 0xff, 0xff, 0xff, 0xff, 0xff, 0xff,
  0x00, 0x00, 0x00, 0x00, 0x01, 0x00, 0x00, 0x00, 0xb7, 0xb5, 0x6e, 0x3d,
  0x2d, 0x00, 0x00, 0x00, 0x6d, 0x6f, 0x64, 0x65, 0x6c, 0x5f, 0x31, 0x2f,
  0x62, 0x61, 0x74, 0x63, 0x68, 0x5f, 0x6e, 0x6f, 0x72, 0x6d, 0x61, 0x6c,
  0x69, 0x7a, 0x61, 0x74, 0x69, 0x6f, 0x6e, 0x5f, 0x35, 0x2f, 0x62, 0x61,
  0x74, 0x63, 0x68, 0x6e, 0x6f, 0x72, 0x6d, 0x2f, 0x6d, 0x75, 0x6c, 0x5f,
  0x31, 0x00, 0x00, 0x00, 0x03, 0x00, 0x00, 0x00, 0x01, 0x00, 0x00, 0x00,
  0x1e, 0x00, 0x00, 0x00, 0x10, 0x00, 0x00, 0x00, 0xaa, 0xd4, 0xff, 0xff,
  0x14, 0x00, 0x00, 0x00, 0x34, 0x00, 0x00, 0x00, 0x50, 0x00, 0x00, 0x00,
  0x00, 0x00, 0x00, 0x09, 0x4c, 0x00, 0x00, 0x00, 0x9c, 0xd4, 0xff, 0xff,
  0x08, 0x00, 0x00, 0x00, 0x14, 0x00, 0x00, 0x00, 0x01, 0x00, 0x00, 0x00,
  0x80, 0xff, 0xff, 0xff, 0xff, 0xff, 0xff, 0xff, 0x00, 0x00, 0x00, 0x00,
  0x01, 0x00, 0x00, 0x00, 0x6a, 0x40, 0xec, 0x3c, 0x1c, 0x00, 0x00, 0x00,
  0x6d, 0x6f, 0x64, 0x65, 0x6c, 0x5f, 0x31, 0x2f, 0x63, 0x6f, 0x6e, 0x63,
  0x61, 0x74, 0x65, 0x6e, 0x61, 0x74, 0x65, 0x5f, 0x34, 0x2f, 0x63, 0x6f,
  0x6e, 0x63, 0x61, 0x74, 0x00, 0x00, 0x00, 0x00, 0x03, 0x00, 0x00, 0x00,
  0x01, 0x00, 0x00, 0x00, 0x1e, 0x00, 0x00, 0x00, 0x10, 0x00, 0x00, 0x00,
  0x1a, 0xd5, 0xff, 0xff, 0x14, 0x00, 0x00, 0x00, 0x34, 0x00, 0x00, 0x00,
  0x4f, 0x00, 0x00, 0x00, 0x00, 0x00, 0x00, 0x09, 0x64, 0x00, 0x00, 0x00,
  0x0c, 0xd5, 0xff, 0xff, 0x08, 0x00, 0x00, 0x00, 0x14, 0x00, 0x00, 0x00,
  0x01, 0x00, 0x00, 0x00, 0x80, 0xff, 0xff, 0xff, 0xff, 0xff, 0xff, 0xff,
  0x00, 0x00, 0x00, 0x00, 0x01, 0x00, 0x00, 0x00, 0x6a, 0x40, 0xec, 0x3c,
  0x37, 0x00, 0x00, 0x00, 0x6d, 0x6f, 0x64, 0x65, 0x6c, 0x5f, 0x31, 0x2f,
  0x63, 0x6f, 0x6e, 0x76, 0x31, 0x64, 0x5f, 0x32, 0x35, 0x2f, 0x52, 0x65,
  0x6c, 0x75, 0x3b, 0x6d, 0x6f, 0x64, 0x65, 0x6c, 0x5f, 0x31, 0x2f, 0x63,
  0x6f, 0x6e, 0x76, 0x31, 0x64, 0x5f, 0x32, 0x35, 0x2f, 0x63, 0x6f, 0x6e,
  0x76, 0x31, 0x64, 0x2f, 0x53, 0x71, 0x75, 0x65, 0x65, 0x7a, 0x65, 0x00,
  0x03, 0x00, 0x00, 0x00, 0x01, 0x00, 0x00, 0x00, 0x1e, 0x00, 0x00, 0x00,
  0x04, 0x00, 0x00, 0x00, 0xa2, 0xd5, 0xff, 0xff, 0x14, 0x00, 0x00, 0x00,
  0x34, 0x00, 0x00, 0x00, 0x4e, 0x00, 0x00, 0x00, 0x00, 0x00, 0x00, 0x09,
  0x80, 0x00, 0x00, 0x00, 0x94, 0xd5, 0xff, 0xff, 0x08, 0x00, 0x00, 0x00,
  0x14, 0x00, 0x00, 0x00, 0x01, 0x00, 0x00, 0x00, 0x80, 0xff, 0xff, 0xff,
  0xff, 0xff, 0xff, 0xff, 0x00, 0x00, 0x00, 0x00, 0x01, 0x00, 0x00, 0x00,
  0x6a, 0x40, 0xec, 0x3c, 0x50, 0x00, 0x00, 0x00, 0x6d, 0x6f, 0x64, 0x65,
  0x6c, 0x5f, 0x31, 0x2f, 0x63, 0x6f, 0x6e, 0x76, 0x31, 0x64, 0x5f, 0x32,
  0x35, 0x2f, 0x52, 0x65, 0x6c, 0x75, 0x3b, 0x6d, 0x6f, 0x64, 0x65, 0x6c,
  0x5f, 0x31, 0x2f, 0x63, 0x6f, 0x6e, 0x76, 0x31, 0x64, 0x5f, 0x32, 0x35,
  0x2f, 0x63, 0x6f, 0x6e, 0x76, 0x31, 0x64, 0x2f, 0x53, 0x71, 0x75, 0x65,
  0x65, 0x7a, 0x65, 0x3b, 0x6d, 0x6f, 0x64, 0x65, 0x6c, 0x5f, 0x31, 0x2f,
  0x63, 0x6f, 0x6e, 0x76, 0x31, 0x64, 0x5f, 0x32, 0x35, 0x2f, 0x63, 0x6f,
  0x6e, 0x76, 0x31, 0x64, 0x00, 0x00, 0x00, 0x00, 0x04, 0x00, 0x00, 0x00,
  0x01, 0x00, 0x00, 0x00, 0x01, 0x00, 0x00, 0x00, 0x1e, 0x00, 0x00, 0x00,
  0x04, 0x00, 0x00, 0x00, 0x4a, 0xd6, 0xff, 0xff, 0x14, 0x00, 0x00, 0x00,
  0x34, 0x00, 0x00, 0x00, 0x4d, 0x00, 0x00, 0x00, 0x00, 0x00, 0x00, 0x09,
  0x50, 0x00, 0x00, 0x00, 0x3c, 0xd6, 0xff, 0xff, 0x08, 0x00, 0x00, 0x00,
  0x14, 0x00, 0x00, 0x00, 0x01, 0x00, 0x00, 0x00, 0x80, 0xff, 0xff, 0xff,
  0xff, 0xff, 0xff, 0xff, 0x00, 0x00, 0x00, 0x00, 0x01, 0x00, 0x00, 0x00,
  0x13, 0x1f, 0x87, 0x3d, 0x23, 0x00, 0x00, 0x00, 0x6d, 0x6f, 0x64, 0x65,
  0x6c, 0x5f, 0x31, 0x2f, 0x63, 0x6f, 0x6e, 0x76, 0x31, 0x64, 0x5f, 0x32,
  0x35, 0x2f, 0x63, 0x6f, 0x6e, 0x76, 0x31, 0x64, 0x2f, 0x45, 0x78, 0x70,
  0x61, 0x6e, 0x64, 0x44, 0x69, 0x6d, 0x73, 0x00, 0x04, 0x00, 0x00, 0x00,
  0x01, 0x00, 0x00, 0x00, 0x01, 0x00, 0x00, 0x00, 0x1e, 0x00, 0x00, 0x00,
  0x10, 0x00, 0x00, 0x00, 0xc2, 0xd6, 0xff, 0xff, 0x14, 0x00, 0x00, 0x00,
  0x30, 0x00, 0x00, 0x00, 0x4c, 0x00, 0x00, 0x00, 0x00, 0x00, 0x00, 0x09,
  0x48, 0x00, 0x00, 0x00, 0xb4, 0xd6, 0xff, 0xff, 0x08, 0x00, 0x00, 0x00,
  0x10, 0x00, 0x00, 0x00, 0x01, 0x00, 0x00, 0x00, 0x80, 0xff, 0xff, 0xff,
  0xff, 0xff, 0xff, 0xff, 0x01, 0x00, 0x00, 0x00, 0x13, 0x1f, 0x87, 0x3d,
  0x1f, 0x00, 0x00, 0x00, 0x6d, 0x6f, 0x64, 0x65, 0x6c, 0x5f, 0x31, 0x2f,
  0x6d, 0x61, 0x78, 0x5f, 0x70, 0x6f, 0x6f, 0x6c, 0x69, 0x6e, 0x67, 0x31,
  0x64, 0x5f, 0x34, 0x2f, 0x4d, 0x61, 0x78, 0x50, 0x6f, 0x6f, 0x6c, 0x00,
  0x04, 0x00, 0x00, 0x00, 0x01, 0x00, 0x00, 0x00, 0x1e, 0x00, 0x00, 0x00,
  0x01, 0x00, 0x00, 0x00, 0x10, 0x00, 0x00, 0x00, 0x32, 0xd7, 0xff, 0xff,
  0x14, 0x00, 0x00, 0x00, 0x34, 0x00, 0x00, 0x00, 0x4b, 0x00, 0x00, 0x00,
  0x00, 0x00, 0x00, 0x09, 0x50, 0x00, 0x00, 0x00, 0x24, 0xd7, 0xff, 0xff,
  0x08, 0x00, 0x00, 0x00, 0x14, 0x00, 0x00, 0x00, 0x01, 0x00, 0x00, 0x00,
  0x80, 0xff, 0xff, 0xff, 0xff, 0xff, 0xff, 0xff, 0x00, 0x00, 0x00, 0x00,
  0x01, 0x00, 0x00, 0x00, 0x13, 0x1f, 0x87, 0x3d, 0x23, 0x00, 0x00, 0x00,
  0x6d, 0x6f, 0x64, 0x65, 0x6c, 0x5f, 0x31, 0x2f, 0x6d, 0x61, 0x78, 0x5f,
  0x70, 0x6f, 0x6f, 0x6c, 0x69, 0x6e, 0x67, 0x31, 0x64, 0x5f, 0x34, 0x2f,
  0x45, 0x78, 0x70, 0x61, 0x6e, 0x64, 0x44, 0x69, 0x6d, 0x73, 0x31, 0x00,
  0x04, 0x00, 0x00, 0x00, 0x01, 0x00, 0x00, 0x00, 0x1e, 0x00, 0x00, 0x00,
  0x01, 0x00, 0x00, 0x00, 0x10, 0x00, 0x00, 0x00, 0xaa, 0xd7, 0xff, 0xff,
  0x14, 0x00, 0x00, 0x00, 0x34, 0x00, 0x00, 0x00, 0x4a, 0x00, 0x00, 0x00,
  0x00, 0x00, 0x00, 0x09, 0x64, 0x00, 0x00, 0x00, 0x9c, 0xd7, 0xff, 0xff,
  0x08, 0x00, 0x00, 0x00, 0x14, 0x00, 0x00, 0x00, 0x01, 0x00, 0x00, 0x00,
  0x80, 0xff, 0xff, 0xff, 0xff, 0xff, 0xff, 0xff, 0x00, 0x00, 0x00, 0x00,
  0x01, 0x00, 0x00, 0x00, 0x6a, 0x40, 0xec, 0x3c, 0x37, 0x00, 0x00, 0x00,
  0x6d, 0x6f, 0x64, 0x65, 0x6c, 0x5f, 0x31, 0x2f, 0x63, 0x6f, 0x6e, 0x76,
  0x31, 0x64, 0x5f, 0x32, 0x34, 0x2f, 0x52, 0x65, 0x6c, 0x75, 0x3b, 0x6d,
  0x6f, 0x64, 0x65, 0x6c, 0x5f, 0x31, 0x2f, 0x63, 0x6f, 0x6e, 0x76, 0x31,
  0x64, 0x5f, 0x32, 0x34, 0x2f, 0x63, 0x6f, 0x6e, 0x76, 0x31, 0x64, 0x2f,
  0x53, 0x71, 0x75, 0x65, 0x65, 0x7a, 0x65, 0x00, 0x03, 0x00, 0x00, 0x00,
  0x01, 0x00, 0x00, 0x00, 0x1e, 0x00, 0x00, 0x00, 0x04, 0x00, 0x00, 0x00,
  0x32, 0xd8, 0xff, 0xff, 0x14, 0x00, 0x00, 0x00, 0x34, 0x00, 0x00, 0x00,
  0x49, 0x00, 0x00, 0x00, 0x00, 0x00, 0x00, 0x09, 0x80, 0x00, 0x00, 0x00,
  0x24, 0xd8, 0xff, 0xff, 0x08, 0x00, 0x00, 0x00, 0x14, 0x00, 0x00, 0x00,
  0x01, 0x00, 0x00, 0x00, 0x80, 0xff, 0xff, 0xff, 0xff, 0xff, 0xff, 0xff,
  0x00, 0x00, 0x00, 0x00, 0x01, 0x00, 0x00, 0x00, 0x6a, 0x40, 0xec, 0x3c,
  0x50, 0x00, 0x00, 0x00, 0x6d, 0x6f, 0x64, 0x65, 0x6c, 0x5f, 0x31, 0x2f,
  0x63, 0x6f, 0x6e, 0x76, 0x31, 0x64, 0x5f, 0x32, 0x34, 0x2f, 0x52, 0x65,
  0x6c, 0x75, 0x3b, 0x6d, 0x6f, 0x64, 0x65, 0x6c, 0x5f, 0x31, 0x2f, 0x63,
  0x6f, 0x6e, 0x76, 0x31, 0x64, 0x5f, 0x32, 0x34, 0x2f, 0x63, 0x6f, 0x6e,
  0x76, 0x31, 0x64, 0x2f, 0x53, 0x71, 0x75, 0x65, 0x65, 0x7a, 0x65, 0x3b,
  0x6d, 0x6f, 0x64, 0x65, 0x6c, 0x5f, 0x31, 0x2f, 0x63, 0x6f, 0x6e, 0x76,
  0x31, 0x64, 0x5f, 0x32, 0x34, 0x2f, 0x63, 0x6f, 0x6e, 0x76, 0x31, 0x64,
  0x00, 0x00, 0x00, 0x00, 0x04, 0x00, 0x00, 0x00, 0x01, 0x00, 0x00, 0x00,
  0x01, 0x00, 0x00, 0x00, 0x1e, 0x00, 0x00, 0x00, 0x04, 0x00, 0x00, 0x00,
  0xda, 0xd8, 0xff, 0xff, 0x14, 0x00, 0x00, 0x00, 0x34, 0x00, 0x00, 0x00,
  0x48, 0x00, 0x00, 0x00, 0x00, 0x00, 0x00, 0x09, 0x64, 0x00, 0x00, 0x00,
  0xcc, 0xd8, 0xff, 0xff, 0x08, 0x00, 0x00, 0x00, 0x14, 0x00, 0x00, 0x00,
  0x01, 0x00, 0x00, 0x00, 0x80, 0xff, 0xff, 0xff, 0xff, 0xff, 0xff, 0xff,
  0x00, 0x00, 0x00, 0x00, 0x01, 0x00, 0x00, 0x00, 0x6a, 0x40, 0xec, 0x3c,
  0x37, 0x00, 0x00, 0x00, 0x6d, 0x6f, 0x64, 0x65, 0x6c, 0x5f, 0x31, 0x2f,
  0x63, 0x6f, 0x6e, 0x76, 0x31, 0x64, 0x5f, 0x32, 0x33, 0x2f, 0x52, 0x65,
  0x6c, 0x75, 0x3b, 0x6d, 0x6f, 0x64, 0x65, 0x6c, 0x5f, 0x31, 0x2f, 0x63,
  0x6f, 0x6e, 0x76, 0x31, 0x64, 0x5f, 0x32, 0x33, 0x2f, 0x63, 0x6f, 0x6e,
  0x76, 0x31, 0x64, 0x2f, 0x53, 0x71, 0x75, 0x65, 0x65, 0x7a, 0x65, 0x00,
  0x03, 0x00, 0x00, 0x00, 0x01, 0x00, 0x00, 0x00, 0x1e, 0x00, 0x00, 0x00,
  0x04, 0x00, 0x00, 0x00, 0x62, 0xd9, 0xff, 0xff, 0x14, 0x00, 0x00, 0x00,
  0x34, 0x00, 0x00, 0x00, 0x47, 0x00, 0x00, 0x00, 0x00, 0x00, 0x00, 0x09,
  0x80, 0x00, 0x00, 0x00, 0x54, 0xd9, 0xff, 0xff, 0x08, 0x00, 0x00, 0x00,
  0x14, 0x00, 0x00, 0x00, 0x01, 0x00, 0x00, 0x00, 0x80, 0xff, 0xff, 0xff,
  0xff, 0xff, 0xff, 0xff, 0x00, 0x00, 0x00, 0x00, 0x01, 0x00, 0x00, 0x00,
  0x6a, 0x40, 0xec, 0x3c, 0x50, 0x00, 0x00, 0x00, 0x6d, 0x6f, 0x64, 0x65,
  0x6c, 0x5f, 0x31, 0x2f, 0x63, 0x6f, 0x6e, 0x76, 0x31, 0x64, 0x5f, 0x32,
  0x33, 0x2f, 0x52, 0x65, 0x6c, 0x75, 0x3b, 0x6d, 0x6f, 0x64, 0x65, 0x6c,
  0x5f, 0x31, 0x2f, 0x63, 0x6f, 0x6e, 0x76, 0x31, 0x64, 0x5f, 0x32, 0x33,
  0x2f, 0x63, 0x6f, 0x6e, 0x76, 0x31, 0x64, 0x2f, 0x53, 0x71, 0x75, 0x65,
  0x65, 0x7a, 0x65, 0x3b, 0x6d, 0x6f, 0x64, 0x65, 0x6c, 0x5f, 0x31, 0x2f,
  0x63, 0x6f, 0x6e, 0x76, 0x31, 0x64, 0x5f, 0x32, 0x33, 0x2f, 0x63, 0x6f,
  0x6e, 0x76, 0x31, 0x64, 0x00, 0x00, 0x00, 0x00, 0x04, 0x00, 0x00, 0x00,
  0x01, 0x00, 0x00, 0x00, 0x01, 0x00, 0x00, 0x00, 0x1e, 0x00, 0x00, 0x00,
  0x04, 0x00, 0x00, 0x00, 0x0a, 0xda, 0xff, 0xff, 0x14, 0x00, 0x00, 0x00,
  0x34, 0x00, 0x00, 0x00, 0x46, 0x00, 0x00, 0x00, 0x00, 0x00, 0x00, 0x09,
  0x64, 0x00, 0x00, 0x00, 0xfc, 0xd9, 0xff, 0xff, 0x08, 0x00, 0x00, 0x00,
  0x14, 0x00, 0x00, 0x00, 0x01, 0x00, 0x00, 0x00, 0x80, 0xff, 0xff, 0xff,
  0xff, 0xff, 0xff, 0xff, 0x00, 0x00, 0x00, 0x00, 0x01, 0x00, 0x00, 0x00,
  0x6a, 0x40, 0xec, 0x3c, 0x37, 0x00, 0x00, 0x00, 0x6d, 0x6f, 0x64, 0x65,
  0x6c, 0x5f, 0x31, 0x2f, 0x63, 0x6f, 0x6e, 0x76, 0x31, 0x64, 0x5f, 0x32,
  0x32, 0x2f, 0x52, 0x65, 0x6c, 0x75, 0x3b, 0x6d, 0x6f, 0x64, 0x65, 0x6c,
  0x5f, 0x31, 0x2f, 0x63, 0x6f, 0x6e, 0x76, 0x31, 0x64, 0x5f, 0x32, 0x32,
  0x2f, 0x63, 0x6f, 0x6e, 0x76, 0x31, 0x64, 0x2f, 0x53, 0x71, 0x75, 0x65,
  0x65, 0x7a, 0x65, 0x00, 0x03, 0x00, 0x00, 0x00, 0x01, 0x00, 0x00, 0x00,
  0x1e, 0x00, 0x00, 0x00, 0x04, 0x00, 0x00, 0x00, 0x92, 0xda, 0xff, 0xff,
  0x14, 0x00, 0x00, 0x00, 0x34, 0x00, 0x00, 0x00, 0x45, 0x00, 0x00, 0x00,
  0x00, 0x00, 0x00, 0x09, 0x80, 0x00, 0x00, 0x00, 0x84, 0xda, 0xff, 0xff,
  0x08, 0x00, 0x00, 0x00, 0x14, 0x00, 0x00, 0x00, 0x01, 0x00, 0x00, 0x00,
  0x80, 0xff, 0xff, 0xff, 0xff, 0xff, 0xff, 0xff, 0x00, 0x00, 0x00, 0x00,
  0x01, 0x00, 0x00, 0x00, 0x6a, 0x40, 0xec, 0x3c, 0x50, 0x00, 0x00, 0x00,
  0x6d, 0x6f, 0x64, 0x65, 0x6c, 0x5f, 0x31, 0x2f, 0x63, 0x6f, 0x6e, 0x76,
  0x31, 0x64, 0x5f, 0x32, 0x32, 0x2f, 0x52, 0x65, 0x6c, 0x75, 0x3b, 0x6d,
  0x6f, 0x64, 0x65, 0x6c, 0x5f, 0x31, 0x2f, 0x63, 0x6f, 0x6e, 0x76, 0x31,
  0x64, 0x5f, 0x32, 0x32, 0x2f, 0x63, 0x6f, 0x6e, 0x76, 0x31, 0x64, 0x2f,
  0x53, 0x71, 0x75, 0x65, 0x65, 0x7a, 0x65, 0x3b, 0x6d, 0x6f, 0x64, 0x65,
  0x6c, 0x5f, 0x31, 0x2f, 0x63, 0x6f, 0x6e, 0x76, 0x31, 0x64, 0x5f, 0x32,
  0x32, 0x2f, 0x63, 0x6f, 0x6e, 0x76, 0x31, 0x64, 0x00, 0x00, 0x00, 0x00,
  0x04, 0x00, 0x00, 0x00, 0x01, 0x00, 0x00, 0x00, 0x01, 0x00, 0x00, 0x00,
  0x1e, 0x00, 0x00, 0x00, 0x04, 0x00, 0x00, 0x00, 0x3a, 0xdb, 0xff, 0xff,
  0x14, 0x00, 0x00, 0x00, 0x34, 0x00, 0x00, 0x00, 0x44, 0x00, 0x00, 0x00,
  0x00, 0x00, 0x00, 0x09, 0x80, 0x00, 0x00, 0x00, 0x2c, 0xdb, 0xff, 0xff,
  0x08, 0x00, 0x00, 0x00, 0x14, 0x00, 0x00, 0x00, 0x01, 0x00, 0x00, 0x00,
  0x80, 0xff, 0xff, 0xff, 0xff, 0xff, 0xff, 0xff, 0x00, 0x00, 0x00, 0x00,
  0x01, 0x00, 0x00, 0x00, 0x68, 0xf2, 0x15, 0x3d, 0x50, 0x00, 0x00, 0x00,
  0x6d, 0x6f, 0x64, 0x65, 0x6c, 0x5f, 0x31, 0x2f, 0x63, 0x6f, 0x6e, 0x76,
  0x31, 0x64, 0x5f, 0x32, 0x31, 0x2f, 0x52, 0x65, 0x6c, 0x75, 0x3b, 0x6d,
  0x6f, 0x64, 0x65, 0x6c, 0x5f, 0x31, 0x2f, 0x63, 0x6f, 0x6e, 0x76, 0x31,
  0x64, 0x5f, 0x32, 0x31, 0x2f, 0x63, 0x6f, 0x6e, 0x76, 0x31, 0x64, 0x2f,
  0x53, 0x71, 0x75, 0x65, 0x65, 0x7a, 0x65, 0x3b, 0x6d, 0x6f, 0x64, 0x65,
  0x6c, 0x5f, 0x31, 0x2f, 0x63, 0x6f, 0x6e, 0x76, 0x31, 0x64, 0x5f, 0x32,
  0x31, 0x2f, 0x63, 0x6f, 0x6e, 0x76, 0x31, 0x64, 0x00, 0x00, 0x00, 0x00,
  0x04, 0x00, 0x00, 0x00, 0x01, 0x00, 0x00, 0x00, 0x01, 0x00, 0x00, 0x00,
  0x1e, 0x00, 0x00, 0x00, 0x01, 0x00, 0x00, 0x00, 0xe2, 0xdb, 0xff, 0xff,
  0x14, 0x00, 0x00, 0x00, 0x30, 0x00, 0x00, 0x00, 0x43, 0x00, 0x00, 0x00,
  0x00, 0x00, 0x00, 0x09, 0x50, 0x00, 0x00, 0x00, 0xd4, 0xdb, 0xff, 0xff,
  0x08, 0x00, 0x00, 0x00, 0x10, 0x00, 0x00, 0x00, 0x01, 0x00, 0x00, 0x00,
  0x80, 0xff, 0xff, 0xff, 0xff, 0xff, 0xff, 0xff, 0x01, 0x00, 0x00, 0x00,
  0x13, 0x1f, 0x87, 0x3d, 0x24, 0x00, 0x00, 0x00, 0x6d, 0x6f, 0x64, 0x65,
  0x6c, 0x5f, 0x31, 0x2f, 0x63, 0x6f, 0x6e, 0x76, 0x31, 0x64, 0x5f, 0x32,
  0x31, 0x2f, 0x63, 0x6f, 0x6e, 0x76, 0x31, 0x64, 0x2f, 0x45, 0x78, 0x70,
  0x61, 0x6e, 0x64, 0x44, 0x69, 0x6d, 0x73, 0x31, 0x00, 0x00, 0x00, 0x00,
  0x04, 0x00, 0x00, 0x00, 0x01, 0x00, 0x00, 0x00, 0x01, 0x00, 0x00, 0x00,
  0x1e, 0x00, 0x00, 0x00, 0x10, 0x00, 0x00, 0x00, 0x5a, 0xdc, 0xff, 0xff,
  0x14, 0x00, 0x00, 0x00, 0x34, 0x00, 0x00, 0x00, 0x42, 0x00, 0x00, 0x00,
  0x00, 0x00, 0x00, 0x09, 0x74, 0x00, 0x00, 0x00, 0x4c, 0xdc, 0xff, 0xff,
  0x08, 0x00, 0x00, 0x00, 0x14, 0x00, 0x00, 0x00, 0x01, 0x00, 0x00, 0x00,
  0x80, 0xff, 0xff, 0xff, 0xff, 0xff, 0xff, 0xff, 0x00, 0x00, 0x00, 0x00,
  0x01, 0x00, 0x00, 0x00, 0x13, 0x1f, 0x87, 0x3d, 0x47, 0x00, 0x00, 0x00,
  0x6d, 0x6f, 0x64, 0x65, 0x6c, 0x5f, 0x31, 0x2f, 0x61, 0x63, 0x74, 0x69,
  0x76, 0x61, 0x74, 0x69, 0x6f, 0x6e, 0x5f, 0x34, 0x2f, 0x52, 0x65, 0x6c,
  0x75, 0x3b, 0x6d, 0x6f, 0x64, 0x65, 0x6c, 0x5f, 0x31, 0x2f, 0x62, 0x61,
  0x74, 0x63, 0x68, 0x5f, 0x6e, 0x6f, 0x72, 0x6d, 0x61, 0x6c, 0x69, 0x7a,
  0x61, 0x74, 0x69, 0x6f, 0x6e, 0x5f, 0x34, 0x2f, 0x62, 0x61, 0x74, 0x63,
  0x68, 0x6e, 0x6f, 0x72, 0x6d, 0x2f, 0x61, 0x64, 0x64, 0x5f, 0x31, 0x00,
  0x03, 0x00, 0x00, 0x00, 0x01, 0x00, 0x00, 0x00, 0x1e, 0x00, 0x00, 0x00,
  0x10, 0x00, 0x00, 0x00, 0xf2, 0xdc, 0xff, 0xff, 0x14, 0x00, 0x00, 0x00,
  0x34, 0x00, 0x00, 0x00, 0x41, 0x00, 0x00, 0x00, 0x00, 0x00, 0x00, 0x09,
  0x5c, 0x00, 0x00, 0x00, 0xe4, 0xdc, 0xff, 0xff, 0x08, 0x00, 0x00, 0x00,
  0x14, 0x00, 0x00, 0x00, 0x01, 0x00, 0x00, 0x00, 0x80, 0xff, 0xff, 0xff,
  0xff, 0xff, 0xff, 0xff, 0x00, 0x00, 0x00, 0x00, 0x01, 0x00, 0x00, 0x00,
  0x6f, 0x1a, 0x87, 0x3d, 0x2d, 0x00, 0x00, 0x00, 0x6d, 0x6f, 0x64, 0x65,
  0x6c, 0x5f, 0x31, 0x2f, 0x62, 0x61, 0x74, 0x63, 0x68, 0x5f, 0x6e, 0x6f,
  0x72, 0x6d, 0x61, 0x6c, 0x69, 0x7a, 0x61, 0x74, 0x69, 0x6f, 0x6e, 0x5f,
  0x34, 0x2f, 0x62, 0x61, 0x74, 0x63, 0x68, 0x6e, 0x6f, 0x72, 0x6d, 0x2f,
  0x6d, 0x75, 0x6c, 0x5f, 0x31, 0x00, 0x00, 0x00, 0x03, 0x00, 0x00, 0x00,
  0x01, 0x00, 0x00, 0x00, 0x1e, 0x00, 0x00, 0x00, 0x10, 0x00, 0x00, 0x00,
  0x72, 0xdd, 0xff, 0xff, 0x14, 0x00, 0x00, 0x00, 0x34, 0x00, 0x00, 0x00,
  0x40, 0x00, 0x00, 0x00, 0x00, 0x00, 0x00, 0x09, 0x4c, 0x00, 0x00, 0x00,
  0x64, 0xdd, 0xff, 0xff, 0x08, 0x00, 0x00, 0x00, 0x14, 0x00, 0x00, 0x00,
  0x01, 0x00, 0x00, 0x00, 0x80, 0xff, 0xff, 0xff, 0xff, 0xff, 0xff, 0xff,
  0x00, 0x00, 0x00, 0x00, 0x01, 0x00, 0x00, 0x00, 0xaf, 0x50, 0xb7, 0x3c,
  0x1c, 0x00, 0x00, 0x00, 0x6d, 0x6f, 0x64, 0x65, 0x6c, 0x5f, 0x31, 0x2f,
  0x63, 0x6f, 0x6e, 0x63, 0x61, 0x74, 0x65, 0x6e, 0x61, 0x74, 0x65, 0x5f,
  0x33, 0x2f, 0x63, 0x6f, 0x6e, 0x63, 0x61, 0x74, 0x00, 0x00, 0x00, 0x00,
  0x03, 0x00, 0x00, 0x00, 0x01, 0x00, 0x00, 0x00, 0x1e, 0x00, 0x00, 0x00,
  0x10, 0x00, 0x00, 0x00, 0xe2, 0xdd, 0xff, 0xff, 0x14, 0x00, 0x00, 0x00,
  0x34, 0x00, 0x00, 0x00, 0x3f, 0x00, 0x00, 0x00, 0x00, 0x00, 0x00, 0x09,
  0x64, 0x00, 0x00, 0x00, 0xd4, 0xdd, 0xff, 0xff, 0x08, 0x00, 0x00, 0x00,
  0x14, 0x00, 0x00, 0x00, 0x01, 0x00, 0x00, 0x00, 0x80, 0xff, 0xff, 0xff,
  0xff, 0xff, 0xff, 0xff, 0x00, 0x00, 0x00, 0x00, 0x01, 0x00, 0x00, 0x00,
  0xaf, 0x50, 0xb7, 0x3c, 0x37, 0x00, 0x00, 0x00, 0x6d, 0x6f, 0x64, 0x65,
  0x6c, 0x5f, 0x31, 0x2f, 0x63, 0x6f, 0x6e, 0x76, 0x31, 0x64, 0x5f, 0x32,
  0x30, 0x2f, 0x52, 0x65, 0x6c, 0x75, 0x3b, 0x6d, 0x6f, 0x64, 0x65, 0x6c,
  0x5f, 0x31, 0x2f, 0x63, 0x6f, 0x6e, 0x76, 0x31, 0x64, 0x5f, 0x32, 0x30,
  0x2f, 0x63, 0x6f, 0x6e, 0x76, 0x31, 0x64, 0x2f, 0x53, 0x71, 0x75, 0x65,
  0x65, 0x7a, 0x65, 0x00, 0x03, 0x00, 0x00, 0x00, 0x01, 0x00, 0x00, 0x00,
  0x1e, 0x00, 0x00, 0x00, 0x04, 0x00, 0x00, 0x00, 0x6a, 0xde, 0xff, 0xff,
  0x14, 0x00, 0x00, 0x00, 0x34, 0x00, 0x00, 0x00, 0x3e, 0x00, 0x00, 0x00,
  0x00, 0x00, 0x00, 0x09, 0x80, 0x00, 0x00, 0x00, 0x5c, 0xde, 0xff, 0xff,
  0x08, 0x00, 0x00, 0x00, 0x14, 0x00, 0x00, 0x00, 0x01, 0x00, 0x00, 0x00,
  0x80, 0xff, 0xff, 0xff, 0xff, 0xff, 0xff, 0xff, 0x00, 0x00, 0x00, 0x00,
  0x01, 0x00, 0x00, 0x00, 0xaf, 0x50, 0xb7, 0x3c, 0x50, 0x00, 0x00, 0x00,
  0x6d, 0x6f, 0x64, 0x65, 0x6c, 0x5f, 0x31, 0x2f, 0x63, 0x6f, 0x6e, 0x76,
  0x31, 0x64, 0x5f, 0x32, 0x30, 0x2f, 0x52, 0x65, 0x6c, 0x75, 0x3b, 0x6d,
  0x6f, 0x64, 0x65, 0x6c, 0x5f, 0x31, 0x2f, 0x63, 0x6f, 0x6e, 0x76, 0x31,
  0x64, 0x5f, 0x32, 0x30, 0x2f, 0x63, 0x6f, 0x6e, 0x76, 0x31, 0x64, 0x2f,
  0x53, 0x71, 0x75, 0x65, 0x65, 0x7a, 0x65, 0x3b, 0x6d, 0x6f, 0x64, 0x65,
  0x6c, 0x5f, 0x31, 0x2f, 0x63, 0x6f, 0x6e, 0x76, 0x31, 0x64, 0x5f, 0x32,
  0x30, 0x2f, 0x63, 0x6f, 0x6e, 0x76, 0x31, 0x64, 0x00, 0x00, 0x00, 0x00,
  0x04, 0x00, 0x00, 0x00, 0x01, 0x00, 0x00, 0x00, 0x01, 0x00, 0x00, 0x00,
  0x1e, 0x00, 0x00, 0x00, 0x04, 0x00, 0x00, 0x00, 0x12, 0xdf, 0xff, 0xff,
  0x14, 0x00, 0x00, 0x00, 0x34, 0x00, 0x00, 0x00, 0x3d, 0x00, 0x00, 0x00,
  0x00, 0x00, 0x00, 0x09, 0x50, 0x00, 0x00, 0x00, 0x04, 0xdf, 0xff, 0xff,
  0x08, 0x00, 0x00, 0x00, 0x14, 0x00, 0x00, 0x00, 0x01, 0x00, 0x00, 0x00,
  0xf6, 0xff, 0xff, 0xff, 0xff, 0xff, 0xff, 0xff, 0x00, 0x00, 0x00, 0x00,
  0x01, 0x00, 0x00, 0x00, 0xad, 0xe2, 0x3d, 0x3d, 0x23, 0x00, 0x00, 0x00,
  0x6d, 0x6f, 0x64, 0x65, 0x6c, 0x5f, 0x31, 0x2f, 0x63, 0x6f, 0x6e, 0x76,
  0x31, 0x64, 0x5f, 0x32, 0x30, 0x2f, 0x63, 0x6f, 0x6e, 0x76, 0x31, 0x64,
  0x2f, 0x45, 0x78, 0x70, 0x61, 0x6e, 0x64, 0x44, 0x69, 0x6d, 0x73, 0x00,
  0x04, 0x00, 0x00, 0x00, 0x01, 0x00, 0x00, 0x00, 0x01, 0x00, 0x00, 0x00,
  0x1e, 0x00, 0x00, 0x00, 0x06, 0x00, 0x00, 0x00, 0x8a, 0xdf, 0xff, 0xff,
  0x14, 0x00, 0x00, 0x00, 0x30, 0x00, 0x00, 0x00, 0x3c, 0x00, 0x00, 0x00,
  0x00, 0x00, 0x00, 0x09, 0x48, 0x00, 0x00, 0x00, 0x7c, 0xdf, 0xff, 0xff,
  0x08, 0x00, 0x00, 0x00, 0x10, 0x00, 0x00, 0x00, 0x01, 0x00, 0x00, 0x00,
  0xf6, 0xff, 0xff, 0xff, 0xff, 0xff, 0xff, 0xff, 0x01, 0x00, 0x00, 0x00,
  0xad, 0xe2, 0x3d, 0x3d, 0x1f, 0x00, 0x00, 0x00, 0x6d, 0x6f, 0x64, 0x65,
  0x6c, 0x5f, 0x31, 0x2f, 0x6d, 0x61, 0x78, 0x5f, 0x70, 0x6f, 0x6f, 0x6c,
  0x69, 0x6e, 0x67, 0x31, 0x64, 0x5f, 0x33, 0x2f, 0x4d, 0x61, 0x78, 0x50,
  0x6f, 0x6f, 0x6c, 0x00, 0x04, 0x00, 0x00, 0x00, 0x01, 0x00, 0x00, 0x00,
  0x1e, 0x00, 0x00, 0x00, 0x01, 0x00, 0x00, 0x00, 0x06, 0x00, 0x00, 0x00,
  0xfa, 0xdf, 0xff, 0xff, 0x14, 0x00, 0x00, 0x00, 0x34, 0x00, 0x00, 0x00,
  0x3b, 0x00, 0x00, 0x00, 0x00, 0x00, 0x00, 0x09, 0x50, 0x00, 0x00, 0x00,
  0xec, 0xdf, 0xff, 0xff, 0x08, 0x00, 0x00, 0x00, 0x14, 0x00, 0x00, 0x00,
  0x01, 0x00, 0x00, 0x00, 0xf6, 0xff, 0xff, 0xff, 0xff, 0xff, 0xff, 0xff,
  0x00, 0x00, 0x00, 0x00, 0x01, 0x00, 0x00, 0x00, 0xad, 0xe2, 0x3d, 0x3d,
  0x23, 0x00, 0x00, 0x00, 0x6d, 0x6f, 0x64, 0x65, 0x6c, 0x5f, 0x31, 0x2f,
  0x6d, 0x61, 0x78, 0x5f, 0x70, 0x6f, 0x6f, 0x6c, 0x69, 0x6e, 0x67, 0x31,
  0x64, 0x5f, 0x33, 0x2f, 0x45, 0x78, 0x70, 0x61, 0x6e, 0x64, 0x44, 0x69,
  0x6d, 0x73, 0x31, 0x00, 0x04, 0x00, 0x00, 0x00, 0x01, 0x00, 0x00, 0x00,
  0x1e, 0x00, 0x00, 0x00, 0x01, 0x00, 0x00, 0x00, 0x06, 0x00, 0x00, 0x00,
  0x72, 0xe0, 0xff, 0xff, 0x14, 0x00, 0x00, 0x00, 0x34, 0x00, 0x00, 0x00,
  0x3a, 0x00, 0x00, 0x00, 0x00, 0x00, 0x00, 0x09, 0x04, 0x01, 0x00, 0x00,
  0x64, 0xe0, 0xff, 0xff, 0x08, 0x00, 0x00, 0x00, 0x14, 0x00, 0x00, 0x00,
  0x01, 0x00, 0x00, 0x00, 0x07, 0x00, 0x00, 0x00, 0x00, 0x00, 0x00, 0x00,
  0x00, 0x00, 0x00, 0x00, 0x01, 0x00, 0x00, 0x00, 0x69, 0x53, 0x88, 0x3d,
  0xd4, 0x00, 0x00, 0x00, 0x6d, 0x6f, 0x64, 0x65, 0x6c, 0x5f, 0x31, 0x2f,
  0x62, 0x61, 0x74, 0x63, 0x68, 0x5f, 0x6e, 0x6f, 0x72, 0x6d, 0x61, 0x6c,
  0x69, 0x7a, 0x61, 0x74, 0x69, 0x6f, 0x6e, 0x5f, 0x37, 0x2f, 0x62, 0x61,
  0x74, 0x63, 0x68, 0x6e, 0x6f, 0x72, 0x6d, 0x2f, 0x61, 0x64, 0x64, 0x5f,
  0x31, 0x3b, 0x6d, 0x6f, 0x64, 0x65, 0x6c, 0x5f, 0x31, 0x2f, 0x63, 0x6f,
  0x6e, 0x76, 0x31, 0x64, 0x5f, 0x33, 0x31, 0x2f, 0x63, 0x6f, 0x6e, 0x76,
  0x31, 0x64, 0x2f, 0x53, 0x71, 0x75, 0x65, 0x65, 0x7a, 0x65, 0x3b, 0x6d,
  0x6f, 0x64, 0x65, 0x6c, 0x5f, 0x31, 0x2f, 0x62, 0x61, 0x74, 0x63, 0x68,
  0x5f, 0x6e, 0x6f, 0x72, 0x6d, 0x61, 0x6c, 0x69, 0x7a, 0x61, 0x74, 0x69,
  0x6f, 0x6e, 0x5f, 0x37, 0x2f, 0x62, 0x61, 0x74, 0x63, 0x68, 0x6e, 0x6f,
  0x72, 0x6d, 0x2f, 0x6d, 0x75, 0x6c, 0x5f, 0x31, 0x3b, 0x6d, 0x6f, 0x64,
  0x65, 0x6c, 0x5f, 0x31, 0x2f, 0x62, 0x61, 0x74, 0x63, 0x68, 0x5f, 0x6e,
  0x6f, 0x72, 0x6d, 0x61, 0x6c, 0x69, 0x7a, 0x61, 0x74, 0x69, 0x6f, 0x6e,
  0x5f, 0x37, 0x2f, 0x62, 0x61, 0x74, 0x63, 0x68, 0x6e, 0x6f, 0x72, 0x6d,
  0x2f, 0x6d, 0x75, 0x6c, 0x3b, 0x6d, 0x6f, 0x64, 0x65, 0x6c, 0x5f, 0x31,
  0x2f, 0x62, 0x61, 0x74, 0x63, 0x68, 0x5f, 0x6e, 0x6f, 0x72, 0x6d, 0x61,
  0x6c, 0x69, 0x7a, 0x61, 0x74, 0x69, 0x6f, 0x6e, 0x5f, 0x37, 0x2f, 0x62,
  0x61, 0x74, 0x63, 0x68, 0x6e, 0x6f, 0x72, 0x6d, 0x2f, 0x73, 0x75, 0x62,
  0x00, 0x00, 0x00, 0x00, 0x03, 0x00, 0x00, 0x00, 0x01, 0x00, 0x00, 0x00,
  0x1e, 0x00, 0x00, 0x00, 0x10, 0x00, 0x00, 0x00, 0x9a, 0xe1, 0xff, 0xff,
  0x14, 0x00, 0x00, 0x00, 0x30, 0x00, 0x00, 0x00, 0x39, 0x00, 0x00, 0x00,
  0x00, 0x00, 0x00, 0x09, 0x18, 0x01, 0x00, 0x00, 0x8c, 0xe1, 0xff, 0xff,
  0x08, 0x00, 0x00, 0x00, 0x10, 0x00, 0x00, 0x00, 0x01, 0x00, 0x00, 0x00,
  0x07, 0x00, 0x00, 0x00, 0x00, 0x00, 0x00, 0x00, 0x01, 0x00, 0x00, 0x00,
  0x69, 0x53, 0x88, 0x3d, 0xee, 0x00, 0x00, 0x00, 0x6d, 0x6f, 0x64, 0x65,
  0x6c, 0x5f, 0x31, 0x2f, 0x62, 0x61, 0x74, 0x63, 0x68, 0x5f, 0x6e, 0x6f,
  0x72, 0x6d, 0x61, 0x6c, 0x69, 0x7a, 0x61, 0x74, 0x69, 0x6f, 0x6e, 0x5f,
  0x37, 0x2f, 0x62, 0x61, 0x74, 0x63, 0x68, 0x6e, 0x6f, 0x72, 0x6d, 0x2f,
  0x61, 0x64, 0x64, 0x5f, 0x31, 0x3b, 0x6d, 0x6f, 0x64, 0x65, 0x6c, 0x5f,
  0x31, 0x2f, 0x63, 0x6f, 0x6e, 0x76, 0x31, 0x64, 0x5f, 0x33, 0x31, 0x2f,
  0x63, 0x6f, 0x6e, 0x76, 0x31, 0x64, 0x2f, 0x53, 0x71, 0x75, 0x65, 0x65,
  0x7a, 0x65, 0x3b, 0x6d, 0x6f, 0x64, 0x65, 0x6c, 0x5f, 0x31, 0x2f, 0x62,
  0x61, 0x74, 0x63, 0x68, 0x5f, 0x6e, 0x6f, 0x72, 0x6d, 0x61, 0x6c, 0x69,
  0x7a, 0x61, 0x74, 0x69, 0x6f, 0x6e, 0x5f, 0x37, 0x2f, 0x62, 0x61, 0x74,
  0x63, 0x68, 0x6e, 0x6f, 0x72, 0x6d, 0x2f, 0x6d, 0x75, 0x6c, 0x5f, 0x31,
  0x3b, 0x6d, 0x6f, 0x64, 0x65, 0x6c, 0x5f, 0x31, 0x2f, 0x62, 0x61, 0x74,
  0x63, 0x68, 0x5f, 0x6e, 0x6f, 0x72, 0x6d, 0x61, 0x6c, 0x69, 0x7a, 0x61,
  0x74, 0x69, 0x6f, 0x6e, 0x5f, 0x37, 0x2f, 0x62, 0x61, 0x74, 0x63, 0x68,
  0x6e, 0x6f, 0x72, 0x6d, 0x2f, 0x6d, 0x75, 0x6c, 0x3b, 0x6d, 0x6f, 0x64,
  0x65, 0x6c, 0x5f, 0x31, 0x2f, 0x62, 0x61, 0x74, 0x63, 0x68, 0x5f, 0x6e,
  0x6f, 0x72, 0x6d, 0x61, 0x6c, 0x69, 0x7a, 0x61, 0x74, 0x69, 0x6f, 0x6e,
  0x5f, 0x37, 0x2f, 0x62, 0x61, 0x74, 0x63, 0x68, 0x6e, 0x6f, 0x72, 0x6d,
  0x2f, 0x73, 0x75, 0x62, 0x3b, 0x6d, 0x6f, 0x64, 0x65, 0x6c, 0x5f, 0x31,
  0x2f, 0x63, 0x6f, 0x6e, 0x76, 0x31, 0x64, 0x5f, 0x33, 0x31, 0x2f, 0x63,
  0x6f, 0x6e, 0x76, 0x31, 0x64, 0x31, 0x00, 0x00, 0x04, 0x00, 0x00, 0x00,
  0x01, 0x00, 0x00, 0x00, 0x01, 0x00, 0x00, 0x00, 0x1e, 0x00, 0x00, 0x00,
  0x10, 0x00, 0x00, 0x00, 0xda, 0xe2, 0xff, 0xff, 0x14, 0x00, 0x00, 0x00,
  0x34, 0x00, 0x00, 0x00, 0x38, 0x00, 0x00, 0x00, 0x00, 0x00, 0x00, 0x09,
  0x64, 0x00, 0x00, 0x00, 0xcc, 0xe2, 0xff, 0xff, 0x08, 0x00, 0x00, 0x00,
  0x14, 0x00, 0x00, 0x00, 0x01, 0x00, 0x00, 0x00, 0x80, 0xff, 0xff, 0xff,
  0xff, 0xff, 0xff, 0xff, 0x00, 0x00, 0x00, 0x00, 0x01, 0x00, 0x00, 0x00,
  0xaf, 0x50, 0xb7, 0x3c, 0x37, 0x00, 0x00, 0x00, 0x6d, 0x6f, 0x64, 0x65,
  0x6c, 0x5f, 0x31, 0x2f, 0x63, 0x6f, 0x6e, 0x76, 0x31, 0x64, 0x5f, 0x31,
  0x39, 0x2f, 0x52, 0x65, 0x6c, 0x75, 0x3b, 0x6d, 0x6f, 0x64, 0x65, 0x6c,
  0x5f, 0x31, 0x2f, 0x63, 0x6f, 0x6e, 0x76, 0x31, 0x64, 0x5f, 0x31, 0x39,
  0x2f, 0x63, 0x6f, 0x6e, 0x76, 0x31, 0x64, 0x2f, 0x53, 0x71, 0x75, 0x65,
  0x65, 0x7a, 0x65, 0x00, 0x03, 0x00, 0x00, 0x00, 0x01, 0x00, 0x00, 0x00,
  0x1e, 0x00, 0x00, 0x00, 0x04, 0x00, 0x00, 0x00, 0x62, 0xe3, 0xff, 0xff,
  0x14, 0x00, 0x00, 0x00, 0x34, 0x00, 0x00, 0x00, 0x37, 0x00, 0x00, 0x00,
  0x00, 0x00, 0x00, 0x09, 0x80, 0x00, 0x00, 0x00, 0x54, 0xe3, 0xff, 0xff,
  0x08, 0x00, 0x00, 0x00, 0x14, 0x00, 0x00, 0x00, 0x01, 0x00, 0x00, 0x00,
  0x80, 0xff, 0xff, 0xff, 0xff, 0xff, 0xff, 0xff, 0x00, 0x00, 0x00, 0x00,
  0x01, 0x00, 0x00, 0x00, 0xaf, 0x50, 0xb7, 0x3c, 0x50, 0x00, 0x00, 0x00,
  0x6d, 0x6f, 0x64, 0x65, 0x6c, 0x5f, 0x31, 0x2f, 0x63, 0x6f, 0x6e, 0x76,
  0x31, 0x64, 0x5f, 0x31, 0x39, 0x2f, 0x52, 0x65, 0x6c, 0x75, 0x3b, 0x6d,
  0x6f, 0x64, 0x65, 0x6c, 0x5f, 0x31, 0x2f, 0x63, 0x6f, 0x6e, 0x76, 0x31,
  0x64, 0x5f, 0x31, 0x39, 0x2f, 0x63, 0x6f, 0x6e, 0x76, 0x31, 0x64, 0x2f,
  0x53, 0x71, 0x75, 0x65, 0x65, 0x7a, 0x65, 0x3b, 0x6d, 0x6f, 0x64, 0x65,
  0x6c, 0x5f, 0x31, 0x2f, 0x63, 0x6f, 0x6e, 0x76, 0x31, 0x64, 0x5f, 0x31,
  0x39, 0x2f, 0x63, 0x6f, 0x6e, 0x76, 0x31, 0x64, 0x00, 0x00, 0x00, 0x00,
  0x04, 0x00, 0x00, 0x00, 0x01, 0x00, 0x00, 0x00, 0x01, 0x00, 0x00, 0x00,
  0x1e, 0x00, 0x00, 0x00, 0x04, 0x00, 0x00, 0x00, 0x0a, 0xe4, 0xff, 0xff,
  0x14, 0x00, 0x00, 0x00, 0x34, 0x00, 0x00, 0x00, 0x36, 0x00, 0x00, 0x00,
  0x00, 0x00, 0x00, 0x09, 0x64, 0x00, 0x00, 0x00, 0xfc, 0xe3, 0xff, 0xff,
  0x08, 0x00, 0x00, 0x00, 0x14, 0x00, 0x00, 0x00, 0x01, 0x00, 0x00, 0x00,
  0x80, 0xff, 0xff, 0xff, 0xff, 0xff, 0xff, 0xff, 0x00, 0x00, 0x00, 0x00,
  0x01, 0x00, 0x00, 0x00, 0xaf, 0x50, 0xb7, 0x3c, 0x37, 0x00, 0x00, 0x00,
  0x6d, 0x6f, 0x64, 0x65, 0x6c, 0x5f, 0x31, 0x2f, 0x63, 0x6f, 0x6e, 0x76,
  0x31, 0x64, 0x5f, 0x31, 0x38, 0x2f, 0x52, 0x65, 0x6c, 0x75, 0x3b, 0x6d,
  0x6f, 0x64, 0x65, 0x6c, 0x5f, 0x31, 0x2f, 0x63, 0x6f, 0x6e, 0x76, 0x31,
  0x64, 0x5f, 0x31, 0x38, 0x2f, 0x63, 0x6f, 0x6e, 0x76, 0x31, 0x64, 0x2f,
  0x53, 0x71, 0x75, 0x65, 0x65, 0x7a, 0x65, 0x00, 0x03, 0x00, 0x00, 0x00,
  0x01, 0x00, 0x00, 0x00, 0x1e, 0x00, 0x00, 0x00, 0x04, 0x00, 0x00, 0x00,
  0x92, 0xe4, 0xff, 0xff, 0x14, 0x00, 0x00, 0x00, 0x34, 0x00, 0x00, 0x00,
  0x35, 0x00, 0x00, 0x00, 0x00, 0x00, 0x00, 0x09, 0x80, 0x00, 0x00, 0x00,
  0x84, 0xe4, 0xff, 0xff, 0x08, 0x00, 0x00, 0x00, 0x14, 0x00, 0x00, 0x00,
  0x01, 0x00, 0x00, 0x00, 0x80, 0xff, 0xff, 0xff, 0xff, 0xff, 0xff, 0xff,
  0x00, 0x00, 0x00, 0x00, 0x01, 0x00, 0x00, 0x00, 0xaf, 0x50, 0xb7, 0x3c,
  0x50, 0x00, 0x00, 0x00, 0x6d, 0x6f, 0x64, 0x65, 0x6c, 0x5f, 0x31, 0x2f,
  0x63, 0x6f, 0x6e, 0x76, 0x31, 0x64, 0x5f, 0x31, 0x38, 0x2f, 0x52, 0x65,
  0x6c, 0x75, 0x3b, 0x6d, 0x6f, 0x64, 0x65, 0x6c, 0x5f, 0x31, 0x2f, 0x63,
  0x6f, 0x6e, 0x76, 0x31, 0x64, 0x5f, 0x31, 0x38, 0x2f, 0x63, 0x6f, 0x6e,
  0x76, 0x31, 0x64, 0x2f, 0x53, 0x71, 0x75, 0x65, 0x65, 0x7a, 0x65, 0x3b,
  0x6d, 0x6f, 0x64, 0x65, 0x6c, 0x5f, 0x31, 0x2f, 0x63, 0x6f, 0x6e, 0x76,
  0x31, 0x64, 0x5f, 0x31, 0x38, 0x2f, 0x63, 0x6f, 0x6e, 0x76, 0x31, 0x64,
  0x00, 0x00, 0x00, 0x00, 0x04, 0x00, 0x00, 0x00, 0x01, 0x00, 0x00, 0x00,
  0x01, 0x00, 0x00, 0x00, 0x1e, 0x00, 0x00, 0x00, 0x04, 0x00, 0x00, 0x00,
  0x3a, 0xe5, 0xff, 0xff, 0x14, 0x00, 0x00, 0x00, 0x34, 0x00, 0x00, 0x00,
  0x34, 0x00, 0x00, 0x00, 0x00, 0x00, 0x00, 0x09, 0x64, 0x00, 0x00, 0x00,
