unsigned char classifier_tflite[] = {
  0x1c, 0x00, 0x00, 0x00, 0x54, 0x46, 0x4c, 0x33, 0x14, 0x00, 0x20, 0x00,
  0x1c, 0x00, 0x18, 0x00, 0x14, 0x00, 0x10, 0x00, 0x0c, 0x00, 0x00, 0x00,
  0x08, 0x00, 0x04, 0x00, 0x14, 0x00, 0x00, 0x00, 0x1c, 0x00, 0x00, 0x00,
  0x1c, 0x00, 0x00, 0x00, 0x4c, 0x00, 0x00, 0x00, 0xac, 0x15, 0x00, 0x00,
  0xbc, 0x15, 0x00, 0x00, 0xf0, 0x57, 0x00, 0x00, 0x03, 0x00, 0x00, 0x00,
  0x00, 0x00, 0x00, 0x00, 0x01, 0x00, 0x00, 0x00, 0x0c, 0x00, 0x00, 0x00,
  0x08, 0x00, 0x0c, 0x00, 0x08, 0x00, 0x04, 0x00, 0x08, 0x00, 0x00, 0x00,
  0x67, 0x00, 0x00, 0x00, 0x04, 0x00, 0x00, 0x00, 0x13, 0x00, 0x00, 0x00,
  0x6d, 0x69, 0x6e, 0x5f, 0x72, 0x75, 0x6e, 0x74, 0x69, 0x6d, 0x65, 0x5f,
  0x76, 0x65, 0x72, 0x73, 0x69, 0x6f, 0x6e, 0x00, 0x68, 0x00, 0x00, 0x00,
  0x5c, 0x15, 0x00, 0x00, 0x54, 0x15, 0x00, 0x00, 0x34, 0x15, 0x00, 0x00,
  0x18, 0x15, 0x00, 0x00, 0xfc, 0x14, 0x00, 0x00, 0xdc, 0x14, 0x00, 0x00,
  0xbc, 0x14, 0x00, 0x00, 0x9c, 0x14, 0x00, 0x00, 0x84, 0x14, 0x00, 0x00,
  0x6c, 0x14, 0x00, 0x00, 0x58, 0x14, 0x00, 0x00, 0x44, 0x14, 0x00, 0x00,
  0x30, 0x14, 0x00, 0x00, 0xb0, 0x13, 0x00, 0x00, 0x90, 0x13, 0x00, 0x00,
  0x70, 0x13, 0x00, 0x00, 0x50, 0x13, 0x00, 0x00, 0x30, 0x13, 0x00, 0x00,
  0x10, 0x13, 0x00, 0x00, 0xf0, 0x12, 0x00, 0x00, 0xd0, 0x12, 0x00, 0x00,
  0xb0, 0x12, 0x00, 0x00, 0x90, 0x12, 0x00, 0x00, 0x70, 0x12, 0x00, 0x00,
  0x50, 0x12, 0x00, 0x00, 0x30, 0x12, 0x00, 0x00, 0xe8, 0x11, 0x00, 0x00,
  0xbc, 0x11, 0x00, 0x00, 0x4c, 0x11, 0x00, 0x00, 0xfc, 0x10, 0x00, 0x00,
  0xd4, 0x10, 0x00, 0x00, 0xb4, 0x10, 0x00, 0x00, 0x94, 0x10, 0x00, 0x00,
  0x74, 0x10, 0x00, 0x00, 0xf4, 0x0f, 0x00, 0x00, 0xac, 0x0f, 0x00, 0x00,
  0x80, 0x0f, 0x00, 0x00, 0x30, 0x0f, 0x00, 0x00, 0x10, 0x0f, 0x00, 0x00,
  0xf0, 0x0e, 0x00, 0x00, 0xd0, 0x0e, 0x00, 0x00, 0x50, 0x0e, 0x00, 0x00,
  0x08, 0x0e, 0x00, 0x00, 0xdc, 0x0d, 0x00, 0x00, 0x8c, 0x0d, 0x00, 0x00,
  0x6c, 0x0d, 0x00, 0x00, 0x4c, 0x0d, 0x00, 0x00, 0xfc, 0x01, 0x00, 0x00,
  0xd4, 0x01, 0x00, 0x00, 0xcc, 0x01, 0x00, 0x00, 0xc4, 0x01, 0x00, 0x00,
  0xbc, 0x01, 0x00, 0x00, 0xb4, 0x01, 0x00, 0x00, 0xac, 0x01, 0x00, 0x00,
  0xa4, 0x01, 0x00, 0x00, 0x9c, 0x01, 0x00, 0x00, 0x94, 0x01, 0x00, 0x00,
  0x8c, 0x01, 0x00, 0x00, 0x84, 0x01, 0x00, 0x00, 0x7c, 0x01, 0x00, 0x00,
  0x74, 0x01, 0x00, 0x00, 0x6c, 0x01, 0x00, 0x00, 0x64, 0x01, 0x00, 0x00,
  0x5c, 0x01, 0x00, 0x00, 0x54, 0x01, 0x00, 0x00, 0x4c, 0x01, 0x00, 0x00,
  0x44, 0x01, 0x00, 0x00, 0x3c, 0x01, 0x00, 0x00, 0x34, 0x01, 0x00, 0x00,
  0x2c, 0x01, 0x00, 0x00, 0x24, 0x01, 0x00, 0x00, 0x1c, 0x01, 0x00, 0x00,
  0x14, 0x01, 0x00, 0x00, 0x0c, 0x01, 0x00, 0x00, 0x04, 0x01, 0x00, 0x00,
  0xfc, 0x00, 0x00, 0x00, 0xf4, 0x00, 0x00, 0x00, 0xec, 0x00, 0x00, 0x00,
  0xe4, 0x00, 0x00, 0x00, 0xdc, 0x00, 0x00, 0x00, 0xd4, 0x00, 0x00, 0x00,
  0xcc, 0x00, 0x00, 0x00, 0xc4, 0x00, 0x00, 0x00, 0xbc, 0x00, 0x00, 0x00,
  0xb4, 0x00, 0x00, 0x00, 0xac, 0x00, 0x00, 0x00, 0xa4, 0x00, 0x00, 0x00,
  0x9c, 0x00, 0x00, 0x00, 0x94, 0x00, 0x00, 0x00, 0x8c, 0x00, 0x00, 0x00,
  0x84, 0x00, 0x00, 0x00, 0x7c, 0x00, 0x00, 0x00, 0x74, 0x00, 0x00, 0x00,
  0x6c, 0x00, 0x00, 0x00, 0x64, 0x00, 0x00, 0x00, 0x5c, 0x00, 0x00, 0x00,
  0x54, 0x00, 0x00, 0x00, 0x4c, 0x00, 0x00, 0x00, 0x44, 0x00, 0x00, 0x00,
  0x3c, 0x00, 0x00, 0x00, 0x34, 0x00, 0x00, 0x00, 0x2c, 0x00, 0x00, 0x00,
  0x24, 0x00, 0x00, 0x00, 0x04, 0x00, 0x00, 0x00, 0xde, 0xe3, 0xff, 0xff,
  0x04, 0x00, 0x00, 0x00, 0x10, 0x00, 0x00, 0x00, 0x31, 0x2e, 0x31, 0x34,
  0x2e, 0x30, 0x00, 0x00, 0x00, 0x00, 0x00, 0x00, 0x00, 0x00, 0x00, 0x00,
  0xc4, 0xaa, 0xff, 0xff, 0xc8, 0xaa, 0xff, 0xff, 0xcc, 0xaa, 0xff, 0xff,
  0xd0, 0xaa, 0xff, 0xff, 0xd4, 0xaa, 0xff, 0xff, 0xd8, 0xaa, 0xff, 0xff,
  0xdc, 0xaa, 0xff, 0xff, 0xe0, 0xaa, 0xff, 0xff, 0xe4, 0xaa, 0xff, 0xff,
  0xe8, 0xaa, 0xff, 0xff, 0xec, 0xaa, 0xff, 0xff, 0xf0, 0xaa, 0xff, 0xff,
  0xf4, 0xaa, 0xff, 0xff, 0xf8, 0xaa, 0xff, 0xff, 0xfc, 0xaa, 0xff, 0xff,
  0x00, 0xab, 0xff, 0xff, 0x04, 0xab, 0xff, 0xff, 0x08, 0xab, 0xff, 0xff,
  0x0c, 0xab, 0xff, 0xff, 0x10, 0xab, 0xff, 0xff, 0x14, 0xab, 0xff, 0xff,
  0x18, 0xab, 0xff, 0xff, 0x1c, 0xab, 0xff, 0xff, 0x20, 0xab, 0xff, 0xff,
  0x24, 0xab, 0xff, 0xff, 0x28, 0xab, 0xff, 0xff, 0x2c, 0xab, 0xff, 0xff,
  0x30, 0xab, 0xff, 0xff, 0x34, 0xab, 0xff, 0xff, 0x38, 0xab, 0xff, 0xff,
  0x3c, 0xab, 0xff, 0xff, 0x40, 0xab, 0xff, 0xff, 0x44, 0xab, 0xff, 0xff,
  0x48, 0xab, 0xff, 0xff, 0x4c, 0xab, 0xff, 0xff, 0x50, 0xab, 0xff, 0xff,
  0x54, 0xab, 0xff, 0xff, 0x58, 0xab, 0xff, 0xff, 0x5c, 0xab, 0xff, 0xff,
  0x60, 0xab, 0xff, 0xff, 0x64, 0xab, 0xff, 0xff, 0x68, 0xab, 0xff, 0xff,
  0x6c, 0xab, 0xff, 0xff, 0x70, 0xab, 0xff, 0xff, 0x74, 0xab, 0xff, 0xff,
  0x78, 0xab, 0xff, 0xff, 0x7c, 0xab, 0xff, 0xff, 0x80, 0xab, 0xff, 0xff,
  0x84, 0xab, 0xff, 0xff, 0x88, 0xab, 0xff, 0xff, 0x8c, 0xab, 0xff, 0xff,
  0x90, 0xab, 0xff, 0xff, 0x94, 0xab, 0xff, 0xff, 0x98, 0xab, 0xff, 0xff,
  0xd2, 0xe4, 0xff, 0xff, 0x04, 0x00, 0x00, 0x00, 0x18, 0x00, 0x00, 0x00,
  0x18, 0x02, 0x00, 0x00, 0x12, 0xff, 0xff, 0xff, 0x1e, 0xfe, 0xff, 0xff,
  0xdd, 0x02, 0x00, 0x00, 0xc1, 0xfd, 0xff, 0xff, 0x9f, 0xfb, 0xff, 0xff,
  0xf6, 0xe4, 0xff, 0xff, 0x04, 0x00, 0x00, 0x00, 0x40, 0x0b, 0x00, 0x00,
  0xc4, 0x03, 0xea, 0xe9, 0xce, 0xfe, 0x2a, 0xf3, 0xea, 0xca, 0xed, 0xf3,
  0x38, 0xe8, 0xb1, 0xbf, 0xe3, 0xc1, 0xfe, 0xe4, 0x16, 0xd3, 0x1e, 0xdc,
  0x09, 0xda, 0xfb, 0xc3, 0x47, 0x11, 0xc4, 0xd9, 0xf3, 0xf5, 0xe5, 0xe2,
  0xfc, 0xd1, 0xea, 0xbd, 0xe4, 0xce, 0xcf, 0xeb, 0x7c, 0xe5, 0xdc, 0xdd,
  0xc5, 0xf6, 0x08, 0xe8, 0x03, 0xcc, 0xf7, 0x12, 0xea, 0xcb, 0x03, 0x00,
  0x47, 0xc8, 0xe2, 0xba, 0x17, 0xf9, 0x0d, 0x07, 0x29, 0xfb, 0xea, 0xcc,
  0xab, 0x00, 0xdc, 0xdd, 0x72, 0xcd, 0xba, 0xbe, 0xf4, 0x10, 0x24, 0xcf,
  0xf7, 0xb9, 0xf7, 0x04, 0xc4, 0xff, 0xc0, 0x01, 0x54, 0xee, 0xbd, 0xca,
  0xc6, 0xdd, 0xe6, 0xcf, 0xdb, 0xf2, 0xb7, 0xca, 0xa8, 0x00, 0xda, 0xe5,
  0x65, 0xe5, 0x08, 0xf0, 0xfc, 0x02, 0xd9, 0xaa, 0xdc, 0xe5, 0xd6, 0xdf,
  0xe1, 0xf1, 0xb7, 0xbe, 0x5b, 0x03, 0xf3, 0xdd, 0x17, 0xca, 0xd5, 0xac,
  0x22, 0xf6, 0xe1, 0xac, 0xc1, 0xc5, 0x09, 0xc4, 0x47, 0xc4, 0xef, 0xdb,
  0xc2, 0x0a, 0xe4, 0xea, 0xd8, 0xf9, 0x06, 0xe0, 0xf6, 0xdc, 0xe1, 0x0f,
  0x33, 0x0d, 0xcb, 0xd8, 0xfe, 0xef, 0xe8, 0xaa, 0x27, 0xc3, 0xe3, 0xbf,
  0xc1, 0xe5, 0xbf, 0x0b, 0x58, 0xe7, 0x00, 0xba, 0xc2, 0xf8, 0x12, 0xb4,
  0xea, 0xea, 0xbf, 0xf0, 0x02, 0xf0, 0xd1, 0xeb, 0x6d, 0x0a, 0xe0, 0xcd,
  0x0b, 0xfa, 0x17, 0xcc, 0xfd, 0xff, 0x0b, 0xe7, 0xc3, 0x0d, 0xce, 0xea,
  0x4b, 0xfe, 0xeb, 0xbe, 0x1d, 0xeb, 0xea, 0xb6, 0x14, 0xd1, 0xd0, 0xdc,
  0xc7, 0xfa, 0xd3, 0xbf, 0x39, 0xbe, 0x12, 0xd8, 0xd1, 0x01, 0x13, 0xe0,
  0xfd, 0xdb, 0xf0, 0x15, 0xcb, 0x0b, 0xca, 0xf9, 0x62, 0xdc, 0xd0, 0xe0,
  0xda, 0xc0, 0xea, 0xe5, 0xfd, 0x0e, 0x0b, 0xbf, 0xf7, 0xf6, 0xff, 0xe1,
  0x51, 0xc3, 0xd5, 0xfd, 0xe8, 0xf5, 0xd9, 0xab, 0xec, 0x0a, 0xe0, 0xf4,
  0xf4, 0xf4, 0xc4, 0xda, 0x4d, 0xe3, 0xf7, 0xe5, 0x0b, 0xca, 0xfc, 0xe9,
  0xfa, 0x12, 0xd4, 0x09, 0xca, 0x0e, 0xd3, 0xf1, 0x55, 0xc9, 0xef, 0x05,
  0xec, 0xbe, 0x02, 0xb4, 0xe8, 0xc4, 0xe7, 0xbd, 0xeb, 0xc7, 0xf3, 0xb3,
  0x3d, 0xf8, 0xe4, 0xe1, 0x02, 0x09, 0x03, 0xe7, 0xfa, 0xcd, 0xc3, 0xe0,
  0xe0, 0xf9, 0xe4, 0xc2, 0x37, 0x04, 0xc7, 0xe9, 0x19, 0xfe, 0xf8, 0xbf,
  0x18, 0xe5, 0xea, 0xd2, 0xda, 0x00, 0xd5, 0xe9, 0x37, 0xf2, 0x0a, 0xf7,
  0x3b, 0xb7, 0xe1, 0xee, 0xee, 0xc7, 0xb7, 0xbe, 0xf7, 0xe2, 0xf4, 0xea,
  0x49, 0xc5, 0xca, 0xb3, 0x21, 0xed, 0xe2, 0x07, 0x2a, 0xb9, 0xf2, 0x05,
  0xe4, 0xd8, 0x05, 0x02, 0x50, 0x11, 0x04, 0xe6, 0x1a, 0xcc, 0xe0, 0xfc,
  0xfa, 0xb1, 0xd3, 0xcc, 0xdb, 0xda, 0xfd, 0xde, 0x2f, 0xbc, 0xfa, 0xdb,
  0x3a, 0xc3, 0xfa, 0xd7, 0xe3, 0xfa, 0xc8, 0xeb, 0xbe, 0x01, 0x02, 0xc2,
  0x60, 0xd0, 0xcb, 0xc0, 0xf8, 0xd0, 0x0e, 0xfd, 0x35, 0xf7, 0xd7, 0xe2,
  0xc5, 0xce, 0xed, 0xb0, 0x59, 0xc2, 0xd7, 0xd5, 0x20, 0xd1, 0xe5, 0xee,
  0x29, 0xb8, 0xf9, 0xec, 0xd1, 0xcb, 0xfe, 0xb4, 0x13, 0xc4, 0xf3, 0xff,
  0xfe, 0xd6, 0x14, 0xdf, 0x11, 0xe8, 0xca, 0xc8, 0xda, 0x0c, 0xe8, 0xeb,
  0x5d, 0xd5, 0xd8, 0xde, 0xeb, 0x00, 0xd8, 0xfc, 0x15, 0xf0, 0x13, 0xf4,
  0xe7, 0x16, 0xc6, 0xd2, 0x1e, 0xde, 0xe8, 0xd5, 0xef, 0xea, 0xf3, 0xe5,
  0xe0, 0xf2, 0xd5, 0xef, 0xc3, 0x3e, 0xe7, 0xed, 0x25, 0xc8, 0x0a, 0x00,
  0xf5, 0x10, 0xf8, 0xf7, 0xac, 0xef, 0x0d, 0x1e, 0xed, 0xea, 0x25, 0xf6,
  0x1a, 0xc6, 0xf0, 0xf4, 0xfb, 0x0b, 0xfb, 0xf5, 0xeb, 0x12, 0x04, 0x05,
  0xf1, 0xfc, 0xfa, 0x0a, 0xf2, 0xf9, 0x19, 0xbd, 0xc6, 0x37, 0xcc, 0x03,
  0xca, 0x33, 0x0b, 0x0d, 0x3a, 0x0d, 0x1d, 0x33, 0xf6, 0xdd, 0x19, 0xf2,
  0x06, 0xf6, 0x0d, 0x20, 0xdb, 0x2a, 0x34, 0xee, 0x27, 0x19, 0x16, 0x46,
  0xf4, 0xe7, 0x06, 0xe2, 0xfd, 0x2e, 0x12, 0x0d, 0xda, 0x13, 0xf9, 0x07,
  0x0a, 0x1d, 0x0b, 0x0f, 0x09, 0xe9, 0xfb, 0xf9, 0xe9, 0x34, 0x06, 0x25,
  0x00, 0x26, 0x2b, 0xec, 0x27, 0x1a, 0x1a, 0x36, 0xf4, 0x2c, 0xe0, 0xf8,
  0xf1, 0x4c, 0x02, 0x27, 0xb9, 0x10, 0x45, 0x02, 0x2f, 0x0e, 0x03, 0x31,
  0x14, 0xfa, 0xf9, 0xe5, 0xf1, 0x0f, 0xdc, 0x0e, 0xe3, 0x16, 0x30, 0xf9,
  0x0b, 0xf9, 0x04, 0x10, 0x0d, 0x21, 0xe5, 0xd8, 0xde, 0x11, 0xe4, 0x08,
  0xc0, 0x11, 0x13, 0x04, 0x1d, 0x1e, 0x39, 0x2e, 0xff, 0xfa, 0xeb, 0xde,
  0xff, 0x17, 0x02, 0x0b, 0xc9, 0x44, 0x22, 0x0e, 0x25, 0x0b, 0x14, 0xfe,
  0x00, 0x0a, 0xe3, 0xe3, 0xf3, 0x1b, 0xe8, 0x08, 0xf9, 0x31, 0x18, 0x2e,
  0x30, 0x24, 0x18, 0x06, 0xff, 0xe9, 0xae, 0xe9, 0xd6, 0x1b, 0x1c, 0xeb,
  0xdc, 0x4c, 0x32, 0x02, 0x1f, 0x1a, 0xfd, 0x25, 0x1f, 0xef, 0xbe, 0xc6,
  0xef, 0x17, 0x04, 0x15, 0xc1, 0x07, 0xf8, 0x10, 0x11, 0x14, 0x08, 0x20,
  0x27, 0xec, 0xe3, 0xce, 0xc3, 0x18, 0xed, 0xe7, 0xc9, 0x24, 0x45, 0xea,
  0x26, 0x07, 0x0c, 0x1c, 0x09, 0x29, 0xbb, 0xdc, 0xd1, 0x2f, 0xfc, 0xf5,
  0xec, 0x0f, 0x34, 0x03, 0x1c, 0x02, 0xf4, 0x21, 0x11, 0x08, 0xbd, 0xd7,
  0xb4, 0x21, 0x1a, 0xf0, 0xc3, 0x1a, 0x21, 0x00, 0x35, 0x3c, 0xfe, 0x24,
  0x14, 0x1c, 0xf3, 0xbc, 0x20, 0x10, 0xf3, 0xed, 0xf9, 0x06, 0x1c, 0xf9,
  0x3f, 0x2d, 0x19, 0x17, 0x22, 0x01, 0xb3, 0xaf, 0xe4, 0x11, 0x0b, 0xea,
  0xc9, 0x46, 0x0b, 0x22, 0x2b, 0x3b, 0xfa, 0x2a, 0x0a, 0x0f, 0xcd, 0xde,
  0x06, 0x0f, 0xfb, 0x00, 0xc6, 0x2d, 0x14, 0x03, 0x32, 0x24, 0x19, 0x23,
  0x00, 0x1b, 0xd3, 0xd2, 0xdf, 0x15, 0xf5, 0xd9, 0x04, 0x2d, 0x22, 0x03,
  0x19, 0x3e, 0x0a, 0x12, 0x06, 0x15, 0xac, 0xdf, 0xda, 0xfa, 0xe8, 0xe1,
  0xd9, 0x01, 0x0a, 0xfc, 0x0d, 0x12, 0x01, 0x02, 0x1c, 0x03, 0x94, 0xc5,
  0xef, 0xfe, 0xfd, 0xf3, 0x01, 0x24, 0x1a, 0xf3, 0x3d, 0x3e, 0x1c, 0x1f,
  0x20, 0x1c, 0x9b, 0xde, 0x06, 0x19, 0x1a, 0xf7, 0xc8, 0xf7, 0x1c, 0x0b,
  0x11, 0x00, 0x13, 0x30, 0x15, 0x15, 0xea, 0xda, 0xee, 0x05, 0x0a, 0xec,
  0xd1, 0xfc, 0x38, 0x0d, 0x25, 0x36, 0x07, 0x16, 0x0d, 0xef, 0xe6, 0xce,
  0x10, 0xf6, 0xd7, 0xd4, 0xc5, 0x22, 0x0a, 0x29, 0x1d, 0x25, 0x28, 0x39,
  0x20, 0x21, 0xa9, 0xeb, 0xdd, 0x1a, 0xe1, 0xf9, 0xb0, 0x11, 0x1d, 0x2a,
  0x35, 0x23, 0x05, 0x01, 0xfb, 0x0a, 0xd7, 0xb7, 0xe4, 0x08, 0xd1, 0x18,
  0xd4, 0x21, 0xdf, 0x1f, 0x0b, 0x24, 0xfc, 0x29, 0xef, 0x14, 0xce, 0xd7,
  0xe8, 0xf9, 0x1b, 0x08, 0xda, 0x07, 0x02, 0x39, 0x2f, 0x0f, 0x27, 0x0c,
  0x03, 0x2f, 0xf8, 0xe2, 0xd6, 0x11, 0x08, 0x07, 0xb1, 0x29, 0x00, 0x1b,
  0x14, 0xfd, 0x28, 0x24, 0xfb, 0x1a, 0xac, 0xd6, 0xe0, 0xef, 0x13, 0xed,
  0xb9, 0x1b, 0xf7, 0xff, 0x11, 0xe2, 0xfc, 0x2b, 0x33, 0xf8, 0x97, 0xcd,
  0xfc, 0xda, 0x31, 0xe6, 0x0c, 0xef, 0x0a, 0x27, 0x17, 0xb9, 0xe9, 0xf6,
  0x06, 0x18, 0xda, 0xdd, 0x1a, 0xf5, 0x07, 0x0e, 0x06, 0x0a, 0xf5, 0xe7,
  0xcc, 0xed, 0xf9, 0xfd, 0x06, 0x0a, 0xa4, 0xf5, 0xca, 0xef, 0x1c, 0x18,
  0x26, 0xf0, 0xe9, 0xf9, 0xe3, 0x1e, 0x0d, 0xf8, 0x07, 0x40, 0xd7, 0xb9,
  0x08, 0xe5, 0xea, 0xd2, 0xfb, 0x09, 0xfc, 0xd9, 0xf2, 0x06, 0xf7, 0x13,
  0xde, 0xf8, 0xff, 0x09, 0x2c, 0xf6, 0xe4, 0xcd, 0x0b, 0xe0, 0xfe, 0xf8,
  0xfe, 0x27, 0x00, 0xd3, 0xe8, 0x16, 0xed, 0xc9, 0x03, 0xe1, 0x21, 0x01,
  0x2e, 0x15, 0x0d, 0x1e, 0xf7, 0x24, 0xd1, 0xf1, 0xf6, 0x15, 0x01, 0xbd,
  0xfd, 0xe8, 0x25, 0x1c, 0x2b, 0x04, 0x0b, 0x06, 0xfc, 0x2a, 0xc3, 0xd7,
  0xd9, 0xea, 0xc4, 0xf4, 0xcc, 0xd3, 0x0a, 0xd8, 0x00, 0x05, 0xd1, 0x0f,
  0xe4, 0xec, 0x14, 0xe8, 0x01, 0x0d, 0xd5, 0x9c, 0x19, 0xd4, 0xf1, 0x08,
  0xeb, 0xf0, 0xf2, 0xf2, 0xfc, 0x25, 0x00, 0xbf, 0xb9, 0xe5, 0xbe, 0xd1,
  0x07, 0x09, 0x2f, 0xe2, 0x38, 0x0f, 0xcb, 0x02, 0x02, 0x1a, 0xe0, 0xe7,
  0xe8, 0xdd, 0xbe, 0xdb, 0x10, 0x0c, 0x01, 0xd6, 0xf9, 0x2c, 0xce, 0x2f,
  0x15, 0xf2, 0xf2, 0xf0, 0xca, 0xf8, 0xc2, 0xfe, 0x0d, 0xe4, 0x1b, 0x07,
  0x35, 0x2c, 0xdc, 0x06, 0xe1, 0xf6, 0xd4, 0xe0, 0xc9, 0x18, 0xe7, 0xcc,
  0x09, 0xf3, 0x1a, 0xf8, 0x25, 0xe8, 0xbe, 0x19, 0xe5, 0x14, 0xf2, 0xed,
  0xea, 0xf4, 0xf1, 0xd9, 0xf4, 0x09, 0x0b, 0xd8, 0x39, 0xfa, 0x10, 0x08,
  0xff, 0xec, 0xd0, 0xd9, 0xc6, 0xce, 0xdd, 0xf9, 0x15, 0x29, 0x32, 0xfd,
  0x34, 0xfe, 0xd2, 0x09, 0xee, 0x0d, 0xe1, 0xd5, 0xe9, 0x1b, 0xc2, 0xf2,
  0x18, 0x00, 0x42, 0x05, 0xe6, 0xfa, 0xdd, 0x15, 0x10, 0x1e, 0xe4, 0xf7,
  0xef, 0x1c, 0xbb, 0xbb, 0xd1, 0xe9, 0xe9, 0xc5, 0xf0, 0xfe, 0xf7, 0x06,
  0x13, 0x1f, 0xec, 0xd3, 0xf6, 0xcc, 0xc7, 0xcd, 0x14, 0xf1, 0x34, 0xe0,
  0xea, 0x29, 0xdc, 0x37, 0x00, 0x21, 0xd9, 0xd9, 0xee, 0x08, 0xe9, 0xc3,
  0x04, 0x0c, 0x13, 0xf1, 0x17, 0xea, 0xfe, 0x09, 0x09, 0x0d, 0xfe, 0xfb,
  0x0b, 0xf0, 0x01, 0xdb, 0x01, 0x08, 0x04, 0x13, 0x37, 0xe2, 0xed, 0x31,
  0xd7, 0x1c, 0xef, 0xea, 0xc5, 0xd6, 0xdc, 0xa9, 0x1d, 0x01, 0x2b, 0xe6,
  0xf5, 0xf8, 0xbc, 0xf4, 0xd6, 0x10, 0xf9, 0xf8, 0xf4, 0xfc, 0xb2, 0xe6,
  0x2c, 0xdf, 0x0b, 0x17, 0x11, 0xfb, 0xef, 0xfe, 0xf7, 0xf0, 0xf6, 0x02,
  0xf6, 0xd6, 0xbf, 0x0b, 0x3f, 0xf1, 0x15, 0x01, 0x30, 0xdf, 0xe3, 0xf9,
  0xe2, 0x1b, 0xd8, 0xfa, 0xdf, 0xfe, 0xda, 0xca, 0xf6, 0xf2, 0x20, 0xd4,
  0xfc, 0xdf, 0xfb, 0x2b, 0x21, 0xfd, 0x05, 0xe7, 0xbd, 0x1e, 0xa6, 0xcd,
  0x20, 0xd9, 0x14, 0xfc, 0xe3, 0xe6, 0xe4, 0x15, 0xf0, 0x04, 0x1e, 0xfa,
  0xc3, 0x13, 0xf7, 0xef, 0x32, 0x10, 0x16, 0x0b, 0xfa, 0xfa, 0xd9, 0xf8,
  0x15, 0xf9, 0xea, 0xe5, 0xcc, 0x1a, 0x03, 0xbe, 0x23, 0x12, 0xe8, 0xfc,
  0x26, 0x1c, 0xe2, 0x2e, 0x07, 0x23, 0xec, 0x12, 0xfc, 0x12, 0xbd, 0xc5,
  0x32, 0x08, 0xfc, 0x17, 0x1d, 0xea, 0x10, 0x2b, 0x10, 0xe9, 0xdd, 0x0c,
  0xae, 0x1f, 0xec, 0xda, 0xed, 0xf6, 0x22, 0xc1, 0xf4, 0x22, 0xe1, 0x18,
  0xf2, 0x1d, 0xee, 0xd2, 0xd1, 0x0b, 0xb9, 0xeb, 0x0c, 0x12, 0x04, 0x07,
  0x1a, 0x29, 0xcd, 0x21, 0xf6, 0x19, 0xd6, 0xc3, 0xbd, 0xdf, 0xc5, 0xd7,
  0x03, 0xed, 0xdb, 0x12, 0xdd, 0x03, 0xca, 0x08, 0x13, 0x15, 0x11, 0x01,
  0x38, 0xab, 0xe7, 0x2f, 0xe5, 0xff, 0xf1, 0x07, 0x06, 0x12, 0xa9, 0xf4,
  0x3d, 0x22, 0x00, 0x1c, 0xfd, 0xc8, 0xf0, 0x65, 0x4a, 0x20, 0xcd, 0x0d,
  0xd8, 0xe4, 0xe8, 0x13, 0x11, 0x02, 0x02, 0x25, 0x2f, 0xda, 0x20, 0x1c,
  0x26, 0x07, 0xc4, 0x20, 0x02, 0xf0, 0x08, 0x27, 0x07, 0x0f, 0x2b, 0x2c,
  0x18, 0xa7, 0x2b, 0x4d, 0x1a, 0x04, 0x0b, 0x4b, 0xfa, 0x24, 0xdb, 0x00,
  0xf5, 0x15, 0xf8, 0x1a, 0x22, 0xa1, 0x0e, 0x0a, 0x18, 0xf0, 0xf1, 0x33,
  0xd0, 0xed, 0xf8, 0x23, 0xf2, 0xe6, 0x0a, 0x32, 0x07, 0xdd, 0x15, 0x4e,
  0xf8, 0xe6, 0xc5, 0x55, 0xf0, 0xdb, 0xfe, 0xfd, 0x10, 0x16, 0x0e, 0x0e,
  0x2b, 0xcd, 0x10, 0x5a, 0x36, 0xfe, 0xbd, 0x30, 0xd5, 0x18, 0x02, 0xee,
  0xfd, 0xe4, 0xfd, 0x20, 0x24, 0xb1, 0x14, 0x53, 0xd3, 0xd0, 0xdf, 0x1c,
  0xeb, 0x08, 0x16, 0xd4, 0x0a, 0x10, 0x4a, 0x32, 0x0c, 0x9f, 0xe9, 0x2c,
  0xfb, 0xe4, 0xf4, 0x0e, 0xfe, 0xfc, 0xf1, 0xd5, 0x19, 0xd0, 0x2f, 0x23,
  0xfe, 0xb3, 0x0c, 0x51, 0xcc, 0xe2, 0xc9, 0x14, 0x18, 0x0e, 0xfa, 0x08,
  0xe8, 0xfe, 0x2d, 0xf5, 0x16, 0xcd, 0xd6, 0x0b, 0x16, 0xf1, 0xf2, 0x19,
  0x04, 0x28, 0x21, 0xd4, 0xe1, 0xd9, 0x29, 0x2a, 0x23, 0xec, 0xf8, 0x49,
  0x05, 0xf2, 0xfb, 0x14, 0x1a, 0xf8, 0xf6, 0xd9, 0xfd, 0xfa, 0x3c, 0x10,
  0x26, 0xd6, 0xe5, 0x0a, 0xdf, 0xe3, 0xf4, 0x33, 0xdd, 0x1f, 0x06, 0xe2,
  0x29, 0x07, 0x30, 0x03, 0x1c, 0xb7, 0xf7, 0x33, 0xc0, 0x05, 0xcc, 0x3f,
  0xf3, 0x27, 0x00, 0xcc, 0xea, 0xd0, 0xf1, 0x1c, 0x0b, 0xf0, 0xda, 0x0b,
  0x03, 0xf7, 0xc3, 0x4c, 0xc2, 0x0c, 0xf3, 0x05, 0xf8, 0xe2, 0x20, 0x48,
  0x21, 0xec, 0xf9, 0x3b, 0xce, 0xe2, 0xe5, 0x23, 0xc5, 0xf0, 0x24, 0xe1,
  0x27, 0xb7, 0x31, 0x45, 0x2b, 0xc8, 0x08, 0x0a, 0xcf, 0x0e, 0x0b, 0x40,
  0xf7, 0x17, 0x00, 0xe6, 0xf4, 0xf2, 0x1a, 0x2c, 0x0d, 0xd7, 0xf9, 0x34,
  0xca, 0xf5, 0xfc, 0x50, 0xec, 0xfb, 0xf1, 0xcc, 0x0d, 0xe8, 0x2e, 0x16,
  0x1a, 0xcd, 0xf0, 0x25, 0xda, 0x03, 0xd4, 0x13, 0xf7, 0xe7, 0x03, 0xda,
  0xf5, 0xc4, 0x38, 0x20, 0xf8, 0xfe, 0xcd, 0x27, 0xec, 0x14, 0x07, 0x23,
  0xcc, 0xff, 0x0b, 0xed, 0x0f, 0xd3, 0x29, 0x07, 0x2f, 0xcd, 0xd0, 0x2f,
  0xf9, 0xf9, 0xcc, 0x4f, 0xc4, 0xeb, 0xed, 0xf3, 0x0d, 0xc5, 0x28, 0x30,
  0x2b, 0xd6, 0xd3, 0x13, 0xd9, 0x05, 0xb8, 0x42, 0xee, 0x00, 0x08, 0xdf,
  0x19, 0xf7, 0x29, 0x03, 0x0a, 0xe8, 0xda, 0x0f, 0xc3, 0xfd, 0xd0, 0x28,
  0xed, 0xdf, 0x24, 0x17, 0x0f, 0xb1, 0x3e, 0x2c, 0x19, 0xea, 0xf5, 0x0d,
  0xea, 0x27, 0x20, 0x30, 0x0c, 0xe6, 0xf3, 0x11, 0x06, 0xb2, 0x32, 0x43,
  0x3d, 0xe9, 0xd2, 0x46, 0xf5, 0xea, 0x19, 0x4e, 0xeb, 0xed, 0xfa, 0xdd,
  0x26, 0xe1, 0x1e, 0x04, 0x08, 0xfe, 0xf7, 0x15, 0xe5, 0x00, 0x1c, 0x53,
  0xf0, 0x19, 0x48, 0xe6, 0x05, 0xe9, 0xf6, 0x09, 0x07, 0xc2, 0xdd, 0x4f,
  0xd5, 0x1e, 0x02, 0x1e, 0xdb, 0xe0, 0x3e, 0xf9, 0xc9, 0x12, 0x1c, 0x35,
  0x32, 0xe0, 0xd5, 0x16, 0xbc, 0x1c, 0xfa, 0x16, 0x06, 0xd4, 0xf5, 0x04,
  0xf7, 0xa9, 0x31, 0x10, 0x16, 0xce, 0xd7, 0x5a, 0xfa, 0x21, 0x0f, 0x4c,
  0x19, 0xf6, 0x26, 0x18, 0xf2, 0xae, 0xf1, 0x0d, 0x45, 0xbb, 0xd5, 0x21,
  0xfb, 0x05, 0xf4, 0x09, 0x1f, 0x1b, 0xe4, 0x18, 0xff, 0xfa, 0x0e, 0x1f,
  0xbc, 0xe1, 0x12, 0xd1, 0x1b, 0xee, 0xf2, 0xf3, 0x3f, 0xff, 0x03, 0x1d,
  0x08, 0xf1, 0xf3, 0x19, 0xbe, 0xcb, 0x08, 0xfa, 0xfb, 0x1c, 0xfe, 0xed,
  0xef, 0xf5, 0xf3, 0x25, 0xeb, 0x0f, 0x08, 0x26, 0xc1, 0xd9, 0x05, 0x19,
  0x0d, 0x03, 0xd3, 0x0a, 0x3e, 0xe9, 0xff, 0x1b, 0xe4, 0x0f, 0x08, 0xfb,
  0xd8, 0xce, 0x24, 0xd4, 0x01, 0xff, 0x05, 0xdf, 0x01, 0x0f, 0xc3, 0x1e,
  0x12, 0x16, 0x04, 0xec, 0xf8, 0xee, 0x50, 0xfc, 0xfa, 0x11, 0x28, 0x24,
  0x2f, 0x14, 0x06, 0x03, 0xf0, 0xfe, 0x0f, 0x06, 0xbd, 0x03, 0x48, 0xf7,
  0x0c, 0xed, 0x16, 0x1e, 0xf0, 0xea, 0x18, 0xf6, 0x1a, 0x1c, 0xe9, 0xfd,
  0xf2, 0xee, 0x0f, 0xff, 0xea, 0x00, 0xde, 0x27, 0x0e, 0x17, 0x1f, 0x2b,
  0xf3, 0x13, 0x03, 0x13, 0xdb, 0xff, 0x0b, 0xe7, 0x0f, 0xf3, 0xe9, 0x19,
  0x04, 0x05, 0x1f, 0xe3, 0xe7, 0x18, 0x2b, 0x06, 0xe3, 0xca, 0x1a, 0xd9,
  0xed, 0xf1, 0x10, 0x08, 0x22, 0xfc, 0x13, 0xe8, 0x08, 0x19, 0x04, 0xe4,
  0xd3, 0xb7, 0x2d, 0x13, 0xeb, 0x00, 0x04, 0x10, 0xe9, 0x07, 0x2b, 0xe9,
  0xfb, 0x14, 0x0f, 0xf7, 0xd6, 0xc7, 0x1d, 0xda, 0xe7, 0x0d, 0xf6, 0x22,
  0x00, 0xe4, 0xfa, 0xe7, 0xff, 0x14, 0xf3, 0xfd, 0xfe, 0xbc, 0x00, 0xfd,
  0x12, 0xf9, 0x17, 0x1d, 0xef, 0xef, 0x03, 0xf7, 0xe1, 0x21, 0xe8, 0xee,
  0x02, 0xfb, 0x08, 0xfe, 0xcd, 0xed, 0xde, 0xe6, 0x0c, 0xe9, 0x22, 0x0e,
  0x14, 0xe3, 0x13, 0x12, 0xec, 0xb5, 0x45, 0xf7, 0xf1, 0x04, 0x02, 0xd6,
  0x17, 0xf4, 0x23, 0xe6, 0xf2, 0x24, 0x15, 0x00, 0xf4, 0xf3, 0x1c, 0xbb,
  0xe2, 0x07, 0xde, 0x12, 0x01, 0xfb, 0x05, 0x25, 0x01, 0xee, 0xfc, 0xe3,
  0xc6, 0xbf, 0x51, 0xf1, 0xe0, 0x12, 0x0c, 0x11, 0x0b, 0xf0, 0x1e, 0xe6,
  0x21, 0xe9, 0x19, 0x13, 0x05, 0xba, 0x5d, 0x08, 0x0d, 0xf5, 0xd9, 0xf8,
  0xe8, 0xfe, 0x21, 0x26, 0x08, 0x00, 0x21, 0x0c, 0xc8, 0xe6, 0x2e, 0xe0,
  0xeb, 0x19, 0x00, 0xf4, 0xe5, 0x30, 0x11, 0xf0, 0x1e, 0x03, 0x2d, 0xf9,
  0xf8, 0xd9, 0x22, 0xba, 0xe1, 0x11, 0xeb, 0xdd, 0xe2, 0xec, 0x21, 0x00,
  0xe7, 0xfd, 0xfe, 0x0f, 0xff, 0xdd, 0x42, 0xc0, 0xee, 0x06, 0xd0, 0xff,
  0xd6, 0xfe, 0x16, 0x23, 0xcd, 0x05, 0x11, 0x0a, 0x00, 0xbc, 0x4d, 0xe7,
  0xe7, 0xf1, 0xe2, 0x1c, 0x0e, 0xfa, 0xf6, 0x15, 0xe5, 0xdb, 0x16, 0x0b,
  0xec, 0xb7, 0x4a, 0xf1, 0xf6, 0x24, 0x0b, 0xc5, 0xf2, 0xf7, 0x0d, 0xe6,
  0xe9, 0xfa, 0x1d, 0xe8, 0xe0, 0x09, 0x4b, 0xd4, 0x06, 0x0a, 0xe4, 0xfa,
  0x1a, 0x0d, 0x22, 0x10, 0x1a, 0xdb, 0x19, 0xf3, 0xeb, 0xf8, 0x43, 0xdc,
  0xf6, 0xfd, 0x15, 0x10, 0xe7, 0x20, 0xe8, 0x0e, 0x0a, 0xea, 0x10, 0x0c,
  0xfb, 0xfd, 0x29, 0xb8, 0x22, 0x27, 0xe4, 0x15, 0x1b, 0x07, 0xde, 0xff,
  0xfd, 0x05, 0x14, 0x03, 0xb5, 0xbe, 0x17, 0x04, 0x0a, 0xeb, 0xe7, 0xfb,
  0x13, 0x12, 0xe6, 0xe9, 0x0b, 0xe4, 0x22, 0x17, 0xb5, 0xd1, 0x33, 0xdd,
  0xf8, 0xfe, 0xe8, 0x0b, 0xf1, 0xe0, 0x16, 0xf8, 0xf5, 0xd7, 0x0c, 0x18,
  0xc4, 0xe8, 0x57, 0x09, 0xc6, 0xfe, 0x20, 0xd9, 0x16, 0x1b, 0x1c, 0xed,
  0xd2, 0xdc, 0xeb, 0xd4, 0xd7, 0xc2, 0x57, 0xb2, 0xf1, 0x13, 0xda, 0xe5,
  0xf9, 0xec, 0x05, 0xe4, 0x18, 0xc3, 0x17, 0x0f, 0xe7, 0xd8, 0x15, 0xfb,
  0x1f, 0xf9, 0xef, 0x14, 0xee, 0xf8, 0xfc, 0xff, 0xe0, 0xe6, 0xe7, 0x11,
  0xe1, 0x2d, 0xa0, 0xf9, 0xe4, 0xf3, 0x1b, 0xe7, 0xec, 0x09, 0xfc, 0xe9,
  0xec, 0x21, 0xef, 0xd4, 0xdd, 0x24, 0x9a, 0xfa, 0xde, 0x0b, 0xf8, 0xdb,
  0xd7, 0xf7, 0xf0, 0xd7, 0xf5, 0x0a, 0xe2, 0x00, 0xe9, 0x40, 0xc6, 0x1c,
  0xfd, 0xf2, 0xe8, 0xdc, 0x1f, 0xfe, 0xf0, 0xe3, 0xf6, 0xf6, 0xe9, 0x11,
  0xa2, 0x3b, 0xbd, 0xf1, 0x22, 0x36, 0xf5, 0x08, 0x06, 0xcd, 0xe6, 0x21,
  0x19, 0xda, 0xe4, 0xfc, 0xb4, 0x51, 0xdf, 0x1f, 0x18, 0x30, 0xf4, 0x16,
  0xff, 0xd2, 0x17, 0xf3, 0x22, 0x03, 0x02, 0xeb, 0xad, 0x62, 0xcf, 0x12,
  0x2e, 0x26, 0x06, 0xee, 0xdf, 0x11, 0xfd, 0x0c, 0x15, 0x0e, 0xe7, 0xcd,
  0xa2, 0x60, 0xf3, 0x33, 0xd8, 0x32, 0xff, 0xea, 0xf5, 0xeb, 0xe4, 0xeb,
  0xf4, 0x1b, 0xf8, 0x08, 0xb8, 0x78, 0xde, 0x45, 0x11, 0xf0, 0xe5, 0xd5,
  0x07, 0x0a, 0xfd, 0x32, 0x2f, 0x1b, 0x1d, 0xf6, 0xb9, 0x5b, 0xdd, 0x35,
  0x3c, 0x12, 0xff, 0x16, 0xee, 0xe1, 0xe2, 0xed, 0xfb, 0xfc, 0xe9, 0xd4,
  0x9e, 0x46, 0xcc, 0x34, 0x0b, 0xe7, 0xfe, 0x20, 0xe0, 0xf2, 0x13, 0x06,
  0xf0, 0x01, 0xfc, 0xe9, 0xab, 0x28, 0x07, 0x0d, 0x01, 0xff, 0x1f, 0xe5,
  0xe8, 0x04, 0xfa, 0xe5, 0xf8, 0xe9, 0x08, 0x14, 0xbb, 0x56, 0xea, 0x3c,
  0x2a, 0x0c, 0x1d, 0xf0, 0x1b, 0xd0, 0xdd, 0xe6, 0x00, 0x16, 0xf4, 0x00,
  0xab, 0x2c, 0xc8, 0x14, 0xec, 0xdd, 0xd3, 0xdb, 0xe2, 0x02, 0x0c, 0x0a,
  0xef, 0xec, 0xf2, 0xfc, 0xee, 0x55, 0xcd, 0x06, 0xeb, 0xe6, 0xea, 0x2b,
  0xd3, 0xf4, 0xe9, 0xeb, 0x0b, 0xe9, 0xfb, 0xe3, 0xb4, 0x4a, 0xef, 0x29,
  0x03, 0xfb, 0x11, 0xf8, 0x08, 0x09, 0x14, 0x18, 0x0b, 0x04, 0xf1, 0x0f,
  0xb4, 0x61, 0xca, 0x10, 0x2f, 0xea, 0x09, 0x05, 0x1e, 0x0c, 0xff, 0x11,
  0x17, 0xe8, 0xfa, 0xf4, 0xba, 0x68, 0x04, 0xff, 0xfa, 0x1e, 0xe4, 0xfa,
  0xff, 0x15, 0xfa, 0x0a, 0x2c, 0x1d, 0xd9, 0xfd, 0xf8, 0x2c, 0xb3, 0x36,
  0x33, 0xf0, 0xe5, 0xd2, 0xf6, 0x22, 0xe4, 0x0c, 0xe8, 0x0d, 0x06, 0xe3,
  0xc2, 0x4d, 0xe3, 0x39, 0xd8, 0xff, 0x08, 0x04, 0xe4, 0xe8, 0xe1, 0x0a,
  0xe3, 0x18, 0xef, 0xe1, 0xb9, 0x43, 0xd5, 0x0c, 0x10, 0xf1, 0x04, 0xfb,
  0x25, 0xd8, 0x21, 0x0e, 0xf1, 0x10, 0x16, 0xe4, 0xd2, 0x6b, 0x05, 0x35,
  0xf4, 0x05, 0xdf, 0xf7, 0xde, 0x05, 0xfc, 0xf7, 0x10, 0x02, 0xf5, 0xf8,
  0xc4, 0x20, 0xd1, 0x41, 0x08, 0xfc, 0xe5, 0x04, 0x14, 0xe9, 0x12, 0x14,
  0xe9, 0xe5, 0xe7, 0xf8, 0xee, 0x30, 0xf1, 0x0d, 0xe9, 0x00, 0x04, 0xdf,
  0x27, 0x0d, 0xfb, 0xdd, 0xf7, 0xf4, 0xef, 0xe5, 0xce, 0x0f, 0xee, 0x3f,
  0x1e, 0x2f, 0xf9, 0xf2, 0xfb, 0x24, 0xf5, 0x1a, 0xff, 0xe7, 0xeb, 0x11,
  0xee, 0x21, 0xd1, 0x4e, 0xe1, 0xe7, 0x1b, 0x02, 0x21, 0xe2, 0xec, 0xe5,
  0x07, 0x0b, 0xe2, 0x0a, 0xb5, 0x5f, 0xca, 0x0c, 0x15, 0x04, 0xe1, 0x05,
  0xf3, 0x07, 0xee, 0xde, 0x20, 0xef, 0xfc, 0xdc, 0xe1, 0x7f, 0xbe, 0x3d,
  0x26, 0x10, 0xe9, 0x1e, 0x0b, 0xf3, 0x14, 0xfc, 0x01, 0xe7, 0xf0, 0xdf,
  0xd2, 0x49, 0xdf, 0x1d, 0xff, 0xf0, 0x31, 0x20, 0x2c, 0xf9, 0xe0, 0xec,
  0x29, 0xfb, 0x1e, 0xcc, 0xad, 0x78, 0xcb, 0x48, 0x1b, 0xff, 0x39, 0xed,
  0xda, 0xdb, 0x2a, 0xf9, 0x22, 0xf6, 0xd5, 0xd6, 0xe7, 0x3c, 0x09, 0x2f,
  0x42, 0xf0, 0xff, 0xff, 0x04, 0x00, 0x00, 0x00, 0x10, 0x00, 0x00, 0x00,
  0xcb, 0x13, 0xdb, 0x7f, 0x80, 0x12, 0x1d, 0xf9, 0x20, 0x12, 0x4f, 0x30,
  0xf5, 0xd2, 0xde, 0xd1, 0x5e, 0xf0, 0xff, 0xff, 0x04, 0x00, 0x00, 0x00,
  0x10, 0x00, 0x00, 0x00, 0xa3, 0x1a, 0xc7, 0x7f, 0x96, 0xdf, 0xf9, 0xda,
  0x2a, 0xf2, 0x63, 0x1b, 0xc9, 0x91, 0x8e, 0x96, 0x7a, 0xf0, 0xff, 0xff,
  0x04, 0x00, 0x00, 0x00, 0x40, 0x00, 0x00, 0x00, 0x72, 0xa2, 0xcd, 0x4b,
  0x3b, 0xc2, 0x92, 0x81, 0x09, 0xe8, 0x17, 0xf7, 0xbf, 0xd7, 0x77, 0x9e,
  0x76, 0x81, 0x94, 0x2f, 0x57, 0xb0, 0x9c, 0x3b, 0x40, 0x17, 0x1a, 0xcb,
  0x77, 0x17, 0x88, 0x0c, 0xc0, 0x57, 0xdd, 0x24, 0x07, 0x7f, 0x29, 0xbf,
  0xb1, 0xc7, 0x15, 0x3b, 0xa9, 0xbe, 0x65, 0xdc, 0x09, 0x9b, 0xd8, 0xbe,
  0x81, 0x64, 0xb8, 0x3a, 0x64, 0x57, 0x2a, 0x09, 0x08, 0x05, 0xf6, 0x53,
  0xc6, 0xf0, 0xff, 0xff, 0x04, 0x00, 0x00, 0x00, 0x1c, 0x00, 0x00, 0x00,
  0x7c, 0x27, 0x94, 0x81, 0xfb, 0x66, 0xbc, 0xee, 0x5d, 0x0a, 0x1d, 0x14,
  0x81, 0xee, 0xc2, 0x98, 0x81, 0x91, 0x62, 0x39, 0xba, 0x84, 0x60, 0xab,
  0x3a, 0xff, 0x81, 0x4f, 0xee, 0xf0, 0xff, 0xff, 0x04, 0x00, 0x00, 0x00,
  0x38, 0x00, 0x00, 0x00, 0x08, 0x2b, 0x76, 0x7f, 0xb0, 0x56, 0xf4, 0x12,
  0x39, 0x6d, 0x42, 0x3c, 0xd4, 0xe1, 0x43, 0xdd, 0x7f, 0xbd, 0x29, 0x40,
  0xef, 0x90, 0xd5, 0x9a, 0xfa, 0xc5, 0x2e, 0x49, 0x81, 0xa2, 0x3a, 0xdd,
  0x89, 0x1c, 0xbd, 0x3f, 0xe0, 0x43, 0x6d, 0xca, 0x57, 0xde, 0x54, 0x1d,
  0xec, 0xd4, 0xba, 0x8b, 0x7f, 0xda, 0x59, 0x2f, 0xf0, 0xb8, 0x06, 0x0e,
  0x32, 0xf1, 0xff, 0xff, 0x04, 0x00, 0x00, 0x00, 0x70, 0x00, 0x00, 0x00,
  0x4e, 0xf1, 0x34, 0xe2, 0x42, 0x2a, 0x4f, 0xf3, 0xd7, 0x4e, 0x4e, 0xc9,
  0xfa, 0x52, 0xfa, 0xe0, 0xc7, 0x6b, 0x68, 0xbf, 0x4d, 0xcc, 0xc8, 0xb8,
  0xac, 0x09, 0x81, 0x2a, 0x03, 0x0e, 0xda, 0x13, 0x1a, 0x46, 0xfd, 0xdd,
  0x1a, 0x81, 0x06, 0xfb, 0xf1, 0xd6, 0xcd, 0x21, 0x28, 0xc0, 0x09, 0x48,
  0xe0, 0x21, 0xc8, 0x5e, 0x0e, 0xdb, 0x27, 0xf1, 0xe4, 0x47, 0xb3, 0xcf,
  0x7f, 0xc4, 0xe6, 0x02, 0x21, 0xfd, 0x2b, 0xef, 0x8d, 0xf0, 0x09, 0xd1,
  0xf5, 0x4e, 0x47, 0x33, 0x53, 0x16, 0x40, 0x17, 0x46, 0xbc, 0x9d, 0xce,
  0xc9, 0x0e, 0x02, 0x0b, 0xf8, 0xb0, 0xec, 0x8b, 0x63, 0xac, 0x22, 0xa7,
  0xc3, 0xc0, 0x64, 0x32, 0x81, 0xb7, 0xad, 0xae, 0xfc, 0x97, 0x12, 0x0c,
  0x08, 0xf3, 0x28, 0xcf, 0xae, 0xf1, 0xff, 0xff, 0x04, 0x00, 0x00, 0x00,
  0x10, 0x00, 0x00, 0x00, 0x21, 0x62, 0x81, 0x43, 0x31, 0x1b, 0xbf, 0x10,
  0x26, 0xe3, 0xce, 0xd8, 0xc9, 0xf7, 0xaf, 0x54, 0xca, 0xf1, 0xff, 0xff,
  0x04, 0x00, 0x00, 0x00, 0x10, 0x00, 0x00, 0x00, 0x7f, 0x04, 0x80, 0xff,
  0xd3, 0x37, 0xe9, 0x99, 0xc4, 0x4c, 0xfd, 0x9a, 0x9d, 0x8b, 0xb9, 0xe1,
  0xe6, 0xf1, 0xff, 0xff, 0x04, 0x00, 0x00, 0x00, 0x10, 0x00, 0x00, 0x00,
  0x75, 0x96, 0x8c, 0x9a, 0x89, 0x78, 0x94, 0x8d, 0x92, 0x7f, 0xaf, 0x8c,
  0x85, 0x88, 0x8b, 0x92, 0x02, 0xf2, 0xff, 0xff, 0x04, 0x00, 0x00, 0x00,
  0x40, 0x00, 0x00, 0x00, 0x6b, 0xae, 0x40, 0x61, 0xd0, 0x7f, 0x9e, 0x0a,
  0xe9, 0xeb, 0x78, 0x73, 0x4c, 0x30, 0xc0, 0x23, 0x7f, 0x1b, 0x45, 0x1d,
  0xbc, 0x59, 0xdd, 0x0d, 0xbe, 0x37, 0xba, 0xcf, 0x1a, 0x39, 0xb8, 0x22,
  0xbd, 0xab, 0x11, 0x6f, 0xee, 0x44, 0xed, 0x81, 0xf9, 0xcb, 0xf0, 0x33,
  0x6b, 0x51, 0x22, 0x19, 0xe4, 0xfd, 0x1f, 0xed, 0x0a, 0x15, 0x81, 0xc8,
  0x2b, 0x1c, 0x9c, 0x9e, 0xe1, 0x43, 0x73, 0xc4, 0x4e, 0xf2, 0xff, 0xff,
  0x04, 0x00, 0x00, 0x00, 0x1c, 0x00, 0x00, 0x00, 0x51, 0x19, 0x3e, 0x81,
  0x20, 0x11, 0x33, 0xf5, 0xd4, 0x14, 0x8a, 0xef, 0x81, 0x03, 0xb9, 0x0a,
  0xa6, 0xa2, 0xad, 0x7f, 0xff, 0x3f, 0x02, 0x7f, 0xdf, 0xe1, 0x06, 0x4b,
  0x76, 0xf2, 0xff, 0xff, 0x04, 0x00, 0x00, 0x00, 0x38, 0x00, 0x00, 0x00,
  0x14, 0x30, 0x6c, 0x6a, 0x7f, 0xe4, 0xbe, 0x55, 0x85, 0x7c, 0x35, 0xd9,
  0x4b, 0x9d, 0xd7, 0x2d, 0x9b, 0x01, 0xd5, 0xb6, 0x02, 0x9f, 0xd8, 0x1a,
  0xab, 0x81, 0xbb, 0xda, 0x94, 0x81, 0xe3, 0xf7, 0xf6, 0x11, 0xf2, 0x5e,
  0x17, 0x41, 0x37, 0xf9, 0xd5, 0x17, 0x02, 0xd1, 0x97, 0x18, 0x14, 0x0b,
  0x04, 0x30, 0x7f, 0x02, 0x27, 0xf1, 0x35, 0x1a, 0xba, 0xf2, 0xff, 0xff,
  0x04, 0x00, 0x00, 0x00, 0x70, 0x00, 0x00, 0x00, 0xd8, 0x20, 0x87, 0xe3,
  0x9a, 0xaf, 0xe3, 0x33, 0x9f, 0xd1, 0xc4, 0x1b, 0xbf, 0x8a, 0xa4, 0x2a,
  0xe6, 0x87, 0xf1, 0x27, 0xf1, 0xb9, 0xb0, 0x2d, 0xea, 0x81, 0x99, 0xf3,
  0x02, 0x0b, 0x1e, 0xe5, 0xba, 0x81, 0x52, 0xc1, 0xce, 0xae, 0x90, 0x0c,
  0xf2, 0xc3, 0x10, 0x63, 0x43, 0x1a, 0xe8, 0xf8, 0x2e, 0x00, 0xd2, 0x35,
  0xfe, 0x0f, 0xf1, 0x1f, 0xd9, 0xf1, 0xec, 0x3d, 0x33, 0xcd, 0xe7, 0xfa,
  0x27, 0x3c, 0xd9, 0xdb, 0x49, 0xdb, 0x7f, 0x24, 0x4b, 0xc6, 0xf1, 0xfe,
  0x53, 0x21, 0xe7, 0xc6, 0x43, 0x04, 0x42, 0x11, 0xe0, 0xd9, 0x00, 0x22,
  0x08, 0x15, 0x2a, 0x12, 0xdf, 0x1f, 0xcc, 0xeb, 0xd4, 0xf6, 0x3f, 0xb7,
  0xde, 0x53, 0xb7, 0x6e, 0x36, 0xbc, 0xc1, 0xba, 0x7f, 0x02, 0x5d, 0xda,
  0x36, 0xf3, 0xff, 0xff, 0x04, 0x00, 0x00, 0x00, 0x10, 0x00, 0x00, 0x00,
  0xe7, 0x7b, 0x61, 0xde, 0x57, 0xd3, 0xb7, 0x9c, 0x31, 0x7f, 0x3d, 0x04,
  0x4b, 0xa1, 0x57, 0x45, 0x52, 0xf3, 0xff, 0xff, 0x04, 0x00, 0x00, 0x00,
  0x10, 0x00, 0x00, 0x00, 0x95, 0x9e, 0x3f, 0x80, 0x48, 0xa7, 0xa0, 0x1d,
  0x4e, 0x1f, 0x93, 0x8a, 0xca, 0x10, 0xb8, 0x86, 0x6e, 0xf3, 0xff, 0xff,
  0x04, 0x00, 0x00, 0x00, 0x10, 0x00, 0x00, 0x00, 0xad, 0x9a, 0x2d, 0x9c,
  0x2b, 0xeb, 0xa0, 0x7f, 0xe8, 0xf3, 0x9e, 0xb8, 0xa2, 0xc4, 0x9c, 0x9a,
  0x8a, 0xf3, 0xff, 0xff, 0x04, 0x00, 0x00, 0x00, 0x18, 0x00, 0x00, 0x00,
  0x7f, 0xa9, 0xe4, 0xa8, 0xf3, 0xff, 0x3c, 0x08, 0x7f, 0x99, 0xab, 0xab,
  0x37, 0xa1, 0x1f, 0xbb, 0x7f, 0x4e, 0x71, 0x7e, 0x08, 0x7f, 0x0d, 0x99,
  0xae, 0xf3, 0xff, 0xff, 0x04, 0x00, 0x00, 0x00, 0x40, 0x00, 0x00, 0x00,
  0x6e, 0x04, 0x00, 0x00, 0x3b, 0x00, 0x00, 0x00, 0x41, 0xfd, 0xff, 0xff,
  0x20, 0x03, 0x00, 0x00, 0x75, 0x02, 0x00, 0x00, 0xae, 0x00, 0x00, 0x00,
  0xfb, 0xfd, 0xff, 0xff, 0xb6, 0xff, 0xff, 0xff, 0xdb, 0x02, 0x00, 0x00,
  0x40, 0x00, 0x00, 0x00, 0x73, 0x00, 0x00, 0x00, 0xba, 0xfd, 0xff, 0xff,
  0x31, 0xfd, 0xff, 0xff, 0xb7, 0xfd, 0xff, 0xff, 0xcd, 0x00, 0x00, 0x00,
  0x07, 0x02, 0x00, 0x00, 0xfa, 0xf3, 0xff, 0xff, 0x04, 0x00, 0x00, 0x00,
  0x60, 0x00, 0x00, 0x00, 0xf6, 0x14, 0xae, 0x69, 0x81, 0x5a, 0xd1, 0x7f,
  0x36, 0x1d, 0xef, 0x5c, 0xee, 0x7f, 0xa9, 0x3a, 0x6e, 0x57, 0x52, 0x45,
  0x7f, 0x9c, 0x58, 0x99, 0x81, 0x1d, 0x2b, 0x2c, 0x43, 0x15, 0xe6, 0x7f,
  0x90, 0x29, 0x0b, 0x41, 0x10, 0x37, 0x15, 0x68, 0x81, 0x49, 0xc9, 0x0d,
  0xec, 0x6f, 0x7f, 0x35, 0xaa, 0x81, 0x15, 0x47, 0xda, 0x40, 0xb1, 0x30,
  0xd8, 0xc2, 0x7f, 0x1b, 0xf4, 0x7f, 0x02, 0xd3, 0xc1, 0x6b, 0xae, 0x32,
  0xf9, 0xe2, 0x0f, 0x81, 0x15, 0x81, 0xfc, 0xfd, 0x0f, 0xe1, 0x9d, 0x02,
  0x03, 0x81, 0xf3, 0xb4, 0xdb, 0x0b, 0xb0, 0x7f, 0x4f, 0xce, 0x6c, 0x81,
  0xf3, 0xb7, 0x04, 0xbe, 0x66, 0xf4, 0xff, 0xff, 0x04, 0x00, 0x00, 0x00,
  0x1c, 0x00, 0x00, 0x00, 0x34, 0xf4, 0xc7, 0x44, 0x35, 0xce, 0x81, 0x7a,
  0xd2, 0xf5, 0xac, 0x81, 0x0b, 0x6a, 0x7f, 0xcf, 0x3b, 0x42, 0xf6, 0x50,
  0x21, 0x3a, 0x76, 0x26, 0xc4, 0x0a, 0x7f, 0xdc, 0x8e, 0xf4, 0xff, 0xff,
  0x04, 0x00, 0x00, 0x00, 0x38, 0x00, 0x00, 0x00, 0xc4, 0x50, 0x0c, 0xbd,
  0x56, 0x81, 0x35, 0x98, 0x1f, 0x90, 0x20, 0xcf, 0x28, 0xe7, 0x6d, 0xbe,
  0x01, 0x41, 0x17, 0x88, 0x7f, 0x1d, 0x9a, 0x6c, 0xc2, 0x1c, 0xd3, 0x20,
  0xcc, 0xac, 0x0b, 0x05, 0x3b, 0x2d, 0xb4, 0xcb, 0x78, 0x7f, 0x16, 0x65,
  0xe4, 0x60, 0x1a, 0xdb, 0xb4, 0x49, 0xb0, 0xd4, 0x81, 0xcd, 0xd0, 0x98,
  0xfb, 0x50, 0xef, 0xf8, 0xd2, 0xf4, 0xff, 0xff, 0x04, 0x00, 0x00, 0x00,
  0x10, 0x00, 0x00, 0x00, 0x00, 0x00, 0x00, 0x00, 0x00, 0x00, 0x00, 0x00,
  0x00, 0x00, 0x00, 0x00, 0x00, 0x00, 0x00, 0x00, 0xee, 0xf4, 0xff, 0xff,
  0x04, 0x00, 0x00, 0x00, 0x10, 0x00, 0x00, 0x00, 0x00, 0x00, 0x00, 0x00,
  0x00, 0x00, 0x00, 0x00, 0x00, 0x00, 0x00, 0x00, 0x00, 0x00, 0x00, 0x00,
  0x0a, 0xf5, 0xff, 0xff, 0x04, 0x00, 0x00, 0x00, 0x10, 0x00, 0x00, 0x00,
  0x00, 0x00, 0x00, 0x00, 0x00, 0x00, 0x00, 0x00, 0x00, 0x00, 0x00, 0x00,
  0x00, 0x00, 0x00, 0x00, 0x26, 0xf5, 0xff, 0xff, 0x04, 0x00, 0x00, 0x00,
  0x10, 0x00, 0x00, 0x00, 0x00, 0x00, 0x00, 0x00, 0x00, 0x00, 0x00, 0x00,
  0x00, 0x00, 0x00, 0x00, 0x00, 0x00, 0x00, 0x00, 0x42, 0xf5, 0xff, 0xff,
  0x04, 0x00, 0x00, 0x00, 0x10, 0x00, 0x00, 0x00, 0x00, 0x00, 0x00, 0x00,
  0x00, 0x00, 0x00, 0x00, 0x00, 0x00, 0x00, 0x00, 0x00, 0x00, 0x00, 0x00,
  0x5e, 0xf5, 0xff, 0xff, 0x04, 0x00, 0x00, 0x00, 0x10, 0x00, 0x00, 0x00,
  0x00, 0x00, 0x00, 0x00, 0x00, 0x00, 0x00, 0x00, 0x00, 0x00, 0x00, 0x00,
  0x00, 0x00, 0x00, 0x00, 0x7a, 0xf5, 0xff, 0xff, 0x04, 0x00, 0x00, 0x00,
  0x10, 0x00, 0x00, 0x00, 0x00, 0x00, 0x00, 0x00, 0x00, 0x00, 0x00, 0x00,
  0x00, 0x00, 0x00, 0x00, 0x00, 0x00, 0x00, 0x00, 0x96, 0xf5, 0xff, 0xff,
  0x04, 0x00, 0x00, 0x00, 0x10, 0x00, 0x00, 0x00, 0x00, 0x00, 0x00, 0x00,
  0x00, 0x00, 0x00, 0x00, 0x00, 0x00, 0x00, 0x00, 0x00, 0x00, 0x00, 0x00,
  0xb2, 0xf5, 0xff, 0xff, 0x04, 0x00, 0x00, 0x00, 0x10, 0x00, 0x00, 0x00,
  0x00, 0x00, 0x00, 0x00, 0x00, 0x00, 0x00, 0x00, 0x00, 0x00, 0x00, 0x00,
  0x00, 0x00, 0x00, 0x00, 0xce, 0xf5, 0xff, 0xff, 0x04, 0x00, 0x00, 0x00,
  0x10, 0x00, 0x00, 0x00, 0x00, 0x00, 0x00, 0x00, 0x00, 0x00, 0x00, 0x00,
  0x00, 0x00, 0x00, 0x00, 0x00, 0x00, 0x00, 0x00, 0xea, 0xf5, 0xff, 0xff,
  0x04, 0x00, 0x00, 0x00, 0x10, 0x00, 0x00, 0x00, 0x00, 0x00, 0x00, 0x00,
  0x00, 0x00, 0x00, 0x00, 0x00, 0x00, 0x00, 0x00, 0x00, 0x00, 0x00, 0x00,
  0x06, 0xf6, 0xff, 0xff, 0x04, 0x00, 0x00, 0x00, 0x10, 0x00, 0x00, 0x00,
  0x00, 0x00, 0x00, 0x00, 0x00, 0x00, 0x00, 0x00, 0x00, 0x00, 0x00, 0x00,
  0x00, 0x00, 0x00, 0x00, 0x22, 0xf6, 0xff, 0xff, 0x04, 0x00, 0x00, 0x00,
  0x70, 0x00, 0x00, 0x00, 0xe5, 0x62, 0x17, 0x29, 0x24, 0xd1, 0xd8, 0xe9,
  0x0f, 0x76, 0xaa, 0xe8, 0xfd, 0x7f, 0xe0, 0x2f, 0xfd, 0xff, 0x1e, 0xf6,
  0x49, 0xef, 0x39, 0xaa, 0x5e, 0xd8, 0x2c, 0x0d, 0xe2, 0xd7, 0x24, 0x3b,
  0x43, 0x06, 0x07, 0xf0, 0xbf, 0x6d, 0x7f, 0x63, 0x23, 0xf6, 0x34, 0x3b,
  0x43, 0x11, 0x3d, 0xd5, 0x4d, 0x2c, 0xf6, 0x0e, 0x04, 0xfa, 0xca, 0xd6,
  0x10, 0x23, 0x05, 0xe3, 0xec, 0x19, 0xe4, 0x31, 0x81, 0x3e, 0x48, 0x1c,
  0xda, 0xd3, 0xf3, 0x07, 0xb9, 0x09, 0xca, 0xfd, 0xd7, 0x36, 0xd7, 0xf9,
  0xe8, 0x09, 0xe6, 0xd0, 0x7f, 0x16, 0x47, 0x53, 0x0f, 0xdf, 0x29, 0x08,
  0xd4, 0x24, 0xe0, 0x1e, 0x11, 0x59, 0x06, 0x18, 0x0d, 0x64, 0x08, 0x1c,
  0xfa, 0xf3, 0xfe, 0x3d, 0xfa, 0xec, 0x0d, 0xad, 0x9e, 0xf6, 0xff, 0xff,
  0x04, 0x00, 0x00, 0x00, 0x04, 0x00, 0x00, 0x00, 0x00, 0x00, 0x00, 0x00,
  0xae, 0xf6, 0xff, 0xff, 0x04, 0x00, 0x00, 0x00, 0x04, 0x00, 0x00, 0x00,
  0x00, 0x00, 0x00, 0x00, 0xbe, 0xf6, 0xff, 0xff, 0x04, 0x00, 0x00, 0x00,
  0x04, 0x00, 0x00, 0x00, 0x00, 0x00, 0x00, 0x00, 0xce, 0xf6, 0xff, 0xff,
  0x04, 0x00, 0x00, 0x00, 0x06, 0x00, 0x00, 0x00, 0xa0, 0x81, 0xb7, 0x86,
  0xc5, 0x73, 0x00, 0x00, 0xe2, 0xf6, 0xff, 0xff, 0x04, 0x00, 0x00, 0x00,
  0x08, 0x00, 0x00, 0x00, 0xff, 0xff, 0xff, 0xff, 0xe0, 0x01, 0x00, 0x00,
  0xf6, 0xf6, 0xff, 0xff, 0x04, 0x00, 0x00, 0x00, 0x10, 0x00, 0x00, 0x00,
  0x01, 0x00, 0x00, 0x00, 0x1e, 0x00, 0x00, 0x00, 0x01, 0x00, 0x00, 0x00,
  0x10, 0x00, 0x00, 0x00, 0x12, 0xf7, 0xff, 0xff, 0x04, 0x00, 0x00, 0x00,
  0x10, 0x00, 0x00, 0x00, 0x01, 0x00, 0x00, 0x00, 0x01, 0x00, 0x00, 0x00,
  0x1e, 0x00, 0x00, 0x00, 0x10, 0x00, 0x00, 0x00, 0x2e, 0xf7, 0xff, 0xff,
  0x04, 0x00, 0x00, 0x00, 0x10, 0x00, 0x00, 0x00, 0x01, 0x00, 0x00, 0x00,
  0x1e, 0x00, 0x00, 0x00, 0x01, 0x00, 0x00, 0x00, 0x06, 0x00, 0x00, 0x00,
  0x4a, 0xf7, 0xff, 0xff, 0x04, 0x00, 0x00, 0x00, 0x0c, 0x00, 0x00, 0x00,
  0x01, 0x00, 0x00, 0x00, 0x1e, 0x00, 0x00, 0x00, 0x10, 0x00, 0x00, 0x00,
  0x62, 0xf7, 0xff, 0xff, 0x04, 0x00, 0x00, 0x00, 0x0c, 0x00, 0x00, 0x00,
  0x01, 0x00, 0x00, 0x00, 0x1e, 0x00, 0x00, 0x00, 0x04, 0x00, 0x00, 0x00,
  0x7a, 0xf7, 0xff, 0xff, 0x04, 0x00, 0x00, 0x00, 0x10, 0x00, 0x00, 0x00,
  0x01, 0x00, 0x00, 0x00, 0x01, 0x00, 0x00, 0x00, 0x1e, 0x00, 0x00, 0x00,
  0x06, 0x00, 0x00, 0x00, 0x60, 0xbe, 0xff, 0xff, 0x64, 0xbe, 0xff, 0xff,
  0x0f, 0x00, 0x00, 0x00, 0x4d, 0x4c, 0x49, 0x52, 0x20, 0x43, 0x6f, 0x6e,
  0x76, 0x65, 0x72, 0x74, 0x65, 0x64, 0x2e, 0x00, 0x01, 0x00, 0x00, 0x00,
  0x14, 0x00, 0x00, 0x00, 0x00, 0x00, 0x0e, 0x00, 0x18, 0x00, 0x14, 0x00,
  0x10, 0x00, 0x0c, 0x00, 0x08, 0x00, 0x04, 0x00, 0x0e, 0x00, 0x00, 0x00,
  0x14, 0x00, 0x00, 0x00, 0x1c, 0x00, 0x00, 0x00, 0x44, 0x0b, 0x00, 0x00,
  0x48, 0x0b, 0x00, 0x00, 0x4c, 0x0b, 0x00, 0x00, 0x04, 0x00, 0x00, 0x00,
  0x6d, 0x61, 0x69, 0x6e, 0x00, 0x00, 0x00, 0x00, 0x36, 0x00, 0x00, 0x00,
  0x08, 0x0b, 0x00, 0x00, 0xac, 0x0a, 0x00, 0x00, 0x58, 0x0a, 0x00, 0x00,
  0x34, 0x0a, 0x00, 0x00, 0xf0, 0x09, 0x00, 0x00, 0xcc, 0x09, 0x00, 0x00,
  0x88, 0x09, 0x00, 0x00, 0x64, 0x09, 0x00, 0x00, 0x24, 0x09, 0x00, 0x00,
  0x00, 0x09, 0x00, 0x00, 0xdc, 0x08, 0x00, 0x00, 0x8c, 0x08, 0x00, 0x00,
  0x68, 0x08, 0x00, 0x00, 0x24, 0x08, 0x00, 0x00, 0x00, 0x08, 0x00, 0x00,
  0xb8, 0x07, 0x00, 0x00, 0x84, 0x07, 0x00, 0x00, 0x44, 0x07, 0x00, 0x00,
  0x20, 0x07, 0x00, 0x00, 0xdc, 0x06, 0x00, 0x00, 0x98, 0x06, 0x00, 0x00,
  0x74, 0x06, 0x00, 0x00, 0x30, 0x06, 0x00, 0x00, 0x0c, 0x06, 0x00, 0x00,
  0xc8, 0x05, 0x00, 0x00, 0xa4, 0x05, 0x00, 0x00, 0x80, 0x05, 0x00, 0x00,
  0x40, 0x05, 0x00, 0x00, 0x1c, 0x05, 0x00, 0x00, 0xd8, 0x04, 0x00, 0x00,
  0xb4, 0x04, 0x00, 0x00, 0x74, 0x04, 0x00, 0x00, 0x40, 0x04, 0x00, 0x00,
  0x08, 0x04, 0x00, 0x00, 0xd0, 0x03, 0x00, 0x00, 0xac, 0x03, 0x00, 0x00,
  0x68, 0x03, 0x00, 0x00, 0x24, 0x03, 0x00, 0x00, 0x00, 0x03, 0x00, 0x00,
  0xbc, 0x02, 0x00, 0x00, 0x98, 0x02, 0x00, 0x00, 0x54, 0x02, 0x00, 0x00,
  0x30, 0x02, 0x00, 0x00, 0x0c, 0x02, 0x00, 0x00, 0xcc, 0x01, 0x00, 0x00,
  0xa8, 0x01, 0x00, 0x00, 0x64, 0x01, 0x00, 0x00, 0x40, 0x01, 0x00, 0x00,
  0x00, 0x01, 0x00, 0x00, 0xcc, 0x00, 0x00, 0x00, 0x94, 0x00, 0x00, 0x00,
  0x70, 0x00, 0x00, 0x00, 0x38, 0x00, 0x00, 0x00, 0x04, 0x00, 0x00, 0x00,
  0x36, 0xf6, 0xff, 0xff, 0x14, 0x00, 0x00, 0x00, 0x00, 0x00, 0x00, 0x09,
  0x14, 0x00, 0x00, 0x00, 0x18, 0x00, 0x00, 0x00, 0x07, 0x00, 0x00, 0x00,
  0xe2, 0xf8, 0xff, 0xff, 0x00, 0x00, 0x80, 0x3f, 0x01, 0x00, 0x00, 0x00,
  0x65, 0x00, 0x00, 0x00, 0x01, 0x00, 0x00, 0x00, 0x64, 0x00, 0x00, 0x00,
  0x66, 0xf6, 0xff, 0xff, 0x14, 0x00, 0x00, 0x00, 0x00, 0x00, 0x00, 0x08,
  0x10, 0x00, 0x00, 0x00, 0x14, 0x00, 0x00, 0x00, 0x06, 0x00, 0x00, 0x00,
  0xdc, 0xbf, 0xff, 0xff, 0x01, 0x00, 0x00, 0x00, 0x64, 0x00, 0x00, 0x00,
  0x03, 0x00, 0x00, 0x00, 0x63, 0x00, 0x00, 0x00, 0x2e, 0x00, 0x00, 0x00,
  0x2f, 0x00, 0x00, 0x00, 0x3e, 0xf6, 0xff, 0xff, 0x08, 0x00, 0x00, 0x00,
  0x0c, 0x00, 0x00, 0x00, 0x01, 0x00, 0x00, 0x00, 0x63, 0x00, 0x00, 0x00,
  0x02, 0x00, 0x00, 0x00, 0x62, 0x00, 0x00, 0x00, 0x07, 0x00, 0x00, 0x00,
  0xba, 0xf6, 0xff, 0xff, 0x14, 0x00, 0x00, 0x00, 0x00, 0x00, 0x00, 0x0b,
  0x14, 0x00, 0x00, 0x00, 0x18, 0x00, 0x00, 0x00, 0x05, 0x00, 0x00, 0x00,
  0xd2, 0xf9, 0xff, 0xff, 0x00, 0x00, 0x00, 0x01, 0x01, 0x00, 0x00, 0x00,
  0x62, 0x00, 0x00, 0x00, 0x02, 0x00, 0x00, 0x00, 0x61, 0x00, 0x00, 0x00,
  0x2d, 0x00, 0x00, 0x00, 0xee, 0xf6, 0xff, 0xff, 0x14, 0x00, 0x00, 0x00,
  0x00, 0x00, 0x00, 0x15, 0x10, 0x00, 0x00, 0x00, 0x14, 0x00, 0x00, 0x00,
  0x04, 0x00, 0x00, 0x00, 0x64, 0xc0, 0xff, 0xff, 0x01, 0x00, 0x00, 0x00,
  0x61, 0x00, 0x00, 0x00, 0x02, 0x00, 0x00, 0x00, 0x60, 0x00, 0x00, 0x00,
  0x2c, 0x00, 0x00, 0x00, 0x1e, 0xf7, 0xff, 0xff, 0x14, 0x00, 0x00, 0x00,
  0x00, 0x00, 0x00, 0x0a, 0x14, 0x00, 0x00, 0x00, 0x18, 0x00, 0x00, 0x00,
  0x03, 0x00, 0x00, 0x00, 0xca, 0xf9, 0xff, 0xff, 0x02, 0x00, 0x00, 0x00,
  0x01, 0x00, 0x00, 0x00, 0x60, 0x00, 0x00, 0x00, 0x04, 0x00, 0x00, 0x00,
  0x56, 0x00, 0x00, 0x00, 0x58, 0x00, 0x00, 0x00, 0x5a, 0x00, 0x00, 0x00,
  0x5f, 0x00, 0x00, 0x00, 0xfe, 0xf6, 0xff, 0xff, 0x08, 0x00, 0x00, 0x00,
  0x0c, 0x00, 0x00, 0x00, 0x01, 0x00, 0x00, 0x00, 0x5f, 0x00, 0x00, 0x00,
  0x02, 0x00, 0x00, 0x00, 0x5e, 0x00, 0x00, 0x00, 0x02, 0x00, 0x00, 0x00,
  0x7a, 0xf7, 0xff, 0xff, 0x14, 0x00, 0x00, 0x00, 0x00, 0x00, 0x00, 0x01,
  0x1c, 0x00, 0x00, 0x00, 0x20, 0x00, 0x00, 0x00, 0x01, 0x00, 0x00, 0x00,
  0x6c, 0xf7, 0xff, 0xff, 0x00, 0x00, 0x00, 0x01, 0x01, 0x00, 0x00, 0x00,
  0x01, 0x00, 0x00, 0x00, 0x01, 0x00, 0x00, 0x00, 0x5e, 0x00, 0x00, 0x00,
  0x03, 0x00, 0x00, 0x00, 0x5d, 0x00, 0x00, 0x00, 0x2b, 0x00, 0x00, 0x00,
  0x18, 0x00, 0x00, 0x00, 0x5e, 0xf7, 0xff, 0xff, 0x08, 0x00, 0x00, 0x00,
  0x0c, 0x00, 0x00, 0x00, 0x01, 0x00, 0x00, 0x00, 0x5d, 0x00, 0x00, 0x00,
  0x02, 0x00, 0x00, 0x00, 0x5c, 0x00, 0x00, 0x00, 0x05, 0x00, 0x00, 0x00,
  0xda, 0xf7, 0xff, 0xff, 0x14, 0x00, 0x00, 0x00, 0x00, 0x00, 0x00, 0x05,
  0x20, 0x00, 0x00, 0x00, 0x24, 0x00, 0x00, 0x00, 0x02, 0x00, 0x00, 0x00,
  0xc2, 0xf9, 0xff, 0xff, 0x03, 0x00, 0x00, 0x00, 0x01, 0x00, 0x00, 0x00,
  0x01, 0x00, 0x00, 0x00, 0x01, 0x00, 0x00, 0x00, 0x01, 0x00, 0x00, 0x00,
  0x5c, 0x00, 0x00, 0x00, 0x01, 0x00, 0x00, 0x00, 0x5b, 0x00, 0x00, 0x00,
  0xba, 0xf7, 0xff, 0xff, 0x08, 0x00, 0x00, 0x00, 0x0c, 0x00, 0x00, 0x00,
  0x01, 0x00, 0x00, 0x00, 0x5b, 0x00, 0x00, 0x00, 0x02, 0x00, 0x00, 0x00,
  0x52, 0x00, 0x00, 0x00, 0x06, 0x00, 0x00, 0x00, 0xda, 0xf7, 0xff, 0xff,
  0x08, 0x00, 0x00, 0x00, 0x0c, 0x00, 0x00, 0x00, 0x01, 0x00, 0x00, 0x00,
  0x5a, 0x00, 0x00, 0x00, 0x02, 0x00, 0x00, 0x00, 0x59, 0x00, 0x00, 0x00,
  0x02, 0x00, 0x00, 0x00, 0x56, 0xf8, 0xff, 0xff, 0x14, 0x00, 0x00, 0x00,
  0x00, 0x00, 0x00, 0x01, 0x1c, 0x00, 0x00, 0x00, 0x20, 0x00, 0x00, 0x00,
  0x01, 0x00, 0x00, 0x00, 0x48, 0xf8, 0xff, 0xff, 0x00, 0x00, 0x00, 0x01,
  0x01, 0x00, 0x00, 0x00, 0x01, 0x00, 0x00, 0x00, 0x01, 0x00, 0x00, 0x00,
  0x59, 0x00, 0x00, 0x00, 0x03, 0x00, 0x00, 0x00, 0x54, 0x00, 0x00, 0x00,
  0x2a, 0x00, 0x00, 0x00, 0x17, 0x00, 0x00, 0x00, 0x3a, 0xf8, 0xff, 0xff,
  0x08, 0x00, 0x00, 0x00, 0x0c, 0x00, 0x00, 0x00, 0x01, 0x00, 0x00, 0x00,
  0x58, 0x00, 0x00, 0x00, 0x02, 0x00, 0x00, 0x00, 0x57, 0x00, 0x00, 0x00,
  0x02, 0x00, 0x00, 0x00, 0xb6, 0xf8, 0xff, 0xff, 0x14, 0x00, 0x00, 0x00,
  0x00, 0x00, 0x00, 0x01, 0x1c, 0x00, 0x00, 0x00, 0x20, 0x00, 0x00, 0x00,
  0x01, 0x00, 0x00, 0x00, 0xa8, 0xf8, 0xff, 0xff, 0x00, 0x00, 0x00, 0x01,
  0x01, 0x00, 0x00, 0x00, 0x01, 0x00, 0x00, 0x00, 0x01, 0x00, 0x00, 0x00,
  0x57, 0x00, 0x00, 0x00, 0x03, 0x00, 0x00, 0x00, 0x54, 0x00, 0x00, 0x00,
  0x29, 0x00, 0x00, 0x00, 0x16, 0x00, 0x00, 0x00, 0x9a, 0xf8, 0xff, 0xff,
  0x08, 0x00, 0x00, 0x00, 0x0c, 0x00, 0x00, 0x00, 0x01, 0x00, 0x00, 0x00,
  0x56, 0x00, 0x00, 0x00, 0x02, 0x00, 0x00, 0x00, 0x55, 0x00, 0x00, 0x00,
  0x02, 0x00, 0x00, 0x00, 0x16, 0xf9, 0xff, 0xff, 0x14, 0x00, 0x00, 0x00,
  0x00, 0x00, 0x00, 0x01, 0x1c, 0x00, 0x00, 0x00, 0x20, 0x00, 0x00, 0x00,
  0x01, 0x00, 0x00, 0x00, 0x08, 0xf9, 0xff, 0xff, 0x00, 0x00, 0x00, 0x01,
  0x01, 0x00, 0x00, 0x00, 0x01, 0x00, 0x00, 0x00, 0x01, 0x00, 0x00, 0x00,
  0x55, 0x00, 0x00, 0x00, 0x03, 0x00, 0x00, 0x00, 0x54, 0x00, 0x00, 0x00,
  0x28, 0x00, 0x00, 0x00, 0x15, 0x00, 0x00, 0x00, 0x56, 0xf9, 0xff, 0xff,
  0x14, 0x00, 0x00, 0x00, 0x00, 0x00, 0x00, 0x01, 0x1c, 0x00, 0x00, 0x00,
  0x20, 0x00, 0x00, 0x00, 0x01, 0x00, 0x00, 0x00, 0x48, 0xf9, 0xff, 0xff,
  0x00, 0x00, 0x00, 0x01, 0x01, 0x00, 0x00, 0x00, 0x01, 0x00, 0x00, 0x00,
  0x01, 0x00, 0x00, 0x00, 0x54, 0x00, 0x00, 0x00, 0x03, 0x00, 0x00, 0x00,
  0x53, 0x00, 0x00, 0x00, 0x27, 0x00, 0x00, 0x00, 0x0b, 0x00, 0x00, 0x00,
  0x3a, 0xf9, 0xff, 0xff, 0x08, 0x00, 0x00, 0x00, 0x0c, 0x00, 0x00, 0x00,
  0x01, 0x00, 0x00, 0x00, 0x53, 0x00, 0x00, 0x00, 0x02, 0x00, 0x00, 0x00,
  0x52, 0x00, 0x00, 0x00, 0x05, 0x00, 0x00, 0x00, 0xb6, 0xf9, 0xff, 0xff,
  0x14, 0x00, 0x00, 0x00, 0x00, 0x00, 0x00, 0x0b, 0x14, 0x00, 0x00, 0x00,
  0x18, 0x00, 0x00, 0x00, 0x05, 0x00, 0x00, 0x00, 0xce, 0xfc, 0xff, 0xff,
  0x00, 0x00, 0x00, 0x01, 0x01, 0x00, 0x00, 0x00, 0x52, 0x00, 0x00, 0x00,
  0x02, 0x00, 0x00, 0x00, 0x39, 0x00, 0x00, 0x00, 0x51, 0x00, 0x00, 0x00,
  0xea, 0xf9, 0xff, 0xff, 0x14, 0x00, 0x00, 0x00, 0x00, 0x00, 0x00, 0x0b,
  0x14, 0x00, 0x00, 0x00, 0x18, 0x00, 0x00, 0x00, 0x05, 0x00, 0x00, 0x00,
  0x02, 0xfd, 0xff, 0xff, 0x00, 0x00, 0x00, 0x01, 0x01, 0x00, 0x00, 0x00,
  0x51, 0x00, 0x00, 0x00, 0x02, 0x00, 0x00, 0x00, 0x50, 0x00, 0x00, 0x00,
  0x26, 0x00, 0x00, 0x00, 0x1e, 0xfa, 0xff, 0xff, 0x14, 0x00, 0x00, 0x00,
  0x00, 0x00, 0x00, 0x15, 0x10, 0x00, 0x00, 0x00, 0x14, 0x00, 0x00, 0x00,
  0x04, 0x00, 0x00, 0x00, 0x94, 0xc3, 0xff, 0xff, 0x01, 0x00, 0x00, 0x00,
  0x50, 0x00, 0x00, 0x00, 0x02, 0x00, 0x00, 0x00, 0x4f, 0x00, 0x00, 0x00,
  0x25, 0x00, 0x00, 0x00, 0x4e, 0xfa, 0xff, 0xff, 0x14, 0x00, 0x00, 0x00,
  0x00, 0x00, 0x00, 0x0a, 0x14, 0x00, 0x00, 0x00, 0x18, 0x00, 0x00, 0x00,
  0x03, 0x00, 0x00, 0x00, 0xfa, 0xfc, 0xff, 0xff, 0x02, 0x00, 0x00, 0x00,
  0x01, 0x00, 0x00, 0x00, 0x4f, 0x00, 0x00, 0x00, 0x04, 0x00, 0x00, 0x00,
  0x45, 0x00, 0x00, 0x00, 0x47, 0x00, 0x00, 0x00, 0x49, 0x00, 0x00, 0x00,
  0x4e, 0x00, 0x00, 0x00, 0x2e, 0xfa, 0xff, 0xff, 0x08, 0x00, 0x00, 0x00,
  0x0c, 0x00, 0x00, 0x00, 0x01, 0x00, 0x00, 0x00, 0x4e, 0x00, 0x00, 0x00,
  0x02, 0x00, 0x00, 0x00, 0x4d, 0x00, 0x00, 0x00, 0x02, 0x00, 0x00, 0x00,
  0xaa, 0xfa, 0xff, 0xff, 0x14, 0x00, 0x00, 0x00, 0x00, 0x00, 0x00, 0x01,
  0x1c, 0x00, 0x00, 0x00, 0x20, 0x00, 0x00, 0x00, 0x01, 0x00, 0x00, 0x00,
  0x9c, 0xfa, 0xff, 0xff, 0x00, 0x00, 0x00, 0x01, 0x01, 0x00, 0x00, 0x00,
  0x01, 0x00, 0x00, 0x00, 0x01, 0x00, 0x00, 0x00, 0x4d, 0x00, 0x00, 0x00,
  0x03, 0x00, 0x00, 0x00, 0x4c, 0x00, 0x00, 0x00, 0x24, 0x00, 0x00, 0x00,
  0x14, 0x00, 0x00, 0x00, 0x8e, 0xfa, 0xff, 0xff, 0x08, 0x00, 0x00, 0x00,
  0x0c, 0x00, 0x00, 0x00, 0x01, 0x00, 0x00, 0x00, 0x4c, 0x00, 0x00, 0x00,
  0x02, 0x00, 0x00, 0x00, 0x4b, 0x00, 0x00, 0x00, 0x05, 0x00, 0x00, 0x00,
  0x0a, 0xfb, 0xff, 0xff, 0x14, 0x00, 0x00, 0x00, 0x00, 0x00, 0x00, 0x05,
  0x20, 0x00, 0x00, 0x00, 0x24, 0x00, 0x00, 0x00, 0x02, 0x00, 0x00, 0x00,
  0xf2, 0xfc, 0xff, 0xff, 0x03, 0x00, 0x00, 0x00, 0x01, 0x00, 0x00, 0x00,
  0x01, 0x00, 0x00, 0x00, 0x01, 0x00, 0x00, 0x00, 0x01, 0x00, 0x00, 0x00,
  0x4b, 0x00, 0x00, 0x00, 0x01, 0x00, 0x00, 0x00, 0x4a, 0x00, 0x00, 0x00,
  0xea, 0xfa, 0xff, 0xff, 0x08, 0x00, 0x00, 0x00, 0x0c, 0x00, 0x00, 0x00,
  0x01, 0x00, 0x00, 0x00, 0x4a, 0x00, 0x00, 0x00, 0x02, 0x00, 0x00, 0x00,
  0x41, 0x00, 0x00, 0x00, 0x06, 0x00, 0x00, 0x00, 0x0a, 0xfb, 0xff, 0xff,
  0x08, 0x00, 0x00, 0x00, 0x0c, 0x00, 0x00, 0x00, 0x01, 0x00, 0x00, 0x00,
  0x49, 0x00, 0x00, 0x00, 0x02, 0x00, 0x00, 0x00, 0x48, 0x00, 0x00, 0x00,
  0x02, 0x00, 0x00, 0x00, 0x86, 0xfb, 0xff, 0xff, 0x14, 0x00, 0x00, 0x00,
  0x00, 0x00, 0x00, 0x01, 0x1c, 0x00, 0x00, 0x00, 0x20, 0x00, 0x00, 0x00,
  0x01, 0x00, 0x00, 0x00, 0x78, 0xfb, 0xff, 0xff, 0x00, 0x00, 0x00, 0x01,
  0x01, 0x00, 0x00, 0x00, 0x01, 0x00, 0x00, 0x00, 0x01, 0x00, 0x00, 0x00,
  0x48, 0x00, 0x00, 0x00, 0x03, 0x00, 0x00, 0x00, 0x43, 0x00, 0x00, 0x00,
  0x23, 0x00, 0x00, 0x00, 0x13, 0x00, 0x00, 0x00, 0x6a, 0xfb, 0xff, 0xff,
  0x08, 0x00, 0x00, 0x00, 0x0c, 0x00, 0x00, 0x00, 0x01, 0x00, 0x00, 0x00,
  0x47, 0x00, 0x00, 0x00, 0x02, 0x00, 0x00, 0x00, 0x46, 0x00, 0x00, 0x00,
  0x02, 0x00, 0x00, 0x00, 0xe6, 0xfb, 0xff, 0xff, 0x14, 0x00, 0x00, 0x00,
  0x00, 0x00, 0x00, 0x01, 0x1c, 0x00, 0x00, 0x00, 0x20, 0x00, 0x00, 0x00,
  0x01, 0x00, 0x00, 0x00, 0xd8, 0xfb, 0xff, 0xff, 0x00, 0x00, 0x00, 0x01,
  0x01, 0x00, 0x00, 0x00, 0x01, 0x00, 0x00, 0x00, 0x01, 0x00, 0x00, 0x00,
  0x46, 0x00, 0x00, 0x00, 0x03, 0x00, 0x00, 0x00, 0x43, 0x00, 0x00, 0x00,
  0x22, 0x00, 0x00, 0x00, 0x12, 0x00, 0x00, 0x00, 0xca, 0xfb, 0xff, 0xff,
  0x08, 0x00, 0x00, 0x00, 0x0c, 0x00, 0x00, 0x00, 0x01, 0x00, 0x00, 0x00,
  0x45, 0x00, 0x00, 0x00, 0x02, 0x00, 0x00, 0x00, 0x44, 0x00, 0x00, 0x00,
  0x02, 0x00, 0x00, 0x00, 0x46, 0xfc, 0xff, 0xff, 0x14, 0x00, 0x00, 0x00,
  0x00, 0x00, 0x00, 0x01, 0x1c, 0x00, 0x00, 0x00, 0x20, 0x00, 0x00, 0x00,
  0x01, 0x00, 0x00, 0x00, 0x38, 0xfc, 0xff, 0xff, 0x00, 0x00, 0x00, 0x01,
  0x01, 0x00, 0x00, 0x00, 0x01, 0x00, 0x00, 0x00, 0x01, 0x00, 0x00, 0x00,
  0x44, 0x00, 0x00, 0x00, 0x03, 0x00, 0x00, 0x00, 0x43, 0x00, 0x00, 0x00,
  0x21, 0x00, 0x00, 0x00, 0x11, 0x00, 0x00, 0x00, 0x86, 0xfc, 0xff, 0xff,
  0x14, 0x00, 0x00, 0x00, 0x00, 0x00, 0x00, 0x01, 0x1c, 0x00, 0x00, 0x00,
  0x20, 0x00, 0x00, 0x00, 0x01, 0x00, 0x00, 0x00, 0x78, 0xfc, 0xff, 0xff,
  0x00, 0x00, 0x00, 0x01, 0x01, 0x00, 0x00, 0x00, 0x01, 0x00, 0x00, 0x00,
  0x01, 0x00, 0x00, 0x00, 0x43, 0x00, 0x00, 0x00, 0x03, 0x00, 0x00, 0x00,
  0x42, 0x00, 0x00, 0x00, 0x20, 0x00, 0x00, 0x00, 0x0a, 0x00, 0x00, 0x00,
  0x6a, 0xfc, 0xff, 0xff, 0x08, 0x00, 0x00, 0x00, 0x0c, 0x00, 0x00, 0x00,
  0x01, 0x00, 0x00, 0x00, 0x42, 0x00, 0x00, 0x00, 0x02, 0x00, 0x00, 0x00,
  0x41, 0x00, 0x00, 0x00, 0x05, 0x00, 0x00, 0x00, 0xe6, 0xfc, 0xff, 0xff,
  0x1c, 0x00, 0x00, 0x00, 0x00, 0x00, 0x00, 0x0b, 0x1c, 0x00, 0x00, 0x00,
  0x20, 0x00, 0x00, 0x00, 0x05, 0x00, 0x00, 0x00, 0x00, 0x00, 0x06, 0x00,
  0x08, 0x00, 0x07, 0x00, 0x06, 0x00, 0x00, 0x00, 0x00, 0x00, 0x00, 0x01,
  0x01, 0x00, 0x00, 0x00, 0x41, 0x00, 0x00, 0x00, 0x02, 0x00, 0x00, 0x00,
  0x40, 0x00, 0x00, 0x00, 0x1f, 0x00, 0x00, 0x00, 0x22, 0xfd, 0xff, 0xff,
  0x14, 0x00, 0x00, 0x00, 0x00, 0x00, 0x00, 0x15, 0x10, 0x00, 0x00, 0x00,
  0x14, 0x00, 0x00, 0x00, 0x04, 0x00, 0x00, 0x00, 0x98, 0xc6, 0xff, 0xff,
  0x01, 0x00, 0x00, 0x00, 0x40, 0x00, 0x00, 0x00, 0x02, 0x00, 0x00, 0x00,
  0x3f, 0x00, 0x00, 0x00, 0x1e, 0x00, 0x00, 0x00, 0x52, 0xfd, 0xff, 0xff,
  0x1c, 0x00, 0x00, 0x00, 0x00, 0x00, 0x00, 0x0a, 0x1c, 0x00, 0x00, 0x00,
  0x20, 0x00, 0x00, 0x00, 0x03, 0x00, 0x00, 0x00, 0x00, 0x00, 0x06, 0x00,
  0x08, 0x00, 0x04, 0x00, 0x06, 0x00, 0x00, 0x00, 0x02, 0x00, 0x00, 0x00,
  0x01, 0x00, 0x00, 0x00, 0x3f, 0x00, 0x00, 0x00, 0x04, 0x00, 0x00, 0x00,
  0x33, 0x00, 0x00, 0x00, 0x35, 0x00, 0x00, 0x00, 0x37, 0x00, 0x00, 0x00,
  0x3e, 0x00, 0x00, 0x00, 0x3a, 0xfd, 0xff, 0xff, 0x08, 0x00, 0x00, 0x00,
  0x0c, 0x00, 0x00, 0x00, 0x01, 0x00, 0x00, 0x00, 0x3e, 0x00, 0x00, 0x00,
  0x02, 0x00, 0x00, 0x00, 0x3d, 0x00, 0x00, 0x00, 0x02, 0x00, 0x00, 0x00,
  0xb6, 0xfd, 0xff, 0xff, 0x14, 0x00, 0x00, 0x00, 0x00, 0x00, 0x00, 0x01,
  0x1c, 0x00, 0x00, 0x00, 0x20, 0x00, 0x00, 0x00, 0x01, 0x00, 0x00, 0x00,
  0xa8, 0xfd, 0xff, 0xff, 0x00, 0x00, 0x00, 0x01, 0x01, 0x00, 0x00, 0x00,
  0x01, 0x00, 0x00, 0x00, 0x01, 0x00, 0x00, 0x00, 0x3d, 0x00, 0x00, 0x00,
  0x03, 0x00, 0x00, 0x00, 0x3c, 0x00, 0x00, 0x00, 0x1d, 0x00, 0x00, 0x00,
  0x10, 0x00, 0x00, 0x00, 0x9a, 0xfd, 0xff, 0xff, 0x08, 0x00, 0x00, 0x00,
  0x0c, 0x00, 0x00, 0x00, 0x01, 0x00, 0x00, 0x00, 0x3c, 0x00, 0x00, 0x00,
  0x02, 0x00, 0x00, 0x00, 0x3b, 0x00, 0x00, 0x00, 0x01, 0x00, 0x00, 0x00,
  0x16, 0xfe, 0xff, 0xff, 0x24, 0x00, 0x00, 0x00, 0x00, 0x00, 0x00, 0x05,
  0x30, 0x00, 0x00, 0x00, 0x34, 0x00, 0x00, 0x00, 0x02, 0x00, 0x00, 0x00,
  0x00, 0x00, 0x0e, 0x00, 0x14, 0x00, 0x00, 0x00, 0x10, 0x00, 0x0c, 0x00,
  0x08, 0x00, 0x04, 0x00, 0x0e, 0x00, 0x00, 0x00, 0x03, 0x00, 0x00, 0x00,
  0x01, 0x00, 0x00, 0x00, 0x01, 0x00, 0x00, 0x00, 0x01, 0x00, 0x00, 0x00,
  0x01, 0x00, 0x00, 0x00, 0x3b, 0x00, 0x00, 0x00, 0x01, 0x00, 0x00, 0x00,
  0x3a, 0x00, 0x00, 0x00, 0x06, 0xfe, 0xff, 0xff, 0x08, 0x00, 0x00, 0x00,
  0x0c, 0x00, 0x00, 0x00, 0x01, 0x00, 0x00, 0x00, 0x3a, 0x00, 0x00, 0x00,
  0x02, 0x00, 0x00, 0x00, 0x00, 0x00, 0x00, 0x00, 0x04, 0x00, 0x00, 0x00,
  0x26, 0xfe, 0xff, 0xff, 0x08, 0x00, 0x00, 0x00, 0x0c, 0x00, 0x00, 0x00,
  0x01, 0x00, 0x00, 0x00, 0x39, 0x00, 0x00, 0x00, 0x02, 0x00, 0x00, 0x00,
  0x38, 0x00, 0x00, 0x00, 0x03, 0x00, 0x00, 0x00, 0xa2, 0xfe, 0xff, 0xff,
  0x14, 0x00, 0x00, 0x00, 0x00, 0x00, 0x00, 0x01, 0x18, 0x00, 0x00, 0x00,
  0x1c, 0x00, 0x00, 0x00, 0x01, 0x00, 0x00, 0x00, 0x5e, 0xfe, 0xff, 0xff,
  0x01, 0x00, 0x00, 0x00, 0x01, 0x00, 0x00, 0x00, 0x01, 0x00, 0x00, 0x00,
  0x38, 0x00, 0x00, 0x00, 0x03, 0x00, 0x00, 0x00, 0x30, 0x00, 0x00, 0x00,
  0x1b, 0x00, 0x00, 0x00, 0x1c, 0x00, 0x00, 0x00, 0x82, 0xfe, 0xff, 0xff,
  0x08, 0x00, 0x00, 0x00, 0x0c, 0x00, 0x00, 0x00, 0x01, 0x00, 0x00, 0x00,
  0x37, 0x00, 0x00, 0x00, 0x02, 0x00, 0x00, 0x00, 0x36, 0x00, 0x00, 0x00,
  0x02, 0x00, 0x00, 0x00, 0xfe, 0xfe, 0xff, 0xff, 0x14, 0x00, 0x00, 0x00,
  0x00, 0x00, 0x00, 0x01, 0x1c, 0x00, 0x00, 0x00, 0x20, 0x00, 0x00, 0x00,
  0x01, 0x00, 0x00, 0x00, 0xf0, 0xfe, 0xff, 0xff, 0x00, 0x00, 0x00, 0x01,
  0x01, 0x00, 0x00, 0x00, 0x01, 0x00, 0x00, 0x00, 0x01, 0x00, 0x00, 0x00,
  0x36, 0x00, 0x00, 0x00, 0x03, 0x00, 0x00, 0x00, 0x31, 0x00, 0x00, 0x00,
  0x1a, 0x00, 0x00, 0x00, 0x0f, 0x00, 0x00, 0x00, 0xe2, 0xfe, 0xff, 0xff,
  0x08, 0x00, 0x00, 0x00, 0x0c, 0x00, 0x00, 0x00, 0x01, 0x00, 0x00, 0x00,
  0x35, 0x00, 0x00, 0x00, 0x02, 0x00, 0x00, 0x00, 0x34, 0x00, 0x00, 0x00,
  0x02, 0x00, 0x00, 0x00, 0x5e, 0xff, 0xff, 0xff, 0x14, 0x00, 0x00, 0x00,
  0x00, 0x00, 0x00, 0x01, 0x1c, 0x00, 0x00, 0x00, 0x20, 0x00, 0x00, 0x00,
  0x01, 0x00, 0x00, 0x00, 0x50, 0xff, 0xff, 0xff, 0x00, 0x00, 0x00, 0x01,
  0x01, 0x00, 0x00, 0x00, 0x01, 0x00, 0x00, 0x00, 0x01, 0x00, 0x00, 0x00,
  0x34, 0x00, 0x00, 0x00, 0x03, 0x00, 0x00, 0x00, 0x31, 0x00, 0x00, 0x00,
  0x19, 0x00, 0x00, 0x00, 0x0e, 0x00, 0x00, 0x00, 0x42, 0xff, 0xff, 0xff,
  0x08, 0x00, 0x00, 0x00, 0x0c, 0x00, 0x00, 0x00, 0x01, 0x00, 0x00, 0x00,
  0x33, 0x00, 0x00, 0x00, 0x02, 0x00, 0x00, 0x00, 0x32, 0x00, 0x00, 0x00,
  0x02, 0x00, 0x00, 0x00, 0xbe, 0xff, 0xff, 0xff, 0x14, 0x00, 0x00, 0x00,
  0x00, 0x00, 0x00, 0x01, 0x1c, 0x00, 0x00, 0x00, 0x20, 0x00, 0x00, 0x00,
  0x01, 0x00, 0x00, 0x00, 0xb0, 0xff, 0xff, 0xff, 0x00, 0x00, 0x00, 0x01,
  0x01, 0x00, 0x00, 0x00, 0x01, 0x00, 0x00, 0x00, 0x01, 0x00, 0x00, 0x00,
  0x32, 0x00, 0x00, 0x00, 0x03, 0x00, 0x00, 0x00, 0x31, 0x00, 0x00, 0x00,
  0x0c, 0x00, 0x00, 0x00, 0x0d, 0x00, 0x00, 0x00, 0x00, 0x00, 0x0e, 0x00,
  0x18, 0x00, 0x14, 0x00, 0x10, 0x00, 0x0c, 0x00, 0x0b, 0x00, 0x04, 0x00,
  0x0e, 0x00, 0x00, 0x00, 0x20, 0x00, 0x00, 0x00, 0x00, 0x00, 0x00, 0x01,
  0x28, 0x00, 0x00, 0x00, 0x2c, 0x00, 0x00, 0x00, 0x01, 0x00, 0x00, 0x00,
  0x0c, 0x00, 0x10, 0x00, 0x00, 0x00, 0x0c, 0x00, 0x08, 0x00, 0x07, 0x00,
  0x0c, 0x00, 0x00, 0x00, 0x00, 0x00, 0x00, 0x01, 0x01, 0x00, 0x00, 0x00,
  0x01, 0x00, 0x00, 0x00, 0x01, 0x00, 0x00, 0x00, 0x31, 0x00, 0x00, 0x00,
  0x03, 0x00, 0x00, 0x00, 0x30, 0x00, 0x00, 0x00, 0x08, 0x00, 0x00, 0x00,
  0x09, 0x00, 0x00, 0x00, 0x00, 0x00, 0x0a, 0x00, 0x0c, 0x00, 0x00, 0x00,
  0x08, 0x00, 0x04, 0x00, 0x0a, 0x00, 0x00, 0x00, 0x08, 0x00, 0x00, 0x00,
  0x0c, 0x00, 0x00, 0x00, 0x01, 0x00, 0x00, 0x00, 0x30, 0x00, 0x00, 0x00,
  0x02, 0x00, 0x00, 0x00, 0x00, 0x00, 0x00, 0x00, 0x01, 0x00, 0x00, 0x00,
  0x01, 0x00, 0x00, 0x00, 0x65, 0x00, 0x00, 0x00, 0x01, 0x00, 0x00, 0x00,
  0x00, 0x00, 0x00, 0x00, 0x66, 0x00, 0x00, 0x00, 0x4c, 0x36, 0x00, 0x00,
  0xec, 0x35, 0x00, 0x00, 0xa0, 0x35, 0x00, 0x00, 0x54, 0x35, 0x00, 0x00,
  0x08, 0x35, 0x00, 0x00, 0xb8, 0x34, 0x00, 0x00, 0x68, 0x34, 0x00, 0x00,
  0x28, 0x34, 0x00, 0x00, 0xb8, 0x33, 0x00, 0x00, 0x5c, 0x33, 0x00, 0x00,
  0xf8, 0x32, 0x00, 0x00, 0x94, 0x32, 0x00, 0x00, 0x00, 0x32, 0x00, 0x00,
  0x7c, 0x31, 0x00, 0x00, 0xf8, 0x30, 0x00, 0x00, 0x74, 0x30, 0x00, 0x00,
  0xf0, 0x2f, 0x00, 0x00, 0x6c, 0x2f, 0x00, 0x00, 0xe8, 0x2e, 0x00, 0x00,
  0x64, 0x2e, 0x00, 0x00, 0xe0, 0x2d, 0x00, 0x00, 0x5c, 0x2d, 0x00, 0x00,
  0xd8, 0x2c, 0x00, 0x00, 0x54, 0x2c, 0x00, 0x00, 0xd0, 0x2b, 0x00, 0x00,
  0x3c, 0x2b, 0x00, 0x00, 0xa8, 0x2a, 0x00, 0x00, 0x14, 0x29, 0x00, 0x00,
  0x30, 0x27, 0x00, 0x00, 0x9c, 0x26, 0x00, 0x00, 0x28, 0x26, 0x00, 0x00,
  0xb4, 0x25, 0x00, 0x00, 0x48, 0x25, 0x00, 0x00, 0xb4, 0x24, 0x00, 0x00,
  0x20, 0x24, 0x00, 0x00, 0x8c, 0x23, 0x00, 0x00, 0xf8, 0x22, 0x00, 0x00,
  0x84, 0x22, 0x00, 0x00, 0x10, 0x22, 0x00, 0x00, 0xa4, 0x21, 0x00, 0x00,
  0x10, 0x21, 0x00, 0x00, 0x7c, 0x20, 0x00, 0x00, 0xe8, 0x1f, 0x00, 0x00,
  0x54, 0x1f, 0x00, 0x00, 0xe0, 0x1e, 0x00, 0x00, 0x6c, 0x1e, 0x00, 0x00,
  0x08, 0x1e, 0x00, 0x00, 0xb4, 0x1d, 0x00, 0x00, 0x40, 0x1d, 0x00, 0x00,
  0xa4, 0x1c, 0x00, 0x00, 0x08, 0x1c, 0x00, 0x00, 0x84, 0x1b, 0x00, 0x00,
  0xe8, 0x1a, 0x00, 0x00, 0x64, 0x1a, 0x00, 0x00, 0xc8, 0x19, 0x00, 0x00,
  0x44, 0x19, 0x00, 0x00, 0x08, 0x18, 0x00, 0x00, 0xec, 0x16, 0x00, 0x00,
  0x78, 0x16, 0x00, 0x00, 0x04, 0x16, 0x00, 0x00, 0x88, 0x15, 0x00, 0x00,
  0xec, 0x14, 0x00, 0x00, 0x68, 0x14, 0x00, 0x00, 0xfc, 0x13, 0x00, 0x00,
  0x80, 0x13, 0x00, 0x00, 0xec, 0x12, 0x00, 0x00, 0x70, 0x12, 0x00, 0x00,
  0xd4, 0x11, 0x00, 0x00, 0x38, 0x11, 0x00, 0x00, 0xb4, 0x10, 0x00, 0x00,
  0x18, 0x10, 0x00, 0x00, 0x94, 0x0f, 0x00, 0x00, 0xf8, 0x0e, 0x00, 0x00,
  0x74, 0x0e, 0x00, 0x00, 0xf8, 0x0d, 0x00, 0x00, 0x84, 0x0d, 0x00, 0x00,
  0x08, 0x0d, 0x00, 0x00, 0x6c, 0x0c, 0x00, 0x00, 0xe8, 0x0b, 0x00, 0x00,
  0x7c, 0x0b, 0x00, 0x00, 0x00, 0x0b, 0x00, 0x00, 0x6c, 0x0a, 0x00, 0x00,
  0xf0, 0x09, 0x00, 0x00, 0x74, 0x09, 0x00, 0x00, 0xd0, 0x08, 0x00, 0x00,
  0x2c, 0x08, 0x00, 0x00, 0xa8, 0x07, 0x00, 0x00, 0x04, 0x07, 0x00, 0x00,
  0x80, 0x06, 0x00, 0x00, 0xdc, 0x05, 0x00, 0x00, 0x58, 0x05, 0x00, 0x00,
  0xdc, 0x04, 0x00, 0x00, 0x68, 0x04, 0x00, 0x00, 0xec, 0x03, 0x00, 0x00,
  0x48, 0x03, 0x00, 0x00, 0xc4, 0x02, 0x00, 0x00, 0x58, 0x02, 0x00, 0x00,
  0xdc, 0x01, 0x00, 0x00, 0x48, 0x01, 0x00, 0x00, 0xe4, 0x00, 0x00, 0x00,
  0x70, 0x00, 0x00, 0x00, 0x04, 0x00, 0x00, 0x00, 0x5a, 0xcb, 0xff, 0xff,
  0x14, 0x00, 0x00, 0x00, 0x34, 0x00, 0x00, 0x00, 0x66, 0x00, 0x00, 0x00,
  0x00, 0x00, 0x00, 0x09, 0x48, 0x00, 0x00, 0x00, 0x4c, 0xcb, 0xff, 0xff,
  0x08, 0x00, 0x00, 0x00, 0x14, 0x00, 0x00, 0x00, 0x01, 0x00, 0x00, 0x00,
  0x80, 0xff, 0xff, 0xff, 0xff, 0xff, 0xff, 0xff, 0x00, 0x00, 0x00, 0x00,
  0x01, 0x00, 0x00, 0x00, 0x00, 0x00, 0x80, 0x3b, 0x19, 0x00, 0x00, 0x00,
  0x53, 0x74, 0x61, 0x74, 0x65, 0x66, 0x75, 0x6c, 0x50, 0x61, 0x72, 0x74,
  0x69, 0x74, 0x69, 0x6f, 0x6e, 0x65, 0x64, 0x43, 0x61, 0x6c, 0x6c, 0x3a,
  0x30, 0x00, 0x00, 0x00, 0x02, 0x00, 0x00, 0x00, 0x01, 0x00, 0x00, 0x00,
  0x06, 0x00, 0x00, 0x00, 0xc2, 0xcb, 0xff, 0xff, 0x14, 0x00, 0x00, 0x00,
  0x30, 0x00, 0x00, 0x00, 0x65, 0x00, 0x00, 0x00, 0x00, 0x00, 0x00, 0x09,
  0x50, 0x00, 0x00, 0x00, 0xb4, 0xcb, 0xff, 0xff, 0x08, 0x00, 0x00, 0x00,
  0x10, 0x00, 0x00, 0x00, 0x01, 0x00, 0x00, 0x00, 0xfe, 0xff, 0xff, 0xff,
  0xff, 0xff, 0xff, 0xff, 0x01, 0x00, 0x00, 0x00, 0xca, 0x69, 0x38, 0x3e,
  0x26, 0x00, 0x00, 0x00, 0x6d, 0x6f, 0x64, 0x65, 0x6c, 0x2f, 0x64, 0x65,
  0x6e, 0x73, 0x65, 0x2f, 0x4d, 0x61, 0x74, 0x4d, 0x75, 0x6c, 0x3b, 0x6d,
  0x6f, 0x64, 0x65, 0x6c, 0x2f, 0x64, 0x65, 0x6e, 0x73, 0x65, 0x2f, 0x42,
  0x69, 0x61, 0x73, 0x41, 0x64, 0x64, 0x00, 0x00, 0x02, 0x00, 0x00, 0x00,
  0x01, 0x00, 0x00, 0x00, 0x06, 0x00, 0x00, 0x00, 0x32, 0xcc, 0xff, 0xff,
  0x14, 0x00, 0x00, 0x00, 0x30, 0x00, 0x00, 0x00, 0x64, 0x00, 0x00, 0x00,
  0x00, 0x00, 0x00, 0x09, 0x40, 0x00, 0x00, 0x00, 0x24, 0xcc, 0xff, 0xff,
  0x08, 0x00, 0x00, 0x00, 0x10, 0x00, 0x00, 0x00, 0x01, 0x00, 0x00, 0x00,
  0x80, 0xff, 0xff, 0xff, 0xff, 0xff, 0xff, 0xff, 0x01, 0x00, 0x00, 0x00,
  0x7d, 0x58, 0x50, 0x3d, 0x15, 0x00, 0x00, 0x00, 0x6d, 0x6f, 0x64, 0x65,
  0x6c, 0x2f, 0x66, 0x6c, 0x61, 0x74, 0x74, 0x65, 0x6e, 0x2f, 0x52, 0x65,
  0x73, 0x68, 0x61, 0x70, 0x65, 0x00, 0x00, 0x00, 0x02, 0x00, 0x00, 0x00,
  0x01, 0x00, 0x00, 0x00, 0xe0, 0x01, 0x00, 0x00, 0x92, 0xcc, 0xff, 0xff,
  0x14, 0x00, 0x00, 0x00, 0x30, 0x00, 0x00, 0x00, 0x63, 0x00, 0x00, 0x00,
  0x00, 0x00, 0x00, 0x09, 0x6c, 0x00, 0x00, 0x00, 0x84, 0xcc, 0xff, 0xff,
  0x08, 0x00, 0x00, 0x00, 0x10, 0x00, 0x00, 0x00, 0x01, 0x00, 0x00, 0x00,
  0x80, 0xff, 0xff, 0xff, 0xff, 0xff, 0xff, 0xff, 0x01, 0x00, 0x00, 0x00,
  0x7d, 0x58, 0x50, 0x3d, 0x43, 0x00, 0x00, 0x00, 0x6d, 0x6f, 0x64, 0x65,
  0x6c, 0x2f, 0x61, 0x63, 0x74, 0x69, 0x76, 0x61, 0x74, 0x69, 0x6f, 0x6e,
  0x5f, 0x33, 0x2f, 0x52, 0x65, 0x6c, 0x75, 0x3b, 0x6d, 0x6f, 0x64, 0x65,
  0x6c, 0x2f, 0x62, 0x61, 0x74, 0x63, 0x68, 0x5f, 0x6e, 0x6f, 0x72, 0x6d,
  0x61, 0x6c, 0x69, 0x7a, 0x61, 0x74, 0x69, 0x6f, 0x6e, 0x5f, 0x33, 0x2f,
  0x62, 0x61, 0x74, 0x63, 0x68, 0x6e, 0x6f, 0x72, 0x6d, 0x2f, 0x61, 0x64,
  0x64, 0x5f, 0x31, 0x00, 0x03, 0x00, 0x00, 0x00, 0x01, 0x00, 0x00, 0x00,
  0x1e, 0x00, 0x00, 0x00, 0x10, 0x00, 0x00, 0x00, 0x22, 0xcd, 0xff, 0xff,
  0x14, 0x00, 0x00, 0x00, 0x30, 0x00, 0x00, 0x00, 0x62, 0x00, 0x00, 0x00,
  0x00, 0x00, 0x00, 0x09, 0x54, 0x00, 0x00, 0x00, 0x14, 0xcd, 0xff, 0xff,
  0x08, 0x00, 0x00, 0x00, 0x10, 0x00, 0x00, 0x00, 0x01, 0x00, 0x00, 0x00,
  0x80, 0xff, 0xff, 0xff, 0xff, 0xff, 0xff, 0xff, 0x01, 0x00, 0x00, 0x00,
  0x5e, 0xe8, 0x50, 0x3d, 0x2b, 0x00, 0x00, 0x00, 0x6d, 0x6f, 0x64, 0x65,
  0x6c, 0x2f, 0x62, 0x61, 0x74, 0x63, 0x68, 0x5f, 0x6e, 0x6f, 0x72, 0x6d,
  0x61, 0x6c, 0x69, 0x7a, 0x61, 0x74, 0x69, 0x6f, 0x6e, 0x5f, 0x33, 0x2f,
  0x62, 0x61, 0x74, 0x63, 0x68, 0x6e, 0x6f, 0x72, 0x6d, 0x2f, 0x6d, 0x75,
  0x6c, 0x5f, 0x31, 0x00, 0x03, 0x00, 0x00, 0x00, 0x01, 0x00, 0x00, 0x00,
  0x1e, 0x00, 0x00, 0x00, 0x10, 0x00, 0x00, 0x00, 0x9a, 0xcd, 0xff, 0xff,
  0x14, 0x00, 0x00, 0x00, 0x30, 0x00, 0x00, 0x00, 0x61, 0x00, 0x00, 0x00,
  0x00, 0x00, 0x00, 0x09, 0x44, 0x00, 0x00, 0x00, 0x8c, 0xcd, 0xff, 0xff,
  0x08, 0x00, 0x00, 0x00, 0x10, 0x00, 0x00, 0x00, 0x01, 0x00, 0x00, 0x00,
  0x80, 0xff, 0xff, 0xff, 0xff, 0xff, 0xff, 0xff, 0x01, 0x00, 0x00, 0x00,
  0x84, 0x2e, 0xa9, 0x3c, 0x1a, 0x00, 0x00, 0x00, 0x6d, 0x6f, 0x64, 0x65,
  0x6c, 0x2f, 0x63, 0x6f, 0x6e, 0x63, 0x61, 0x74, 0x65, 0x6e, 0x61, 0x74,
  0x65, 0x5f, 0x32, 0x2f, 0x63, 0x6f, 0x6e, 0x63, 0x61, 0x74, 0x00, 0x00,
  0x03, 0x00, 0x00, 0x00, 0x01, 0x00, 0x00, 0x00, 0x1e, 0x00, 0x00, 0x00,
  0x10, 0x00, 0x00, 0x00, 0x02, 0xce, 0xff, 0xff, 0x14, 0x00, 0x00, 0x00,
  0x30, 0x00, 0x00, 0x00, 0x60, 0x00, 0x00, 0x00, 0x00, 0x00, 0x00, 0x09,
  0x5c, 0x00, 0x00, 0x00, 0xf4, 0xcd, 0xff, 0xff, 0x08, 0x00, 0x00, 0x00,
  0x10, 0x00, 0x00, 0x00, 0x01, 0x00, 0x00, 0x00, 0x80, 0xff, 0xff, 0xff,
  0xff, 0xff, 0xff, 0xff, 0x01, 0x00, 0x00, 0x00, 0x84, 0x2e, 0xa9, 0x3c,
  0x33, 0x00, 0x00, 0x00, 0x6d, 0x6f, 0x64, 0x65, 0x6c, 0x2f, 0x63, 0x6f,
  0x6e, 0x76, 0x31, 0x64, 0x5f, 0x31, 0x35, 0x2f, 0x52, 0x65, 0x6c, 0x75,
  0x3b, 0x6d, 0x6f, 0x64, 0x65, 0x6c, 0x2f, 0x63, 0x6f, 0x6e, 0x76, 0x31,
  0x64, 0x5f, 0x31, 0x35, 0x2f, 0x63, 0x6f, 0x6e, 0x76, 0x31, 0x64, 0x2f,
  0x53, 0x71, 0x75, 0x65, 0x65, 0x7a, 0x65, 0x00, 0x03, 0x00, 0x00, 0x00,
  0x01, 0x00, 0x00, 0x00, 0x1e, 0x00, 0x00, 0x00, 0x04, 0x00, 0x00, 0x00,
  0x82, 0xce, 0xff, 0xff, 0x14, 0x00, 0x00, 0x00, 0x34, 0x00, 0x00, 0x00,
  0x5f, 0x00, 0x00, 0x00, 0x00, 0x00, 0x00, 0x09, 0x78, 0x00, 0x00, 0x00,
  0x74, 0xce, 0xff, 0xff, 0x08, 0x00, 0x00, 0x00, 0x14, 0x00, 0x00, 0x00,
  0x01, 0x00, 0x00, 0x00, 0x80, 0xff, 0xff, 0xff, 0xff, 0xff, 0xff, 0xff,
  0x00, 0x00, 0x00, 0x00, 0x01, 0x00, 0x00, 0x00, 0x84, 0x2e, 0xa9, 0x3c,
  0x4a, 0x00, 0x00, 0x00, 0x6d, 0x6f, 0x64, 0x65, 0x6c, 0x2f, 0x63, 0x6f,
  0x6e, 0x76, 0x31, 0x64, 0x5f, 0x31, 0x35, 0x2f, 0x52, 0x65, 0x6c, 0x75,
  0x3b, 0x6d, 0x6f, 0x64, 0x65, 0x6c, 0x2f, 0x63, 0x6f, 0x6e, 0x76, 0x31,
  0x64, 0x5f, 0x31, 0x35, 0x2f, 0x63, 0x6f, 0x6e, 0x76, 0x31, 0x64, 0x2f,
  0x53, 0x71, 0x75, 0x65, 0x65, 0x7a, 0x65, 0x3b, 0x6d, 0x6f, 0x64, 0x65,
  0x6c, 0x2f, 0x63, 0x6f, 0x6e, 0x76, 0x31, 0x64, 0x5f, 0x31, 0x35, 0x2f,
  0x63, 0x6f, 0x6e, 0x76, 0x31, 0x64, 0x00, 0x00, 0x04, 0x00, 0x00, 0x00,
  0x01, 0x00, 0x00, 0x00, 0x01, 0x00, 0x00, 0x00, 0x1e, 0x00, 0x00, 0x00,
  0x04, 0x00, 0x00, 0x00, 0x22, 0xcf, 0xff, 0xff, 0x14, 0x00, 0x00, 0x00,
  0x34, 0x00, 0x00, 0x00, 0x5e, 0x00, 0x00, 0x00, 0x00, 0x00, 0x00, 0x09,
  0x50, 0x00, 0x00, 0x00, 0x14, 0xcf, 0xff, 0xff, 0x08, 0x00, 0x00, 0x00,
  0x14, 0x00, 0x00, 0x00, 0x01, 0x00, 0x00, 0x00, 0x80, 0xff, 0xff, 0xff,
  0xff, 0xff, 0xff, 0xff, 0x00, 0x00, 0x00, 0x00, 0x01, 0x00, 0x00, 0x00,
  0xa0, 0xdf, 0x40, 0x3d, 0x21, 0x00, 0x00, 0x00, 0x6d, 0x6f, 0x64, 0x65,
  0x6c, 0x2f, 0x63, 0x6f, 0x6e, 0x76, 0x31, 0x64, 0x5f, 0x31, 0x35, 0x2f,
  0x63, 0x6f, 0x6e, 0x76, 0x31, 0x64, 0x2f, 0x45, 0x78, 0x70, 0x61, 0x6e,
  0x64, 0x44, 0x69, 0x6d, 0x73, 0x00, 0x00, 0x00, 0x04, 0x00, 0x00, 0x00,
  0x01, 0x00, 0x00, 0x00, 0x01, 0x00, 0x00, 0x00, 0x1e, 0x00, 0x00, 0x00,
  0x10, 0x00, 0x00, 0x00, 0x9a, 0xcf, 0xff, 0xff, 0x14, 0x00, 0x00, 0x00,
  0x30, 0x00, 0x00, 0x00, 0x5d, 0x00, 0x00, 0x00, 0x00, 0x00, 0x00, 0x09,
  0x48, 0x00, 0x00, 0x00, 0x8c, 0xcf, 0xff, 0xff, 0x08, 0x00, 0x00, 0x00,
  0x10, 0x00, 0x00, 0x00, 0x01, 0x00, 0x00, 0x00, 0x80, 0xff, 0xff, 0xff,
  0xff, 0xff, 0xff, 0xff, 0x01, 0x00, 0x00, 0x00, 0xa0, 0xdf, 0x40, 0x3d,
  0x1d, 0x00, 0x00, 0x00, 0x6d, 0x6f, 0x64, 0x65, 0x6c, 0x2f, 0x6d, 0x61,
  0x78, 0x5f, 0x70, 0x6f, 0x6f, 0x6c, 0x69, 0x6e, 0x67, 0x31, 0x64, 0x5f,
  0x32, 0x2f, 0x4d, 0x61, 0x78, 0x50, 0x6f, 0x6f, 0x6c, 0x00, 0x00, 0x00,
  0x04, 0x00, 0x00, 0x00, 0x01, 0x00, 0x00, 0x00, 0x1e, 0x00, 0x00, 0x00,
  0x01, 0x00, 0x00, 0x00, 0x10, 0x00, 0x00, 0x00, 0x0a, 0xd0, 0xff, 0xff,
  0x14, 0x00, 0x00, 0x00, 0x34, 0x00, 0x00, 0x00, 0x5c, 0x00, 0x00, 0x00,
  0x00, 0x00, 0x00, 0x09, 0x50, 0x00, 0x00, 0x00, 0xfc, 0xcf, 0xff, 0xff,
  0x08, 0x00, 0x00, 0x00, 0x14, 0x00, 0x00, 0x00, 0x01, 0x00, 0x00, 0x00,
  0x80, 0xff, 0xff, 0xff, 0xff, 0xff, 0xff, 0xff, 0x00, 0x00, 0x00, 0x00,
  0x01, 0x00, 0x00, 0x00, 0xa0, 0xdf, 0x40, 0x3d, 0x20, 0x00, 0x00, 0x00,
  0x6d, 0x6f, 0x64, 0x65, 0x6c, 0x2f, 0x6d, 0x61, 0x78, 0x5f, 0x70, 0x6f,
  0x6f, 0x6c, 0x69, 0x6e, 0x67, 0x31, 0x64, 0x5f, 0x32, 0x2f, 0x45, 0x78,
  0x70, 0x61, 0x6e, 0x64, 0x44, 0x69, 0x6d, 0x73, 0x00, 0x00, 0x00, 0x00,
  0x04, 0x00, 0x00, 0x00, 0x01, 0x00, 0x00, 0x00, 0x1e, 0x00, 0x00, 0x00,
  0x01, 0x00, 0x00, 0x00, 0x10, 0x00, 0x00, 0x00, 0x82, 0xd0, 0xff, 0xff,
  0x14, 0x00, 0x00, 0x00, 0x30, 0x00, 0x00, 0x00, 0x5b, 0x00, 0x00, 0x00,
  0x00, 0x00, 0x00, 0x09, 0x5c, 0x00, 0x00, 0x00, 0x74, 0xd0, 0xff, 0xff,
  0x08, 0x00, 0x00, 0x00, 0x10, 0x00, 0x00, 0x00, 0x01, 0x00, 0x00, 0x00,
  0x80, 0xff, 0xff, 0xff, 0xff, 0xff, 0xff, 0xff, 0x01, 0x00, 0x00, 0x00,
  0x84, 0x2e, 0xa9, 0x3c, 0x33, 0x00, 0x00, 0x00, 0x6d, 0x6f, 0x64, 0x65,
  0x6c, 0x2f, 0x63, 0x6f, 0x6e, 0x76, 0x31, 0x64, 0x5f, 0x31, 0x34, 0x2f,
  0x52, 0x65, 0x6c, 0x75, 0x3b, 0x6d, 0x6f, 0x64, 0x65, 0x6c, 0x2f, 0x63,
  0x6f, 0x6e, 0x76, 0x31, 0x64, 0x5f, 0x31, 0x34, 0x2f, 0x63, 0x6f, 0x6e,
  0x76, 0x31, 0x64, 0x2f, 0x53, 0x71, 0x75, 0x65, 0x65, 0x7a, 0x65, 0x00,
  0x03, 0x00, 0x00, 0x00, 0x01, 0x00, 0x00, 0x00, 0x1e, 0x00, 0x00, 0x00,
  0x04, 0x00, 0x00, 0x00, 0x02, 0xd1, 0xff, 0xff, 0x14, 0x00, 0x00, 0x00,
  0x34, 0x00, 0x00, 0x00, 0x5a, 0x00, 0x00, 0x00, 0x00, 0x00, 0x00, 0x09,
  0x78, 0x00, 0x00, 0x00, 0xf4, 0xd0, 0xff, 0xff, 0x08, 0x00, 0x00, 0x00,
  0x14, 0x00, 0x00, 0x00, 0x01, 0x00, 0x00, 0x00, 0x80, 0xff, 0xff, 0xff,
  0xff, 0xff, 0xff, 0xff, 0x00, 0x00, 0x00, 0x00, 0x01, 0x00, 0x00, 0x00,
  0x84, 0x2e, 0xa9, 0x3c, 0x4a, 0x00, 0x00, 0x00, 0x6d, 0x6f, 0x64, 0x65,
  0x6c, 0x2f, 0x63, 0x6f, 0x6e, 0x76, 0x31, 0x64, 0x5f, 0x31, 0x34, 0x2f,
  0x52, 0x65, 0x6c, 0x75, 0x3b, 0x6d, 0x6f, 0x64, 0x65, 0x6c, 0x2f, 0x63,
  0x6f, 0x6e, 0x76, 0x31, 0x64, 0x5f, 0x31, 0x34, 0x2f, 0x63, 0x6f, 0x6e,
  0x76, 0x31, 0x64, 0x2f, 0x53, 0x71, 0x75, 0x65, 0x65, 0x7a, 0x65, 0x3b,
  0x6d, 0x6f, 0x64, 0x65, 0x6c, 0x2f, 0x63, 0x6f, 0x6e, 0x76, 0x31, 0x64,
  0x5f, 0x31, 0x34, 0x2f, 0x63, 0x6f, 0x6e, 0x76, 0x31, 0x64, 0x00, 0x00,
  0x04, 0x00, 0x00, 0x00, 0x01, 0x00, 0x00, 0x00, 0x01, 0x00, 0x00, 0x00,
  0x1e, 0x00, 0x00, 0x00, 0x04, 0x00, 0x00, 0x00, 0xa2, 0xd1, 0xff, 0xff,
  0x14, 0x00, 0x00, 0x00, 0x30, 0x00, 0x00, 0x00, 0x59, 0x00, 0x00, 0x00,
  0x00, 0x00, 0x00, 0x09, 0x5c, 0x00, 0x00, 0x00, 0x94, 0xd1, 0xff, 0xff,
  0x08, 0x00, 0x00, 0x00, 0x10, 0x00, 0x00, 0x00, 0x01, 0x00, 0x00, 0x00,
  0x80, 0xff, 0xff, 0xff, 0xff, 0xff, 0xff, 0xff, 0x01, 0x00, 0x00, 0x00,
  0x84, 0x2e, 0xa9, 0x3c, 0x33, 0x00, 0x00, 0x00, 0x6d, 0x6f, 0x64, 0x65,
  0x6c, 0x2f, 0x63, 0x6f, 0x6e, 0x76, 0x31, 0x64, 0x5f, 0x31, 0x33, 0x2f,
  0x52, 0x65, 0x6c, 0x75, 0x3b, 0x6d, 0x6f, 0x64, 0x65, 0x6c, 0x2f, 0x63,
  0x6f, 0x6e, 0x76, 0x31, 0x64, 0x5f, 0x31, 0x33, 0x2f, 0x63, 0x6f, 0x6e,
  0x76, 0x31, 0x64, 0x2f, 0x53, 0x71, 0x75, 0x65, 0x65, 0x7a, 0x65, 0x00,
  0x03, 0x00, 0x00, 0x00, 0x01, 0x00, 0x00, 0x00, 0x1e, 0x00, 0x00, 0x00,
  0x04, 0x00, 0x00, 0x00, 0x22, 0xd2, 0xff, 0xff, 0x14, 0x00, 0x00, 0x00,
  0x34, 0x00, 0x00, 0x00, 0x58, 0x00, 0x00, 0x00, 0x00, 0x00, 0x00, 0x09,
  0x78, 0x00, 0x00, 0x00, 0x14, 0xd2, 0xff, 0xff, 0x08, 0x00, 0x00, 0x00,
  0x14, 0x00, 0x00, 0x00, 0x01, 0x00, 0x00, 0x00, 0x80, 0xff, 0xff, 0xff,
  0xff, 0xff, 0xff, 0xff, 0x00, 0x00, 0x00, 0x00, 0x01, 0x00, 0x00, 0x00,
  0x84, 0x2e, 0xa9, 0x3c, 0x4a, 0x00, 0x00, 0x00, 0x6d, 0x6f, 0x64, 0x65,
  0x6c, 0x2f, 0x63, 0x6f, 0x6e, 0x76, 0x31, 0x64, 0x5f, 0x31, 0x33, 0x2f,
  0x52, 0x65, 0x6c, 0x75, 0x3b, 0x6d, 0x6f, 0x64, 0x65, 0x6c, 0x2f, 0x63,
  0x6f, 0x6e, 0x76, 0x31, 0x64, 0x5f, 0x31, 0x33, 0x2f, 0x63, 0x6f, 0x6e,
  0x76, 0x31, 0x64, 0x2f, 0x53, 0x71, 0x75, 0x65, 0x65, 0x7a, 0x65, 0x3b,
  0x6d, 0x6f, 0x64, 0x65, 0x6c, 0x2f, 0x63, 0x6f, 0x6e, 0x76, 0x31, 0x64,
  0x5f, 0x31, 0x33, 0x2f, 0x63, 0x6f, 0x6e, 0x76, 0x31, 0x64, 0x00, 0x00,
  0x04, 0x00, 0x00, 0x00, 0x01, 0x00, 0x00, 0x00, 0x01, 0x00, 0x00, 0x00,
  0x1e, 0x00, 0x00, 0x00, 0x04, 0x00, 0x00, 0x00, 0xc2, 0xd2, 0xff, 0xff,
  0x14, 0x00, 0x00, 0x00, 0x30, 0x00, 0x00, 0x00, 0x57, 0x00, 0x00, 0x00,
  0x00, 0x00, 0x00, 0x09, 0x5c, 0x00, 0x00, 0x00, 0xb4, 0xd2, 0xff, 0xff,
  0x08, 0x00, 0x00, 0x00, 0x10, 0x00, 0x00, 0x00, 0x01, 0x00, 0x00, 0x00,
  0x80, 0xff, 0xff, 0xff, 0xff, 0xff, 0xff, 0xff, 0x01, 0x00, 0x00, 0x00,
  0x84, 0x2e, 0xa9, 0x3c, 0x33, 0x00, 0x00, 0x00, 0x6d, 0x6f, 0x64, 0x65,
  0x6c, 0x2f, 0x63, 0x6f, 0x6e, 0x76, 0x31, 0x64, 0x5f, 0x31, 0x32, 0x2f,
  0x52, 0x65, 0x6c, 0x75, 0x3b, 0x6d, 0x6f, 0x64, 0x65, 0x6c, 0x2f, 0x63,
  0x6f, 0x6e, 0x76, 0x31, 0x64, 0x5f, 0x31, 0x32, 0x2f, 0x63, 0x6f, 0x6e,
  0x76, 0x31, 0x64, 0x2f, 0x53, 0x71, 0x75, 0x65, 0x65, 0x7a, 0x65, 0x00,
  0x03, 0x00, 0x00, 0x00, 0x01, 0x00, 0x00, 0x00, 0x1e, 0x00, 0x00, 0x00,
  0x04, 0x00, 0x00, 0x00, 0x42, 0xd3, 0xff, 0xff, 0x14, 0x00, 0x00, 0x00,
  0x34, 0x00, 0x00, 0x00, 0x56, 0x00, 0x00, 0x00, 0x00, 0x00, 0x00, 0x09,
  0x78, 0x00, 0x00, 0x00, 0x34, 0xd3, 0xff, 0xff, 0x08, 0x00, 0x00, 0x00,
  0x14, 0x00, 0x00, 0x00, 0x01, 0x00, 0x00, 0x00, 0x80, 0xff, 0xff, 0xff,
  0xff, 0xff, 0xff, 0xff, 0x00, 0x00, 0x00, 0x00, 0x01, 0x00, 0x00, 0x00,
  0x84, 0x2e, 0xa9, 0x3c, 0x4a, 0x00, 0x00, 0x00, 0x6d, 0x6f, 0x64, 0x65,
  0x6c, 0x2f, 0x63, 0x6f, 0x6e, 0x76, 0x31, 0x64, 0x5f, 0x31, 0x32, 0x2f,
  0x52, 0x65, 0x6c, 0x75, 0x3b, 0x6d, 0x6f, 0x64, 0x65, 0x6c, 0x2f, 0x63,
  0x6f, 0x6e, 0x76, 0x31, 0x64, 0x5f, 0x31, 0x32, 0x2f, 0x63, 0x6f, 0x6e,
  0x76, 0x31, 0x64, 0x2f, 0x53, 0x71, 0x75, 0x65, 0x65, 0x7a, 0x65, 0x3b,
  0x6d, 0x6f, 0x64, 0x65, 0x6c, 0x2f, 0x63, 0x6f, 0x6e, 0x76, 0x31, 0x64,
  0x5f, 0x31, 0x32, 0x2f, 0x63, 0x6f, 0x6e, 0x76, 0x31, 0x64, 0x00, 0x00,
  0x04, 0x00, 0x00, 0x00, 0x01, 0x00, 0x00, 0x00, 0x01, 0x00, 0x00, 0x00,
  0x1e, 0x00, 0x00, 0x00, 0x04, 0x00, 0x00, 0x00, 0xe2, 0xd3, 0xff, 0xff,
  0x14, 0x00, 0x00, 0x00, 0x34, 0x00, 0x00, 0x00, 0x55, 0x00, 0x00, 0x00,
  0x00, 0x00, 0x00, 0x09, 0x78, 0x00, 0x00, 0x00, 0xd4, 0xd3, 0xff, 0xff,
  0x08, 0x00, 0x00, 0x00, 0x14, 0x00, 0x00, 0x00, 0x01, 0x00, 0x00, 0x00,
  0x80, 0xff, 0xff, 0xff, 0xff, 0xff, 0xff, 0xff, 0x00, 0x00, 0x00, 0x00,
  0x01, 0x00, 0x00, 0x00, 0x21, 0x51, 0x26, 0x3c, 0x4a, 0x00, 0x00, 0x00,
  0x6d, 0x6f, 0x64, 0x65, 0x6c, 0x2f, 0x63, 0x6f, 0x6e, 0x76, 0x31, 0x64,
  0x5f, 0x31, 0x31, 0x2f, 0x52, 0x65, 0x6c, 0x75, 0x3b, 0x6d, 0x6f, 0x64,
  0x65, 0x6c, 0x2f, 0x63, 0x6f, 0x6e, 0x76, 0x31, 0x64, 0x5f, 0x31, 0x31,
  0x2f, 0x63, 0x6f, 0x6e, 0x76, 0x31, 0x64, 0x2f, 0x53, 0x71, 0x75, 0x65,
  0x65, 0x7a, 0x65, 0x3b, 0x6d, 0x6f, 0x64, 0x65, 0x6c, 0x2f, 0x63, 0x6f,
  0x6e, 0x76, 0x31, 0x64, 0x5f, 0x31, 0x31, 0x2f, 0x63, 0x6f, 0x6e, 0x76,
  0x31, 0x64, 0x00, 0x00, 0x04, 0x00, 0x00, 0x00, 0x01, 0x00, 0x00, 0x00,
  0x01, 0x00, 0x00, 0x00, 0x1e, 0x00, 0x00, 0x00, 0x01, 0x00, 0x00, 0x00,
  0x82, 0xd4, 0xff, 0xff, 0x14, 0x00, 0x00, 0x00, 0x34, 0x00, 0x00, 0x00,
  0x54, 0x00, 0x00, 0x00, 0x00, 0x00, 0x00, 0x09, 0x50, 0x00, 0x00, 0x00,
  0x74, 0xd4, 0xff, 0xff, 0x08, 0x00, 0x00, 0x00, 0x14, 0x00, 0x00, 0x00,
  0x01, 0x00, 0x00, 0x00, 0x80, 0xff, 0xff, 0xff, 0xff, 0xff, 0xff, 0xff,
  0x00, 0x00, 0x00, 0x00, 0x01, 0x00, 0x00, 0x00, 0xa0, 0xdf, 0x40, 0x3d,
  0x21, 0x00, 0x00, 0x00, 0x6d, 0x6f, 0x64, 0x65, 0x6c, 0x2f, 0x63, 0x6f,
  0x6e, 0x76, 0x31, 0x64, 0x5f, 0x31, 0x31, 0x2f, 0x63, 0x6f, 0x6e, 0x76,
  0x31, 0x64, 0x2f, 0x45, 0x78, 0x70, 0x61, 0x6e, 0x64, 0x44, 0x69, 0x6d,
  0x73, 0x00, 0x00, 0x00, 0x04, 0x00, 0x00, 0x00, 0x01, 0x00, 0x00, 0x00,
  0x01, 0x00, 0x00, 0x00, 0x1e, 0x00, 0x00, 0x00, 0x10, 0x00, 0x00, 0x00,
  0xfa, 0xd4, 0xff, 0xff, 0x14, 0x00, 0x00, 0x00, 0x34, 0x00, 0x00, 0x00,
  0x53, 0x00, 0x00, 0x00, 0x00, 0x00, 0x00, 0x09, 0x54, 0x00, 0x00, 0x00,
  0xec, 0xd4, 0xff, 0xff, 0x08, 0x00, 0x00, 0x00, 0x14, 0x00, 0x00, 0x00,
  0x01, 0x00, 0x00, 0x00, 0x80, 0xff, 0xff, 0xff, 0xff, 0xff, 0xff, 0xff,
  0x00, 0x00, 0x00, 0x00, 0x01, 0x00, 0x00, 0x00, 0xa0, 0xdf, 0x40, 0x3d,
  0x25, 0x00, 0x00, 0x00, 0x6d, 0x6f, 0x64, 0x65, 0x6c, 0x2f, 0x61, 0x63,
  0x74, 0x69, 0x76, 0x61, 0x74, 0x69, 0x6f, 0x6e, 0x5f, 0x32, 0x2f, 0x52,
  0x65, 0x6c, 0x75, 0x3b, 0x6d, 0x6f, 0x64, 0x65, 0x6c, 0x2f, 0x61, 0x64,
  0x64, 0x2f, 0x61, 0x64, 0x64, 0x00, 0x00, 0x00, 0x03, 0x00, 0x00, 0x00,
  0x01, 0x00, 0x00, 0x00, 0x1e, 0x00, 0x00, 0x00, 0x10, 0x00, 0x00, 0x00,
  0x72, 0xd5, 0xff, 0xff, 0x14, 0x00, 0x00, 0x00, 0x30, 0x00, 0x00, 0x00,
  0x52, 0x00, 0x00, 0x00, 0x00, 0x00, 0x00, 0x09, 0x6c, 0x00, 0x00, 0x00,
  0x64, 0xd5, 0xff, 0xff, 0x08, 0x00, 0x00, 0x00, 0x10, 0x00, 0x00, 0x00,
  0x01, 0x00, 0x00, 0x00, 0x80, 0xff, 0xff, 0xff, 0xff, 0xff, 0xff, 0xff,
  0x01, 0x00, 0x00, 0x00, 0xf3, 0xf8, 0x3b, 0x3d, 0x43, 0x00, 0x00, 0x00,
  0x6d, 0x6f, 0x64, 0x65, 0x6c, 0x2f, 0x61, 0x63, 0x74, 0x69, 0x76, 0x61,
  0x74, 0x69, 0x6f, 0x6e, 0x5f, 0x31, 0x2f, 0x52, 0x65, 0x6c, 0x75, 0x3b,
  0x6d, 0x6f, 0x64, 0x65, 0x6c, 0x2f, 0x62, 0x61, 0x74, 0x63, 0x68, 0x5f,
  0x6e, 0x6f, 0x72, 0x6d, 0x61, 0x6c, 0x69, 0x7a, 0x61, 0x74, 0x69, 0x6f,
  0x6e, 0x5f, 0x31, 0x2f, 0x62, 0x61, 0x74, 0x63, 0x68, 0x6e, 0x6f, 0x72,
  0x6d, 0x2f, 0x61, 0x64, 0x64, 0x5f, 0x31, 0x00, 0x03, 0x00, 0x00, 0x00,
  0x01, 0x00, 0x00, 0x00, 0x1e, 0x00, 0x00, 0x00, 0x10, 0x00, 0x00, 0x00,
  0x02, 0xd6, 0xff, 0xff, 0x14, 0x00, 0x00, 0x00, 0x30, 0x00, 0x00, 0x00,
  0x51, 0x00, 0x00, 0x00, 0x00, 0x00, 0x00, 0x09, 0x54, 0x00, 0x00, 0x00,
  0xf4, 0xd5, 0xff, 0xff, 0x08, 0x00, 0x00, 0x00, 0x10, 0x00, 0x00, 0x00,
  0x01, 0x00, 0x00, 0x00, 0x80, 0xff, 0xff, 0xff, 0xff, 0xff, 0xff, 0xff,
  0x01, 0x00, 0x00, 0x00, 0x60, 0x08, 0x41, 0x3d, 0x2b, 0x00, 0x00, 0x00,
  0x6d, 0x6f, 0x64, 0x65, 0x6c, 0x2f, 0x62, 0x61, 0x74, 0x63, 0x68, 0x5f,
  0x6e, 0x6f, 0x72, 0x6d, 0x61, 0x6c, 0x69, 0x7a, 0x61, 0x74, 0x69, 0x6f,
  0x6e, 0x5f, 0x31, 0x2f, 0x62, 0x61, 0x74, 0x63, 0x68, 0x6e, 0x6f, 0x72,
  0x6d, 0x2f, 0x6d, 0x75, 0x6c, 0x5f, 0x31, 0x00, 0x03, 0x00, 0x00, 0x00,
  0x01, 0x00, 0x00, 0x00, 0x1e, 0x00, 0x00, 0x00, 0x10, 0x00, 0x00, 0x00,
  0x7a, 0xd6, 0xff, 0xff, 0x14, 0x00, 0x00, 0x00, 0x30, 0x00, 0x00, 0x00,
  0x50, 0x00, 0x00, 0x00, 0x00, 0x00, 0x00, 0x09, 0x44, 0x00, 0x00, 0x00,
  0x6c, 0xd6, 0xff, 0xff, 0x08, 0x00, 0x00, 0x00, 0x10, 0x00, 0x00, 0x00,
  0x01, 0x00, 0x00, 0x00, 0x80, 0xff, 0xff, 0xff, 0xff, 0xff, 0xff, 0xff,
  0x01, 0x00, 0x00, 0x00, 0xeb, 0xa0, 0x1a, 0x3d, 0x1a, 0x00, 0x00, 0x00,
  0x6d, 0x6f, 0x64, 0x65, 0x6c, 0x2f, 0x63, 0x6f, 0x6e, 0x63, 0x61, 0x74,
  0x65, 0x6e, 0x61, 0x74, 0x65, 0x5f, 0x31, 0x2f, 0x63, 0x6f, 0x6e, 0x63,
  0x61, 0x74, 0x00, 0x00, 0x03, 0x00, 0x00, 0x00, 0x01, 0x00, 0x00, 0x00,
  0x1e, 0x00, 0x00, 0x00, 0x10, 0x00, 0x00, 0x00, 0xe2, 0xd6, 0xff, 0xff,
  0x14, 0x00, 0x00, 0x00, 0x30, 0x00, 0x00, 0x00, 0x4f, 0x00, 0x00, 0x00,
  0x00, 0x00, 0x00, 0x09, 0x5c, 0x00, 0x00, 0x00, 0xd4, 0xd6, 0xff, 0xff,
  0x08, 0x00, 0x00, 0x00, 0x10, 0x00, 0x00, 0x00, 0x01, 0x00, 0x00, 0x00,
  0x80, 0xff, 0xff, 0xff, 0xff, 0xff, 0xff, 0xff, 0x01, 0x00, 0x00, 0x00,
  0xeb, 0xa0, 0x1a, 0x3d, 0x31, 0x00, 0x00, 0x00, 0x6d, 0x6f, 0x64, 0x65,
  0x6c, 0x2f, 0x63, 0x6f, 0x6e, 0x76, 0x31, 0x64, 0x5f, 0x39, 0x2f, 0x52,
  0x65, 0x6c, 0x75, 0x3b, 0x6d, 0x6f, 0x64, 0x65, 0x6c, 0x2f, 0x63, 0x6f,
  0x6e, 0x76, 0x31, 0x64, 0x5f, 0x39, 0x2f, 0x63, 0x6f, 0x6e, 0x76, 0x31,
  0x64, 0x2f, 0x53, 0x71, 0x75, 0x65, 0x65, 0x7a, 0x65, 0x00, 0x00, 0x00,
  0x03, 0x00, 0x00, 0x00, 0x01, 0x00, 0x00, 0x00, 0x1e, 0x00, 0x00, 0x00,
  0x04, 0x00, 0x00, 0x00, 0x62, 0xd7, 0xff, 0xff, 0x14, 0x00, 0x00, 0x00,
  0x30, 0x00, 0x00, 0x00, 0x4e, 0x00, 0x00, 0x00, 0x00, 0x00, 0x00, 0x09,
  0x70, 0x00, 0x00, 0x00, 0x54, 0xd7, 0xff, 0xff, 0x08, 0x00, 0x00, 0x00,
  0x10, 0x00, 0x00, 0x00, 0x01, 0x00, 0x00, 0x00, 0x80, 0xff, 0xff, 0xff,
  0xff, 0xff, 0xff, 0xff, 0x01, 0x00, 0x00, 0x00, 0xeb, 0xa0, 0x1a, 0x3d,
  0x47, 0x00, 0x00, 0x00, 0x6d, 0x6f, 0x64, 0x65, 0x6c, 0x2f, 0x63, 0x6f,
  0x6e, 0x76, 0x31, 0x64, 0x5f, 0x39, 0x2f, 0x52, 0x65, 0x6c, 0x75, 0x3b,
  0x6d, 0x6f, 0x64, 0x65, 0x6c, 0x2f, 0x63, 0x6f, 0x6e, 0x76, 0x31, 0x64,
  0x5f, 0x39, 0x2f, 0x63, 0x6f, 0x6e, 0x76, 0x31, 0x64, 0x2f, 0x53, 0x71,
  0x75, 0x65, 0x65, 0x7a, 0x65, 0x3b, 0x6d, 0x6f, 0x64, 0x65, 0x6c, 0x2f,
  0x63, 0x6f, 0x6e, 0x76, 0x31, 0x64, 0x5f, 0x39, 0x2f, 0x63, 0x6f, 0x6e,
  0x76, 0x31, 0x64, 0x00, 0x04, 0x00, 0x00, 0x00, 0x01, 0x00, 0x00, 0x00,
  0x01, 0x00, 0x00, 0x00, 0x1e, 0x00, 0x00, 0x00, 0x04, 0x00, 0x00, 0x00,
  0xfa, 0xd7, 0xff, 0xff, 0x14, 0x00, 0x00, 0x00, 0x34, 0x00, 0x00, 0x00,
  0x4d, 0x00, 0x00, 0x00, 0x00, 0x00, 0x00, 0x09, 0x50, 0x00, 0x00, 0x00,
  0xec, 0xd7, 0xff, 0xff, 0x08, 0x00, 0x00, 0x00, 0x14, 0x00, 0x00, 0x00,
  0x01, 0x00, 0x00, 0x00, 0x80, 0xff, 0xff, 0xff, 0xff, 0xff, 0xff, 0xff,
  0x00, 0x00, 0x00, 0x00, 0x01, 0x00, 0x00, 0x00, 0x89, 0x68, 0x7a, 0x3d,
  0x20, 0x00, 0x00, 0x00, 0x6d, 0x6f, 0x64, 0x65, 0x6c, 0x2f, 0x63, 0x6f,
  0x6e, 0x76, 0x31, 0x64, 0x5f, 0x39, 0x2f, 0x63, 0x6f, 0x6e, 0x76, 0x31,
  0x64, 0x2f, 0x45, 0x78, 0x70, 0x61, 0x6e, 0x64, 0x44, 0x69, 0x6d, 0x73,
  0x00, 0x00, 0x00, 0x00, 0x04, 0x00, 0x00, 0x00, 0x01, 0x00, 0x00, 0x00,
  0x01, 0x00, 0x00, 0x00, 0x1e, 0x00, 0x00, 0x00, 0x10, 0x00, 0x00, 0x00,
  0x72, 0xd8, 0xff, 0xff, 0x14, 0x00, 0x00, 0x00, 0x30, 0x00, 0x00, 0x00,
  0x4c, 0x00, 0x00, 0x00, 0x00, 0x00, 0x00, 0x09, 0x48, 0x00, 0x00, 0x00,
  0x64, 0xd8, 0xff, 0xff, 0x08, 0x00, 0x00, 0x00, 0x10, 0x00, 0x00, 0x00,
  0x01, 0x00, 0x00, 0x00, 0x80, 0xff, 0xff, 0xff, 0xff, 0xff, 0xff, 0xff,
  0x01, 0x00, 0x00, 0x00, 0x89, 0x68, 0x7a, 0x3d, 0x1d, 0x00, 0x00, 0x00,
  0x6d, 0x6f, 0x64, 0x65, 0x6c, 0x2f, 0x6d, 0x61, 0x78, 0x5f, 0x70, 0x6f,
  0x6f, 0x6c, 0x69, 0x6e, 0x67, 0x31, 0x64, 0x5f, 0x31, 0x2f, 0x4d, 0x61,
  0x78, 0x50, 0x6f, 0x6f, 0x6c, 0x00, 0x00, 0x00, 0x04, 0x00, 0x00, 0x00,
  0x01, 0x00, 0x00, 0x00, 0x1e, 0x00, 0x00, 0x00, 0x01, 0x00, 0x00, 0x00,
  0x10, 0x00, 0x00, 0x00, 0xe2, 0xd8, 0xff, 0xff, 0x14, 0x00, 0x00, 0x00,
  0x34, 0x00, 0x00, 0x00, 0x4b, 0x00, 0x00, 0x00, 0x00, 0x00, 0x00, 0x09,
  0x50, 0x00, 0x00, 0x00, 0xd4, 0xd8, 0xff, 0xff, 0x08, 0x00, 0x00, 0x00,
  0x14, 0x00, 0x00, 0x00, 0x01, 0x00, 0x00, 0x00, 0x80, 0xff, 0xff, 0xff,
  0xff, 0xff, 0xff, 0xff, 0x00, 0x00, 0x00, 0x00, 0x01, 0x00, 0x00, 0x00,
  0x89, 0x68, 0x7a, 0x3d, 0x21, 0x00, 0x00, 0x00, 0x6d, 0x6f, 0x64, 0x65,
  0x6c, 0x2f, 0x6d, 0x61, 0x78, 0x5f, 0x70, 0x6f, 0x6f, 0x6c, 0x69, 0x6e,
  0x67, 0x31, 0x64, 0x5f, 0x31, 0x2f, 0x45, 0x78, 0x70, 0x61, 0x6e, 0x64,
  0x44, 0x69, 0x6d, 0x73, 0x31, 0x00, 0x00, 0x00, 0x04, 0x00, 0x00, 0x00,
  0x01, 0x00, 0x00, 0x00, 0x1e, 0x00, 0x00, 0x00, 0x01, 0x00, 0x00, 0x00,
  0x10, 0x00, 0x00, 0x00, 0x5a, 0xd9, 0xff, 0xff, 0x14, 0x00, 0x00, 0x00,
  0x30, 0x00, 0x00, 0x00, 0x4a, 0x00, 0x00, 0x00, 0x00, 0x00, 0x00, 0x09,
  0x5c, 0x00, 0x00, 0x00, 0x4c, 0xd9, 0xff, 0xff, 0x08, 0x00, 0x00, 0x00,
  0x10, 0x00, 0x00, 0x00, 0x01, 0x00, 0x00, 0x00, 0x80, 0xff, 0xff, 0xff,
  0xff, 0xff, 0xff, 0xff, 0x01, 0x00, 0x00, 0x00, 0xeb, 0xa0, 0x1a, 0x3d,
  0x31, 0x00, 0x00, 0x00, 0x6d, 0x6f, 0x64, 0x65, 0x6c, 0x2f, 0x63, 0x6f,
  0x6e, 0x76, 0x31, 0x64, 0x5f, 0x38, 0x2f, 0x52, 0x65, 0x6c, 0x75, 0x3b,
  0x6d, 0x6f, 0x64, 0x65, 0x6c, 0x2f, 0x63, 0x6f, 0x6e, 0x76, 0x31, 0x64,
  0x5f, 0x38, 0x2f, 0x63, 0x6f, 0x6e, 0x76, 0x31, 0x64, 0x2f, 0x53, 0x71,
  0x75, 0x65, 0x65, 0x7a, 0x65, 0x00, 0x00, 0x00, 0x03, 0x00, 0x00, 0x00,
  0x01, 0x00, 0x00, 0x00, 0x1e, 0x00, 0x00, 0x00, 0x04, 0x00, 0x00, 0x00,
  0xda, 0xd9, 0xff, 0xff, 0x14, 0x00, 0x00, 0x00, 0x30, 0x00, 0x00, 0x00,
  0x49, 0x00, 0x00, 0x00, 0x00, 0x00, 0x00, 0x09, 0x70, 0x00, 0x00, 0x00,
  0xcc, 0xd9, 0xff, 0xff, 0x08, 0x00, 0x00, 0x00, 0x10, 0x00, 0x00, 0x00,
  0x01, 0x00, 0x00, 0x00, 0x80, 0xff, 0xff, 0xff, 0xff, 0xff, 0xff, 0xff,
  0x01, 0x00, 0x00, 0x00, 0xeb, 0xa0, 0x1a, 0x3d, 0x47, 0x00, 0x00, 0x00,
  0x6d, 0x6f, 0x64, 0x65, 0x6c, 0x2f, 0x63, 0x6f, 0x6e, 0x76, 0x31, 0x64,
  0x5f, 0x38, 0x2f, 0x52, 0x65, 0x6c, 0x75, 0x3b, 0x6d, 0x6f, 0x64, 0x65,
  0x6c, 0x2f, 0x63, 0x6f, 0x6e, 0x76, 0x31, 0x64, 0x5f, 0x38, 0x2f, 0x63,
  0x6f, 0x6e, 0x76, 0x31, 0x64, 0x2f, 0x53, 0x71, 0x75, 0x65, 0x65, 0x7a,
  0x65, 0x3b, 0x6d, 0x6f, 0x64, 0x65, 0x6c, 0x2f, 0x63, 0x6f, 0x6e, 0x76,
  0x31, 0x64, 0x5f, 0x38, 0x2f, 0x63, 0x6f, 0x6e, 0x76, 0x31, 0x64, 0x00,
  0x04, 0x00, 0x00, 0x00, 0x01, 0x00, 0x00, 0x00, 0x01, 0x00, 0x00, 0x00,
  0x1e, 0x00, 0x00, 0x00, 0x04, 0x00, 0x00, 0x00, 0x72, 0xda, 0xff, 0xff,
  0x14, 0x00, 0x00, 0x00, 0x30, 0x00, 0x00, 0x00, 0x48, 0x00, 0x00, 0x00,
  0x00, 0x00, 0x00, 0x09, 0x5c, 0x00, 0x00, 0x00, 0x64, 0xda, 0xff, 0xff,
  0x08, 0x00, 0x00, 0x00, 0x10, 0x00, 0x00, 0x00, 0x01, 0x00, 0x00, 0x00,
  0x80, 0xff, 0xff, 0xff, 0xff, 0xff, 0xff, 0xff, 0x01, 0x00, 0x00, 0x00,
  0xeb, 0xa0, 0x1a, 0x3d, 0x31, 0x00, 0x00, 0x00, 0x6d, 0x6f, 0x64, 0x65,
  0x6c, 0x2f, 0x63, 0x6f, 0x6e, 0x76, 0x31, 0x64, 0x5f, 0x37, 0x2f, 0x52,
  0x65, 0x6c, 0x75, 0x3b, 0x6d, 0x6f, 0x64, 0x65, 0x6c, 0x2f, 0x63, 0x6f,
  0x6e, 0x76, 0x31, 0x64, 0x5f, 0x37, 0x2f, 0x63, 0x6f, 0x6e, 0x76, 0x31,
  0x64, 0x2f, 0x53, 0x71, 0x75, 0x65, 0x65, 0x7a, 0x65, 0x00, 0x00, 0x00,
  0x03, 0x00, 0x00, 0x00, 0x01, 0x00, 0x00, 0x00, 0x1e, 0x00, 0x00, 0x00,
  0x04, 0x00, 0x00, 0x00, 0xf2, 0xda, 0xff, 0xff, 0x14, 0x00, 0x00, 0x00,
  0x30, 0x00, 0x00, 0x00, 0x47, 0x00, 0x00, 0x00, 0x00, 0x00, 0x00, 0x09,
  0x70, 0x00, 0x00, 0x00, 0xe4, 0xda, 0xff, 0xff, 0x08, 0x00, 0x00, 0x00,
  0x10, 0x00, 0x00, 0x00, 0x01, 0x00, 0x00, 0x00, 0x80, 0xff, 0xff, 0xff,
  0xff, 0xff, 0xff, 0xff, 0x01, 0x00, 0x00, 0x00, 0xeb, 0xa0, 0x1a, 0x3d,
  0x47, 0x00, 0x00, 0x00, 0x6d, 0x6f, 0x64, 0x65, 0x6c, 0x2f, 0x63, 0x6f,
  0x6e, 0x76, 0x31, 0x64, 0x5f, 0x37, 0x2f, 0x52, 0x65, 0x6c, 0x75, 0x3b,
  0x6d, 0x6f, 0x64, 0x65, 0x6c, 0x2f, 0x63, 0x6f, 0x6e, 0x76, 0x31, 0x64,
  0x5f, 0x37, 0x2f, 0x63, 0x6f, 0x6e, 0x76, 0x31, 0x64, 0x2f, 0x53, 0x71,
  0x75, 0x65, 0x65, 0x7a, 0x65, 0x3b, 0x6d, 0x6f, 0x64, 0x65, 0x6c, 0x2f,
  0x63, 0x6f, 0x6e, 0x76, 0x31, 0x64, 0x5f, 0x37, 0x2f, 0x63, 0x6f, 0x6e,
  0x76, 0x31, 0x64, 0x00, 0x04, 0x00, 0x00, 0x00, 0x01, 0x00, 0x00, 0x00,
  0x01, 0x00, 0x00, 0x00, 0x1e, 0x00, 0x00, 0x00, 0x04, 0x00, 0x00, 0x00,
  0x8a, 0xdb, 0xff, 0xff, 0x14, 0x00, 0x00, 0x00, 0x30, 0x00, 0x00, 0x00,
  0x46, 0x00, 0x00, 0x00, 0x00, 0x00, 0x00, 0x09, 0x5c, 0x00, 0x00, 0x00,
  0x7c, 0xdb, 0xff, 0xff, 0x08, 0x00, 0x00, 0x00, 0x10, 0x00, 0x00, 0x00,
  0x01, 0x00, 0x00, 0x00, 0x80, 0xff, 0xff, 0xff, 0xff, 0xff, 0xff, 0xff,
  0x01, 0x00, 0x00, 0x00, 0xeb, 0xa0, 0x1a, 0x3d, 0x31, 0x00, 0x00, 0x00,
  0x6d, 0x6f, 0x64, 0x65, 0x6c, 0x2f, 0x63, 0x6f, 0x6e, 0x76, 0x31, 0x64,
  0x5f, 0x36, 0x2f, 0x52, 0x65, 0x6c, 0x75, 0x3b, 0x6d, 0x6f, 0x64, 0x65,
  0x6c, 0x2f, 0x63, 0x6f, 0x6e, 0x76, 0x31, 0x64, 0x5f, 0x36, 0x2f, 0x63,
  0x6f, 0x6e, 0x76, 0x31, 0x64, 0x2f, 0x53, 0x71, 0x75, 0x65, 0x65, 0x7a,
  0x65, 0x00, 0x00, 0x00, 0x03, 0x00, 0x00, 0x00, 0x01, 0x00, 0x00, 0x00,
  0x1e, 0x00, 0x00, 0x00, 0x04, 0x00, 0x00, 0x00, 0x0a, 0xdc, 0xff, 0xff,
  0x14, 0x00, 0x00, 0x00, 0x30, 0x00, 0x00, 0x00, 0x45, 0x00, 0x00, 0x00,
  0x00, 0x00, 0x00, 0x09, 0x70, 0x00, 0x00, 0x00, 0xfc, 0xdb, 0xff, 0xff,
  0x08, 0x00, 0x00, 0x00, 0x10, 0x00, 0x00, 0x00, 0x01, 0x00, 0x00, 0x00,
  0x80, 0xff, 0xff, 0xff, 0xff, 0xff, 0xff, 0xff, 0x01, 0x00, 0x00, 0x00,
  0xeb, 0xa0, 0x1a, 0x3d, 0x47, 0x00, 0x00, 0x00, 0x6d, 0x6f, 0x64, 0x65,
  0x6c, 0x2f, 0x63, 0x6f, 0x6e, 0x76, 0x31, 0x64, 0x5f, 0x36, 0x2f, 0x52,
  0x65, 0x6c, 0x75, 0x3b, 0x6d, 0x6f, 0x64, 0x65, 0x6c, 0x2f, 0x63, 0x6f,
  0x6e, 0x76, 0x31, 0x64, 0x5f, 0x36, 0x2f, 0x63, 0x6f, 0x6e, 0x76, 0x31,
  0x64, 0x2f, 0x53, 0x71, 0x75, 0x65, 0x65, 0x7a, 0x65, 0x3b, 0x6d, 0x6f,
  0x64, 0x65, 0x6c, 0x2f, 0x63, 0x6f, 0x6e, 0x76, 0x31, 0x64, 0x5f, 0x36,
  0x2f, 0x63, 0x6f, 0x6e, 0x76, 0x31, 0x64, 0x00, 0x04, 0x00, 0x00, 0x00,
  0x01, 0x00, 0x00, 0x00, 0x01, 0x00, 0x00, 0x00, 0x1e, 0x00, 0x00, 0x00,
  0x04, 0x00, 0x00, 0x00, 0xa2, 0xdc, 0xff, 0xff, 0x14, 0x00, 0x00, 0x00,
  0x30, 0x00, 0x00, 0x00, 0x44, 0x00, 0x00, 0x00, 0x00, 0x00, 0x00, 0x09,
  0x70, 0x00, 0x00, 0x00, 0x94, 0xdc, 0xff, 0xff, 0x08, 0x00, 0x00, 0x00,
  0x10, 0x00, 0x00, 0x00, 0x01, 0x00, 0x00, 0x00, 0x80, 0xff, 0xff, 0xff,
  0xff, 0xff, 0xff, 0xff, 0x01, 0x00, 0x00, 0x00, 0xdc, 0x8e, 0xe4, 0x3c,
  0x47, 0x00, 0x00, 0x00, 0x6d, 0x6f, 0x64, 0x65, 0x6c, 0x2f, 0x63, 0x6f,
  0x6e, 0x76, 0x31, 0x64, 0x5f, 0x35, 0x2f, 0x52, 0x65, 0x6c, 0x75, 0x3b,
  0x6d, 0x6f, 0x64, 0x65, 0x6c, 0x2f, 0x63, 0x6f, 0x6e, 0x76, 0x31, 0x64,
  0x5f, 0x35, 0x2f, 0x63, 0x6f, 0x6e, 0x76, 0x31, 0x64, 0x2f, 0x53, 0x71,
  0x75, 0x65, 0x65, 0x7a, 0x65, 0x3b, 0x6d, 0x6f, 0x64, 0x65, 0x6c, 0x2f,
  0x63, 0x6f, 0x6e, 0x76, 0x31, 0x64, 0x5f, 0x35, 0x2f, 0x63, 0x6f, 0x6e,
  0x76, 0x31, 0x64, 0x00, 0x04, 0x00, 0x00, 0x00, 0x01, 0x00, 0x00, 0x00,
  0x01, 0x00, 0x00, 0x00, 0x1e, 0x00, 0x00, 0x00, 0x01, 0x00, 0x00, 0x00,
  0x3a, 0xdd, 0xff, 0xff, 0x14, 0x00, 0x00, 0x00, 0x34, 0x00, 0x00, 0x00,
  0x43, 0x00, 0x00, 0x00, 0x00, 0x00, 0x00, 0x09, 0x50, 0x00, 0x00, 0x00,
  0x2c, 0xdd, 0xff, 0xff, 0x08, 0x00, 0x00, 0x00, 0x14, 0x00, 0x00, 0x00,
  0x01, 0x00, 0x00, 0x00, 0x80, 0xff, 0xff, 0xff, 0xff, 0xff, 0xff, 0xff,
  0x00, 0x00, 0x00, 0x00, 0x01, 0x00, 0x00, 0x00, 0x89, 0x68, 0x7a, 0x3d,
  0x21, 0x00, 0x00, 0x00, 0x6d, 0x6f, 0x64, 0x65, 0x6c, 0x2f, 0x63, 0x6f,
  0x6e, 0x76, 0x31, 0x64, 0x5f, 0x35, 0x2f, 0x63, 0x6f, 0x6e, 0x76, 0x31,
  0x64, 0x2f, 0x45, 0x78, 0x70, 0x61, 0x6e, 0x64, 0x44, 0x69, 0x6d, 0x73,
  0x31, 0x00, 0x00, 0x00, 0x04, 0x00, 0x00, 0x00, 0x01, 0x00, 0x00, 0x00,
  0x01, 0x00, 0x00, 0x00, 0x1e, 0x00, 0x00, 0x00, 0x10, 0x00, 0x00, 0x00,
  0xb2, 0xdd, 0xff, 0xff, 0x14, 0x00, 0x00, 0x00, 0x34, 0x00, 0x00, 0x00,
  0x42, 0x00, 0x00, 0x00, 0x00, 0x00, 0x00, 0x09, 0x6c, 0x00, 0x00, 0x00,
  0xa4, 0xdd, 0xff, 0xff, 0x08, 0x00, 0x00, 0x00, 0x14, 0x00, 0x00, 0x00,
  0x01, 0x00, 0x00, 0x00, 0x80, 0xff, 0xff, 0xff, 0xff, 0xff, 0xff, 0xff,
  0x00, 0x00, 0x00, 0x00, 0x01, 0x00, 0x00, 0x00, 0x89, 0x68, 0x7a, 0x3d,
  0x3f, 0x00, 0x00, 0x00, 0x6d, 0x6f, 0x64, 0x65, 0x6c, 0x2f, 0x61, 0x63,
  0x74, 0x69, 0x76, 0x61, 0x74, 0x69, 0x6f, 0x6e, 0x2f, 0x52, 0x65, 0x6c,
  0x75, 0x3b, 0x6d, 0x6f, 0x64, 0x65, 0x6c, 0x2f, 0x62, 0x61, 0x74, 0x63,
  0x68, 0x5f, 0x6e, 0x6f, 0x72, 0x6d, 0x61, 0x6c, 0x69, 0x7a, 0x61, 0x74,
  0x69, 0x6f, 0x6e, 0x2f, 0x62, 0x61, 0x74, 0x63, 0x68, 0x6e, 0x6f, 0x72,
  0x6d, 0x2f, 0x61, 0x64, 0x64, 0x5f, 0x31, 0x00, 0x03, 0x00, 0x00, 0x00,
  0x01, 0x00, 0x00, 0x00, 0x1e, 0x00, 0x00, 0x00, 0x10, 0x00, 0x00, 0x00,
  0x42, 0xde, 0xff, 0xff, 0x14, 0x00, 0x00, 0x00, 0x30, 0x00, 0x00, 0x00,
  0x41, 0x00, 0x00, 0x00, 0x00, 0x00, 0x00, 0x09, 0x54, 0x00, 0x00, 0x00,
  0x34, 0xde, 0xff, 0xff, 0x08, 0x00, 0x00, 0x00, 0x10, 0x00, 0x00, 0x00,
  0x01, 0x00, 0x00, 0x00, 0x80, 0xff, 0xff, 0xff, 0xff, 0xff, 0xff, 0xff,
  0x01, 0x00, 0x00, 0x00, 0xb0, 0xe6, 0x7e, 0x3d, 0x29, 0x00, 0x00, 0x00,
  0x6d, 0x6f, 0x64, 0x65, 0x6c, 0x2f, 0x62, 0x61, 0x74, 0x63, 0x68, 0x5f,
  0x6e, 0x6f, 0x72, 0x6d, 0x61, 0x6c, 0x69, 0x7a, 0x61, 0x74, 0x69, 0x6f,
  0x6e, 0x2f, 0x62, 0x61, 0x74, 0x63, 0x68, 0x6e, 0x6f, 0x72, 0x6d, 0x2f,
  0x6d, 0x75, 0x6c, 0x5f, 0x31, 0x00, 0x00, 0x00, 0x03, 0x00, 0x00, 0x00,
  0x01, 0x00, 0x00, 0x00, 0x1e, 0x00, 0x00, 0x00, 0x10, 0x00, 0x00, 0x00,
  0xba, 0xde, 0xff, 0xff, 0x14, 0x00, 0x00, 0x00, 0x30, 0x00, 0x00, 0x00,
  0x40, 0x00, 0x00, 0x00, 0x00, 0x00, 0x00, 0x09, 0x44, 0x00, 0x00, 0x00,
  0xac, 0xde, 0xff, 0xff, 0x08, 0x00, 0x00, 0x00, 0x10, 0x00, 0x00, 0x00,
  0x01, 0x00, 0x00, 0x00, 0x80, 0xff, 0xff, 0xff, 0xff, 0xff, 0xff, 0xff,
  0x01, 0x00, 0x00, 0x00, 0x9e, 0xb9, 0xb9, 0x3c, 0x18, 0x00, 0x00, 0x00,
  0x6d, 0x6f, 0x64, 0x65, 0x6c, 0x2f, 0x63, 0x6f, 0x6e, 0x63, 0x61, 0x74,
  0x65, 0x6e, 0x61, 0x74, 0x65, 0x2f, 0x63, 0x6f, 0x6e, 0x63, 0x61, 0x74,
  0x00, 0x00, 0x00, 0x00, 0x03, 0x00, 0x00, 0x00, 0x01, 0x00, 0x00, 0x00,
  0x1e, 0x00, 0x00, 0x00, 0x10, 0x00, 0x00, 0x00, 0x22, 0xdf, 0xff, 0xff,
  0x14, 0x00, 0x00, 0x00, 0x30, 0x00, 0x00, 0x00, 0x3f, 0x00, 0x00, 0x00,
  0x00, 0x00, 0x00, 0x09, 0x5c, 0x00, 0x00, 0x00, 0x14, 0xdf, 0xff, 0xff,
  0x08, 0x00, 0x00, 0x00, 0x10, 0x00, 0x00, 0x00, 0x01, 0x00, 0x00, 0x00,
  0x80, 0xff, 0xff, 0xff, 0xff, 0xff, 0xff, 0xff, 0x01, 0x00, 0x00, 0x00,
  0x9e, 0xb9, 0xb9, 0x3c, 0x31, 0x00, 0x00, 0x00, 0x6d, 0x6f, 0x64, 0x65,
  0x6c, 0x2f, 0x63, 0x6f, 0x6e, 0x76, 0x31, 0x64, 0x5f, 0x34, 0x2f, 0x52,
  0x65, 0x6c, 0x75, 0x3b, 0x6d, 0x6f, 0x64, 0x65, 0x6c, 0x2f, 0x63, 0x6f,
  0x6e, 0x76, 0x31, 0x64, 0x5f, 0x34, 0x2f, 0x63, 0x6f, 0x6e, 0x76, 0x31,
  0x64, 0x2f, 0x53, 0x71, 0x75, 0x65, 0x65, 0x7a, 0x65, 0x00, 0x00, 0x00,
  0x03, 0x00, 0x00, 0x00, 0x01, 0x00, 0x00, 0x00, 0x1e, 0x00, 0x00, 0x00,
  0x04, 0x00, 0x00, 0x00, 0xa2, 0xdf, 0xff, 0xff, 0x14, 0x00, 0x00, 0x00,
  0x30, 0x00, 0x00, 0x00, 0x3e, 0x00, 0x00, 0x00, 0x00, 0x00, 0x00, 0x09,
  0x70, 0x00, 0x00, 0x00, 0x94, 0xdf, 0xff, 0xff, 0x08, 0x00, 0x00, 0x00,
  0x10, 0x00, 0x00, 0x00, 0x01, 0x00, 0x00, 0x00, 0x80, 0xff, 0xff, 0xff,
  0xff, 0xff, 0xff, 0xff, 0x01, 0x00, 0x00, 0x00, 0x9e, 0xb9, 0xb9, 0x3c,
  0x47, 0x00, 0x00, 0x00, 0x6d, 0x6f, 0x64, 0x65, 0x6c, 0x2f, 0x63, 0x6f,
  0x6e, 0x76, 0x31, 0x64, 0x5f, 0x34, 0x2f, 0x52, 0x65, 0x6c, 0x75, 0x3b,
  0x6d, 0x6f, 0x64, 0x65, 0x6c, 0x2f, 0x63, 0x6f, 0x6e, 0x76, 0x31, 0x64,
  0x5f, 0x34, 0x2f, 0x63, 0x6f, 0x6e, 0x76, 0x31, 0x64, 0x2f, 0x53, 0x71,
  0x75, 0x65, 0x65, 0x7a, 0x65, 0x3b, 0x6d, 0x6f, 0x64, 0x65, 0x6c, 0x2f,
  0x63, 0x6f, 0x6e, 0x76, 0x31, 0x64, 0x5f, 0x34, 0x2f, 0x63, 0x6f, 0x6e,
  0x76, 0x31, 0x64, 0x00, 0x04, 0x00, 0x00, 0x00, 0x01, 0x00, 0x00, 0x00,
  0x01, 0x00, 0x00, 0x00, 0x1e, 0x00, 0x00, 0x00, 0x04, 0x00, 0x00, 0x00,
  0x3a, 0xe0, 0xff, 0xff, 0x14, 0x00, 0x00, 0x00, 0x34, 0x00, 0x00, 0x00,
  0x3d, 0x00, 0x00, 0x00, 0x00, 0x00, 0x00, 0x09, 0x50, 0x00, 0x00, 0x00,
  0x2c, 0xe0, 0xff, 0xff, 0x08, 0x00, 0x00, 0x00, 0x14, 0x00, 0x00, 0x00,
  0x01, 0x00, 0x00, 0x00, 0x0b, 0x00, 0x00, 0x00, 0x00, 0x00, 0x00, 0x00,
  0x00, 0x00, 0x00, 0x00, 0x01, 0x00, 0x00, 0x00, 0xbc, 0x40, 0x46, 0x3d,
  0x20, 0x00, 0x00, 0x00, 0x6d, 0x6f, 0x64, 0x65, 0x6c, 0x2f, 0x63, 0x6f,
  0x6e, 0x76, 0x31, 0x64, 0x5f, 0x34, 0x2f, 0x63, 0x6f, 0x6e, 0x76, 0x31,
  0x64, 0x2f, 0x45, 0x78, 0x70, 0x61, 0x6e, 0x64, 0x44, 0x69, 0x6d, 0x73,
  0x00, 0x00, 0x00, 0x00, 0x04, 0x00, 0x00, 0x00, 0x01, 0x00, 0x00, 0x00,
  0x01, 0x00, 0x00, 0x00, 0x1e, 0x00, 0x00, 0x00, 0x06, 0x00, 0x00, 0x00,
  0xb2, 0xe0, 0xff, 0xff, 0x14, 0x00, 0x00, 0x00, 0x34, 0x00, 0x00, 0x00,
  0x3c, 0x00, 0x00, 0x00, 0x00, 0x00, 0x00, 0x09, 0x48, 0x00, 0x00, 0x00,
  0xa4, 0xe0, 0xff, 0xff, 0x08, 0x00, 0x00, 0x00, 0x14, 0x00, 0x00, 0x00,
  0x01, 0x00, 0x00, 0x00, 0x0b, 0x00, 0x00, 0x00, 0x00, 0x00, 0x00, 0x00,
  0x00, 0x00, 0x00, 0x00, 0x01, 0x00, 0x00, 0x00, 0xbc, 0x40, 0x46, 0x3d,
  0x1b, 0x00, 0x00, 0x00, 0x6d, 0x6f, 0x64, 0x65, 0x6c, 0x2f, 0x6d, 0x61,
  0x78, 0x5f, 0x70, 0x6f, 0x6f, 0x6c, 0x69, 0x6e, 0x67, 0x31, 0x64, 0x2f,
  0x4d, 0x61, 0x78, 0x50, 0x6f, 0x6f, 0x6c, 0x00, 0x04, 0x00, 0x00, 0x00,
  0x01, 0x00, 0x00, 0x00, 0x1e, 0x00, 0x00, 0x00, 0x01, 0x00, 0x00, 0x00,
  0x06, 0x00, 0x00, 0x00, 0x22, 0xe1, 0xff, 0xff, 0x14, 0x00, 0x00, 0x00,
  0x30, 0x00, 0x00, 0x00, 0x3b, 0x00, 0x00, 0x00, 0x00, 0x00, 0x00, 0x09,
  0x48, 0x00, 0x00, 0x00, 0x14, 0xe1, 0xff, 0xff, 0x08, 0x00, 0x00, 0x00,
  0x10, 0x00, 0x00, 0x00, 0x01, 0x00, 0x00, 0x00, 0x0b, 0x00, 0x00, 0x00,
  0x00, 0x00, 0x00, 0x00, 0x01, 0x00, 0x00, 0x00, 0xbc, 0x40, 0x46, 0x3d,
  0x1f, 0x00, 0x00, 0x00, 0x6d, 0x6f, 0x64, 0x65, 0x6c, 0x2f, 0x6d, 0x61,
  0x78, 0x5f, 0x70, 0x6f, 0x6f, 0x6c, 0x69, 0x6e, 0x67, 0x31, 0x64, 0x2f,
  0x45, 0x78, 0x70, 0x61, 0x6e, 0x64, 0x44, 0x69, 0x6d, 0x73, 0x31, 0x00,
  0x04, 0x00, 0x00, 0x00, 0x01, 0x00, 0x00, 0x00, 0x1e, 0x00, 0x00, 0x00,
  0x01, 0x00, 0x00, 0x00, 0x06, 0x00, 0x00, 0x00, 0x92, 0xe1, 0xff, 0xff,
  0x14, 0x00, 0x00, 0x00, 0x30, 0x00, 0x00, 0x00, 0x3a, 0x00, 0x00, 0x00,
  0x00, 0x00, 0x00, 0x09, 0xf4, 0x00, 0x00, 0x00, 0x84, 0xe1, 0xff, 0xff,
  0x08, 0x00, 0x00, 0x00, 0x10, 0x00, 0x00, 0x00, 0x01, 0x00, 0x00, 0x00,
  0x06, 0x00, 0x00, 0x00, 0x00, 0x00, 0x00, 0x00, 0x01, 0x00, 0x00, 0x00,
  0x9e, 0x3b, 0x25, 0x3d, 0xca, 0x00, 0x00, 0x00, 0x6d, 0x6f, 0x64, 0x65,
  0x6c, 0x2f, 0x62, 0x61, 0x74, 0x63, 0x68, 0x5f, 0x6e, 0x6f, 0x72, 0x6d,
  0x61, 0x6c, 0x69, 0x7a, 0x61, 0x74, 0x69, 0x6f, 0x6e, 0x5f, 0x32, 0x2f,
  0x62, 0x61, 0x74, 0x63, 0x68, 0x6e, 0x6f, 0x72, 0x6d, 0x2f, 0x61, 0x64,
  0x64, 0x5f, 0x31, 0x3b, 0x6d, 0x6f, 0x64, 0x65, 0x6c, 0x2f, 0x63, 0x6f,
  0x6e, 0x76, 0x31, 0x64, 0x5f, 0x31, 0x30, 0x2f, 0x63, 0x6f, 0x6e, 0x76,
  0x31, 0x64, 0x2f, 0x53, 0x71, 0x75, 0x65, 0x65, 0x7a, 0x65, 0x3b, 0x6d,
  0x6f, 0x64, 0x65, 0x6c, 0x2f, 0x62, 0x61, 0x74, 0x63, 0x68, 0x5f, 0x6e,
  0x6f, 0x72, 0x6d, 0x61, 0x6c, 0x69, 0x7a, 0x61, 0x74, 0x69, 0x6f, 0x6e,
  0x5f, 0x32, 0x2f, 0x62, 0x61, 0x74, 0x63, 0x68, 0x6e, 0x6f, 0x72, 0x6d,
  0x2f, 0x6d, 0x75, 0x6c, 0x5f, 0x31, 0x3b, 0x6d, 0x6f, 0x64, 0x65, 0x6c,
  0x2f, 0x62, 0x61, 0x74, 0x63, 0x68, 0x5f, 0x6e, 0x6f, 0x72, 0x6d, 0x61,
  0x6c, 0x69, 0x7a, 0x61, 0x74, 0x69, 0x6f, 0x6e, 0x5f, 0x32, 0x2f, 0x62,
  0x61, 0x74, 0x63, 0x68, 0x6e, 0x6f, 0x72, 0x6d, 0x2f, 0x6d, 0x75, 0x6c,
  0x3b, 0x6d, 0x6f, 0x64, 0x65, 0x6c, 0x2f, 0x62, 0x61, 0x74, 0x63, 0x68,
  0x5f, 0x6e, 0x6f, 0x72, 0x6d, 0x61, 0x6c, 0x69, 0x7a, 0x61, 0x74, 0x69,
  0x6f, 0x6e, 0x5f, 0x32, 0x2f, 0x62, 0x61, 0x74, 0x63, 0x68, 0x6e, 0x6f,
  0x72, 0x6d, 0x2f, 0x73, 0x75, 0x62, 0x00, 0x00, 0x03, 0x00, 0x00, 0x00,
  0x01, 0x00, 0x00, 0x00, 0x1e, 0x00, 0x00, 0x00, 0x10, 0x00, 0x00, 0x00,
  0xaa, 0xe2, 0xff, 0xff, 0x14, 0x00, 0x00, 0x00, 0x34, 0x00, 0x00, 0x00,
  0x39, 0x00, 0x00, 0x00, 0x00, 0x00, 0x00, 0x09, 0x10, 0x01, 0x00, 0x00,
  0x9c, 0xe2, 0xff, 0xff, 0x08, 0x00, 0x00, 0x00, 0x14, 0x00, 0x00, 0x00,
  0x01, 0x00, 0x00, 0x00, 0x06, 0x00, 0x00, 0x00, 0x00, 0x00, 0x00, 0x00,
  0x00, 0x00, 0x00, 0x00, 0x01, 0x00, 0x00, 0x00, 0x9e, 0x3b, 0x25, 0x3d,
  0xe2, 0x00, 0x00, 0x00, 0x6d, 0x6f, 0x64, 0x65, 0x6c, 0x2f, 0x62, 0x61,
  0x74, 0x63, 0x68, 0x5f, 0x6e, 0x6f, 0x72, 0x6d, 0x61, 0x6c, 0x69, 0x7a,
  0x61, 0x74, 0x69, 0x6f, 0x6e, 0x5f, 0x32, 0x2f, 0x62, 0x61, 0x74, 0x63,
  0x68, 0x6e, 0x6f, 0x72, 0x6d, 0x2f, 0x61, 0x64, 0x64, 0x5f, 0x31, 0x3b,
  0x6d, 0x6f, 0x64, 0x65, 0x6c, 0x2f, 0x63, 0x6f, 0x6e, 0x76, 0x31, 0x64,
  0x5f, 0x31, 0x30, 0x2f, 0x63, 0x6f, 0x6e, 0x76, 0x31, 0x64, 0x2f, 0x53,
  0x71, 0x75, 0x65, 0x65, 0x7a, 0x65, 0x3b, 0x6d, 0x6f, 0x64, 0x65, 0x6c,
  0x2f, 0x62, 0x61, 0x74, 0x63, 0x68, 0x5f, 0x6e, 0x6f, 0x72, 0x6d, 0x61,
  0x6c, 0x69, 0x7a, 0x61, 0x74, 0x69, 0x6f, 0x6e, 0x5f, 0x32, 0x2f, 0x62,
  0x61, 0x74, 0x63, 0x68, 0x6e, 0x6f, 0x72, 0x6d, 0x2f, 0x6d, 0x75, 0x6c,
  0x5f, 0x31, 0x3b, 0x6d, 0x6f, 0x64, 0x65, 0x6c, 0x2f, 0x62, 0x61, 0x74,
  0x63, 0x68, 0x5f, 0x6e, 0x6f, 0x72, 0x6d, 0x61, 0x6c, 0x69, 0x7a, 0x61,
  0x74, 0x69, 0x6f, 0x6e, 0x5f, 0x32, 0x2f, 0x62, 0x61, 0x74, 0x63, 0x68,
  0x6e, 0x6f, 0x72, 0x6d, 0x2f, 0x6d, 0x75, 0x6c, 0x3b, 0x6d, 0x6f, 0x64,
  0x65, 0x6c, 0x2f, 0x62, 0x61, 0x74, 0x63, 0x68, 0x5f, 0x6e, 0x6f, 0x72,
  0x6d, 0x61, 0x6c, 0x69, 0x7a, 0x61, 0x74, 0x69, 0x6f, 0x6e, 0x5f, 0x32,
  0x2f, 0x62, 0x61, 0x74, 0x63, 0x68, 0x6e, 0x6f, 0x72, 0x6d, 0x2f, 0x73,
  0x75, 0x62, 0x3b, 0x6d, 0x6f, 0x64, 0x65, 0x6c, 0x2f, 0x63, 0x6f, 0x6e,
  0x76, 0x31, 0x64, 0x5f, 0x31, 0x30, 0x2f, 0x63, 0x6f, 0x6e, 0x76, 0x31,
  0x64, 0x31, 0x00, 0x00, 0x04, 0x00, 0x00, 0x00, 0x01, 0x00, 0x00, 0x00,
  0x01, 0x00, 0x00, 0x00, 0x1e, 0x00, 0x00, 0x00, 0x10, 0x00, 0x00, 0x00,
  0xe2, 0xe3, 0xff, 0xff, 0x14, 0x00, 0x00, 0x00, 0x30, 0x00, 0x00, 0x00,
  0x38, 0x00, 0x00, 0x00, 0x00, 0x00, 0x00, 0x09, 0x5c, 0x00, 0x00, 0x00,
  0xd4, 0xe3, 0xff, 0xff, 0x08, 0x00, 0x00, 0x00, 0x10, 0x00, 0x00, 0x00,
  0x01, 0x00, 0x00, 0x00, 0x80, 0xff, 0xff, 0xff, 0xff, 0xff, 0xff, 0xff,
  0x01, 0x00, 0x00, 0x00, 0x9e, 0xb9, 0xb9, 0x3c, 0x31, 0x00, 0x00, 0x00,
  0x6d, 0x6f, 0x64, 0x65, 0x6c, 0x2f, 0x63, 0x6f, 0x6e, 0x76, 0x31, 0x64,
  0x5f, 0x33, 0x2f, 0x52, 0x65, 0x6c, 0x75, 0x3b, 0x6d, 0x6f, 0x64, 0x65,
  0x6c, 0x2f, 0x63, 0x6f, 0x6e, 0x76, 0x31, 0x64, 0x5f, 0x33, 0x2f, 0x63,
  0x6f, 0x6e, 0x76, 0x31, 0x64, 0x2f, 0x53, 0x71, 0x75, 0x65, 0x65, 0x7a,
  0x65, 0x00, 0x00, 0x00, 0x03, 0x00, 0x00, 0x00, 0x01, 0x00, 0x00, 0x00,
  0x1e, 0x00, 0x00, 0x00, 0x04, 0x00, 0x00, 0x00, 0x62, 0xe4, 0xff, 0xff,
  0x14, 0x00, 0x00, 0x00, 0x30, 0x00, 0x00, 0x00, 0x37, 0x00, 0x00, 0x00,
  0x00, 0x00, 0x00, 0x09, 0x70, 0x00, 0x00, 0x00, 0x54, 0xe4, 0xff, 0xff,
  0x08, 0x00, 0x00, 0x00, 0x10, 0x00, 0x00, 0x00, 0x01, 0x00, 0x00, 0x00,
  0x80, 0xff, 0xff, 0xff, 0xff, 0xff, 0xff, 0xff, 0x01, 0x00, 0x00, 0x00,
  0x9e, 0xb9, 0xb9, 0x3c, 0x47, 0x00, 0x00, 0x00, 0x6d, 0x6f, 0x64, 0x65,
  0x6c, 0x2f, 0x63, 0x6f, 0x6e, 0x76, 0x31, 0x64, 0x5f, 0x33, 0x2f, 0x52,
  0x65, 0x6c, 0x75, 0x3b, 0x6d, 0x6f, 0x64, 0x65, 0x6c, 0x2f, 0x63, 0x6f,
  0x6e, 0x76, 0x31, 0x64, 0x5f, 0x33, 0x2f, 0x63, 0x6f, 0x6e, 0x76, 0x31,
  0x64, 0x2f, 0x53, 0x71, 0x75, 0x65, 0x65, 0x7a, 0x65, 0x3b, 0x6d, 0x6f,
  0x64, 0x65, 0x6c, 0x2f, 0x63, 0x6f, 0x6e, 0x76, 0x31, 0x64, 0x5f, 0x33,
  0x2f, 0x63, 0x6f, 0x6e, 0x76, 0x31, 0x64, 0x00, 0x04, 0x00, 0x00, 0x00,
  0x01, 0x00, 0x00, 0x00, 0x01, 0x00, 0x00, 0x00, 0x1e, 0x00, 0x00, 0x00,
  0x04, 0x00, 0x00, 0x00, 0xfa, 0xe4, 0xff, 0xff, 0x14, 0x00, 0x00, 0x00,
  0x30, 0x00, 0x00, 0x00, 0x36, 0x00, 0x00, 0x00, 0x00, 0x00, 0x00, 0x09,
  0x5c, 0x00, 0x00, 0x00, 0xec, 0xe4, 0xff, 0xff, 0x08, 0x00, 0x00, 0x00,
  0x10, 0x00, 0x00, 0x00, 0x01, 0x00, 0x00, 0x00, 0x80, 0xff, 0xff, 0xff,
  0xff, 0xff, 0xff, 0xff, 0x01, 0x00, 0x00, 0x00, 0x9e, 0xb9, 0xb9, 0x3c,
  0x31, 0x00, 0x00, 0x00, 0x6d, 0x6f, 0x64, 0x65, 0x6c, 0x2f, 0x63, 0x6f,
  0x6e, 0x76, 0x31, 0x64, 0x5f, 0x32, 0x2f, 0x52, 0x65, 0x6c, 0x75, 0x3b,
  0x6d, 0x6f, 0x64, 0x65, 0x6c, 0x2f, 0x63, 0x6f, 0x6e, 0x76, 0x31, 0x64,
  0x5f, 0x32, 0x2f, 0x63, 0x6f, 0x6e, 0x76, 0x31, 0x64, 0x2f, 0x53, 0x71,
  0x75, 0x65, 0x65, 0x7a, 0x65, 0x00, 0x00, 0x00, 0x03, 0x00, 0x00, 0x00,
  0x01, 0x00, 0x00, 0x00, 0x1e, 0x00, 0x00, 0x00, 0x04, 0x00, 0x00, 0x00,
  0x7a, 0xe5, 0xff, 0xff, 0x14, 0x00, 0x00, 0x00, 0x30, 0x00, 0x00, 0x00,
  0x35, 0x00, 0x00, 0x00, 0x00, 0x00, 0x00, 0x09, 0x70, 0x00, 0x00, 0x00,
  0x6c, 0xe5, 0xff, 0xff, 0x08, 0x00, 0x00, 0x00, 0x10, 0x00, 0x00, 0x00,
  0x01, 0x00, 0x00, 0x00, 0x80, 0xff, 0xff, 0xff, 0xff, 0xff, 0xff, 0xff,
  0x01, 0x00, 0x00, 0x00, 0x9e, 0xb9, 0xb9, 0x3c, 0x47, 0x00, 0x00, 0x00,
  0x6d, 0x6f, 0x64, 0x65, 0x6c, 0x2f, 0x63, 0x6f, 0x6e, 0x76, 0x31, 0x64,
  0x5f, 0x32, 0x2f, 0x52, 0x65, 0x6c, 0x75, 0x3b, 0x6d, 0x6f, 0x64, 0x65,
  0x6c, 0x2f, 0x63, 0x6f, 0x6e, 0x76, 0x31, 0x64, 0x5f, 0x32, 0x2f, 0x63,
  0x6f, 0x6e, 0x76, 0x31, 0x64, 0x2f, 0x53, 0x71, 0x75, 0x65, 0x65, 0x7a,
  0x65, 0x3b, 0x6d, 0x6f, 0x64, 0x65, 0x6c, 0x2f, 0x63, 0x6f, 0x6e, 0x76,
  0x31, 0x64, 0x5f, 0x32, 0x2f, 0x63, 0x6f, 0x6e, 0x76, 0x31, 0x64, 0x00,
  0x04, 0x00, 0x00, 0x00, 0x01, 0x00, 0x00, 0x00, 0x01, 0x00, 0x00, 0x00,
  0x1e, 0x00, 0x00, 0x00, 0x04, 0x00, 0x00, 0x00, 0x12, 0xe6, 0xff, 0xff,
  0x14, 0x00, 0x00, 0x00, 0x30, 0x00, 0x00, 0x00, 0x34, 0x00, 0x00, 0x00,
  0x00, 0x00, 0x00, 0x09, 0x5c, 0x00, 0x00, 0x00, 0x04, 0xe6, 0xff, 0xff,
  0x08, 0x00, 0x00, 0x00, 0x10, 0x00, 0x00, 0x00, 0x01, 0x00, 0x00, 0x00,
  0x80, 0xff, 0xff, 0xff, 0xff, 0xff, 0xff, 0xff, 0x01, 0x00, 0x00, 0x00,
  0x9e, 0xb9, 0xb9, 0x3c, 0x31, 0x00, 0x00, 0x00, 0x6d, 0x6f, 0x64, 0x65,
  0x6c, 0x2f, 0x63, 0x6f, 0x6e, 0x76, 0x31, 0x64, 0x5f, 0x31, 0x2f, 0x52,
  0x65, 0x6c, 0x75, 0x3b, 0x6d, 0x6f, 0x64, 0x65, 0x6c, 0x2f, 0x63, 0x6f,
  0x6e, 0x76, 0x31, 0x64, 0x5f, 0x31, 0x2f, 0x63, 0x6f, 0x6e, 0x76, 0x31,
  0x64, 0x2f, 0x53, 0x71, 0x75, 0x65, 0x65, 0x7a, 0x65, 0x00, 0x00, 0x00,
  0x03, 0x00, 0x00, 0x00, 0x01, 0x00, 0x00, 0x00, 0x1e, 0x00, 0x00, 0x00,
  0x04, 0x00, 0x00, 0x00, 0x92, 0xe6, 0xff, 0xff, 0x14, 0x00, 0x00, 0x00,
  0x30, 0x00, 0x00, 0x00, 0x33, 0x00, 0x00, 0x00, 0x00, 0x00, 0x00, 0x09,
  0x70, 0x00, 0x00, 0x00, 0x84, 0xe6, 0xff, 0xff, 0x08, 0x00, 0x00, 0x00,
  0x10, 0x00, 0x00, 0x00, 0x01, 0x00, 0x00, 0x00, 0x80, 0xff, 0xff, 0xff,
  0xff, 0xff, 0xff, 0xff, 0x01, 0x00, 0x00, 0x00, 0x9e, 0xb9, 0xb9, 0x3c,
  0x47, 0x00, 0x00, 0x00, 0x6d, 0x6f, 0x64, 0x65, 0x6c, 0x2f, 0x63, 0x6f,
  0x6e, 0x76, 0x31, 0x64, 0x5f, 0x31, 0x2f, 0x52, 0x65, 0x6c, 0x75, 0x3b,
  0x6d, 0x6f, 0x64, 0x65, 0x6c, 0x2f, 0x63, 0x6f, 0x6e, 0x76, 0x31, 0x64,
  0x5f, 0x31, 0x2f, 0x63, 0x6f, 0x6e, 0x76, 0x31, 0x64, 0x2f, 0x53, 0x71,
  0x75, 0x65, 0x65, 0x7a, 0x65, 0x3b, 0x6d, 0x6f, 0x64, 0x65, 0x6c, 0x2f,
  0x63, 0x6f, 0x6e, 0x76, 0x31, 0x64, 0x5f, 0x31, 0x2f, 0x63, 0x6f, 0x6e,
  0x76, 0x31, 0x64, 0x00, 0x04, 0x00, 0x00, 0x00, 0x01, 0x00, 0x00, 0x00,
  0x01, 0x00, 0x00, 0x00, 0x1e, 0x00, 0x00, 0x00, 0x04, 0x00, 0x00, 0x00,
  0x2a, 0xe7, 0xff, 0xff, 0x14, 0x00, 0x00, 0x00, 0x34, 0x00, 0x00, 0x00,
  0x32, 0x00, 0x00, 0x00, 0x00, 0x00, 0x00, 0x09, 0x70, 0x00, 0x00, 0x00,
  0x1c, 0xe7, 0xff, 0xff, 0x08, 0x00, 0x00, 0x00, 0x14, 0x00, 0x00, 0x00,
  0x01, 0x00, 0x00, 0x00, 0x80, 0xff, 0xff, 0xff, 0xff, 0xff, 0xff, 0xff,
  0x00, 0x00, 0x00, 0x00, 0x01, 0x00, 0x00, 0x00, 0x2a, 0xf7, 0x9d, 0x3c,
  0x41, 0x00, 0x00, 0x00, 0x6d, 0x6f, 0x64, 0x65, 0x6c, 0x2f, 0x63, 0x6f,
  0x6e, 0x76, 0x31, 0x64, 0x2f, 0x52, 0x65, 0x6c, 0x75, 0x3b, 0x6d, 0x6f,
  0x64, 0x65, 0x6c, 0x2f, 0x63, 0x6f, 0x6e, 0x76, 0x31, 0x64, 0x2f, 0x63,
  0x6f, 0x6e, 0x76, 0x31, 0x64, 0x2f, 0x53, 0x71, 0x75, 0x65, 0x65, 0x7a,
  0x65, 0x3b, 0x6d, 0x6f, 0x64, 0x65, 0x6c, 0x2f, 0x63, 0x6f, 0x6e, 0x76,
