unsigned char predictor_tflite[] = {
  0x1c, 0x00, 0x00, 0x00, 0x54, 0x46, 0x4c, 0x33, 0x14, 0x00, 0x20, 0x00,
  0x1c, 0x00, 0x18, 0x00, 0x14, 0x00, 0x10, 0x00, 0x0c, 0x00, 0x00, 0x00,
  0x08, 0x00, 0x04, 0x00, 0x14, 0x00, 0x00, 0x00, 0x1c, 0x00, 0x00, 0x00,
  0x1c, 0x00, 0x00, 0x00, 0x4c, 0x00, 0x00, 0x00, 0x20, 0x0c, 0x00, 0x00,
  0x30, 0x0c, 0x00, 0x00, 0x74, 0x20, 0x00, 0x00, 0x03, 0x00, 0x00, 0x00,
  0x00, 0x00, 0x00, 0x00, 0x01, 0x00, 0x00, 0x00, 0x0c, 0x00, 0x00, 0x00,
  0x08, 0x00, 0x0c, 0x00, 0x08, 0x00, 0x04, 0x00, 0x08, 0x00, 0x00, 0x00,
  0x20, 0x00, 0x00, 0x00, 0x04, 0x00, 0x00, 0x00, 0x13, 0x00, 0x00, 0x00,
  0x6d, 0x69, 0x6e, 0x5f, 0x72, 0x75, 0x6e, 0x74, 0x69, 0x6d, 0x65, 0x5f,
  0x76, 0x65, 0x72, 0x73, 0x69, 0x6f, 0x6e, 0x00, 0x21, 0x00, 0x00, 0x00,
  0xd0, 0x0b, 0x00, 0x00, 0xc8, 0x0b, 0x00, 0x00, 0xa8, 0x0b, 0x00, 0x00,
  0x80, 0x0b, 0x00, 0x00, 0x60, 0x0b, 0x00, 0x00, 0x40, 0x0b, 0x00, 0x00,
  0x28, 0x0b, 0x00, 0x00, 0x28, 0x0a, 0x00, 0x00, 0x08, 0x0a, 0x00, 0x00,
  0x58, 0x09, 0x00, 0x00, 0x38, 0x09, 0x00, 0x00, 0x88, 0x08, 0x00, 0x00,
  0x68, 0x08, 0x00, 0x00, 0x58, 0x06, 0x00, 0x00, 0x48, 0x05, 0x00, 0x00,
  0x38, 0x01, 0x00, 0x00, 0xe8, 0x00, 0x00, 0x00, 0xa8, 0x00, 0x00, 0x00,
  0x8c, 0x00, 0x00, 0x00, 0x84, 0x00, 0x00, 0x00, 0x7c, 0x00, 0x00, 0x00,
  0x74, 0x00, 0x00, 0x00, 0x6c, 0x00, 0x00, 0x00, 0x64, 0x00, 0x00, 0x00,
  0x5c, 0x00, 0x00, 0x00, 0x54, 0x00, 0x00, 0x00, 0x4c, 0x00, 0x00, 0x00,
  0x44, 0x00, 0x00, 0x00, 0x3c, 0x00, 0x00, 0x00, 0x34, 0x00, 0x00, 0x00,
  0x2c, 0x00, 0x00, 0x00, 0x24, 0x00, 0x00, 0x00, 0x04, 0x00, 0x00, 0x00,
  0xda, 0xf4, 0xff, 0xff, 0x04, 0x00, 0x00, 0x00, 0x10, 0x00, 0x00, 0x00,
  0x31, 0x2e, 0x31, 0x34, 0x2e, 0x30, 0x00, 0x00, 0x00, 0x00, 0x00, 0x00,
  0x00, 0x00, 0x00, 0x00, 0x34, 0xe1, 0xff, 0xff, 0x38, 0xe1, 0xff, 0xff,
  0x3c, 0xe1, 0xff, 0xff, 0x40, 0xe1, 0xff, 0xff, 0x44, 0xe1, 0xff, 0xff,
  0x48, 0xe1, 0xff, 0xff, 0x4c, 0xe1, 0xff, 0xff, 0x50, 0xe1, 0xff, 0xff,
  0x54, 0xe1, 0xff, 0xff, 0x58, 0xe1, 0xff, 0xff, 0x5c, 0xe1, 0xff, 0xff,
  0x60, 0xe1, 0xff, 0xff, 0x64, 0xe1, 0xff, 0xff, 0x2a, 0xf5, 0xff, 0xff,
  0x04, 0x00, 0x00, 0x00, 0x0c, 0x00, 0x00, 0x00, 0xc9, 0x00, 0x00, 0x00,
  0x33, 0x00, 0x00, 0x00, 0x3e, 0x01, 0x00, 0x00, 0x42, 0xf5, 0xff, 0xff,
  0x04, 0x00, 0x00, 0x00, 0x30, 0x00, 0x00, 0x00, 0x87, 0x5f, 0x4b, 0x7d,
  0xe2, 0x90, 0xdc, 0xa5, 0x3d, 0xc1, 0xbf, 0x03, 0x2a, 0xe7, 0x34, 0xe7,
  0x31, 0x7e, 0xaf, 0x00, 0xfe, 0xed, 0xd0, 0xc3, 0x81, 0xbc, 0x92, 0x64,
  0xab, 0xde, 0x23, 0x28, 0x7c, 0xee, 0x62, 0x53, 0xe3, 0xd1, 0xb9, 0xcb,
  0x62, 0x91, 0x2e, 0x87, 0x1b, 0x2a, 0x8e, 0x39, 0x7e, 0xf5, 0xff, 0xff,
  0x04, 0x00, 0x00, 0x00, 0x40, 0x00, 0x00, 0x00, 0x27, 0x02, 0x00, 0x00,
  0x81, 0x01, 0x00, 0x00, 0x05, 0x02, 0x00, 0x00, 0xa9, 0x02, 0x00, 0x00,
  0x07, 0xfd, 0xff, 0xff, 0x57, 0xfd, 0xff, 0xff, 0x05, 0xfd, 0xff, 0xff,
  0x9b, 0xfc, 0xff, 0xff, 0xe2, 0x01, 0x00, 0x00, 0xc3, 0xfc, 0xff, 0xff,
  0xbb, 0xff, 0xff, 0xff, 0x31, 0xfe, 0xff, 0xff, 0x49, 0x01, 0x00, 0x00,
  0xba, 0x00, 0x00, 0x00, 0x64, 0xfe, 0xff, 0xff, 0x13, 0x02, 0x00, 0x00,
  0xca, 0xf5, 0xff, 0xff, 0x04, 0x00, 0x00, 0x00, 0x00, 0x04, 0x00, 0x00,
  0x81, 0xe4, 0x38, 0xb5, 0x15, 0x03, 0x38, 0x7c, 0x34, 0xe2, 0xa2, 0xf5,
  0xad, 0xda, 0x1c, 0x44, 0x2f, 0xe5, 0x31, 0xaa, 0x1b, 0x7d, 0x40, 0xd1,
  0xff, 0x39, 0x4a, 0xf3, 0x50, 0xde, 0x19, 0x2f, 0x2c, 0xae, 0xed, 0x0f,
  0x0e, 0xbd, 0xd8, 0x17, 0x26, 0xc2, 0xc0, 0x67, 0xf2, 0xed, 0x1d, 0xf4,
  0xa9, 0xe2, 0x55, 0xa0, 0xa3, 0x19, 0x94, 0x23, 0xd0, 0x19, 0xa8, 0x23,
  0x65, 0xab, 0xe5, 0x39, 0x58, 0xb6, 0xd2, 0x47, 0xfb, 0x31, 0xab, 0xfa,
  0x3e, 0x5f, 0xf9, 0xf1, 0x9a, 0xad, 0xea, 0x2c, 0x44, 0xfa, 0x17, 0xd7,
  0x2d, 0x34, 0xaf, 0x67, 0xa3, 0x12, 0xd3, 0xe8, 0xc1, 0xcc, 0x5c, 0xe7,
  0x4f, 0x1a, 0x3e, 0x55, 0x43, 0xfe, 0x17, 0xc8, 0x57, 0xb5, 0x1a, 0xa9,
  0xab, 0xee, 0xac, 0xa7, 0x08, 0xdf, 0xa5, 0x4f, 0xe7, 0x25, 0xce, 0xff,
  0x28, 0x49, 0x69, 0xb8, 0xf6, 0xfe, 0x46, 0x48, 0xe0, 0x37, 0x06, 0xe1,
  0x31, 0x51, 0xc5, 0xd6, 0xb2, 0x5b, 0xe7, 0x10, 0x54, 0xa6, 0xad, 0x71,
  0xf6, 0xb3, 0xc6, 0x61, 0x45, 0x53, 0x3a, 0x91, 0x47, 0xd3, 0x3a, 0x06,
  0xfa, 0x35, 0x4d, 0x29, 0x9d, 0x10, 0xc1, 0xfb, 0xef, 0xb6, 0xd9, 0xf8,
  0xd6, 0x33, 0xc7, 0x61, 0x3f, 0xc3, 0x9e, 0xc0, 0xce, 0x32, 0xb7, 0x24,
  0x10, 0xef, 0x48, 0x32, 0x24, 0xed, 0x24, 0x31, 0xb8, 0xc8, 0xd8, 0xe6,
  0x3d, 0xf2, 0xb9, 0x0a, 0xf8, 0xb9, 0xbe, 0xce, 0xff, 0xe8, 0xe2, 0xfb,
  0x4a, 0x0d, 0xf3, 0x0b, 0x08, 0x52, 0xf1, 0x25, 0x62, 0xa1, 0xf3, 0x03,
  0x26, 0x41, 0xd2, 0x21, 0x49, 0x06, 0x39, 0xdc, 0xe2, 0x9b, 0xff, 0xad,
  0xc1, 0x48, 0x79, 0xcc, 0x4f, 0xd1, 0x29, 0x25, 0xfe, 0x9c, 0x20, 0xaf,
  0xd7, 0xf5, 0x22, 0x2c, 0x18, 0x9c, 0xb4, 0xed, 0x9f, 0xc4, 0xd9, 0xce,
  0xcc, 0x5f, 0x3f, 0x04, 0x13, 0x41, 0x5e, 0xa9, 0x3e, 0xea, 0x96, 0x18,
  0xb2, 0x0c, 0xff, 0x57, 0x9e, 0xa0, 0x3e, 0xad, 0x20, 0x2a, 0xdf, 0x62,
  0x62, 0x07, 0xe5, 0xc2, 0xf5, 0x13, 0xf6, 0x4c, 0x8c, 0x12, 0xdc, 0x31,
  0xde, 0xb1, 0x38, 0x90, 0x12, 0xbd, 0xb3, 0xb6, 0xc0, 0xf2, 0x23, 0x23,
  0x1b, 0x07, 0x43, 0xb0, 0xe1, 0x08, 0x31, 0xb3, 0x96, 0x4f, 0xd9, 0xf2,
  0x08, 0x3a, 0x50, 0xac, 0x0c, 0x12, 0xc3, 0xf8, 0xa8, 0x2e, 0xc0, 0x26,
  0x45, 0xed, 0xa5, 0xd7, 0xbc, 0xd2, 0xa5, 0x0f, 0xd6, 0xed, 0x9f, 0x22,
  0x1d, 0x99, 0x18, 0xa0, 0x9d, 0x26, 0x11, 0xeb, 0x33, 0xa0, 0xb4, 0x30,
  0x88, 0x44, 0xfc, 0xec, 0x55, 0xbc, 0xc4, 0x2d, 0xaa, 0x44, 0x9d, 0xb2,
  0x4b, 0xf9, 0x18, 0xc8, 0xa7, 0xb4, 0xf9, 0xe2, 0x0f, 0x0b, 0xb7, 0x3e,
  0x25, 0x2f, 0xd1, 0x6e, 0x0a, 0xee, 0x25, 0xc7, 0x5c, 0xd4, 0xbb, 0xc1,
  0x22, 0x9f, 0xf7, 0x1f, 0x9f, 0xbf, 0x48, 0x15, 0xe8, 0xae, 0x46, 0x42,
  0x0e, 0x59, 0x50, 0x5f, 0xad, 0x47, 0x91, 0xd0, 0xf8, 0x26, 0x29, 0xe5,
  0x3e, 0xe2, 0x4b, 0x3a, 0xe3, 0x31, 0x2c, 0x27, 0x32, 0x51, 0xe4, 0xd2,
  0xa4, 0x2e, 0xf0, 0x56, 0xdb, 0xc0, 0xea, 0x95, 0x60, 0x35, 0x32, 0xe5,
  0xf0, 0xf6, 0x29, 0xc3, 0xd2, 0xde, 0xc5, 0x28, 0xed, 0xe8, 0x01, 0x17,
  0xc5, 0xad, 0x54, 0xde, 0xec, 0xc6, 0xf5, 0xe4, 0xf5, 0x47, 0xab, 0xe9,
  0xfd, 0x06, 0xd5, 0x06, 0xe3, 0xa2, 0x65, 0x30, 0x6a, 0xb6, 0xbb, 0x67,
  0xba, 0xb3, 0x1c, 0xd6, 0x04, 0x37, 0xab, 0x5c, 0x0a, 0x13, 0xf6, 0x4c,
  0xaf, 0xce, 0xe7, 0x27, 0xca, 0xd5, 0x5a, 0x0e, 0xfe, 0x65, 0xc7, 0x9c,
  0xa7, 0x9c, 0x08, 0xd3, 0xf5, 0x10, 0xd9, 0xd7, 0x19, 0xae, 0xc3, 0x1e,
  0x57, 0xce, 0xc6, 0x4d, 0x6a, 0x2f, 0xa6, 0xbe, 0x70, 0x25, 0xdc, 0xb6,
  0x16, 0xc4, 0xdc, 0xcd, 0x40, 0x42, 0xf4, 0x65, 0x43, 0xdf, 0x55, 0xf6,
  0x1d, 0x23, 0x30, 0xba, 0x9e, 0xa9, 0x23, 0xc2, 0xb8, 0xcb, 0x3c, 0x6b,
  0x65, 0x53, 0x6d, 0xc9, 0x0a, 0x63, 0x28, 0x1d, 0x5a, 0xa9, 0x5e, 0xf0,
  0x39, 0xf5, 0x26, 0x58, 0x62, 0x49, 0xbb, 0x0e, 0x17, 0x3f, 0xd3, 0xe3,
  0xbb, 0x13, 0xc8, 0x2c, 0x56, 0x02, 0xf6, 0x08, 0x9f, 0xaa, 0x4f, 0xfc,
  0xb8, 0x43, 0x2f, 0x44, 0xfb, 0xf1, 0xd9, 0x34, 0xf4, 0x9c, 0xaa, 0xea,
  0x5d, 0x2b, 0x43, 0xa1, 0xb6, 0xb0, 0x47, 0xdc, 0xd0, 0x38, 0xd4, 0xa7,
  0x35, 0x5c, 0xbf, 0x56, 0xfe, 0x9f, 0x55, 0x04, 0x05, 0x20, 0x3e, 0xbd,
  0x31, 0x45, 0x39, 0x46, 0x65, 0x15, 0x56, 0xad, 0xf2, 0xda, 0x2f, 0xfb,
  0x52, 0x44, 0xb8, 0xcb, 0x37, 0xf3, 0x18, 0x9f, 0x45, 0x5a, 0xc6, 0x34,
  0x6b, 0x32, 0xb7, 0xfb, 0x17, 0xc2, 0x4e, 0xf5, 0xa0, 0xf6, 0xca, 0x23,
  0x4c, 0xde, 0xfc, 0x07, 0x20, 0x41, 0xf0, 0xe4, 0x3c, 0x2e, 0xbf, 0x0a,
  0xfb, 0x1d, 0xe1, 0xed, 0xe9, 0x4f, 0x27, 0xb8, 0xe1, 0x45, 0xbe, 0x14,
  0x0f, 0xae, 0xde, 0x20, 0x0c, 0x36, 0x17, 0x0b, 0xeb, 0x20, 0xaa, 0xfe,
  0x10, 0xd0, 0xbb, 0x45, 0xd9, 0xe3, 0x63, 0xbf, 0x40, 0x65, 0x34, 0xc5,
  0x22, 0xa5, 0x4b, 0xdc, 0xee, 0x13, 0x32, 0x4b, 0xd5, 0x5b, 0x32, 0xa9,
  0xb3, 0x41, 0xd8, 0xc5, 0xe1, 0xb6, 0x67, 0x29, 0x67, 0xc9, 0x00, 0xd4,
  0xc6, 0xe6, 0x28, 0xad, 0x34, 0x1d, 0x19, 0x47, 0x2f, 0xe3, 0x07, 0x25,
  0xf2, 0x0e, 0xee, 0xf0, 0x0e, 0x9d, 0x18, 0x56, 0x36, 0x46, 0x0b, 0x18,
  0x74, 0xb7, 0xa6, 0xb5, 0x27, 0xb0, 0xec, 0xed, 0x50, 0x10, 0xb5, 0x59,
  0x95, 0x0d, 0x32, 0xbd, 0x01, 0x22, 0xe1, 0x09, 0x63, 0x0b, 0x16, 0xaa,
  0xf9, 0xe6, 0x0d, 0x22, 0x3e, 0x98, 0x6c, 0xfd, 0xf7, 0x4e, 0x38, 0xbb,
  0xdd, 0x5c, 0xfb, 0x33, 0x32, 0xc7, 0x4e, 0xef, 0x47, 0x03, 0xed, 0x26,
  0xac, 0x33, 0xd8, 0xd8, 0x5d, 0x19, 0x54, 0xfa, 0xb9, 0xa7, 0x55, 0xc9,
  0x28, 0xd4, 0x59, 0x4a, 0xb6, 0xcb, 0xc7, 0xaf, 0x5c, 0xf6, 0x24, 0xb9,
  0x26, 0x26, 0x5b, 0xf5, 0xc9, 0xeb, 0xe9, 0x31, 0x10, 0xc1, 0xb9, 0xfe,
  0x53, 0x3e, 0xc6, 0xf6, 0x61, 0x3d, 0xea, 0xa3, 0x5a, 0x18, 0xd5, 0x01,
  0x01, 0xed, 0xbf, 0xb8, 0x26, 0x3e, 0xa4, 0xc6, 0xb9, 0xa7, 0x0e, 0xcf,
  0x33, 0x1b, 0x25, 0x1e, 0x41, 0x08, 0xb3, 0x4b, 0x12, 0xea, 0xbb, 0x15,
  0x56, 0x38, 0xc9, 0xa3, 0xad, 0xdc, 0xbb, 0x5d, 0x26, 0x47, 0xab, 0x0a,
  0xfd, 0xbb, 0xd4, 0xc8, 0xdf, 0x70, 0xdd, 0x25, 0xcc, 0xbc, 0xab, 0xac,
  0xd8, 0xd5, 0xba, 0xdd, 0x37, 0x2d, 0x2e, 0xe5, 0xf4, 0xcb, 0xd5, 0xcc,
  0xf4, 0x2f, 0xbb, 0x3f, 0x3c, 0xfc, 0x13, 0xcb, 0x2c, 0xd9, 0x0a, 0x48,
  0x10, 0x33, 0xb2, 0x49, 0xe6, 0x1a, 0xdc, 0xd6, 0xa3, 0xcb, 0x0c, 0xbc,
  0xdb, 0x52, 0x50, 0x7a, 0xe1, 0xa8, 0x61, 0xff, 0xe9, 0x48, 0xf6, 0x1f,
  0xac, 0xae, 0x0c, 0x15, 0xba, 0xee, 0x0d, 0x0d, 0x3b, 0x17, 0x1e, 0x22,
  0x2c, 0xfe, 0xb6, 0xa8, 0x20, 0x25, 0x34, 0xb7, 0x09, 0xf5, 0xd7, 0x40,
  0x31, 0x21, 0xc3, 0x6c, 0xfa, 0x0e, 0xcd, 0x63, 0xb2, 0x3c, 0xfa, 0x3f,
  0xfb, 0xdf, 0xfb, 0x30, 0xcb, 0x9c, 0x52, 0x07, 0x68, 0x29, 0xa6, 0x37,
  0xa6, 0x98, 0x59, 0x3e, 0x18, 0xf5, 0x25, 0x4a, 0x20, 0x1c, 0x12, 0x3b,
  0xe7, 0xfb, 0xa4, 0x41, 0x35, 0x3b, 0x26, 0x37, 0xb9, 0x50, 0x11, 0x25,
  0xe6, 0xba, 0xc7, 0x3c, 0x2a, 0xb6, 0xae, 0x5c, 0x33, 0xfe, 0x6c, 0x08,
  0x00, 0x45, 0x1f, 0xbe, 0xd6, 0xf9, 0xff, 0xff, 0x04, 0x00, 0x00, 0x00,
  0x00, 0x01, 0x00, 0x00, 0x07, 0x01, 0x00, 0x00, 0xf1, 0xff, 0xff, 0xff,
  0x1c, 0xff, 0xff, 0xff, 0x55, 0x00, 0x00, 0x00, 0xd2, 0x00, 0x00, 0x00,
  0xea, 0xfe, 0xff, 0xff, 0xb5, 0x02, 0x00, 0x00, 0xfe, 0xfe, 0xff, 0xff,
  0x61, 0x03, 0x00, 0x00, 0x48, 0x01, 0x00, 0x00, 0x63, 0xff, 0xff, 0xff,
  0x14, 0x02, 0x00, 0x00, 0x13, 0x00, 0x00, 0x00, 0x73, 0xff, 0xff, 0xff,
  0x81, 0xfe, 0xff, 0xff, 0xd3, 0x01, 0x00, 0x00, 0x55, 0x00, 0x00, 0x00,
  0x36, 0x01, 0x00, 0x00, 0x82, 0x01, 0x00, 0x00, 0xbb, 0xff, 0xff, 0xff,
  0x26, 0x01, 0x00, 0x00, 0xfb, 0xfe, 0xff, 0xff, 0x41, 0x00, 0x00, 0x00,
  0xfc, 0x00, 0x00, 0x00, 0x14, 0xff, 0xff, 0xff, 0x4f, 0xff, 0xff, 0xff,
  0xdc, 0x00, 0x00, 0x00, 0x65, 0xff, 0xff, 0xff, 0xfd, 0x00, 0x00, 0x00,
  0x3f, 0x00, 0x00, 0x00, 0xc5, 0x00, 0x00, 0x00, 0xf7, 0xfe, 0xff, 0xff,
  0xa5, 0xff, 0xff, 0xff, 0x0f, 0x01, 0x00, 0x00, 0x20, 0xff, 0xff, 0xff,
  0x83, 0xff, 0xff, 0xff, 0xb4, 0x00, 0x00, 0x00, 0x39, 0xff, 0xff, 0xff,
  0x5f, 0x00, 0x00, 0x00, 0xb6, 0xfd, 0xff, 0xff, 0x77, 0x00, 0x00, 0x00,
  0xb2, 0xff, 0xff, 0xff, 0x50, 0x00, 0x00, 0x00, 0xf0, 0x00, 0x00, 0x00,
  0xee, 0x00, 0x00, 0x00, 0xb1, 0x01, 0x00, 0x00, 0x25, 0xff, 0xff, 0xff,
  0x37, 0x00, 0x00, 0x00, 0x5b, 0xff, 0xff, 0xff, 0xc6, 0xfe, 0xff, 0xff,
  0x09, 0x00, 0x00, 0x00, 0xff, 0xff, 0xff, 0xff, 0x36, 0xff, 0xff, 0xff,
  0x7a, 0xff, 0xff, 0xff, 0xb5, 0xff, 0xff, 0xff, 0xa2, 0x00, 0x00, 0x00,
  0x58, 0xfd, 0xff, 0xff, 0xb8, 0xff, 0xff, 0xff, 0x89, 0x00, 0x00, 0x00,
  0x01, 0xff, 0xff, 0xff, 0xdb, 0xfe, 0xff, 0xff, 0x51, 0xfe, 0xff, 0xff,
  0x90, 0x01, 0x00, 0x00, 0xd5, 0x02, 0x00, 0x00, 0xe2, 0xfa, 0xff, 0xff,
  0x04, 0x00, 0x00, 0x00, 0x00, 0x02, 0x00, 0x00, 0x3c, 0xb8, 0x33, 0x40,
  0x3f, 0xdd, 0x1b, 0x54, 0xe9, 0xeb, 0xc9, 0x2a, 0xd4, 0x06, 0x24, 0xe4,
  0x07, 0x5a, 0x0c, 0x0a, 0xbd, 0xa5, 0xf4, 0xec, 0x0c, 0xd4, 0x06, 0xaa,
  0xd2, 0x48, 0x12, 0xc0, 0x4e, 0xf0, 0x15, 0x19, 0x03, 0xad, 0x35, 0xd5,
  0x65, 0x12, 0x05, 0xe2, 0x51, 0x4b, 0x46, 0x8a, 0xea, 0xb5, 0x23, 0xc4,
  0xa2, 0xc6, 0xff, 0x3f, 0x3d, 0x52, 0x02, 0x1f, 0xab, 0x22, 0x23, 0x1e,
  0xb0, 0xfe, 0xd5, 0x9a, 0xb3, 0x41, 0xcb, 0x3b, 0x37, 0x9d, 0xf1, 0x3b,
  0xbf, 0xeb, 0x2d, 0x5b, 0x58, 0xde, 0xb6, 0x55, 0x6f, 0xac, 0xba, 0xc5,
  0x03, 0xdf, 0xef, 0xd6, 0xab, 0xcb, 0xd8, 0x1a, 0x1c, 0xff, 0x19, 0xeb,
  0x41, 0xba, 0x9d, 0x28, 0x3f, 0xd6, 0xf2, 0xdc, 0x52, 0xca, 0xf2, 0xf7,
  0xf5, 0x2a, 0x0e, 0x66, 0x08, 0xad, 0x55, 0xf1, 0xf3, 0xb2, 0x11, 0xd0,
  0x0c, 0xc8, 0x3c, 0x37, 0x2d, 0x65, 0x11, 0xea, 0x2e, 0x08, 0xa4, 0x5d,
  0xc2, 0x90, 0xb2, 0x09, 0x5b, 0xb5, 0xe7, 0x11, 0xb9, 0xf9, 0x4c, 0xa0,
  0xae, 0x68, 0xfe, 0xb2, 0x16, 0x0d, 0xc9, 0x22, 0x1b, 0x48, 0xb8, 0x79,
  0x61, 0xe1, 0x2b, 0xd7, 0x39, 0x40, 0x5c, 0xc8, 0x47, 0x50, 0x06, 0xdc,
  0xd7, 0x54, 0x32, 0xf4, 0x9c, 0x61, 0xda, 0xa9, 0x36, 0xeb, 0xdc, 0xda,
  0xab, 0xcc, 0x5d, 0x55, 0x3a, 0x6b, 0x50, 0x99, 0xcf, 0x0c, 0x60, 0x31,
  0xc7, 0xf8, 0xed, 0xfa, 0x58, 0xf8, 0x48, 0xa7, 0x57, 0x18, 0x2a, 0x16,
  0x47, 0xdc, 0x3b, 0xef, 0x57, 0xf8, 0x68, 0xac, 0xcf, 0xc0, 0xbc, 0x57,
  0xc9, 0xf1, 0xf4, 0xf3, 0x0e, 0xe3, 0xd3, 0xd5, 0x1f, 0xfe, 0x41, 0x26,
  0x06, 0xcd, 0x26, 0xe0, 0x3d, 0x0c, 0x44, 0x12, 0xed, 0xa7, 0x47, 0xfa,
  0x58, 0x31, 0xbf, 0x6f, 0xe8, 0xcd, 0xcb, 0xbe, 0x66, 0xd8, 0xbd, 0xba,
  0x9f, 0x75, 0xbd, 0xae, 0xa6, 0xda, 0x45, 0xc4, 0x3a, 0xff, 0x3b, 0x49,
  0xcc, 0xae, 0x25, 0xf0, 0xf0, 0xbb, 0xe8, 0x59, 0x5c, 0xe9, 0x2c, 0xc4,
  0xce, 0xdb, 0xda, 0xd9, 0x35, 0x30, 0x66, 0xdf, 0xa5, 0x32, 0x4b, 0x13,
  0x60, 0x22, 0xf4, 0xd9, 0x1c, 0xc9, 0xa8, 0x22, 0xde, 0xe3, 0xfb, 0x0f,
  0x0e, 0x93, 0x13, 0xed, 0x1b, 0x28, 0xd3, 0x68, 0x4f, 0x54, 0xea, 0xd3,
  0x17, 0xce, 0xa9, 0xb2, 0xba, 0x58, 0xcf, 0x3a, 0x97, 0x43, 0xfb, 0x81,
  0xa4, 0x00, 0x01, 0x1a, 0x4f, 0xfa, 0xe8, 0x64, 0xe8, 0x00, 0x09, 0xcd,
  0xc1, 0x68, 0x9e, 0x1d, 0xeb, 0x0a, 0xad, 0xf0, 0x51, 0xad, 0x6e, 0xf8,
  0xf2, 0xc0, 0xa2, 0x06, 0xc0, 0xe8, 0x43, 0x6f, 0x03, 0xe9, 0x3c, 0xdf,
  0xd3, 0x0e, 0x54, 0xe6, 0xfc, 0x37, 0xca, 0xf1, 0xd3, 0xac, 0x25, 0x01,
  0xe1, 0xe2, 0x57, 0x3e, 0xdc, 0x9c, 0x07, 0x9d, 0x48, 0xa1, 0x3a, 0xf5,
  0xe0, 0x56, 0xca, 0x1c, 0xb1, 0xfb, 0x17, 0x18, 0xfd, 0xcd, 0xf8, 0x64,
  0xc3, 0x3a, 0xb5, 0x1a, 0xeb, 0x3f, 0x4e, 0x67, 0x44, 0x01, 0xef, 0x49,
  0xf9, 0xdd, 0xf0, 0xf7, 0xb1, 0xc5, 0x45, 0x5f, 0x1c, 0xd2, 0xf5, 0x6f,
  0xb0, 0x09, 0x1f, 0x44, 0x61, 0xa6, 0xbb, 0xf7, 0xef, 0xbf, 0xc6, 0x05,
  0x31, 0x97, 0x3e, 0xee, 0x4b, 0x65, 0xc1, 0x40, 0xc4, 0xf6, 0xb3, 0x3e,
  0xa8, 0x20, 0xef, 0x65, 0x2b, 0x16, 0x37, 0xf5, 0xa3, 0xeb, 0xf3, 0xb2,
  0x17, 0x27, 0xcc, 0xe0, 0x68, 0xb6, 0xb7, 0xa5, 0xce, 0x21, 0xcd, 0xb1,
  0xce, 0x29, 0x05, 0xfd, 0xe4, 0x4f, 0x12, 0x3b, 0xa5, 0x4c, 0xba, 0x1d,
  0x14, 0xa6, 0x2c, 0xf4, 0x37, 0xe2, 0x63, 0x1a, 0x2a, 0x36, 0xbb, 0xe4,
  0xb6, 0xde, 0xfa, 0xbf, 0xa6, 0xaf, 0xe5, 0xd6, 0x2e, 0xb6, 0xf1, 0xe6,
  0xcb, 0xbd, 0xbf, 0x29, 0xee, 0xfc, 0xff, 0xff, 0x04, 0x00, 0x00, 0x00,
  0x10, 0x00, 0x00, 0x00, 0xd3, 0xff, 0xff, 0xff, 0xd4, 0xfe, 0xff, 0xff,
  0xd2, 0x00, 0x00, 0x00, 0xfd, 0xfe, 0xff, 0xff, 0x0a, 0xfd, 0xff, 0xff,
  0x04, 0x00, 0x00, 0x00, 0xa0, 0x00, 0x00, 0x00, 0x12, 0x01, 0xf3, 0xfc,
  0x19, 0x11, 0xe9, 0x0d, 0x16, 0x1d, 0x1c, 0x2b, 0x1d, 0x18, 0xf1, 0x1b,
  0xe1, 0x00, 0x29, 0x02, 0xf9, 0xfb, 0x1f, 0x08, 0x05, 0x11, 0xee, 0xfc,
  0xee, 0x23, 0xef, 0xdd, 0x21, 0xc6, 0x68, 0x8e, 0xba, 0xf5, 0x1f, 0x81,
  0x12, 0x0c, 0x06, 0x1a, 0xfd, 0x02, 0xfd, 0xf9, 0x0f, 0x0b, 0x07, 0x15,
  0x07, 0x01, 0x03, 0x0a, 0x01, 0x0b, 0x0b, 0x03, 0x02, 0xfa, 0x1b, 0xf8,
  0x05, 0x1e, 0x0e, 0x10, 0x2c, 0x1d, 0xf8, 0xf7, 0x17, 0x07, 0xc0, 0x5a,
  0x23, 0xef, 0x81, 0xfa, 0x08, 0xdb, 0x04, 0xf5, 0x0d, 0xe9, 0xfd, 0xf6,
  0x01, 0xef, 0xed, 0xd6, 0x10, 0x01, 0x00, 0x09, 0x00, 0xee, 0x0c, 0x01,
  0x50, 0xdb, 0xe0, 0xfe, 0x50, 0xb8, 0xe9, 0xcb, 0x4f, 0xa9, 0x09, 0x01,
  0x14, 0x1e, 0x40, 0xd9, 0xff, 0xdd, 0x7f, 0xa5, 0x09, 0x05, 0x02, 0x0f,
  0xfb, 0x02, 0x03, 0xff, 0x08, 0x01, 0x07, 0x02, 0x06, 0xff, 0x02, 0xff,
  0xfd, 0x03, 0x0a, 0x0b, 0xeb, 0xcf, 0x0b, 0x06, 0xf4, 0xdd, 0x1c, 0x0d,
  0x04, 0xfc, 0xeb, 0xde, 0xcd, 0x04, 0x0c, 0x1b, 0x81, 0x7e, 0xee, 0x2e,
  0xb6, 0xfd, 0xff, 0xff, 0x04, 0x00, 0x00, 0x00, 0x10, 0x00, 0x00, 0x00,
  0xd3, 0x00, 0x00, 0x00, 0xf4, 0x01, 0x00, 0x00, 0xe1, 0x07, 0x00, 0x00,
  0xfc, 0x0d, 0x00, 0x00, 0xd2, 0xfd, 0xff, 0xff, 0x04, 0x00, 0x00, 0x00,
  0xa0, 0x00, 0x00, 0x00, 0xf0, 0x0c, 0x1c, 0xe6, 0xf2, 0xf3, 0xf4, 0x8e,
  0xf8, 0x09, 0x12, 0xd9, 0x12, 0x34, 0xbe, 0xa6, 0xed, 0x08, 0xd8, 0xfe,
  0x08, 0xc4, 0xbe, 0x97, 0x08, 0xa0, 0x10, 0xae, 0x4f, 0xf6, 0x03, 0xaf,
  0x7f, 0xfa, 0xd4, 0x11, 0x75, 0x07, 0xef, 0xe7, 0xfc, 0x09, 0x1c, 0x40,
  0x0b, 0x1c, 0xd9, 0xe7, 0xe1, 0x14, 0x33, 0x0b, 0xe1, 0x63, 0xd9, 0xc6,
  0xd6, 0x53, 0xce, 0x42, 0xc7, 0x4b, 0xc8, 0xcb, 0x81, 0x13, 0x27, 0xfa,
  0xf2, 0x4d, 0xe1, 0xdd, 0x08, 0x24, 0xfb, 0x41, 0x17, 0x3f, 0x02, 0x24,
  0xfc, 0xf7, 0x05, 0x07, 0x08, 0x06, 0x20, 0x2e, 0xfc, 0x01, 0xe9, 0xd1,
  0xe3, 0xd9, 0xef, 0x20, 0x1c, 0xbd, 0xbf, 0x0a, 0x13, 0x1e, 0xc7, 0x42,
  0xdb, 0xf6, 0x9b, 0xc5, 0xff, 0xbb, 0xb0, 0x46, 0x07, 0x30, 0x81, 0xdb,
  0x8d, 0xe5, 0xe5, 0x52, 0x02, 0xd3, 0xfe, 0xf9, 0x1d, 0xf4, 0xe1, 0xf1,
  0x09, 0xd4, 0x2a, 0x04, 0x2e, 0xf8, 0xe9, 0x24, 0x35, 0x0c, 0x36, 0x2e,
  0xe4, 0xd4, 0x2f, 0xb4, 0xfb, 0xef, 0x6d, 0x4e, 0x48, 0xfe, 0x37, 0xda,
  0xde, 0x0e, 0x7f, 0xf7, 0x26, 0xf3, 0x27, 0x9a, 0x7e, 0xfe, 0xff, 0xff,
  0x04, 0x00, 0x00, 0x00, 0x10, 0x00, 0x00, 0x00, 0x07, 0x00, 0x00, 0x00,
  0xb0, 0x02, 0x00, 0x00, 0x52, 0x00, 0x00, 0x00, 0x22, 0x02, 0x00, 0x00,
  0x9a, 0xfe, 0xff, 0xff, 0x04, 0x00, 0x00, 0x00, 0xf0, 0x00, 0x00, 0x00,
  0x20, 0xc0, 0x0a, 0xef, 0xfc, 0x07, 0xe2, 0xaf, 0x90, 0x01, 0xd9, 0xfd,
  0x03, 0xfd, 0x12, 0xe2, 0xc4, 0xd8, 0xf2, 0xc8, 0x43, 0x7f, 0xd6, 0xf7,
  0x2d, 0xe5, 0x3d, 0x98, 0x31, 0xfb, 0x22, 0xd8, 0xf9, 0x03, 0x3f, 0xf4,
  0xdd, 0xd3, 0x2e, 0xb4, 0x18, 0x02, 0x3a, 0xff, 0x10, 0x42, 0x40, 0x37,
  0x00, 0xfb, 0x2c, 0xc5, 0x1f, 0x0f, 0x2e, 0xfc, 0xcc, 0xd5, 0x09, 0x3e,
  0xfa, 0x3c, 0x2c, 0xf4, 0xf6, 0x0c, 0x02, 0xfd, 0xeb, 0xf4, 0x07, 0x15,
  0x29, 0xe9, 0x2f, 0xd7, 0xff, 0xf6, 0xff, 0xb3, 0x1b, 0x3a, 0xe7, 0x0a,
  0xd4, 0xc0, 0xf8, 0x1f, 0xce, 0x11, 0x19, 0x3c, 0xa4, 0x18, 0x09, 0xf2,
  0x14, 0x1e, 0xc1, 0xd2, 0x4d, 0xf3, 0xee, 0x41, 0xab, 0xf6, 0x35, 0x0c,
  0x7f, 0xc0, 0x45, 0xe8, 0x6e, 0xdc, 0xba, 0x0a, 0xfe, 0x24, 0x13, 0xc9,
  0xfc, 0x04, 0x00, 0xe5, 0x02, 0xfd, 0x49, 0x9d, 0x2b, 0x29, 0x06, 0x0d,
  0xfc, 0xe3, 0x25, 0x19, 0xdc, 0xfd, 0xcb, 0x01, 0xb1, 0x7a, 0xd4, 0x0e,
  0xa7, 0x02, 0x85, 0xae, 0x04, 0x05, 0xac, 0x12, 0x21, 0xc1, 0xee, 0xf7,
  0xc7, 0x2f, 0x18, 0xa9, 0xc2, 0x1c, 0x10, 0xf3, 0x7f, 0xe8, 0x99, 0xfc,
  0x41, 0xcc, 0x88, 0xad, 0xf5, 0xc5, 0x5b, 0x4c, 0xcf, 0xc6, 0xb7, 0xc7,
  0xe2, 0x04, 0x66, 0x02, 0xf9, 0x09, 0xd1, 0xa9, 0xd3, 0xea, 0x00, 0x0c,
  0x1e, 0x2c, 0xc8, 0x10, 0x01, 0x06, 0xe3, 0xfd, 0x51, 0xb2, 0x01, 0xff,
  0x65, 0xc6, 0xa8, 0xc4, 0xdf, 0xfd, 0xf7, 0xcf, 0xf5, 0x3c, 0xd6, 0x04,
  0x22, 0xeb, 0xd8, 0xfd, 0xbf, 0x03, 0x20, 0xab, 0x21, 0x3b, 0xe6, 0xcf,
  0x00, 0x98, 0xe8, 0x03, 0xe4, 0xd5, 0xf9, 0x39, 0x81, 0x39, 0x1f, 0x11,
  0x96, 0xff, 0xff, 0xff, 0x04, 0x00, 0x00, 0x00, 0x08, 0x00, 0x00, 0x00,
  0xff, 0xff, 0xff, 0xff, 0x08, 0x00, 0x00, 0x00, 0xaa, 0xff, 0xff, 0xff,
  0x04, 0x00, 0x00, 0x00, 0x10, 0x00, 0x00, 0x00, 0x01, 0x00, 0x00, 0x00,
  0x07, 0x00, 0x00, 0x00, 0x01, 0x00, 0x00, 0x00, 0x04, 0x00, 0x00, 0x00,
  0xc6, 0xff, 0xff, 0xff, 0x04, 0x00, 0x00, 0x00, 0x10, 0x00, 0x00, 0x00,
  0x01, 0x00, 0x00, 0x00, 0x01, 0x00, 0x00, 0x00, 0x07, 0x00, 0x00, 0x00,
  0x04, 0x00, 0x00, 0x00, 0xe2, 0xff, 0xff, 0xff, 0x04, 0x00, 0x00, 0x00,
  0x10, 0x00, 0x00, 0x00, 0x01, 0x00, 0x00, 0x00, 0x1e, 0x00, 0x00, 0x00,
  0x01, 0x00, 0x00, 0x00, 0x04, 0x00, 0x00, 0x00, 0x00, 0x00, 0x06, 0x00,
  0x08, 0x00, 0x04, 0x00, 0x06, 0x00, 0x00, 0x00, 0x04, 0x00, 0x00, 0x00,
  0x10, 0x00, 0x00, 0x00, 0x01, 0x00, 0x00, 0x00, 0x01, 0x00, 0x00, 0x00,
  0x1e, 0x00, 0x00, 0x00, 0x06, 0x00, 0x00, 0x00, 0x60, 0xec, 0xff, 0xff,
  0x64, 0xec, 0xff, 0xff, 0x0f, 0x00, 0x00, 0x00, 0x4d, 0x4c, 0x49, 0x52,
  0x20, 0x43, 0x6f, 0x6e, 0x76, 0x65, 0x72, 0x74, 0x65, 0x64, 0x2e, 0x00,
  0x01, 0x00, 0x00, 0x00, 0x14, 0x00, 0x00, 0x00, 0x00, 0x00, 0x0e, 0x00,
  0x18, 0x00, 0x14, 0x00, 0x10, 0x00, 0x0c, 0x00, 0x08, 0x00, 0x04, 0x00,
  0x0e, 0x00, 0x00, 0x00, 0x14, 0x00, 0x00, 0x00, 0x1c, 0x00, 0x00, 0x00,
  0xec, 0x02, 0x00, 0x00, 0xf0, 0x02, 0x00, 0x00, 0xf4, 0x02, 0x00, 0x00,
  0x04, 0x00, 0x00, 0x00, 0x6d, 0x61, 0x69, 0x6e, 0x00, 0x00, 0x00, 0x00,
  0x0d, 0x00, 0x00, 0x00, 0xb0, 0x02, 0x00, 0x00, 0x64, 0x02, 0x00, 0x00,
  0x14, 0x02, 0x00, 0x00, 0xf0, 0x01, 0x00, 0x00, 0x9c, 0x01, 0x00, 0x00,
  0x78, 0x01, 0x00, 0x00, 0x38, 0x01, 0x00, 0x00, 0x14, 0x01, 0x00, 0x00,
  0xd0, 0x00, 0x00, 0x00, 0xac, 0x00, 0x00, 0x00, 0x74, 0x00, 0x00, 0x00,
  0x3c, 0x00, 0x00, 0x00, 0x04, 0x00, 0x00, 0x00, 0xda, 0xfd, 0xff, 0xff,
  0x14, 0x00, 0x00, 0x00, 0x00, 0x00, 0x00, 0x08, 0x10, 0x00, 0x00, 0x00,
  0x14, 0x00, 0x00, 0x00, 0x03, 0x00, 0x00, 0x00, 0x08, 0xed, 0xff, 0xff,
  0x01, 0x00, 0x00, 0x00, 0x1e, 0x00, 0x00, 0x00, 0x03, 0x00, 0x00, 0x00,
  0x1d, 0x00, 0x00, 0x00, 0x10, 0x00, 0x00, 0x00, 0x11, 0x00, 0x00, 0x00,
  0x0e, 0xfe, 0xff, 0xff, 0x14, 0x00, 0x00, 0x00, 0x00, 0x00, 0x00, 0x08,
  0x10, 0x00, 0x00, 0x00, 0x14, 0x00, 0x00, 0x00, 0x03, 0x00, 0x00, 0x00,
  0x3c, 0xed, 0xff, 0xff, 0x01, 0x00, 0x00, 0x00, 0x1d, 0x00, 0x00, 0x00,
  0x03, 0x00, 0x00, 0x00, 0x1c, 0x00, 0x00, 0x00, 0x0e, 0x00, 0x00, 0x00,
  0x0f, 0x00, 0x00, 0x00, 0x42, 0xfe, 0xff, 0xff, 0x14, 0x00, 0x00, 0x00,
  0x00, 0x00, 0x00, 0x08, 0x10, 0x00, 0x00, 0x00, 0x14, 0x00, 0x00, 0x00,
  0x03, 0x00, 0x00, 0x00, 0x70, 0xed, 0xff, 0xff, 0x01, 0x00, 0x00, 0x00,
  0x1c, 0x00, 0x00, 0x00, 0x03, 0x00, 0x00, 0x00, 0x1b, 0x00, 0x00, 0x00,
  0x0c, 0x00, 0x00, 0x00, 0x0d, 0x00, 0x00, 0x00, 0x2a, 0xfe, 0xff, 0xff,
  0x08, 0x00, 0x00, 0x00, 0x0c, 0x00, 0x00, 0x00, 0x01, 0x00, 0x00, 0x00,
  0x1b, 0x00, 0x00, 0x00, 0x02, 0x00, 0x00, 0x00, 0x1a, 0x00, 0x00, 0x00,
  0x05, 0x00, 0x00, 0x00, 0x96, 0xfe, 0xff, 0xff, 0x14, 0x00, 0x00, 0x00,
  0x00, 0x00, 0x00, 0x05, 0x24, 0x00, 0x00, 0x00, 0x28, 0x00, 0x00, 0x00,
  0x02, 0x00, 0x00, 0x00, 0x42, 0xff, 0xff, 0xff, 0x03, 0x00, 0x00, 0x00,
  0x01, 0x00, 0x00, 0x00, 0x03, 0x00, 0x00, 0x00, 0x01, 0x00, 0x00, 0x00,
  0x00, 0x00, 0x00, 0x01, 0x01, 0x00, 0x00, 0x00, 0x1a, 0x00, 0x00, 0x00,
  0x01, 0x00, 0x00, 0x00, 0x19, 0x00, 0x00, 0x00, 0x8a, 0xfe, 0xff, 0xff,
  0x08, 0x00, 0x00, 0x00, 0x0c, 0x00, 0x00, 0x00, 0x01, 0x00, 0x00, 0x00,
  0x19, 0x00, 0x00, 0x00, 0x02, 0x00, 0x00, 0x00, 0x18, 0x00, 0x00, 0x00,
  0x04, 0x00, 0x00, 0x00, 0xf6, 0xfe, 0xff, 0xff, 0x14, 0x00, 0x00, 0x00,
  0x00, 0x00, 0x00, 0x01, 0x18, 0x00, 0x00, 0x00, 0x1c, 0x00, 0x00, 0x00,
  0x01, 0x00, 0x00, 0x00, 0xc2, 0xfe, 0xff, 0xff, 0x01, 0x00, 0x00, 0x00,
  0x01, 0x00, 0x00, 0x00, 0x01, 0x00, 0x00, 0x00, 0x18, 0x00, 0x00, 0x00,
  0x03, 0x00, 0x00, 0x00, 0x17, 0x00, 0x00, 0x00, 0x0a, 0x00, 0x00, 0x00,
  0x0b, 0x00, 0x00, 0x00, 0xe6, 0xfe, 0xff, 0xff, 0x08, 0x00, 0x00, 0x00,
  0x0c, 0x00, 0x00, 0x00, 0x01, 0x00, 0x00, 0x00, 0x17, 0x00, 0x00, 0x00,
  0x02, 0x00, 0x00, 0x00, 0x16, 0x00, 0x00, 0x00, 0x03, 0x00, 0x00, 0x00,
  0x52, 0xff, 0xff, 0xff, 0x24, 0x00, 0x00, 0x00, 0x00, 0x00, 0x00, 0x05,
  0x34, 0x00, 0x00, 0x00, 0x38, 0x00, 0x00, 0x00, 0x02, 0x00, 0x00, 0x00,
  0x00, 0x00, 0x0e, 0x00, 0x18, 0x00, 0x17, 0x00, 0x10, 0x00, 0x0c, 0x00,
  0x08, 0x00, 0x04, 0x00, 0x0e, 0x00, 0x00, 0x00, 0x04, 0x00, 0x00, 0x00,
  0x01, 0x00, 0x00, 0x00, 0x04, 0x00, 0x00, 0x00, 0x01, 0x00, 0x00, 0x00,
  0x00, 0x00, 0x00, 0x01, 0x01, 0x00, 0x00, 0x00, 0x16, 0x00, 0x00, 0x00,
  0x01, 0x00, 0x00, 0x00, 0x15, 0x00, 0x00, 0x00, 0x56, 0xff, 0xff, 0xff,
  0x08, 0x00, 0x00, 0x00, 0x0c, 0x00, 0x00, 0x00, 0x01, 0x00, 0x00, 0x00,
  0x15, 0x00, 0x00, 0x00, 0x02, 0x00, 0x00, 0x00, 0x14, 0x00, 0x00, 0x00,
  0x02, 0x00, 0x00, 0x00, 0xc2, 0xff, 0xff, 0xff, 0x14, 0x00, 0x00, 0x00,
  0x00, 0x00, 0x00, 0x01, 0x18, 0x00, 0x00, 0x00, 0x1c, 0x00, 0x00, 0x00,
  0x01, 0x00, 0x00, 0x00, 0x8e, 0xff, 0xff, 0xff, 0x01, 0x00, 0x00, 0x00,
  0x01, 0x00, 0x00, 0x00, 0x01, 0x00, 0x00, 0x00, 0x14, 0x00, 0x00, 0x00,
  0x03, 0x00, 0x00, 0x00, 0x13, 0x00, 0x00, 0x00, 0x08, 0x00, 0x00, 0x00,
  0x09, 0x00, 0x00, 0x00, 0x00, 0x00, 0x0e, 0x00, 0x18, 0x00, 0x14, 0x00,
  0x10, 0x00, 0x0c, 0x00, 0x0b, 0x00, 0x04, 0x00, 0x0e, 0x00, 0x00, 0x00,
  0x14, 0x00, 0x00, 0x00, 0x00, 0x00, 0x00, 0x01, 0x18, 0x00, 0x00, 0x00,
  0x1c, 0x00, 0x00, 0x00, 0x01, 0x00, 0x00, 0x00, 0xda, 0xff, 0xff, 0xff,
  0x01, 0x00, 0x00, 0x00, 0x01, 0x00, 0x00, 0x00, 0x01, 0x00, 0x00, 0x00,
  0x13, 0x00, 0x00, 0x00, 0x03, 0x00, 0x00, 0x00, 0x12, 0x00, 0x00, 0x00,
  0x06, 0x00, 0x00, 0x00, 0x07, 0x00, 0x00, 0x00, 0x00, 0x00, 0x0a, 0x00,
  0x0c, 0x00, 0x00, 0x00, 0x08, 0x00, 0x04, 0x00, 0x0a, 0x00, 0x00, 0x00,
  0x08, 0x00, 0x00, 0x00, 0x0c, 0x00, 0x00, 0x00, 0x01, 0x00, 0x00, 0x00,
  0x12, 0x00, 0x00, 0x00, 0x02, 0x00, 0x00, 0x00, 0x00, 0x00, 0x00, 0x00,
  0x01, 0x00, 0x00, 0x00, 0x01, 0x00, 0x00, 0x00, 0x1e, 0x00, 0x00, 0x00,
  0x01, 0x00, 0x00, 0x00, 0x00, 0x00, 0x00, 0x00, 0x1f, 0x00, 0x00, 0x00,
  0xb0, 0x10, 0x00, 0x00, 0x44, 0x10, 0x00, 0x00, 0xec, 0x0f, 0x00, 0x00,
  0x94, 0x0f, 0x00, 0x00, 0x3c, 0x0f, 0x00, 0x00, 0xf0, 0x0e, 0x00, 0x00,
  0x54, 0x0e, 0x00, 0x00, 0x68, 0x0d, 0x00, 0x00, 0xcc, 0x0c, 0x00, 0x00,
  0xc0, 0x0b, 0x00, 0x00, 0x24, 0x0b, 0x00, 0x00, 0x18, 0x0a, 0x00, 0x00,
  0xac, 0x09, 0x00, 0x00, 0x50, 0x09, 0x00, 0x00, 0xe4, 0x08, 0x00, 0x00,
  0x88, 0x08, 0x00, 0x00, 0x1c, 0x08, 0x00, 0x00, 0xc0, 0x07, 0x00, 0x00,
  0x3c, 0x07, 0x00, 0x00, 0x68, 0x06, 0x00, 0x00, 0x74, 0x05, 0x00, 0x00,
  0xf0, 0x04, 0x00, 0x00, 0x74, 0x04, 0x00, 0x00, 0xf0, 0x03, 0x00, 0x00,
  0xfc, 0x02, 0x00, 0x00, 0x78, 0x02, 0x00, 0x00, 0xfc, 0x01, 0x00, 0x00,
  0x88, 0x01, 0x00, 0x00, 0xfc, 0x00, 0x00, 0x00, 0x70, 0x00, 0x00, 0x00,
  0x04, 0x00, 0x00, 0x00, 0xda, 0xef, 0xff, 0xff, 0x14, 0x00, 0x00, 0x00,
  0x34, 0x00, 0x00, 0x00, 0x1f, 0x00, 0x00, 0x00, 0x00, 0x00, 0x00, 0x09,
  0x48, 0x00, 0x00, 0x00, 0xcc, 0xef, 0xff, 0xff, 0x08, 0x00, 0x00, 0x00,
  0x14, 0x00, 0x00, 0x00, 0x01, 0x00, 0x00, 0x00, 0x03, 0x00, 0x00, 0x00,
  0x00, 0x00, 0x00, 0x00, 0x00, 0x00, 0x00, 0x00, 0x01, 0x00, 0x00, 0x00,
  0xf2, 0xbd, 0xa2, 0x3c, 0x19, 0x00, 0x00, 0x00, 0x53, 0x74, 0x61, 0x74,
  0x65, 0x66, 0x75, 0x6c, 0x50, 0x61, 0x72, 0x74, 0x69, 0x74, 0x69, 0x6f,
  0x6e, 0x65, 0x64, 0x43, 0x61, 0x6c, 0x6c, 0x3a, 0x30, 0x00, 0x00, 0x00,
  0x02, 0x00, 0x00, 0x00, 0x01, 0x00, 0x00, 0x00, 0x03, 0x00, 0x00, 0x00,
  0x42, 0xf0, 0xff, 0xff, 0x14, 0x00, 0x00, 0x00, 0x30, 0x00, 0x00, 0x00,
  0x1e, 0x00, 0x00, 0x00, 0x00, 0x00, 0x00, 0x09, 0x68, 0x00, 0x00, 0x00,
  0x34, 0xf0, 0xff, 0xff, 0x08, 0x00, 0x00, 0x00, 0x10, 0x00, 0x00, 0x00,
  0x01, 0x00, 0x00, 0x00, 0x0e, 0x00, 0x00, 0x00, 0x00, 0x00, 0x00, 0x00,
  0x01, 0x00, 0x00, 0x00, 0x0b, 0xc3, 0x88, 0x3c, 0x3e, 0x00, 0x00, 0x00,
  0x70, 0x72, 0x65, 0x64, 0x69, 0x63, 0x74, 0x6f, 0x72, 0x5f, 0x6d, 0x6f,
  0x64, 0x65, 0x6c, 0x2f, 0x64, 0x65, 0x6e, 0x73, 0x65, 0x5f, 0x32, 0x2f,
  0x4d, 0x61, 0x74, 0x4d, 0x75, 0x6c, 0x3b, 0x70, 0x72, 0x65, 0x64, 0x69,
  0x63, 0x74, 0x6f, 0x72, 0x5f, 0x6d, 0x6f, 0x64, 0x65, 0x6c, 0x2f, 0x64,
  0x65, 0x6e, 0x73, 0x65, 0x5f, 0x32, 0x2f, 0x42, 0x69, 0x61, 0x73, 0x41,
  0x64, 0x64, 0x00, 0x00, 0x02, 0x00, 0x00, 0x00, 0x01, 0x00, 0x00, 0x00,
  0x10, 0x00, 0x00, 0x00, 0xca, 0xf0, 0xff, 0xff, 0x14, 0x00, 0x00, 0x00,
  0x30, 0x00, 0x00, 0x00, 0x1d, 0x00, 0x00, 0x00, 0x00, 0x00, 0x00, 0x09,
  0x68, 0x00, 0x00, 0x00, 0xbc, 0xf0, 0xff, 0xff, 0x08, 0x00, 0x00, 0x00,
  0x10, 0x00, 0x00, 0x00, 0x01, 0x00, 0x00, 0x00, 0x01, 0x00, 0x00, 0x00,
  0x00, 0x00, 0x00, 0x00, 0x01, 0x00, 0x00, 0x00, 0x6f, 0xf9, 0x63, 0x3c,
  0x3e, 0x00, 0x00, 0x00, 0x70, 0x72, 0x65, 0x64, 0x69, 0x63, 0x74, 0x6f,
  0x72, 0x5f, 0x6d, 0x6f, 0x64, 0x65, 0x6c, 0x2f, 0x64, 0x65, 0x6e, 0x73,
  0x65, 0x5f, 0x31, 0x2f, 0x4d, 0x61, 0x74, 0x4d, 0x75, 0x6c, 0x3b, 0x70,
  0x72, 0x65, 0x64, 0x69, 0x63, 0x74, 0x6f, 0x72, 0x5f, 0x6d, 0x6f, 0x64,
  0x65, 0x6c, 0x2f, 0x64, 0x65, 0x6e, 0x73, 0x65, 0x5f, 0x31, 0x2f, 0x42,
  0x69, 0x61, 0x73, 0x41, 0x64, 0x64, 0x00, 0x00, 0x02, 0x00, 0x00, 0x00,
  0x01, 0x00, 0x00, 0x00, 0x40, 0x00, 0x00, 0x00, 0x52, 0xf1, 0xff, 0xff,
  0x14, 0x00, 0x00, 0x00, 0x34, 0x00, 0x00, 0x00, 0x1c, 0x00, 0x00, 0x00,
  0x00, 0x00, 0x00, 0x09, 0x50, 0x00, 0x00, 0x00, 0x44, 0xf1, 0xff, 0xff,
  0x08, 0x00, 0x00, 0x00, 0x14, 0x00, 0x00, 0x00, 0x01, 0x00, 0x00, 0x00,
  0xff, 0xff, 0xff, 0xff, 0xff, 0xff, 0xff, 0xff, 0x00, 0x00, 0x00, 0x00,
  0x01, 0x00, 0x00, 0x00, 0x7c, 0x1d, 0xf9, 0x3c, 0x21, 0x00, 0x00, 0x00,
  0x70, 0x72, 0x65, 0x64, 0x69, 0x63, 0x74, 0x6f, 0x72, 0x5f, 0x6d, 0x6f,
  0x64, 0x65, 0x6c, 0x2f, 0x66, 0x6c, 0x61, 0x74, 0x74, 0x65, 0x6e, 0x5f,
  0x31, 0x2f, 0x52, 0x65, 0x73, 0x68, 0x61, 0x70, 0x65, 0x00, 0x00, 0x00,
  0x02, 0x00, 0x00, 0x00, 0x01, 0x00, 0x00, 0x00, 0x08, 0x00, 0x00, 0x00,
  0xc2, 0xf1, 0xff, 0xff, 0x14, 0x00, 0x00, 0x00, 0x30, 0x00, 0x00, 0x00,
  0x1b, 0x00, 0x00, 0x00, 0x00, 0x00, 0x00, 0x09, 0x50, 0x00, 0x00, 0x00,
  0xb4, 0xf1, 0xff, 0xff, 0x08, 0x00, 0x00, 0x00, 0x10, 0x00, 0x00, 0x00,
  0x01, 0x00, 0x00, 0x00, 0xff, 0xff, 0xff, 0xff, 0xff, 0xff, 0xff, 0xff,
  0x01, 0x00, 0x00, 0x00, 0x7c, 0x1d, 0xf9, 0x3c, 0x27, 0x00, 0x00, 0x00,
  0x70, 0x72, 0x65, 0x64, 0x69, 0x63, 0x74, 0x6f, 0x72, 0x5f, 0x6d, 0x6f,
  0x64, 0x65, 0x6c, 0x2f, 0x6d, 0x61, 0x78, 0x5f, 0x70, 0x6f, 0x6f, 0x6c,
  0x69, 0x6e, 0x67, 0x31, 0x64, 0x5f, 0x34, 0x2f, 0x4d, 0x61, 0x78, 0x50,
  0x6f, 0x6f, 0x6c, 0x00, 0x04, 0x00, 0x00, 0x00, 0x01, 0x00, 0x00, 0x00,
  0x02, 0x00, 0x00, 0x00, 0x01, 0x00, 0x00, 0x00, 0x04, 0x00, 0x00, 0x00,
  0x3a, 0xf2, 0xff, 0xff, 0x14, 0x00, 0x00, 0x00, 0x34, 0x00, 0x00, 0x00,
  0x1a, 0x00, 0x00, 0x00, 0x00, 0x00, 0x00, 0x09, 0x58, 0x00, 0x00, 0x00,
  0x2c, 0xf2, 0xff, 0xff, 0x08, 0x00, 0x00, 0x00, 0x14, 0x00, 0x00, 0x00,
  0x01, 0x00, 0x00, 0x00, 0xff, 0xff, 0xff, 0xff, 0xff, 0xff, 0xff, 0xff,
  0x00, 0x00, 0x00, 0x00, 0x01, 0x00, 0x00, 0x00, 0x7c, 0x1d, 0xf9, 0x3c,
  0x2b, 0x00, 0x00, 0x00, 0x70, 0x72, 0x65, 0x64, 0x69, 0x63, 0x74, 0x6f,
  0x72, 0x5f, 0x6d, 0x6f, 0x64, 0x65, 0x6c, 0x2f, 0x6d, 0x61, 0x78, 0x5f,
  0x70, 0x6f, 0x6f, 0x6c, 0x69, 0x6e, 0x67, 0x31, 0x64, 0x5f, 0x34, 0x2f,
  0x45, 0x78, 0x70, 0x61, 0x6e, 0x64, 0x44, 0x69, 0x6d, 0x73, 0x31, 0x00,
  0x04, 0x00, 0x00, 0x00, 0x01, 0x00, 0x00, 0x00, 0x07, 0x00, 0x00, 0x00,
  0x01, 0x00, 0x00, 0x00, 0x04, 0x00, 0x00, 0x00, 0xba, 0xf2, 0xff, 0xff,
  0x14, 0x00, 0x00, 0x00, 0x30, 0x00, 0x00, 0x00, 0x19, 0x00, 0x00, 0x00,
  0x00, 0x00, 0x00, 0x09, 0xc8, 0x00, 0x00, 0x00, 0xac, 0xf2, 0xff, 0xff,
  0x08, 0x00, 0x00, 0x00, 0x10, 0x00, 0x00, 0x00, 0x01, 0x00, 0x00, 0x00,
  0xff, 0xff, 0xff, 0xff, 0xff, 0xff, 0xff, 0xff, 0x01, 0x00, 0x00, 0x00,
  0x7c, 0x1d, 0xf9, 0x3c, 0x9c, 0x00, 0x00, 0x00, 0x70, 0x72, 0x65, 0x64,
  0x69, 0x63, 0x74, 0x6f, 0x72, 0x5f, 0x6d, 0x6f, 0x64, 0x65, 0x6c, 0x2f,
  0x63, 0x6f, 0x6e, 0x76, 0x31, 0x64, 0x5f, 0x31, 0x38, 0x2f, 0x42, 0x69,
  0x61, 0x73, 0x41, 0x64, 0x64, 0x3b, 0x70, 0x72, 0x65, 0x64, 0x69, 0x63,
  0x74, 0x6f, 0x72, 0x5f, 0x6d, 0x6f, 0x64, 0x65, 0x6c, 0x2f, 0x63, 0x6f,
  0x6e, 0x76, 0x31, 0x64, 0x5f, 0x31, 0x38, 0x2f, 0x63, 0x6f, 0x6e, 0x76,
  0x31, 0x64, 0x2f, 0x53, 0x71, 0x75, 0x65, 0x65, 0x7a, 0x65, 0x3b, 0x63,
  0x6f, 0x6e, 0x76, 0x31, 0x64, 0x5f, 0x31, 0x38, 0x2f, 0x62, 0x69, 0x61,
  0x73, 0x3b, 0x70, 0x72, 0x65, 0x64, 0x69, 0x63, 0x74, 0x6f, 0x72, 0x5f,
  0x6d, 0x6f, 0x64, 0x65, 0x6c, 0x2f, 0x63, 0x6f, 0x6e, 0x76, 0x31, 0x64,
  0x5f, 0x31, 0x36, 0x2f, 0x63, 0x6f, 0x6e, 0x76, 0x31, 0x64, 0x3b, 0x70,
  0x72, 0x65, 0x64, 0x69, 0x63, 0x74, 0x6f, 0x72, 0x5f, 0x6d, 0x6f, 0x64,
  0x65, 0x6c, 0x2f, 0x63, 0x6f, 0x6e, 0x76, 0x31, 0x64, 0x5f, 0x31, 0x38,
  0x2f, 0x63, 0x6f, 0x6e, 0x76, 0x31, 0x64, 0x31, 0x00, 0x00, 0x00, 0x00,
  0x04, 0x00, 0x00, 0x00, 0x01, 0x00, 0x00, 0x00, 0x01, 0x00, 0x00, 0x00,
  0x07, 0x00, 0x00, 0x00, 0x04, 0x00, 0x00, 0x00, 0xaa, 0xf3, 0xff, 0xff,
  0x14, 0x00, 0x00, 0x00, 0x30, 0x00, 0x00, 0x00, 0x18, 0x00, 0x00, 0x00,
  0x00, 0x00, 0x00, 0x09, 0x58, 0x00, 0x00, 0x00, 0x9c, 0xf3, 0xff, 0xff,
  0x08, 0x00, 0x00, 0x00, 0x10, 0x00, 0x00, 0x00, 0x01, 0x00, 0x00, 0x00,
  0xfa, 0xff, 0xff, 0xff, 0xff, 0xff, 0xff, 0xff, 0x01, 0x00, 0x00, 0x00,
  0x4f, 0xc3, 0xbc, 0x3c, 0x2c, 0x00, 0x00, 0x00, 0x70, 0x72, 0x65, 0x64,
  0x69, 0x63, 0x74, 0x6f, 0x72, 0x5f, 0x6d, 0x6f, 0x64, 0x65, 0x6c, 0x2f,
  0x63, 0x6f, 0x6e, 0x76, 0x31, 0x64, 0x5f, 0x31, 0x38, 0x2f, 0x63, 0x6f,
  0x6e, 0x76, 0x31, 0x64, 0x2f, 0x45, 0x78, 0x70, 0x61, 0x6e, 0x64, 0x44,
  0x69, 0x6d, 0x73, 0x31, 0x00, 0x00, 0x00, 0x00, 0x04, 0x00, 0x00, 0x00,
  0x01, 0x00, 0x00, 0x00, 0x01, 0x00, 0x00, 0x00, 0x07, 0x00, 0x00, 0x00,
  0x04, 0x00, 0x00, 0x00, 0x2a, 0xf4, 0xff, 0xff, 0x14, 0x00, 0x00, 0x00,
  0x30, 0x00, 0x00, 0x00, 0x17, 0x00, 0x00, 0x00, 0x00, 0x00, 0x00, 0x09,
  0x50, 0x00, 0x00, 0x00, 0x1c, 0xf4, 0xff, 0xff, 0x08, 0x00, 0x00, 0x00,
  0x10, 0x00, 0x00, 0x00, 0x01, 0x00, 0x00, 0x00, 0xfa, 0xff, 0xff, 0xff,
  0xff, 0xff, 0xff, 0xff, 0x01, 0x00, 0x00, 0x00, 0x4f, 0xc3, 0xbc, 0x3c,
  0x27, 0x00, 0x00, 0x00, 0x70, 0x72, 0x65, 0x64, 0x69, 0x63, 0x74, 0x6f,
  0x72, 0x5f, 0x6d, 0x6f, 0x64, 0x65, 0x6c, 0x2f, 0x6d, 0x61, 0x78, 0x5f,
  0x70, 0x6f, 0x6f, 0x6c, 0x69, 0x6e, 0x67, 0x31, 0x64, 0x5f, 0x33, 0x2f,
  0x4d, 0x61, 0x78, 0x50, 0x6f, 0x6f, 0x6c, 0x00, 0x04, 0x00, 0x00, 0x00,
  0x01, 0x00, 0x00, 0x00, 0x07, 0x00, 0x00, 0x00, 0x01, 0x00, 0x00, 0x00,
  0x04, 0x00, 0x00, 0x00, 0xa2, 0xf4, 0xff, 0xff, 0x14, 0x00, 0x00, 0x00,
  0x34, 0x00, 0x00, 0x00, 0x16, 0x00, 0x00, 0x00, 0x00, 0x00, 0x00, 0x09,
  0x58, 0x00, 0x00, 0x00, 0x94, 0xf4, 0xff, 0xff, 0x08, 0x00, 0x00, 0x00,
  0x14, 0x00, 0x00, 0x00, 0x01, 0x00, 0x00, 0x00, 0xfa, 0xff, 0xff, 0xff,
  0xff, 0xff, 0xff, 0xff, 0x00, 0x00, 0x00, 0x00, 0x01, 0x00, 0x00, 0x00,
  0x4f, 0xc3, 0xbc, 0x3c, 0x2b, 0x00, 0x00, 0x00, 0x70, 0x72, 0x65, 0x64,
  0x69, 0x63, 0x74, 0x6f, 0x72, 0x5f, 0x6d, 0x6f, 0x64, 0x65, 0x6c, 0x2f,
  0x6d, 0x61, 0x78, 0x5f, 0x70, 0x6f, 0x6f, 0x6c, 0x69, 0x6e, 0x67, 0x31,
  0x64, 0x5f, 0x33, 0x2f, 0x45, 0x78, 0x70, 0x61, 0x6e, 0x64, 0x44, 0x69,
  0x6d, 0x73, 0x31, 0x00, 0x04, 0x00, 0x00, 0x00, 0x01, 0x00, 0x00, 0x00,
  0x1e, 0x00, 0x00, 0x00, 0x01, 0x00, 0x00, 0x00, 0x04, 0x00, 0x00, 0x00,
  0x22, 0xf5, 0xff, 0xff, 0x14, 0x00, 0x00, 0x00, 0x30, 0x00, 0x00, 0x00,
  0x15, 0x00, 0x00, 0x00, 0x00, 0x00, 0x00, 0x09, 0xc8, 0x00, 0x00, 0x00,
  0x14, 0xf5, 0xff, 0xff, 0x08, 0x00, 0x00, 0x00, 0x10, 0x00, 0x00, 0x00,
  0x01, 0x00, 0x00, 0x00, 0xfa, 0xff, 0xff, 0xff, 0xff, 0xff, 0xff, 0xff,
  0x01, 0x00, 0x00, 0x00, 0x4f, 0xc3, 0xbc, 0x3c, 0x9c, 0x00, 0x00, 0x00,
  0x70, 0x72, 0x65, 0x64, 0x69, 0x63, 0x74, 0x6f, 0x72, 0x5f, 0x6d, 0x6f,
  0x64, 0x65, 0x6c, 0x2f, 0x63, 0x6f, 0x6e, 0x76, 0x31, 0x64, 0x5f, 0x31,
  0x37, 0x2f, 0x42, 0x69, 0x61, 0x73, 0x41, 0x64, 0x64, 0x3b, 0x70, 0x72,
  0x65, 0x64, 0x69, 0x63, 0x74, 0x6f, 0x72, 0x5f, 0x6d, 0x6f, 0x64, 0x65,
  0x6c, 0x2f, 0x63, 0x6f, 0x6e, 0x76, 0x31, 0x64, 0x5f, 0x31, 0x37, 0x2f,
  0x63, 0x6f, 0x6e, 0x76, 0x31, 0x64, 0x2f, 0x53, 0x71, 0x75, 0x65, 0x65,
  0x7a, 0x65, 0x3b, 0x63, 0x6f, 0x6e, 0x76, 0x31, 0x64, 0x5f, 0x31, 0x37,
  0x2f, 0x62, 0x69, 0x61, 0x73, 0x3b, 0x70, 0x72, 0x65, 0x64, 0x69, 0x63,
  0x74, 0x6f, 0x72, 0x5f, 0x6d, 0x6f, 0x64, 0x65, 0x6c, 0x2f, 0x63, 0x6f,
  0x6e, 0x76, 0x31, 0x64, 0x5f, 0x31, 0x36, 0x2f, 0x63, 0x6f, 0x6e, 0x76,
  0x31, 0x64, 0x3b, 0x70, 0x72, 0x65, 0x64, 0x69, 0x63, 0x74, 0x6f, 0x72,
  0x5f, 0x6d, 0x6f, 0x64, 0x65, 0x6c, 0x2f, 0x63, 0x6f, 0x6e, 0x76, 0x31,
  0x64, 0x5f, 0x31, 0x37, 0x2f, 0x63, 0x6f, 0x6e, 0x76, 0x31, 0x64, 0x31,
  0x00, 0x00, 0x00, 0x00, 0x04, 0x00, 0x00, 0x00, 0x01, 0x00, 0x00, 0x00,
  0x01, 0x00, 0x00, 0x00, 0x1e, 0x00, 0x00, 0x00, 0x04, 0x00, 0x00, 0x00,
  0x12, 0xf6, 0xff, 0xff, 0x14, 0x00, 0x00, 0x00, 0x34, 0x00, 0x00, 0x00,
  0x14, 0x00, 0x00, 0x00, 0x00, 0x00, 0x00, 0x09, 0xa8, 0x00, 0x00, 0x00,
  0x04, 0xf6, 0xff, 0xff, 0x08, 0x00, 0x00, 0x00, 0x14, 0x00, 0x00, 0x00,
  0x01, 0x00, 0x00, 0x00, 0x08, 0x00, 0x00, 0x00, 0x00, 0x00, 0x00, 0x00,
  0x00, 0x00, 0x00, 0x00, 0x01, 0x00, 0x00, 0x00, 0x71, 0x5c, 0x1e, 0x3d,
  0x7b, 0x00, 0x00, 0x00, 0x70, 0x72, 0x65, 0x64, 0x69, 0x63, 0x74, 0x6f,
  0x72, 0x5f, 0x6d, 0x6f, 0x64, 0x65, 0x6c, 0x2f, 0x63, 0x6f, 0x6e, 0x76,
  0x31, 0x64, 0x5f, 0x31, 0x36, 0x2f, 0x42, 0x69, 0x61, 0x73, 0x41, 0x64,
  0x64, 0x3b, 0x70, 0x72, 0x65, 0x64, 0x69, 0x63, 0x74, 0x6f, 0x72, 0x5f,
  0x6d, 0x6f, 0x64, 0x65, 0x6c, 0x2f, 0x63, 0x6f, 0x6e, 0x76, 0x31, 0x64,
  0x5f, 0x31, 0x36, 0x2f, 0x63, 0x6f, 0x6e, 0x76, 0x31, 0x64, 0x2f, 0x53,
  0x71, 0x75, 0x65, 0x65, 0x7a, 0x65, 0x3b, 0x63, 0x6f, 0x6e, 0x76, 0x31,
  0x64, 0x5f, 0x31, 0x36, 0x2f, 0x62, 0x69, 0x61, 0x73, 0x3b, 0x70, 0x72,
  0x65, 0x64, 0x69, 0x63, 0x74, 0x6f, 0x72, 0x5f, 0x6d, 0x6f, 0x64, 0x65,
  0x6c, 0x2f, 0x63, 0x6f, 0x6e, 0x76, 0x31, 0x64, 0x5f, 0x31, 0x36, 0x2f,
  0x63, 0x6f, 0x6e, 0x76, 0x31, 0x64, 0x31, 0x00, 0x04, 0x00, 0x00, 0x00,
  0x01, 0x00, 0x00, 0x00, 0x01, 0x00, 0x00, 0x00, 0x1e, 0x00, 0x00, 0x00,
  0x04, 0x00, 0x00, 0x00, 0xe2, 0xf6, 0xff, 0xff, 0x14, 0x00, 0x00, 0x00,
  0x30, 0x00, 0x00, 0x00, 0x13, 0x00, 0x00, 0x00, 0x00, 0x00, 0x00, 0x09,
  0x58, 0x00, 0x00, 0x00, 0xd4, 0xf6, 0xff, 0xff, 0x08, 0x00, 0x00, 0x00,
  0x10, 0x00, 0x00, 0x00, 0x01, 0x00, 0x00, 0x00, 0x0b, 0x00, 0x00, 0x00,
  0x00, 0x00, 0x00, 0x00, 0x01, 0x00, 0x00, 0x00, 0xbc, 0x40, 0x46, 0x3d,
  0x2c, 0x00, 0x00, 0x00, 0x70, 0x72, 0x65, 0x64, 0x69, 0x63, 0x74, 0x6f,
  0x72, 0x5f, 0x6d, 0x6f, 0x64, 0x65, 0x6c, 0x2f, 0x63, 0x6f, 0x6e, 0x76,
  0x31, 0x64, 0x5f, 0x31, 0x36, 0x2f, 0x63, 0x6f, 0x6e, 0x76, 0x31, 0x64,
  0x2f, 0x45, 0x78, 0x70, 0x61, 0x6e, 0x64, 0x44, 0x69, 0x6d, 0x73, 0x31,
  0x00, 0x00, 0x00, 0x00, 0x04, 0x00, 0x00, 0x00, 0x01, 0x00, 0x00, 0x00,
  0x01, 0x00, 0x00, 0x00, 0x1e, 0x00, 0x00, 0x00, 0x06, 0x00, 0x00, 0x00,
  0x62, 0xf7, 0xff, 0xff, 0x14, 0x00, 0x00, 0x00, 0x34, 0x00, 0x00, 0x00,
  0x12, 0x00, 0x00, 0x00, 0x00, 0x00, 0x00, 0x02, 0x3c, 0x00, 0x00, 0x00,
  0x54, 0xf7, 0xff, 0xff, 0x08, 0x00, 0x00, 0x00, 0x14, 0x00, 0x00, 0x00,
  0x01, 0x00, 0x00, 0x00, 0x00, 0x00, 0x00, 0x00, 0x00, 0x00, 0x00, 0x00,
  0x00, 0x00, 0x00, 0x00, 0x01, 0x00, 0x00, 0x00, 0xde, 0xd0, 0x97, 0x38,
  0x0c, 0x00, 0x00, 0x00, 0x64, 0x65, 0x6e, 0x73, 0x65, 0x5f, 0x33, 0x2f,
  0x62, 0x69, 0x61, 0x73, 0x00, 0x00, 0x00, 0x00, 0x01, 0x00, 0x00, 0x00,
  0x03, 0x00, 0x00, 0x00, 0xba, 0xf7, 0xff, 0xff, 0x14, 0x00, 0x00, 0x00,
  0x30, 0x00, 0x00, 0x00, 0x11, 0x00, 0x00, 0x00, 0x00, 0x00, 0x00, 0x09,
  0x48, 0x00, 0x00, 0x00, 0xac, 0xf7, 0xff, 0xff, 0x08, 0x00, 0x00, 0x00,
  0x10, 0x00, 0x00, 0x00, 0x01, 0x00, 0x00, 0x00, 0x00, 0x00, 0x00, 0x00,
  0x00, 0x00, 0x00, 0x00, 0x01, 0x00, 0x00, 0x00, 0xec, 0x16, 0x8e, 0x3b,
  0x1e, 0x00, 0x00, 0x00, 0x70, 0x72, 0x65, 0x64, 0x69, 0x63, 0x74, 0x6f,
  0x72, 0x5f, 0x6d, 0x6f, 0x64, 0x65, 0x6c, 0x2f, 0x64, 0x65, 0x6e, 0x73,
  0x65, 0x5f, 0x33, 0x2f, 0x4d, 0x61, 0x74, 0x4d, 0x75, 0x6c, 0x00, 0x00,
  0x02, 0x00, 0x00, 0x00, 0x03, 0x00, 0x00, 0x00, 0x10, 0x00, 0x00, 0x00,
  0x22, 0xf8, 0xff, 0xff, 0x14, 0x00, 0x00, 0x00, 0x34, 0x00, 0x00, 0x00,
  0x10, 0x00, 0x00, 0x00, 0x00, 0x00, 0x00, 0x02, 0x3c, 0x00, 0x00, 0x00,
  0x14, 0xf8, 0xff, 0xff, 0x08, 0x00, 0x00, 0x00, 0x14, 0x00, 0x00, 0x00,
  0x01, 0x00, 0x00, 0x00, 0x00, 0x00, 0x00, 0x00, 0x00, 0x00, 0x00, 0x00,
  0x00, 0x00, 0x00, 0x00, 0x01, 0x00, 0x00, 0x00, 0x48, 0xda, 0x19, 0x38,
  0x0c, 0x00, 0x00, 0x00, 0x64, 0x65, 0x6e, 0x73, 0x65, 0x5f, 0x32, 0x2f,
  0x62, 0x69, 0x61, 0x73, 0x00, 0x00, 0x00, 0x00, 0x01, 0x00, 0x00, 0x00,
  0x10, 0x00, 0x00, 0x00, 0x7a, 0xf8, 0xff, 0xff, 0x14, 0x00, 0x00, 0x00,
  0x30, 0x00, 0x00, 0x00, 0x0f, 0x00, 0x00, 0x00, 0x00, 0x00, 0x00, 0x09,
  0x48, 0x00, 0x00, 0x00, 0x6c, 0xf8, 0xff, 0xff, 0x08, 0x00, 0x00, 0x00,
  0x10, 0x00, 0x00, 0x00, 0x01, 0x00, 0x00, 0x00, 0x00, 0x00, 0x00, 0x00,
  0x00, 0x00, 0x00, 0x00, 0x01, 0x00, 0x00, 0x00, 0x2b, 0xc4, 0x2c, 0x3b,
  0x1e, 0x00, 0x00, 0x00, 0x70, 0x72, 0x65, 0x64, 0x69, 0x63, 0x74, 0x6f,
  0x72, 0x5f, 0x6d, 0x6f, 0x64, 0x65, 0x6c, 0x2f, 0x64, 0x65, 0x6e, 0x73,
  0x65, 0x5f, 0x32, 0x2f, 0x4d, 0x61, 0x74, 0x4d, 0x75, 0x6c, 0x00, 0x00,
  0x02, 0x00, 0x00, 0x00, 0x10, 0x00, 0x00, 0x00, 0x40, 0x00, 0x00, 0x00,
  0xe2, 0xf8, 0xff, 0xff, 0x14, 0x00, 0x00, 0x00, 0x34, 0x00, 0x00, 0x00,
  0x0e, 0x00, 0x00, 0x00, 0x00, 0x00, 0x00, 0x02, 0x3c, 0x00, 0x00, 0x00,
  0xd4, 0xf8, 0xff, 0xff, 0x08, 0x00, 0x00, 0x00, 0x14, 0x00, 0x00, 0x00,
  0x01, 0x00, 0x00, 0x00, 0x00, 0x00, 0x00, 0x00, 0x00, 0x00, 0x00, 0x00,
  0x00, 0x00, 0x00, 0x00, 0x01, 0x00, 0x00, 0x00, 0xaa, 0x53, 0xae, 0x38,
  0x0c, 0x00, 0x00, 0x00, 0x64, 0x65, 0x6e, 0x73, 0x65, 0x5f, 0x31, 0x2f,
  0x62, 0x69, 0x61, 0x73, 0x00, 0x00, 0x00, 0x00, 0x01, 0x00, 0x00, 0x00,
  0x40, 0x00, 0x00, 0x00, 0x3a, 0xf9, 0xff, 0xff, 0x14, 0x00, 0x00, 0x00,
  0x30, 0x00, 0x00, 0x00, 0x0d, 0x00, 0x00, 0x00, 0x00, 0x00, 0x00, 0x09,
  0x48, 0x00, 0x00, 0x00, 0x2c, 0xf9, 0xff, 0xff, 0x08, 0x00, 0x00, 0x00,
  0x10, 0x00, 0x00, 0x00, 0x01, 0x00, 0x00, 0x00, 0x00, 0x00, 0x00, 0x00,
  0x00, 0x00, 0x00, 0x00, 0x01, 0x00, 0x00, 0x00, 0x0b, 0x25, 0x33, 0x3b,
  0x1e, 0x00, 0x00, 0x00, 0x70, 0x72, 0x65, 0x64, 0x69, 0x63, 0x74, 0x6f,
  0x72, 0x5f, 0x6d, 0x6f, 0x64, 0x65, 0x6c, 0x2f, 0x64, 0x65, 0x6e, 0x73,
  0x65, 0x5f, 0x31, 0x2f, 0x4d, 0x61, 0x74, 0x4d, 0x75, 0x6c, 0x00, 0x00,
  0x02, 0x00, 0x00, 0x00, 0x40, 0x00, 0x00, 0x00, 0x08, 0x00, 0x00, 0x00,
  0xa2, 0xf9, 0xff, 0xff, 0x14, 0x00, 0x00, 0x00, 0x58, 0x00, 0x00, 0x00,
  0x0c, 0x00, 0x00, 0x00, 0x00, 0x00, 0x00, 0x02, 0xec, 0x00, 0x00, 0x00,
  0x94, 0xf9, 0xff, 0xff, 0x08, 0x00, 0x00, 0x00, 0x2c, 0x00, 0x00, 0x00,
  0x04, 0x00, 0x00, 0x00, 0x00, 0x00, 0x00, 0x00, 0x00, 0x00, 0x00, 0x00,
  0x00, 0x00, 0x00, 0x00, 0x00, 0x00, 0x00, 0x00, 0x00, 0x00, 0x00, 0x00,
  0x00, 0x00, 0x00, 0x00, 0x00, 0x00, 0x00, 0x00, 0x00, 0x00, 0x00, 0x00,
  0x00, 0x00, 0x00, 0x00, 0x04, 0x00, 0x00, 0x00, 0x2a, 0x71, 0xe5, 0x38,
  0x9e, 0x99, 0x21, 0x39, 0xb4, 0xda, 0xa8, 0x38, 0x5f, 0x01, 0x25, 0x39,
  0x9b, 0x00, 0x00, 0x00, 0x70, 0x72, 0x65, 0x64, 0x69, 0x63, 0x74, 0x6f,
  0x72, 0x5f, 0x6d, 0x6f, 0x64, 0x65, 0x6c, 0x2f, 0x63, 0x6f, 0x6e, 0x76,
  0x31, 0x64, 0x5f, 0x31, 0x38, 0x2f, 0x42, 0x69, 0x61, 0x73, 0x41, 0x64,
  0x64, 0x3b, 0x70, 0x72, 0x65, 0x64, 0x69, 0x63, 0x74, 0x6f, 0x72, 0x5f,
  0x6d, 0x6f, 0x64, 0x65, 0x6c, 0x2f, 0x63, 0x6f, 0x6e, 0x76, 0x31, 0x64,
  0x5f, 0x31, 0x38, 0x2f, 0x63, 0x6f, 0x6e, 0x76, 0x31, 0x64, 0x2f, 0x53,
  0x71, 0x75, 0x65, 0x65, 0x7a, 0x65, 0x3b, 0x63, 0x6f, 0x6e, 0x76, 0x31,
  0x64, 0x5f, 0x31, 0x38, 0x2f, 0x62, 0x69, 0x61, 0x73, 0x3b, 0x70, 0x72,
  0x65, 0x64, 0x69, 0x63, 0x74, 0x6f, 0x72, 0x5f, 0x6d, 0x6f, 0x64, 0x65,
  0x6c, 0x2f, 0x63, 0x6f, 0x6e, 0x76, 0x31, 0x64, 0x5f, 0x31, 0x36, 0x2f,
  0x63, 0x6f, 0x6e, 0x76, 0x31, 0x64, 0x3b, 0x70, 0x72, 0x65, 0x64, 0x69,
  0x63, 0x74, 0x6f, 0x72, 0x5f, 0x6d, 0x6f, 0x64, 0x65, 0x6c, 0x2f, 0x63,
  0x6f, 0x6e, 0x76, 0x31, 0x64, 0x5f, 0x31, 0x38, 0x2f, 0x63, 0x6f, 0x6e,
  0x76, 0x31, 0x64, 0x00, 0x01, 0x00, 0x00, 0x00, 0x04, 0x00, 0x00, 0x00,
  0xaa, 0xfa, 0xff, 0xff, 0x14, 0x00, 0x00, 0x00, 0x54, 0x00, 0x00, 0x00,
  0x0b, 0x00, 0x00, 0x00, 0x00, 0x00, 0x00, 0x09, 0x70, 0x00, 0x00, 0x00,
  0x9c, 0xfa, 0xff, 0xff, 0x08, 0x00, 0x00, 0x00, 0x28, 0x00, 0x00, 0x00,
  0x04, 0x00, 0x00, 0x00, 0x00, 0x00, 0x00, 0x00, 0x00, 0x00, 0x00, 0x00,
  0x00, 0x00, 0x00, 0x00, 0x00, 0x00, 0x00, 0x00, 0x00, 0x00, 0x00, 0x00,
  0x00, 0x00, 0x00, 0x00, 0x00, 0x00, 0x00, 0x00, 0x00, 0x00, 0x00, 0x00,
  0x04, 0x00, 0x00, 0x00, 0xa1, 0x95, 0x9b, 0x3b, 0x6a, 0x29, 0xdb, 0x3b,
  0xfe, 0xff, 0x64, 0x3b, 0xaf, 0xc7, 0xdf, 0x3b, 0x20, 0x00, 0x00, 0x00,
  0x70, 0x72, 0x65, 0x64, 0x69, 0x63, 0x74, 0x6f, 0x72, 0x5f, 0x6d, 0x6f,
  0x64, 0x65, 0x6c, 0x2f, 0x63, 0x6f, 0x6e, 0x76, 0x31, 0x64, 0x5f, 0x31,
  0x38, 0x2f, 0x63, 0x6f, 0x6e, 0x76, 0x31, 0x64, 0x00, 0x00, 0x00, 0x00,
  0x04, 0x00, 0x00, 0x00, 0x04, 0x00, 0x00, 0x00, 0x01, 0x00, 0x00, 0x00,
  0x0a, 0x00, 0x00, 0x00, 0x04, 0x00, 0x00, 0x00, 0x42, 0xfb, 0xff, 0xff,
  0x14, 0x00, 0x00, 0x00, 0x58, 0x00, 0x00, 0x00, 0x0a, 0x00, 0x00, 0x00,
  0x00, 0x00, 0x00, 0x02, 0xec, 0x00, 0x00, 0x00, 0x34, 0xfb, 0xff, 0xff,
  0x08, 0x00, 0x00, 0x00, 0x2c, 0x00, 0x00, 0x00, 0x04, 0x00, 0x00, 0x00,
  0x00, 0x00, 0x00, 0x00, 0x00, 0x00, 0x00, 0x00, 0x00, 0x00, 0x00, 0x00,
  0x00, 0x00, 0x00, 0x00, 0x00, 0x00, 0x00, 0x00, 0x00, 0x00, 0x00, 0x00,
  0x00, 0x00, 0x00, 0x00, 0x00, 0x00, 0x00, 0x00, 0x00, 0x00, 0x00, 0x00,
  0x04, 0x00, 0x00, 0x00, 0x7c, 0x0a, 0xc5, 0x38, 0x23, 0x5f, 0x0c, 0x39,
  0x11, 0x92, 0x0e, 0x39, 0x70, 0xa1, 0xf9, 0x38, 0x9b, 0x00, 0x00, 0x00,
  0x70, 0x72, 0x65, 0x64, 0x69, 0x63, 0x74, 0x6f, 0x72, 0x5f, 0x6d, 0x6f,
  0x64, 0x65, 0x6c, 0x2f, 0x63, 0x6f, 0x6e, 0x76, 0x31, 0x64, 0x5f, 0x31,
  0x37, 0x2f, 0x42, 0x69, 0x61, 0x73, 0x41, 0x64, 0x64, 0x3b, 0x70, 0x72,
  0x65, 0x64, 0x69, 0x63, 0x74, 0x6f, 0x72, 0x5f, 0x6d, 0x6f, 0x64, 0x65,
  0x6c, 0x2f, 0x63, 0x6f, 0x6e, 0x76, 0x31, 0x64, 0x5f, 0x31, 0x37, 0x2f,
  0x63, 0x6f, 0x6e, 0x76, 0x31, 0x64, 0x2f, 0x53, 0x71, 0x75, 0x65, 0x65,
  0x7a, 0x65, 0x3b, 0x63, 0x6f, 0x6e, 0x76, 0x31, 0x64, 0x5f, 0x31, 0x37,
  0x2f, 0x62, 0x69, 0x61, 0x73, 0x3b, 0x70, 0x72, 0x65, 0x64, 0x69, 0x63,
  0x74, 0x6f, 0x72, 0x5f, 0x6d, 0x6f, 0x64, 0x65, 0x6c, 0x2f, 0x63, 0x6f,
  0x6e, 0x76, 0x31, 0x64, 0x5f, 0x31, 0x36, 0x2f, 0x63, 0x6f, 0x6e, 0x76,
  0x31, 0x64, 0x3b, 0x70, 0x72, 0x65, 0x64, 0x69, 0x63, 0x74, 0x6f, 0x72,
  0x5f, 0x6d, 0x6f, 0x64, 0x65, 0x6c, 0x2f, 0x63, 0x6f, 0x6e, 0x76, 0x31,
  0x64, 0x5f, 0x31, 0x37, 0x2f, 0x63, 0x6f, 0x6e, 0x76, 0x31, 0x64, 0x00,
  0x01, 0x00, 0x00, 0x00, 0x04, 0x00, 0x00, 0x00, 0x4a, 0xfc, 0xff, 0xff,
  0x14, 0x00, 0x00, 0x00, 0x54, 0x00, 0x00, 0x00, 0x09, 0x00, 0x00, 0x00,
  0x00, 0x00, 0x00, 0x09, 0x70, 0x00, 0x00, 0x00, 0x3c, 0xfc, 0xff, 0xff,
  0x08, 0x00, 0x00, 0x00, 0x28, 0x00, 0x00, 0x00, 0x04, 0x00, 0x00, 0x00,
  0x00, 0x00, 0x00, 0x00, 0x00, 0x00, 0x00, 0x00, 0x00, 0x00, 0x00, 0x00,
  0x00, 0x00, 0x00, 0x00, 0x00, 0x00, 0x00, 0x00, 0x00, 0x00, 0x00, 0x00,
  0x00, 0x00, 0x00, 0x00, 0x00, 0x00, 0x00, 0x00, 0x04, 0x00, 0x00, 0x00,
  0x9e, 0x43, 0x1f, 0x3b, 0x42, 0xeb, 0x62, 0x3b, 0x44, 0x79, 0x66, 0x3b,
  0x71, 0xc5, 0x49, 0x3b, 0x20, 0x00, 0x00, 0x00, 0x70, 0x72, 0x65, 0x64,
  0x69, 0x63, 0x74, 0x6f, 0x72, 0x5f, 0x6d, 0x6f, 0x64, 0x65, 0x6c, 0x2f,
  0x63, 0x6f, 0x6e, 0x76, 0x31, 0x64, 0x5f, 0x31, 0x37, 0x2f, 0x63, 0x6f,
  0x6e, 0x76, 0x31, 0x64, 0x00, 0x00, 0x00, 0x00, 0x04, 0x00, 0x00, 0x00,
  0x04, 0x00, 0x00, 0x00, 0x01, 0x00, 0x00, 0x00, 0x0a, 0x00, 0x00, 0x00,
  0x04, 0x00, 0x00, 0x00, 0xe2, 0xfc, 0xff, 0xff, 0x14, 0x00, 0x00, 0x00,
  0x58, 0x00, 0x00, 0x00, 0x08, 0x00, 0x00, 0x00, 0x00, 0x00, 0x00, 0x02,
  0xcc, 0x00, 0x00, 0x00, 0xd4, 0xfc, 0xff, 0xff, 0x08, 0x00, 0x00, 0x00,
  0x2c, 0x00, 0x00, 0x00, 0x04, 0x00, 0x00, 0x00, 0x00, 0x00, 0x00, 0x00,
  0x00, 0x00, 0x00, 0x00, 0x00, 0x00, 0x00, 0x00, 0x00, 0x00, 0x00, 0x00,
  0x00, 0x00, 0x00, 0x00, 0x00, 0x00, 0x00, 0x00, 0x00, 0x00, 0x00, 0x00,
  0x00, 0x00, 0x00, 0x00, 0x00, 0x00, 0x00, 0x00, 0x04, 0x00, 0x00, 0x00,
  0xb3, 0x09, 0x12, 0x39, 0x04, 0xaf, 0x1a, 0x39, 0xb4, 0x0d, 0xf4, 0x38,
  0xa3, 0x29, 0x0a, 0x39, 0x7a, 0x00, 0x00, 0x00, 0x70, 0x72, 0x65, 0x64,
  0x69, 0x63, 0x74, 0x6f, 0x72, 0x5f, 0x6d, 0x6f, 0x64, 0x65, 0x6c, 0x2f,
  0x63, 0x6f, 0x6e, 0x76, 0x31, 0x64, 0x5f, 0x31, 0x36, 0x2f, 0x42, 0x69,
  0x61, 0x73, 0x41, 0x64, 0x64, 0x3b, 0x70, 0x72, 0x65, 0x64, 0x69, 0x63,
  0x74, 0x6f, 0x72, 0x5f, 0x6d, 0x6f, 0x64, 0x65, 0x6c, 0x2f, 0x63, 0x6f,
  0x6e, 0x76, 0x31, 0x64, 0x5f, 0x31, 0x36, 0x2f, 0x63, 0x6f, 0x6e, 0x76,
  0x31, 0x64, 0x2f, 0x53, 0x71, 0x75, 0x65, 0x65, 0x7a, 0x65, 0x3b, 0x63,
  0x6f, 0x6e, 0x76, 0x31, 0x64, 0x5f, 0x31, 0x36, 0x2f, 0x62, 0x69, 0x61,
  0x73, 0x3b, 0x70, 0x72, 0x65, 0x64, 0x69, 0x63, 0x74, 0x6f, 0x72, 0x5f,
  0x6d, 0x6f, 0x64, 0x65, 0x6c, 0x2f, 0x63, 0x6f, 0x6e, 0x76, 0x31, 0x64,
  0x5f, 0x31, 0x36, 0x2f, 0x63, 0x6f, 0x6e, 0x76, 0x31, 0x64, 0x00, 0x00,
  0x01, 0x00, 0x00, 0x00, 0x04, 0x00, 0x00, 0x00, 0xca, 0xfd, 0xff, 0xff,
  0x14, 0x00, 0x00, 0x00, 0x54, 0x00, 0x00, 0x00, 0x07, 0x00, 0x00, 0x00,
  0x00, 0x00, 0x00, 0x09, 0x70, 0x00, 0x00, 0x00, 0xbc, 0xfd, 0xff, 0xff,
  0x08, 0x00, 0x00, 0x00, 0x28, 0x00, 0x00, 0x00, 0x04, 0x00, 0x00, 0x00,
  0x00, 0x00, 0x00, 0x00, 0x00, 0x00, 0x00, 0x00, 0x00, 0x00, 0x00, 0x00,
  0x00, 0x00, 0x00, 0x00, 0x00, 0x00, 0x00, 0x00, 0x00, 0x00, 0x00, 0x00,
  0x00, 0x00, 0x00, 0x00, 0x00, 0x00, 0x00, 0x00, 0x04, 0x00, 0x00, 0x00,
  0x69, 0x93, 0x3c, 0x3b, 0x6d, 0xbd, 0x47, 0x3b, 0x1c, 0x92, 0x1d, 0x3b,
  0x1c, 0x68, 0x32, 0x3b, 0x20, 0x00, 0x00, 0x00, 0x70, 0x72, 0x65, 0x64,
  0x69, 0x63, 0x74, 0x6f, 0x72, 0x5f, 0x6d, 0x6f, 0x64, 0x65, 0x6c, 0x2f,
  0x63, 0x6f, 0x6e, 0x76, 0x31, 0x64, 0x5f, 0x31, 0x36, 0x2f, 0x63, 0x6f,
  0x6e, 0x76, 0x31, 0x64, 0x00, 0x00, 0x00, 0x00, 0x04, 0x00, 0x00, 0x00,
  0x04, 0x00, 0x00, 0x00, 0x01, 0x00, 0x00, 0x00, 0x0a, 0x00, 0x00, 0x00,
  0x06, 0x00, 0x00, 0x00, 0x62, 0xfe, 0xff, 0xff, 0x14, 0x00, 0x00, 0x00,
  0x14, 0x00, 0x00, 0x00, 0x06, 0x00, 0x00, 0x00, 0x00, 0x00, 0x00, 0x02,
  0x2c, 0x00, 0x00, 0x00, 0xbc, 0xfe, 0xff, 0xff, 0x1f, 0x00, 0x00, 0x00,
  0x70, 0x72, 0x65, 0x64, 0x69, 0x63, 0x74, 0x6f, 0x72, 0x5f, 0x6d, 0x6f,
  0x64, 0x65, 0x6c, 0x2f, 0x66, 0x6c, 0x61, 0x74, 0x74, 0x65, 0x6e, 0x5f,
  0x31, 0x2f, 0x43, 0x6f, 0x6e, 0x73, 0x74, 0x00, 0x01, 0x00, 0x00, 0x00,
  0x02, 0x00, 0x00, 0x00, 0xaa, 0xfe, 0xff, 0xff, 0x14, 0x00, 0x00, 0x00,
  0x14, 0x00, 0x00, 0x00, 0x05, 0x00, 0x00, 0x00, 0x00, 0x00, 0x00, 0x02,
  0x38, 0x00, 0x00, 0x00, 0x04, 0xff, 0xff, 0xff, 0x2a, 0x00, 0x00, 0x00,
  0x70, 0x72, 0x65, 0x64, 0x69, 0x63, 0x74, 0x6f, 0x72, 0x5f, 0x6d, 0x6f,
  0x64, 0x65, 0x6c, 0x2f, 0x6d, 0x61, 0x78, 0x5f, 0x70, 0x6f, 0x6f, 0x6c,
  0x69, 0x6e, 0x67, 0x31, 0x64, 0x5f, 0x34, 0x2f, 0x45, 0x78, 0x70, 0x61,
  0x6e, 0x64, 0x44, 0x69, 0x6d, 0x73, 0x00, 0x00, 0x01, 0x00, 0x00, 0x00,
  0x04, 0x00, 0x00, 0x00, 0xfe, 0xfe, 0xff, 0xff, 0x14, 0x00, 0x00, 0x00,
  0x14, 0x00, 0x00, 0x00, 0x04, 0x00, 0x00, 0x00, 0x00, 0x00, 0x00, 0x02,
  0x38, 0x00, 0x00, 0x00, 0x58, 0xff, 0xff, 0xff, 0x2b, 0x00, 0x00, 0x00,
  0x70, 0x72, 0x65, 0x64, 0x69, 0x63, 0x74, 0x6f, 0x72, 0x5f, 0x6d, 0x6f,
  0x64, 0x65, 0x6c, 0x2f, 0x63, 0x6f, 0x6e, 0x76, 0x31, 0x64, 0x5f, 0x31,
  0x38, 0x2f, 0x63, 0x6f, 0x6e, 0x76, 0x31, 0x64, 0x2f, 0x45, 0x78, 0x70,
  0x61, 0x6e, 0x64, 0x44, 0x69, 0x6d, 0x73, 0x00, 0x01, 0x00, 0x00, 0x00,
  0x04, 0x00, 0x00, 0x00, 0x52, 0xff, 0xff, 0xff, 0x14, 0x00, 0x00, 0x00,
  0x14, 0x00, 0x00, 0x00, 0x03, 0x00, 0x00, 0x00, 0x00, 0x00, 0x00, 0x02,
  0x38, 0x00, 0x00, 0x00, 0xac, 0xff, 0xff, 0xff, 0x2a, 0x00, 0x00, 0x00,
  0x70, 0x72, 0x65, 0x64, 0x69, 0x63, 0x74, 0x6f, 0x72, 0x5f, 0x6d, 0x6f,
  0x64, 0x65, 0x6c, 0x2f, 0x6d, 0x61, 0x78, 0x5f, 0x70, 0x6f, 0x6f, 0x6c,
  0x69, 0x6e, 0x67, 0x31, 0x64, 0x5f, 0x33, 0x2f, 0x45, 0x78, 0x70, 0x61,
  0x6e, 0x64, 0x44, 0x69, 0x6d, 0x73, 0x00, 0x00, 0x01, 0x00, 0x00, 0x00,
  0x04, 0x00, 0x00, 0x00, 0xa6, 0xff, 0xff, 0xff, 0x18, 0x00, 0x00, 0x00,
  0x18, 0x00, 0x00, 0x00, 0x02, 0x00, 0x00, 0x00, 0x00, 0x00, 0x00, 0x02,
  0x3c, 0x00, 0x00, 0x00, 0x04, 0x00, 0x04, 0x00, 0x04, 0x00, 0x00, 0x00,
  0x2b, 0x00, 0x00, 0x00, 0x70, 0x72, 0x65, 0x64, 0x69, 0x63, 0x74, 0x6f,
  0x72, 0x5f, 0x6d, 0x6f, 0x64, 0x65, 0x6c, 0x2f, 0x63, 0x6f, 0x6e, 0x76,
  0x31, 0x64, 0x5f, 0x31, 0x36, 0x2f, 0x63, 0x6f, 0x6e, 0x76, 0x31, 0x64,
  0x2f, 0x45, 0x78, 0x70, 0x61, 0x6e, 0x64, 0x44, 0x69, 0x6d, 0x73, 0x00,
  0x01, 0x00, 0x00, 0x00, 0x04, 0x00, 0x00, 0x00, 0x00, 0x00, 0x0e, 0x00,
  0x18, 0x00, 0x14, 0x00, 0x13, 0x00, 0x0c, 0x00, 0x08, 0x00, 0x04, 0x00,
  0x0e, 0x00, 0x00, 0x00, 0x20, 0x00, 0x00, 0x00, 0x40, 0x00, 0x00, 0x00,
  0x01, 0x00, 0x00, 0x00, 0x00, 0x00, 0x00, 0x09, 0x4c, 0x00, 0x00, 0x00,
  0x0c, 0x00, 0x0c, 0x00, 0x00, 0x00, 0x00, 0x00, 0x08, 0x00, 0x04, 0x00,
  0x0c, 0x00, 0x00, 0x00, 0x08, 0x00, 0x00, 0x00, 0x14, 0x00, 0x00, 0x00,
  0x01, 0x00, 0x00, 0x00, 0x0b, 0x00, 0x00, 0x00, 0x00, 0x00, 0x00, 0x00,
  0x00, 0x00, 0x00, 0x00, 0x01, 0x00, 0x00, 0x00, 0xbc, 0x40, 0x46, 0x3d,
  0x13, 0x00, 0x00, 0x00, 0x73, 0x65, 0x72, 0x76, 0x69, 0x6e, 0x67, 0x5f,
  0x64, 0x65, 0x66, 0x61, 0x75, 0x6c, 0x74, 0x5f, 0x78, 0x3a, 0x30, 0x00,
  0x04, 0x00, 0x00, 0x00, 0x01, 0x00, 0x00, 0x00, 0x1e, 0x00, 0x00, 0x00,
  0x06, 0x00, 0x00, 0x00, 0x01, 0x00, 0x00, 0x00, 0x04, 0x00, 0x00, 0x00,
  0x58, 0x00, 0x00, 0x00, 0x38, 0x00, 0x00, 0x00, 0x18, 0x00, 0x00, 0x00,
  0x04, 0x00, 0x00, 0x00, 0xe0, 0xff, 0xff, 0xff, 0x09, 0x00, 0x00, 0x00,
  0x04, 0x00, 0x00, 0x00, 0x00, 0x00, 0x00, 0x09, 0xf0, 0xff, 0xff, 0xff,
  0x11, 0x00, 0x00, 0x00, 0x02, 0x00, 0x00, 0x00, 0x00, 0x00, 0x00, 0x11,
  0x0c, 0x00, 0x10, 0x00, 0x0f, 0x00, 0x00, 0x00, 0x08, 0x00, 0x04, 0x00,
  0x0c, 0x00, 0x00, 0x00, 0x03, 0x00, 0x00, 0x00, 0x03, 0x00, 0x00, 0x00,
  0x00, 0x00, 0x00, 0x03, 0x0c, 0x00, 0x0c, 0x00, 0x0b, 0x00, 0x00, 0x00,
  0x00, 0x00, 0x04, 0x00, 0x0c, 0x00, 0x00, 0x00, 0x16, 0x00, 0x00, 0x00,
  0x00, 0x00, 0x00, 0x16
};
unsigned int predictor_tflite_len = 8464;
