unsigned char predictor_tflite[] = {
  0x1c, 0x00, 0x00, 0x00, 0x54, 0x46, 0x4c, 0x33, 0x14, 0x00, 0x20, 0x00,
  0x1c, 0x00, 0x18, 0x00, 0x14, 0x00, 0x10, 0x00, 0x0c, 0x00, 0x00, 0x00,
  0x08, 0x00, 0x04, 0x00, 0x14, 0x00, 0x00, 0x00, 0x1c, 0x00, 0x00, 0x00,
  0x1c, 0x00, 0x00, 0x00, 0x4c, 0x00, 0x00, 0x00, 0x20, 0x0c, 0x00, 0x00,
  0x30, 0x0c, 0x00, 0x00, 0xc4, 0x20, 0x00, 0x00, 0x03, 0x00, 0x00, 0x00,
  0x00, 0x00, 0x00, 0x00, 0x01, 0x00, 0x00, 0x00, 0x0c, 0x00, 0x00, 0x00,
  0x08, 0x00, 0x0c, 0x00, 0x08, 0x00, 0x04, 0x00, 0x08, 0x00, 0x00, 0x00,
  0x20, 0x00, 0x00, 0x00, 0x04, 0x00, 0x00, 0x00, 0x13, 0x00, 0x00, 0x00,
  0x6d, 0x69, 0x6e, 0x5f, 0x72, 0x75, 0x6e, 0x74, 0x69, 0x6d, 0x65, 0x5f,
  0x76, 0x65, 0x72, 0x73, 0x69, 0x6f, 0x6e, 0x00, 0x21, 0x00, 0x00, 0x00,
  0xd0, 0x0b, 0x00, 0x00, 0xc8, 0x0b, 0x00, 0x00, 0xa8, 0x0b, 0x00, 0x00,
  0x80, 0x0b, 0x00, 0x00, 0x60, 0x0b, 0x00, 0x00, 0x40, 0x0b, 0x00, 0x00,
  0x28, 0x0b, 0x00, 0x00, 0x28, 0x0a, 0x00, 0x00, 0x08, 0x0a, 0x00, 0x00,
  0x58, 0x09, 0x00, 0x00, 0x38, 0x09, 0x00, 0x00, 0x88, 0x08, 0x00, 0x00,
  0x68, 0x08, 0x00, 0x00, 0x58, 0x06, 0x00, 0x00, 0x48, 0x05, 0x00, 0x00,
  0x38, 0x01, 0x00, 0x00, 0xe8, 0x00, 0x00, 0x00, 0xa8, 0x00, 0x00, 0x00,
  0x8c, 0x00, 0x00, 0x00, 0x84, 0x00, 0x00, 0x00, 0x7c, 0x00, 0x00, 0x00,
  0x74, 0x00, 0x00, 0x00, 0x6c, 0x00, 0x00, 0x00, 0x64, 0x00, 0x00, 0x00,
  0x5c, 0x00, 0x00, 0x00, 0x54, 0x00, 0x00, 0x00, 0x4c, 0x00, 0x00, 0x00,
  0x44, 0x00, 0x00, 0x00, 0x3c, 0x00, 0x00, 0x00, 0x34, 0x00, 0x00, 0x00,
  0x2c, 0x00, 0x00, 0x00, 0x24, 0x00, 0x00, 0x00, 0x04, 0x00, 0x00, 0x00,
  0xda, 0xf4, 0xff, 0xff, 0x04, 0x00, 0x00, 0x00, 0x10, 0x00, 0x00, 0x00,
  0x31, 0x2e, 0x31, 0x34, 0x2e, 0x30, 0x00, 0x00, 0x00, 0x00, 0x00, 0x00,
  0x00, 0x00, 0x00, 0x00, 0xe8, 0xe0, 0xff, 0xff, 0xec, 0xe0, 0xff, 0xff,
  0xf0, 0xe0, 0xff, 0xff, 0xf4, 0xe0, 0xff, 0xff, 0xf8, 0xe0, 0xff, 0xff,
  0xfc, 0xe0, 0xff, 0xff, 0x00, 0xe1, 0xff, 0xff, 0x04, 0xe1, 0xff, 0xff,
  0x08, 0xe1, 0xff, 0xff, 0x0c, 0xe1, 0xff, 0xff, 0x10, 0xe1, 0xff, 0xff,
  0x14, 0xe1, 0xff, 0xff, 0x18, 0xe1, 0xff, 0xff, 0x2a, 0xf5, 0xff, 0xff,
  0x04, 0x00, 0x00, 0x00, 0x0c, 0x00, 0x00, 0x00, 0x74, 0xfe, 0xff, 0xff,
  0xd1, 0xff, 0xff, 0xff, 0x0a, 0xfe, 0xff, 0xff, 0x42, 0xf5, 0xff, 0xff,
  0x04, 0x00, 0x00, 0x00, 0x30, 0x00, 0x00, 0x00, 0xcb, 0x87, 0x6b, 0x8f,
  0x6b, 0xca, 0x9c, 0xdc, 0x7f, 0x5b, 0x8a, 0xda, 0xa6, 0xdf, 0xe4, 0xcb,
  0x3c, 0xcf, 0x55, 0x9d, 0xa2, 0x4d, 0x49, 0xd5, 0xf5, 0x1d, 0x05, 0x45,
  0x0e, 0xfa, 0x2e, 0xd1, 0x92, 0x97, 0xd2, 0x58, 0xdb, 0x16, 0x0d, 0x2b,
  0xea, 0xbd, 0xc4, 0x41, 0xe2, 0xf6, 0xdd, 0x35, 0x7e, 0xf5, 0xff, 0xff,
  0x04, 0x00, 0x00, 0x00, 0x40, 0x00, 0x00, 0x00, 0xa1, 0x02, 0x00, 0x00,
  0x0a, 0x02, 0x00, 0x00, 0xae, 0xff, 0xff, 0xff, 0xca, 0xff, 0xff, 0xff,
  0x4b, 0x00, 0x00, 0x00, 0xbb, 0xff, 0xff, 0xff, 0xf0, 0xff, 0xff, 0xff,
  0x6b, 0xff, 0xff, 0xff, 0x3f, 0x00, 0x00, 0x00, 0x49, 0x06, 0x00, 0x00,
  0x4c, 0x04, 0x00, 0x00, 0x2c, 0xff, 0xff, 0xff, 0xa1, 0x03, 0x00, 0x00,
  0x30, 0x03, 0x00, 0x00, 0xf6, 0x00, 0x00, 0x00, 0x57, 0xff, 0xff, 0xff,
  0xca, 0xf5, 0xff, 0xff, 0x04, 0x00, 0x00, 0x00, 0x00, 0x04, 0x00, 0x00,
  0xbb, 0x02, 0x00, 0xbc, 0x87, 0x2b, 0xc0, 0x33, 0xd0, 0x68, 0x38, 0xb9,
  0x0c, 0xaa, 0xe4, 0x0f, 0xa4, 0xdd, 0xc8, 0x40, 0x09, 0x0d, 0x44, 0x2b,
  0x19, 0xdf, 0xea, 0xea, 0xa7, 0xae, 0x3b, 0xd1, 0x42, 0x09, 0x4f, 0xd5,
  0x24, 0xd7, 0x23, 0x0f, 0x54, 0x9b, 0xd7, 0xd2, 0x3d, 0x0c, 0x45, 0x0d,
  0xeb, 0xda, 0xce, 0x40, 0x0c, 0x2a, 0xc2, 0x28, 0xe3, 0xf5, 0x2d, 0x06,
  0x19, 0xf7, 0x41, 0xd1, 0xf9, 0xa5, 0x4f, 0xec, 0x2b, 0x1e, 0xe0, 0x39,
  0x24, 0xe0, 0xa6, 0xa5, 0xbb, 0xba, 0xeb, 0x21, 0x2c, 0xfc, 0xbe, 0xe7,
  0x6a, 0x0b, 0x3d, 0xbf, 0xb8, 0x0f, 0x16, 0xd1, 0xb2, 0x1c, 0xe1, 0xbd,
  0x46, 0x0c, 0xbe, 0x46, 0x18, 0xb1, 0x22, 0xe3, 0x17, 0xd9, 0x01, 0xe2,
  0x51, 0x53, 0xd5, 0xdb, 0x2e, 0x17, 0xff, 0xa6, 0xf6, 0xb9, 0xcc, 0xa6,
  0x4c, 0x2c, 0x53, 0xfe, 0x00, 0x0a, 0xae, 0x37, 0xb6, 0x4a, 0x02, 0xf0,
  0xb4, 0x06, 0x4b, 0x38, 0xe1, 0xb2, 0xfb, 0xf0, 0x32, 0xde, 0xf6, 0xe0,
  0x0b, 0x12, 0x21, 0x2f, 0x91, 0x27, 0x2e, 0x3a, 0xb2, 0x23, 0xc1, 0x35,
  0xb0, 0x12, 0xc5, 0x16, 0xfb, 0x22, 0x1a, 0xc4, 0x47, 0x11, 0x43, 0x50,
  0xd1, 0xc7, 0xd9, 0xc0, 0x44, 0x16, 0xb7, 0xc7, 0xf3, 0x10, 0xe1, 0xf4,
  0xf9, 0x46, 0x2a, 0x4d, 0xc3, 0x39, 0xb6, 0xd1, 0xb5, 0xd5, 0x47, 0x2c,
  0xca, 0xac, 0xc9, 0xe4, 0xcd, 0x30, 0xf7, 0x5d, 0xc6, 0xbf, 0xf5, 0x2d,
  0xb8, 0x3c, 0xe0, 0x1f, 0xb5, 0xd3, 0x30, 0xe1, 0x69, 0x0e, 0xcd, 0xc2,
  0x2a, 0x3f, 0x37, 0xc7, 0xc3, 0x2e, 0xbd, 0xef, 0x2d, 0xca, 0xf8, 0xaa,
  0x1e, 0x2f, 0x08, 0x3c, 0xbe, 0xff, 0xb3, 0x03, 0x10, 0xc2, 0x06, 0x2c,
  0xe3, 0x2e, 0x0a, 0x18, 0xfb, 0x3a, 0x49, 0xbd, 0x36, 0x48, 0xfa, 0x25,
  0xcc, 0xc5, 0x2c, 0x4a, 0x0b, 0x50, 0xf6, 0x55, 0xe6, 0x08, 0xeb, 0x32,
  0x9f, 0x44, 0x10, 0x25, 0x3e, 0x57, 0xb4, 0xa7, 0x4c, 0xd8, 0xd4, 0x50,
  0x62, 0x4f, 0x03, 0xdd, 0x55, 0xdd, 0xf2, 0xe3, 0xa5, 0x0c, 0xdb, 0x45,
  0xd6, 0xc2, 0xdd, 0xd6, 0x0e, 0xfd, 0xee, 0x4a, 0xed, 0x1d, 0x1a, 0x09,
  0x3f, 0xf5, 0x43, 0x18, 0xf3, 0x53, 0x3e, 0xf1, 0x07, 0x2b, 0xb6, 0x49,
  0x56, 0xd1, 0x3d, 0xe2, 0xd1, 0xd8, 0xaa, 0xda, 0xf1, 0xf0, 0x34, 0x36,
  0xbd, 0xdc, 0x56, 0xfa, 0xca, 0x01, 0x22, 0xf0, 0xc1, 0x00, 0x10, 0x52,
  0x33, 0xd5, 0x11, 0x24, 0xeb, 0xf6, 0x36, 0xca, 0xd3, 0x12, 0xe3, 0xe7,
  0x14, 0xe5, 0x06, 0x4a, 0xe8, 0xc1, 0x28, 0xc8, 0x01, 0x3f, 0x0d, 0xf1,
  0xcd, 0x0e, 0x20, 0xb1, 0xc6, 0x17, 0xd1, 0xf6, 0x0a, 0x52, 0xb5, 0x39,
  0xe9, 0x39, 0xf9, 0x1f, 0xf6, 0xce, 0xd7, 0xd6, 0x0c, 0xc0, 0xf4, 0x4d,
  0xf4, 0xce, 0x1c, 0x51, 0x0c, 0xcf, 0xf9, 0x0a, 0x10, 0x14, 0xb4, 0xad,
  0x27, 0xb9, 0x1a, 0xe2, 0xe2, 0xca, 0x3f, 0x9e, 0xca, 0x55, 0xe9, 0x40,
  0xdf, 0x15, 0xe5, 0xbd, 0xe8, 0xbc, 0xf6, 0x09, 0xc7, 0xf4, 0xf4, 0x2d,
  0xdb, 0xf8, 0x36, 0x14, 0xcd, 0x07, 0xdd, 0x4d, 0x20, 0x23, 0x0e, 0xe4,
  0x05, 0x23, 0x53, 0x59, 0x2a, 0xbd, 0x4c, 0xe6, 0xe1, 0xff, 0xfb, 0xe3,
  0x05, 0x44, 0x2c, 0xff, 0x55, 0x1c, 0x25, 0xd2, 0x2d, 0x3a, 0x42, 0xe3,
  0xb0, 0xc9, 0x3e, 0x1d, 0x01, 0x1b, 0x1f, 0xb8, 0xc6, 0x18, 0xe4, 0xce,
  0x7f, 0x2f, 0x47, 0xf0, 0xc6, 0xf4, 0x24, 0xf2, 0x3c, 0x0c, 0x58, 0xd1,
  0xdd, 0x21, 0xc4, 0x03, 0xbf, 0xa8, 0x22, 0xfe, 0xeb, 0xd6, 0x2b, 0x09,
  0x34, 0x15, 0x36, 0x46, 0xb7, 0x30, 0x3e, 0xc2, 0xda, 0x27, 0xd2, 0xae,
  0x52, 0xff, 0xbf, 0xb1, 0xe5, 0x22, 0xe3, 0x15, 0x34, 0x2d, 0x02, 0x13,
  0x1e, 0x08, 0x4e, 0xe8, 0xf8, 0x2e, 0x3c, 0xcc, 0x20, 0x47, 0x08, 0xf7,
  0x33, 0xd5, 0xb0, 0x04, 0xde, 0x18, 0xf3, 0x36, 0xdd, 0xf3, 0x1b, 0xfd,
  0xbb, 0x59, 0xcc, 0xe8, 0x40, 0x4a, 0x45, 0x10, 0x40, 0xf3, 0xbb, 0x1e,
  0xff, 0x14, 0x28, 0x50, 0xe8, 0xef, 0xda, 0xa9, 0x38, 0x60, 0x2b, 0x39,
  0xad, 0xe2, 0xc6, 0x35, 0xf1, 0x06, 0x28, 0x28, 0xd1, 0xbf, 0x2c, 0x22,
  0xcd, 0x53, 0xf1, 0x1d, 0x13, 0xf6, 0x44, 0xed, 0xd3, 0x3a, 0xfb, 0x36,
  0x1f, 0x29, 0x42, 0x9e, 0xab, 0x2e, 0xf9, 0xf1, 0xa5, 0x29, 0xbb, 0xa2,
  0xdd, 0xd6, 0xcc, 0x49, 0xd6, 0xfc, 0x1d, 0xd3, 0xd5, 0x04, 0xf3, 0x09,
  0xf4, 0x7e, 0x49, 0x29, 0xa3, 0x3a, 0xc1, 0x28, 0x10, 0xc4, 0xb4, 0x2c,
  0x0e, 0x2b, 0x0f, 0x3e, 0x0c, 0x2e, 0x54, 0xf4, 0x0a, 0x3e, 0x13, 0xaf,
  0x46, 0xf8, 0xc4, 0xad, 0x2c, 0xd8, 0xe2, 0xb9, 0xe0, 0xf4, 0xe8, 0x0b,
  0x5e, 0x2a, 0xf4, 0x37, 0xfa, 0x17, 0x1c, 0xb0, 0xa1, 0x4a, 0x16, 0xef,
  0xfc, 0xfa, 0x27, 0x3c, 0x33, 0xe9, 0x0a, 0x0a, 0xe6, 0x1e, 0x4e, 0x36,
  0x2b, 0xcf, 0x54, 0xa1, 0xfc, 0xeb, 0xd7, 0xb7, 0x4c, 0xde, 0xea, 0x44,
  0x10, 0xd1, 0xbd, 0x19, 0x37, 0xdd, 0x30, 0x38, 0x2a, 0x0b, 0x1e, 0xb6,
  0x39, 0x54, 0x14, 0x2a, 0x54, 0x39, 0x3e, 0xfe, 0xdb, 0x35, 0x26, 0x04,
  0xf6, 0x3a, 0x23, 0xde, 0x1a, 0xcd, 0xb5, 0xc7, 0xd5, 0xcc, 0x2b, 0x27,
  0xd3, 0xfe, 0x44, 0xe9, 0x31, 0x49, 0xe8, 0xe9, 0xda, 0xda, 0xe5, 0x35,
  0x02, 0xce, 0xf0, 0xf5, 0xd3, 0x52, 0x43, 0xdf, 0xaa, 0x1e, 0x5a, 0xcf,
  0xc9, 0x13, 0xda, 0x2d, 0x09, 0xcc, 0xc4, 0x06, 0xbb, 0xdb, 0xc0, 0xc7,
  0x34, 0xd6, 0xef, 0x15, 0xb5, 0xff, 0xc7, 0xd6, 0x47, 0xeb, 0x2f, 0xdc,
  0x45, 0x1c, 0x56, 0xfb, 0xb2, 0xd1, 0x39, 0x13, 0xf5, 0xe0, 0x0c, 0xfb,
  0x20, 0xa2, 0xd2, 0xc1, 0xea, 0xf3, 0xb7, 0xeb, 0xd4, 0xdc, 0x03, 0xfa,
  0xca, 0x10, 0x21, 0x2e, 0x13, 0xf2, 0xea, 0x29, 0xc3, 0x28, 0xb5, 0xff,
  0x1c, 0xed, 0x4a, 0x07, 0x06, 0xc3, 0xec, 0x32, 0xc3, 0x0b, 0x0e, 0xbc,
  0x1e, 0xef, 0x0e, 0xca, 0x5f, 0x01, 0xc0, 0x06, 0x00, 0x6b, 0x01, 0x44,
  0x68, 0xbc, 0x01, 0x29, 0x57, 0x24, 0x25, 0x25, 0x19, 0x3e, 0xd6, 0x64,
  0xff, 0xea, 0x18, 0xf1, 0x43, 0xfa, 0xb1, 0xbd, 0xed, 0xf6, 0xb0, 0x29,
  0x11, 0x26, 0x3a, 0xbe, 0x14, 0x43, 0xe8, 0xb0, 0x3c, 0xea, 0x63, 0x2d,
  0x59, 0xae, 0x30, 0xeb, 0xde, 0x2d, 0x18, 0xe4, 0x18, 0xd0, 0x35, 0x4f,
  0xc8, 0xff, 0x2e, 0xe7, 0xd6, 0xaa, 0xa2, 0xef, 0x2c, 0x23, 0x1a, 0xed,
  0xd1, 0x20, 0xfc, 0xdc, 0xe6, 0xa7, 0x27, 0x51, 0xc6, 0xee, 0x47, 0xf3,
  0xae, 0x04, 0xf3, 0x24, 0x06, 0xfd, 0x46, 0x13, 0x4d, 0x1d, 0x3f, 0x01,
  0xe5, 0xb1, 0xb3, 0x40, 0xe1, 0xd8, 0xe2, 0xd5, 0x13, 0xa9, 0x3d, 0xfc,
  0xe0, 0xec, 0xe5, 0x06, 0x16, 0x28, 0xb7, 0x41, 0x0d, 0x46, 0x58, 0x2b,
  0xee, 0xf4, 0x35, 0xe5, 0x29, 0x03, 0x32, 0x49, 0x32, 0xb0, 0x04, 0xb4,
  0xe9, 0xe2, 0x0a, 0xbe, 0xd8, 0xc2, 0x55, 0xf3, 0xc2, 0x3e, 0xc1, 0x08,
  0xe6, 0x01, 0xfa, 0x35, 0x1a, 0x44, 0xcd, 0xeb, 0xa1, 0xe5, 0x58, 0x04,
  0x38, 0x31, 0xbf, 0x04, 0xb2, 0x10, 0x33, 0x04, 0x62, 0x29, 0x22, 0x57,
  0xd1, 0xed, 0x56, 0xe1, 0x33, 0x44, 0xd6, 0x12, 0x24, 0xd5, 0x2b, 0x1e,
  0xce, 0x05, 0xcf, 0x40, 0x08, 0x2f, 0x3c, 0xc2, 0x44, 0x67, 0x2c, 0xa1,
  0x4a, 0xdc, 0x07, 0xa8, 0x5e, 0xf2, 0xc2, 0x1c, 0xd4, 0xa7, 0xe9, 0x3c,
  0x4f, 0xce, 0xc1, 0xf3, 0xd6, 0xf9, 0xff, 0xff, 0x04, 0x00, 0x00, 0x00,
  0x00, 0x01, 0x00, 0x00, 0x07, 0x00, 0x00, 0x00, 0x58, 0xff, 0xff, 0xff,
  0x5a, 0x00, 0x00, 0x00, 0x9e, 0xfe, 0xff, 0xff, 0x76, 0xff, 0xff, 0xff,
  0x37, 0x00, 0x00, 0x00, 0x60, 0xff, 0xff, 0xff, 0x27, 0x01, 0x00, 0x00,
  0x1d, 0x00, 0x00, 0x00, 0xbe, 0x01, 0x00, 0x00, 0x30, 0x00, 0x00, 0x00,
  0xe0, 0xff, 0xff, 0xff, 0x11, 0x00, 0x00, 0x00, 0xd5, 0xff, 0xff, 0xff,
  0xe7, 0xff, 0xff, 0xff, 0x76, 0xff, 0xff, 0xff, 0x0e, 0x00, 0x00, 0x00,
  0x2c, 0x00, 0x00, 0x00, 0x43, 0xff, 0xff, 0xff, 0xb1, 0x00, 0x00, 0x00,
  0x27, 0x00, 0x00, 0x00, 0x9d, 0xff, 0xff, 0xff, 0xee, 0x00, 0x00, 0x00,
  0xce, 0xff, 0xff, 0xff, 0x35, 0x00, 0x00, 0x00, 0xaf, 0xff, 0xff, 0xff,
  0x36, 0x00, 0x00, 0x00, 0xb4, 0xff, 0xff, 0xff, 0x4d, 0xfe, 0xff, 0xff,
  0x08, 0x00, 0x00, 0x00, 0x5f, 0x00, 0x00, 0x00, 0xc7, 0xff, 0xff, 0xff,
  0x9d, 0x00, 0x00, 0x00, 0xbe, 0xff, 0xff, 0xff, 0xbe, 0xff, 0xff, 0xff,
  0xf5, 0x00, 0x00, 0x00, 0x0e, 0x01, 0x00, 0x00, 0x59, 0xfe, 0xff, 0xff,
  0x25, 0x00, 0x00, 0x00, 0xdf, 0xff, 0xff, 0xff, 0xf2, 0x00, 0x00, 0x00,
  0x8b, 0xfd, 0xff, 0xff, 0xef, 0xff, 0xff, 0xff, 0x99, 0xff, 0xff, 0xff,
  0xf1, 0x00, 0x00, 0x00, 0x88, 0x00, 0x00, 0x00, 0x0d, 0x00, 0x00, 0x00,
  0x2a, 0x00, 0x00, 0x00, 0xd4, 0x00, 0x00, 0x00, 0xa5, 0xff, 0xff, 0xff,
  0x35, 0x00, 0x00, 0x00, 0xff, 0xff, 0xff, 0xff, 0x04, 0x00, 0x00, 0x00,
  0x74, 0xff, 0xff, 0xff, 0xa5, 0xff, 0xff, 0xff, 0x72, 0xff, 0xff, 0xff,
  0x40, 0x00, 0x00, 0x00, 0x2f, 0x01, 0x00, 0x00, 0xcf, 0x00, 0x00, 0x00,
  0x50, 0x00, 0x00, 0x00, 0x0f, 0x00, 0x00, 0x00, 0x59, 0x00, 0x00, 0x00,
  0xca, 0xff, 0xff, 0xff, 0x41, 0x00, 0x00, 0x00, 0xe2, 0xfa, 0xff, 0xff,
  0x04, 0x00, 0x00, 0x00, 0x00, 0x02, 0x00, 0x00, 0xaf, 0x3b, 0x4f, 0x11,
  0xe0, 0xef, 0xef, 0x44, 0x1a, 0xe6, 0x3c, 0x50, 0xbd, 0xa6, 0x9c, 0x49,
  0xc7, 0x38, 0xe9, 0xef, 0x67, 0x38, 0xab, 0x07, 0xda, 0x4d, 0x1a, 0x1a,
  0xda, 0x25, 0x0e, 0x40, 0x18, 0x3a, 0x14, 0x00, 0xf2, 0xd9, 0x17, 0xcf,
  0x43, 0xf9, 0x4d, 0x10, 0x09, 0xaa, 0x3f, 0xce, 0x24, 0xfe, 0x3b, 0xf2,
  0x18, 0xde, 0x94, 0xd3, 0xbe, 0x2b, 0x24, 0x27, 0xf1, 0x33, 0x67, 0xad,
  0x22, 0xb0, 0xd4, 0x47, 0x3f, 0x50, 0x2f, 0xd6, 0xfb, 0x3f, 0x53, 0xbf,
  0x3a, 0x62, 0x84, 0xb1, 0x44, 0x2c, 0xd1, 0xee, 0x43, 0xbb, 0x12, 0xe9,
  0xdf, 0x3d, 0xb1, 0xe9, 0x37, 0xc8, 0xc8, 0xbb, 0x24, 0x53, 0x1e, 0xe8,
  0xc0, 0x43, 0x9d, 0xd5, 0x18, 0x32, 0x37, 0xe0, 0xc9, 0xa3, 0xcd, 0xbc,
  0x24, 0xeb, 0x04, 0xad, 0x21, 0xe0, 0xe6, 0xd7, 0x26, 0xb3, 0x02, 0x57,
  0xe8, 0xa1, 0x3c, 0xb3, 0xe0, 0x0c, 0x3d, 0xde, 0xde, 0xa4, 0xc4, 0x39,
  0x20, 0x3c, 0xd9, 0x17, 0xdd, 0xfc, 0xfb, 0x1e, 0x34, 0x3f, 0x32, 0x43,
  0x44, 0xf1, 0x49, 0xaf, 0x66, 0x23, 0xaa, 0xfd, 0xc6, 0x06, 0xd5, 0xe4,
  0xda, 0x40, 0x02, 0xda, 0xe2, 0x24, 0x58, 0xb0, 0x17, 0xf3, 0x3d, 0xd6,
  0x26, 0x0e, 0x1e, 0xce, 0x0b, 0xf8, 0xac, 0xd0, 0xe6, 0x41, 0xcc, 0x50,
  0x1a, 0x56, 0xd8, 0x07, 0x3c, 0xe1, 0x13, 0xe9, 0xda, 0x2b, 0x1c, 0xc1,
  0x4c, 0xee, 0xcb, 0x33, 0xee, 0x0e, 0x27, 0xac, 0xcd, 0x1e, 0xfc, 0x43,
  0x34, 0x0c, 0xaa, 0x05, 0x42, 0xf4, 0x7f, 0x37, 0x11, 0xb5, 0xf6, 0xf0,
  0xc9, 0xba, 0x83, 0xa8, 0x0e, 0x12, 0x27, 0x4a, 0x61, 0xc6, 0x38, 0xa4,
  0x25, 0xf7, 0x5b, 0xfe, 0xd2, 0xdc, 0x0a, 0x1e, 0x3a, 0x10, 0x40, 0xda,
  0x40, 0x42, 0x51, 0xe8, 0xfb, 0xed, 0xc2, 0xc6, 0x34, 0x26, 0x44, 0x51,
  0x23, 0xdd, 0x1b, 0x2c, 0xa7, 0x12, 0x3f, 0xcf, 0xf4, 0x56, 0x24, 0xf1,
  0xef, 0x24, 0xbb, 0x46, 0x1c, 0x45, 0x56, 0x49, 0x00, 0xb8, 0xa3, 0x55,
  0x5b, 0xcb, 0xda, 0xaa, 0xf7, 0xd3, 0x08, 0x16, 0x1a, 0xf4, 0xb7, 0x3e,
  0x99, 0x1e, 0x28, 0x22, 0xb6, 0xcc, 0x24, 0x15, 0xf1, 0xee, 0xba, 0x05,
  0xde, 0xa2, 0xfb, 0x0f, 0x31, 0x1d, 0xa9, 0x28, 0xd3, 0xdf, 0x11, 0xdf,
  0x48, 0xf1, 0x16, 0xc4, 0xc7, 0xd8, 0xf7, 0x2a, 0xbf, 0xe7, 0x2d, 0x00,
  0x34, 0xed, 0x24, 0x10, 0xfb, 0xc4, 0x59, 0x18, 0x3b, 0xdf, 0xab, 0x5d,
  0xa4, 0xb9, 0x2b, 0xb0, 0xc7, 0x52, 0xdb, 0xdc, 0x13, 0x38, 0x3d, 0xbe,
  0x57, 0xf7, 0x53, 0xe2, 0x1d, 0x24, 0xff, 0x0e, 0xc5, 0x31, 0x1c, 0xdd,
  0xf8, 0x1f, 0x13, 0xcc, 0x29, 0x5b, 0x38, 0xc0, 0xcc, 0x55, 0xfe, 0x5e,
  0xbb, 0xc8, 0x0d, 0xb0, 0xb5, 0x41, 0x06, 0xf0, 0x1f, 0xbb, 0xda, 0xdf,
  0xc9, 0x3e, 0xd4, 0xfe, 0xc5, 0x26, 0x2d, 0x28, 0xbf, 0x05, 0xcf, 0xeb,
  0x29, 0xd7, 0xbb, 0xf8, 0xca, 0xca, 0xe3, 0xc8, 0xbd, 0xf5, 0xb0, 0xfd,
  0x48, 0xb5, 0xa0, 0xc7, 0xc0, 0x45, 0x32, 0x38, 0x4f, 0x23, 0x55, 0x2e,
  0xac, 0x17, 0xb6, 0xce, 0x27, 0x17, 0xe1, 0x4b, 0x4a, 0x1d, 0xef, 0xbb,
  0x12, 0x56, 0xe7, 0xef, 0xc8, 0x21, 0xf0, 0xf4, 0xc8, 0xed, 0xa5, 0xa7,
  0x43, 0x15, 0xcf, 0x57, 0xb0, 0x08, 0x34, 0xb6, 0x12, 0x02, 0xea, 0xf6,
  0x2f, 0x56, 0x0e, 0x18, 0x21, 0xdd, 0xf1, 0xcb, 0x44, 0xee, 0x5f, 0x15,
  0xf6, 0xb9, 0xaa, 0xfb, 0xa3, 0xef, 0x0d, 0xcd, 0xdf, 0xf8, 0xd8, 0x2f,
  0xdf, 0x59, 0xfc, 0xcd, 0x59, 0x41, 0x03, 0x50, 0x22, 0xbd, 0x26, 0xee,
  0xd0, 0xc8, 0xbe, 0xf0, 0xc9, 0x2c, 0x05, 0xe6, 0x1e, 0xba, 0x3b, 0x0d,
  0x59, 0xcb, 0x37, 0x2c, 0xee, 0xfc, 0xff, 0xff, 0x04, 0x00, 0x00, 0x00,
  0x10, 0x00, 0x00, 0x00, 0x18, 0x00, 0x00, 0x00, 0xf5, 0xff, 0xff, 0xff,
  0x1e, 0xff, 0xff, 0xff, 0x96, 0xff, 0xff, 0xff, 0x0a, 0xfd, 0xff, 0xff,
  0x04, 0x00, 0x00, 0x00, 0xa0, 0x00, 0x00, 0x00, 0xe5, 0x44, 0xfc, 0x01,
  0xf8, 0x0f, 0x01, 0xf1, 0x1b, 0x0c, 0xcd, 0xef, 0xe8, 0xf2, 0xfb, 0xb4,
  0xa3, 0x02, 0xf4, 0xc2, 0xb4, 0x4e, 0xe5, 0x2c, 0xa3, 0x13, 0xf8, 0xcf,
  0xea, 0xb1, 0x12, 0x94, 0x26, 0xa1, 0x75, 0xed, 0x7f, 0xe2, 0x29, 0x17,
  0x08, 0x09, 0xef, 0x2c, 0x1e, 0xf1, 0xed, 0xfa, 0xd5, 0xc6, 0xdd, 0xdd,
  0x27, 0xf9, 0x1f, 0x30, 0x47, 0x28, 0xea, 0x17, 0x4b, 0x3a, 0xfb, 0xa2,
  0xfc, 0x54, 0x81, 0xa6, 0xdb, 0xd1, 0x11, 0x09, 0x32, 0xfd, 0x31, 0x44,
  0x00, 0x95, 0x5e, 0x4a, 0xf6, 0xf7, 0x02, 0xfc, 0xf2, 0xfa, 0x05, 0x1d,
  0xfc, 0xf4, 0x11, 0x07, 0xf6, 0xf6, 0x0e, 0x0f, 0x0d, 0xe9, 0x00, 0x03,
  0xe9, 0xd3, 0x85, 0x3d, 0x1a, 0x93, 0xca, 0xc5, 0x84, 0xf3, 0x22, 0x07,
  0x20, 0x4d, 0x13, 0x7f, 0xbe, 0x14, 0x52, 0x6e, 0x19, 0x3e, 0x15, 0xce,
  0xf3, 0xd1, 0x09, 0xc4, 0x19, 0x07, 0x13, 0x2c, 0xe7, 0xe9, 0xe5, 0xf7,
  0x17, 0xdc, 0x26, 0xe5, 0x26, 0x40, 0xec, 0x00, 0xfe, 0x20, 0x1a, 0xe7,
  0xd1, 0xfb, 0x19, 0xf6, 0x41, 0x14, 0x2e, 0x3b, 0x8c, 0x43, 0x5b, 0x7f,
  0xb6, 0xfd, 0xff, 0xff, 0x04, 0x00, 0x00, 0x00, 0x10, 0x00, 0x00, 0x00,
  0x9c, 0x00, 0x00, 0x00, 0x9b, 0x03, 0x00, 0x00, 0x5e, 0x00, 0x00, 0x00,
  0x56, 0x08, 0x00, 0x00, 0xd2, 0xfd, 0xff, 0xff, 0x04, 0x00, 0x00, 0x00,
  0xa0, 0x00, 0x00, 0x00, 0x12, 0xfd, 0x18, 0x2a, 0x26, 0xd9, 0xfd, 0x36,
  0xf6, 0xcd, 0xd8, 0x2f, 0x1e, 0x19, 0x15, 0x20, 0xf8, 0xe8, 0xde, 0x04,
  0xeb, 0x3d, 0x18, 0x0a, 0x2f, 0x23, 0xd4, 0x1e, 0xea, 0x0f, 0xf7, 0x7f,
  0xdc, 0x39, 0xc8, 0x4b, 0xfe, 0xfd, 0xb4, 0x49, 0xa1, 0x12, 0x42, 0xd7,
  0x10, 0x6d, 0x59, 0xc4, 0x2a, 0xcf, 0x3c, 0xf9, 0xfb, 0xa6, 0x29, 0x46,
  0x61, 0xb2, 0x35, 0x00, 0x7a, 0x98, 0xf9, 0x10, 0xfa, 0xac, 0x56, 0x53,
  0xe6, 0xbb, 0xcf, 0xb8, 0x62, 0x96, 0xff, 0x26, 0x32, 0x81, 0x41, 0x12,
  0x54, 0xf4, 0xcd, 0x23, 0x20, 0x92, 0xb0, 0x01, 0x07, 0x0e, 0x06, 0x0a,
  0x5b, 0x2e, 0x11, 0x30, 0xf1, 0x11, 0x1d, 0xfa, 0x03, 0xe0, 0xf6, 0xdf,
  0x77, 0xe1, 0x4a, 0x4b, 0x7e, 0x1b, 0x41, 0xd5, 0x54, 0x23, 0x24, 0xf7,
  0x68, 0x7f, 0xf0, 0xe7, 0x53, 0x17, 0x20, 0x3e, 0x0a, 0xd1, 0xfa, 0x28,
  0xad, 0x0a, 0x07, 0x16, 0x00, 0x50, 0x22, 0xf2, 0xed, 0x17, 0x45, 0x29,
  0xcc, 0x7f, 0x5a, 0xcd, 0x48, 0x18, 0x49, 0x13, 0x1f, 0xc8, 0x53, 0x15,
  0xb4, 0x6a, 0x72, 0xc9, 0x46, 0x26, 0x09, 0xac, 0x7e, 0xfe, 0xff, 0xff,
  0x04, 0x00, 0x00, 0x00, 0x10, 0x00, 0x00, 0x00, 0x3f, 0x03, 0x00, 0x00,
  0xc7, 0x00, 0x00, 0x00, 0x8d, 0x07, 0x00, 0x00, 0x11, 0x01, 0x00, 0x00,
  0x9a, 0xfe, 0xff, 0xff, 0x04, 0x00, 0x00, 0x00, 0xf0, 0x00, 0x00, 0x00,
  0x00, 0xe1, 0x0a, 0xf6, 0xf9, 0x10, 0xf4, 0xe4, 0x3e, 0xf7, 0xe5, 0xf7,
  0xdd, 0x3e, 0xd5, 0xe7, 0xea, 0x16, 0x19, 0xe3, 0x1f, 0xfa, 0xd6, 0xe5,
  0x62, 0x2e, 0x1f, 0xfd, 0x18, 0x16, 0x27, 0x0e, 0x81, 0x45, 0x0b, 0x19,
  0x33, 0xfb, 0x3a, 0x59, 0x21, 0x20, 0xdd, 0xfa, 0xdb, 0x74, 0x42, 0x02,
  0xc5, 0x35, 0xf4, 0x7a, 0x28, 0x1c, 0x12, 0xc4, 0xd8, 0x0b, 0x22, 0x1e,
  0x06, 0xd9, 0xde, 0xf0, 0xfd, 0x14, 0xfc, 0xe2, 0x33, 0xf3, 0xfe, 0x14,
  0xd1, 0x3c, 0xe1, 0x09, 0xd9, 0xfd, 0xfa, 0x13, 0x24, 0xfd, 0x1b, 0xc3,
  0x1c, 0xe7, 0xef, 0xe7, 0xfc, 0xdd, 0x1a, 0xa7, 0x05, 0xf0, 0xd5, 0x17,
  0xf6, 0xf3, 0x22, 0x0e, 0xe0, 0xf6, 0x61, 0xe1, 0x27, 0x24, 0xff, 0x1d,
  0x11, 0xff, 0xdb, 0x59, 0x81, 0x40, 0x9e, 0x53, 0xb1, 0x41, 0x9a, 0x08,
  0x9a, 0xf9, 0xf4, 0x1a, 0xf6, 0x0e, 0x3f, 0x23, 0xca, 0xde, 0x1c, 0xcf,
  0x2d, 0x11, 0xdb, 0xe1, 0xf0, 0xb7, 0x99, 0xc5, 0x28, 0xed, 0xdb, 0x1c,
  0x0b, 0x37, 0x5f, 0xac, 0x50, 0xfd, 0x49, 0x00, 0x6a, 0x16, 0x23, 0xee,
  0xcd, 0x43, 0x1c, 0x2c, 0x3d, 0x45, 0x62, 0x14, 0x2e, 0xd0, 0xde, 0x2a,
  0xaa, 0xe6, 0xcc, 0x1d, 0x40, 0x7f, 0xbf, 0xa8, 0xe0, 0xca, 0x61, 0x48,
  0xdd, 0x02, 0x10, 0x01, 0xfd, 0x0b, 0x16, 0x06, 0x26, 0xeb, 0x16, 0x25,
  0x08, 0xf7, 0xd9, 0xfd, 0xfc, 0x2e, 0x18, 0x45, 0xee, 0x00, 0x17, 0xf9,
  0x08, 0xd3, 0xfa, 0x01, 0x05, 0xed, 0xe5, 0xf0, 0xe7, 0x23, 0x05, 0xfd,
  0xe5, 0x0c, 0xd5, 0x06, 0x0b, 0xdb, 0x13, 0xd6, 0xc9, 0x10, 0xef, 0xc0,
  0xe0, 0xf2, 0xf3, 0xfc, 0xec, 0xbe, 0x24, 0xed, 0x52, 0xee, 0xbc, 0x81,
  0x96, 0xff, 0xff, 0xff, 0x04, 0x00, 0x00, 0x00, 0x08, 0x00, 0x00, 0x00,
  0xff, 0xff, 0xff, 0xff, 0x08, 0x00, 0x00, 0x00, 0xaa, 0xff, 0xff, 0xff,
  0x04, 0x00, 0x00, 0x00, 0x10, 0x00, 0x00, 0x00, 0x01, 0x00, 0x00, 0x00,
  0x07, 0x00, 0x00, 0x00, 0x01, 0x00, 0x00, 0x00, 0x04, 0x00, 0x00, 0x00,
  0xc6, 0xff, 0xff, 0xff, 0x04, 0x00, 0x00, 0x00, 0x10, 0x00, 0x00, 0x00,
  0x01, 0x00, 0x00, 0x00, 0x01, 0x00, 0x00, 0x00, 0x07, 0x00, 0x00, 0x00,
  0x04, 0x00, 0x00, 0x00, 0xe2, 0xff, 0xff, 0xff, 0x04, 0x00, 0x00, 0x00,
  0x10, 0x00, 0x00, 0x00, 0x01, 0x00, 0x00, 0x00, 0x1e, 0x00, 0x00, 0x00,
  0x01, 0x00, 0x00, 0x00, 0x04, 0x00, 0x00, 0x00, 0x00, 0x00, 0x06, 0x00,
  0x08, 0x00, 0x04, 0x00, 0x06, 0x00, 0x00, 0x00, 0x04, 0x00, 0x00, 0x00,
  0x10, 0x00, 0x00, 0x00, 0x01, 0x00, 0x00, 0x00, 0x01, 0x00, 0x00, 0x00,
  0x1e, 0x00, 0x00, 0x00, 0x06, 0x00, 0x00, 0x00, 0x14, 0xec, 0xff, 0xff,
  0x18, 0xec, 0xff, 0xff, 0x0f, 0x00, 0x00, 0x00, 0x4d, 0x4c, 0x49, 0x52,
  0x20, 0x43, 0x6f, 0x6e, 0x76, 0x65, 0x72, 0x74, 0x65, 0x64, 0x2e, 0x00,
  0x01, 0x00, 0x00, 0x00, 0x14, 0x00, 0x00, 0x00, 0x00, 0x00, 0x0e, 0x00,
  0x18, 0x00, 0x14, 0x00, 0x10, 0x00, 0x0c, 0x00, 0x08, 0x00, 0x04, 0x00,
  0x0e, 0x00, 0x00, 0x00, 0x14, 0x00, 0x00, 0x00, 0x1c, 0x00, 0x00, 0x00,
  0xec, 0x02, 0x00, 0x00, 0xf0, 0x02, 0x00, 0x00, 0xf4, 0x02, 0x00, 0x00,
  0x04, 0x00, 0x00, 0x00, 0x6d, 0x61, 0x69, 0x6e, 0x00, 0x00, 0x00, 0x00,
  0x0d, 0x00, 0x00, 0x00, 0xb0, 0x02, 0x00, 0x00, 0x64, 0x02, 0x00, 0x00,
  0x14, 0x02, 0x00, 0x00, 0xf0, 0x01, 0x00, 0x00, 0x9c, 0x01, 0x00, 0x00,
  0x78, 0x01, 0x00, 0x00, 0x38, 0x01, 0x00, 0x00, 0x14, 0x01, 0x00, 0x00,
  0xd0, 0x00, 0x00, 0x00, 0xac, 0x00, 0x00, 0x00, 0x74, 0x00, 0x00, 0x00,
  0x3c, 0x00, 0x00, 0x00, 0x04, 0x00, 0x00, 0x00, 0xda, 0xfd, 0xff, 0xff,
  0x14, 0x00, 0x00, 0x00, 0x00, 0x00, 0x00, 0x08, 0x10, 0x00, 0x00, 0x00,
  0x14, 0x00, 0x00, 0x00, 0x03, 0x00, 0x00, 0x00, 0xbc, 0xec, 0xff, 0xff,
  0x01, 0x00, 0x00, 0x00, 0x1e, 0x00, 0x00, 0x00, 0x03, 0x00, 0x00, 0x00,
  0x1d, 0x00, 0x00, 0x00, 0x10, 0x00, 0x00, 0x00, 0x11, 0x00, 0x00, 0x00,
  0x0e, 0xfe, 0xff, 0xff, 0x14, 0x00, 0x00, 0x00, 0x00, 0x00, 0x00, 0x08,
  0x10, 0x00, 0x00, 0x00, 0x14, 0x00, 0x00, 0x00, 0x03, 0x00, 0x00, 0x00,
  0xf0, 0xec, 0xff, 0xff, 0x01, 0x00, 0x00, 0x00, 0x1d, 0x00, 0x00, 0x00,
  0x03, 0x00, 0x00, 0x00, 0x1c, 0x00, 0x00, 0x00, 0x0e, 0x00, 0x00, 0x00,
  0x0f, 0x00, 0x00, 0x00, 0x42, 0xfe, 0xff, 0xff, 0x14, 0x00, 0x00, 0x00,
  0x00, 0x00, 0x00, 0x08, 0x10, 0x00, 0x00, 0x00, 0x14, 0x00, 0x00, 0x00,
  0x03, 0x00, 0x00, 0x00, 0x24, 0xed, 0xff, 0xff, 0x01, 0x00, 0x00, 0x00,
  0x1c, 0x00, 0x00, 0x00, 0x03, 0x00, 0x00, 0x00, 0x1b, 0x00, 0x00, 0x00,
  0x0c, 0x00, 0x00, 0x00, 0x0d, 0x00, 0x00, 0x00, 0x2a, 0xfe, 0xff, 0xff,
  0x08, 0x00, 0x00, 0x00, 0x0c, 0x00, 0x00, 0x00, 0x01, 0x00, 0x00, 0x00,
  0x1b, 0x00, 0x00, 0x00, 0x02, 0x00, 0x00, 0x00, 0x1a, 0x00, 0x00, 0x00,
  0x05, 0x00, 0x00, 0x00, 0x96, 0xfe, 0xff, 0xff, 0x14, 0x00, 0x00, 0x00,
  0x00, 0x00, 0x00, 0x05, 0x24, 0x00, 0x00, 0x00, 0x28, 0x00, 0x00, 0x00,
  0x02, 0x00, 0x00, 0x00, 0x42, 0xff, 0xff, 0xff, 0x03, 0x00, 0x00, 0x00,
  0x01, 0x00, 0x00, 0x00, 0x03, 0x00, 0x00, 0x00, 0x01, 0x00, 0x00, 0x00,
  0x00, 0x00, 0x00, 0x01, 0x01, 0x00, 0x00, 0x00, 0x1a, 0x00, 0x00, 0x00,
  0x01, 0x00, 0x00, 0x00, 0x19, 0x00, 0x00, 0x00, 0x8a, 0xfe, 0xff, 0xff,
  0x08, 0x00, 0x00, 0x00, 0x0c, 0x00, 0x00, 0x00, 0x01, 0x00, 0x00, 0x00,
  0x19, 0x00, 0x00, 0x00, 0x02, 0x00, 0x00, 0x00, 0x18, 0x00, 0x00, 0x00,
  0x04, 0x00, 0x00, 0x00, 0xf6, 0xfe, 0xff, 0xff, 0x14, 0x00, 0x00, 0x00,
  0x00, 0x00, 0x00, 0x01, 0x18, 0x00, 0x00, 0x00, 0x1c, 0x00, 0x00, 0x00,
  0x01, 0x00, 0x00, 0x00, 0xc2, 0xfe, 0xff, 0xff, 0x01, 0x00, 0x00, 0x00,
  0x01, 0x00, 0x00, 0x00, 0x01, 0x00, 0x00, 0x00, 0x18, 0x00, 0x00, 0x00,
  0x03, 0x00, 0x00, 0x00, 0x17, 0x00, 0x00, 0x00, 0x0a, 0x00, 0x00, 0x00,
  0x0b, 0x00, 0x00, 0x00, 0xe6, 0xfe, 0xff, 0xff, 0x08, 0x00, 0x00, 0x00,
  0x0c, 0x00, 0x00, 0x00, 0x01, 0x00, 0x00, 0x00, 0x17, 0x00, 0x00, 0x00,
  0x02, 0x00, 0x00, 0x00, 0x16, 0x00, 0x00, 0x00, 0x03, 0x00, 0x00, 0x00,
  0x52, 0xff, 0xff, 0xff, 0x24, 0x00, 0x00, 0x00, 0x00, 0x00, 0x00, 0x05,
  0x34, 0x00, 0x00, 0x00, 0x38, 0x00, 0x00, 0x00, 0x02, 0x00, 0x00, 0x00,
  0x00, 0x00, 0x0e, 0x00, 0x18, 0x00, 0x17, 0x00, 0x10, 0x00, 0x0c, 0x00,
  0x08, 0x00, 0x04, 0x00, 0x0e, 0x00, 0x00, 0x00, 0x04, 0x00, 0x00, 0x00,
  0x01, 0x00, 0x00, 0x00, 0x04, 0x00, 0x00, 0x00, 0x01, 0x00, 0x00, 0x00,
  0x00, 0x00, 0x00, 0x01, 0x01, 0x00, 0x00, 0x00, 0x16, 0x00, 0x00, 0x00,
  0x01, 0x00, 0x00, 0x00, 0x15, 0x00, 0x00, 0x00, 0x56, 0xff, 0xff, 0xff,
  0x08, 0x00, 0x00, 0x00, 0x0c, 0x00, 0x00, 0x00, 0x01, 0x00, 0x00, 0x00,
  0x15, 0x00, 0x00, 0x00, 0x02, 0x00, 0x00, 0x00, 0x14, 0x00, 0x00, 0x00,
  0x02, 0x00, 0x00, 0x00, 0xc2, 0xff, 0xff, 0xff, 0x14, 0x00, 0x00, 0x00,
  0x00, 0x00, 0x00, 0x01, 0x18, 0x00, 0x00, 0x00, 0x1c, 0x00, 0x00, 0x00,
  0x01, 0x00, 0x00, 0x00, 0x8e, 0xff, 0xff, 0xff, 0x01, 0x00, 0x00, 0x00,
  0x01, 0x00, 0x00, 0x00, 0x01, 0x00, 0x00, 0x00, 0x14, 0x00, 0x00, 0x00,
  0x03, 0x00, 0x00, 0x00, 0x13, 0x00, 0x00, 0x00, 0x08, 0x00, 0x00, 0x00,
  0x09, 0x00, 0x00, 0x00, 0x00, 0x00, 0x0e, 0x00, 0x18, 0x00, 0x14, 0x00,
  0x10, 0x00, 0x0c, 0x00, 0x0b, 0x00, 0x04, 0x00, 0x0e, 0x00, 0x00, 0x00,
  0x14, 0x00, 0x00, 0x00, 0x00, 0x00, 0x00, 0x01, 0x18, 0x00, 0x00, 0x00,
  0x1c, 0x00, 0x00, 0x00, 0x01, 0x00, 0x00, 0x00, 0xda, 0xff, 0xff, 0xff,
  0x01, 0x00, 0x00, 0x00, 0x01, 0x00, 0x00, 0x00, 0x01, 0x00, 0x00, 0x00,
  0x13, 0x00, 0x00, 0x00, 0x03, 0x00, 0x00, 0x00, 0x12, 0x00, 0x00, 0x00,
  0x06, 0x00, 0x00, 0x00, 0x07, 0x00, 0x00, 0x00, 0x00, 0x00, 0x0a, 0x00,
  0x0c, 0x00, 0x00, 0x00, 0x08, 0x00, 0x04, 0x00, 0x0a, 0x00, 0x00, 0x00,
  0x08, 0x00, 0x00, 0x00, 0x0c, 0x00, 0x00, 0x00, 0x01, 0x00, 0x00, 0x00,
  0x12, 0x00, 0x00, 0x00, 0x02, 0x00, 0x00, 0x00, 0x00, 0x00, 0x00, 0x00,
  0x01, 0x00, 0x00, 0x00, 0x01, 0x00, 0x00, 0x00, 0x1e, 0x00, 0x00, 0x00,
  0x01, 0x00, 0x00, 0x00, 0x00, 0x00, 0x00, 0x00, 0x1f, 0x00, 0x00, 0x00,
  0x00, 0x11, 0x00, 0x00, 0x90, 0x10, 0x00, 0x00, 0x38, 0x10, 0x00, 0x00,
  0xdc, 0x0f, 0x00, 0x00, 0x84, 0x0f, 0x00, 0x00, 0x34, 0x0f, 0x00, 0x00,
  0x94, 0x0e, 0x00, 0x00, 0xa8, 0x0d, 0x00, 0x00, 0x0c, 0x0d, 0x00, 0x00,
  0xf8, 0x0b, 0x00, 0x00, 0x5c, 0x0b, 0x00, 0x00, 0x48, 0x0a, 0x00, 0x00,
  0xdc, 0x09, 0x00, 0x00, 0x80, 0x09, 0x00, 0x00, 0x14, 0x09, 0x00, 0x00,
  0xb8, 0x08, 0x00, 0x00, 0x4c, 0x08, 0x00, 0x00, 0xf0, 0x07, 0x00, 0x00,
  0x6c, 0x07, 0x00, 0x00, 0x98, 0x06, 0x00, 0x00, 0x9c, 0x05, 0x00, 0x00,
  0x18, 0x05, 0x00, 0x00, 0x94, 0x04, 0x00, 0x00, 0x10, 0x04, 0x00, 0x00,
  0x14, 0x03, 0x00, 0x00, 0x90, 0x02, 0x00, 0x00, 0x0c, 0x02, 0x00, 0x00,
  0x98, 0x01, 0x00, 0x00, 0x04, 0x01, 0x00, 0x00, 0x70, 0x00, 0x00, 0x00,
  0x04, 0x00, 0x00, 0x00, 0x8a, 0xef, 0xff, 0xff, 0x14, 0x00, 0x00, 0x00,
  0x34, 0x00, 0x00, 0x00, 0x1f, 0x00, 0x00, 0x00, 0x00, 0x00, 0x00, 0x09,
  0x48, 0x00, 0x00, 0x00, 0x7c, 0xef, 0xff, 0xff, 0x08, 0x00, 0x00, 0x00,
  0x14, 0x00, 0x00, 0x00, 0x01, 0x00, 0x00, 0x00, 0xff, 0xff, 0xff, 0xff,
  0xff, 0xff, 0xff, 0xff, 0x00, 0x00, 0x00, 0x00, 0x01, 0x00, 0x00, 0x00,
  0x15, 0xf1, 0x0e, 0x3d, 0x19, 0x00, 0x00, 0x00, 0x53, 0x74, 0x61, 0x74,
  0x65, 0x66, 0x75, 0x6c, 0x50, 0x61, 0x72, 0x74, 0x69, 0x74, 0x69, 0x6f,
  0x6e, 0x65, 0x64, 0x43, 0x61, 0x6c, 0x6c, 0x3a, 0x30, 0x00, 0x00, 0x00,
  0x02, 0x00, 0x00, 0x00, 0x01, 0x00, 0x00, 0x00, 0x03, 0x00, 0x00, 0x00,
  0xf2, 0xef, 0xff, 0xff, 0x14, 0x00, 0x00, 0x00, 0x34, 0x00, 0x00, 0x00,
  0x1e, 0x00, 0x00, 0x00, 0x00, 0x00, 0x00, 0x09, 0x70, 0x00, 0x00, 0x00,
  0xe4, 0xef, 0xff, 0xff, 0x08, 0x00, 0x00, 0x00, 0x14, 0x00, 0x00, 0x00,
  0x01, 0x00, 0x00, 0x00, 0x07, 0x00, 0x00, 0x00, 0x00, 0x00, 0x00, 0x00,
  0x00, 0x00, 0x00, 0x00, 0x01, 0x00, 0x00, 0x00, 0xfa, 0xd9, 0xf2, 0x3c,
  0x40, 0x00, 0x00, 0x00, 0x70, 0x72, 0x65, 0x64, 0x69, 0x63, 0x74, 0x6f,
  0x72, 0x5f, 0x6d, 0x6f, 0x64, 0x65, 0x6c, 0x2f, 0x64, 0x65, 0x6e, 0x73,
  0x65, 0x5f, 0x31, 0x39, 0x2f, 0x4d, 0x61, 0x74, 0x4d, 0x75, 0x6c, 0x3b,
  0x70, 0x72, 0x65, 0x64, 0x69, 0x63, 0x74, 0x6f, 0x72, 0x5f, 0x6d, 0x6f,
  0x64, 0x65, 0x6c, 0x2f, 0x64, 0x65, 0x6e, 0x73, 0x65, 0x5f, 0x31, 0x39,
  0x2f, 0x42, 0x69, 0x61, 0x73, 0x41, 0x64, 0x64, 0x00, 0x00, 0x00, 0x00,
  0x02, 0x00, 0x00, 0x00, 0x01, 0x00, 0x00, 0x00, 0x10, 0x00, 0x00, 0x00,
  0x82, 0xf0, 0xff, 0xff, 0x14, 0x00, 0x00, 0x00, 0x34, 0x00, 0x00, 0x00,
  0x1d, 0x00, 0x00, 0x00, 0x00, 0x00, 0x00, 0x09, 0x70, 0x00, 0x00, 0x00,
  0x74, 0xf0, 0xff, 0xff, 0x08, 0x00, 0x00, 0x00, 0x14, 0x00, 0x00, 0x00,
  0x01, 0x00, 0x00, 0x00, 0xf7, 0xff, 0xff, 0xff, 0xff, 0xff, 0xff, 0xff,
  0x00, 0x00, 0x00, 0x00, 0x01, 0x00, 0x00, 0x00, 0xc6, 0x45, 0xd8, 0x3c,
  0x40, 0x00, 0x00, 0x00, 0x70, 0x72, 0x65, 0x64, 0x69, 0x63, 0x74, 0x6f,
  0x72, 0x5f, 0x6d, 0x6f, 0x64, 0x65, 0x6c, 0x2f, 0x64, 0x65, 0x6e, 0x73,
  0x65, 0x5f, 0x31, 0x38, 0x2f, 0x4d, 0x61, 0x74, 0x4d, 0x75, 0x6c, 0x3b,
  0x70, 0x72, 0x65, 0x64, 0x69, 0x63, 0x74, 0x6f, 0x72, 0x5f, 0x6d, 0x6f,
  0x64, 0x65, 0x6c, 0x2f, 0x64, 0x65, 0x6e, 0x73, 0x65, 0x5f, 0x31, 0x38,
  0x2f, 0x42, 0x69, 0x61, 0x73, 0x41, 0x64, 0x64, 0x00, 0x00, 0x00, 0x00,
  0x02, 0x00, 0x00, 0x00, 0x01, 0x00, 0x00, 0x00, 0x40, 0x00, 0x00, 0x00,
  0x12, 0xf1, 0xff, 0xff, 0x14, 0x00, 0x00, 0x00, 0x34, 0x00, 0x00, 0x00,
  0x1c, 0x00, 0x00, 0x00, 0x00, 0x00, 0x00, 0x09, 0x50, 0x00, 0x00, 0x00,
  0x04, 0xf1, 0xff, 0xff, 0x08, 0x00, 0x00, 0x00, 0x14, 0x00, 0x00, 0x00,
  0x01, 0x00, 0x00, 0x00, 0xfb, 0xff, 0xff, 0xff, 0xff, 0xff, 0xff, 0xff,
  0x00, 0x00, 0x00, 0x00, 0x01, 0x00, 0x00, 0x00, 0x11, 0xb8, 0x64, 0x3d,
  0x22, 0x00, 0x00, 0x00, 0x70, 0x72, 0x65, 0x64, 0x69, 0x63, 0x74, 0x6f,
  0x72, 0x5f, 0x6d, 0x6f, 0x64, 0x65, 0x6c, 0x2f, 0x66, 0x6c, 0x61, 0x74,
  0x74, 0x65, 0x6e, 0x5f, 0x31, 0x30, 0x2f, 0x52, 0x65, 0x73, 0x68, 0x61,
  0x70, 0x65, 0x00, 0x00, 0x02, 0x00, 0x00, 0x00, 0x01, 0x00, 0x00, 0x00,
  0x08, 0x00, 0x00, 0x00, 0x82, 0xf1, 0xff, 0xff, 0x14, 0x00, 0x00, 0x00,
  0x34, 0x00, 0x00, 0x00, 0x1b, 0x00, 0x00, 0x00, 0x00, 0x00, 0x00, 0x09,
  0x58, 0x00, 0x00, 0x00, 0x74, 0xf1, 0xff, 0xff, 0x08, 0x00, 0x00, 0x00,
  0x14, 0x00, 0x00, 0x00, 0x01, 0x00, 0x00, 0x00, 0xfb, 0xff, 0xff, 0xff,
  0xff, 0xff, 0xff, 0xff, 0x00, 0x00, 0x00, 0x00, 0x01, 0x00, 0x00, 0x00,
  0x11, 0xb8, 0x64, 0x3d, 0x28, 0x00, 0x00, 0x00, 0x70, 0x72, 0x65, 0x64,
  0x69, 0x63, 0x74, 0x6f, 0x72, 0x5f, 0x6d, 0x6f, 0x64, 0x65, 0x6c, 0x2f,
  0x6d, 0x61, 0x78, 0x5f, 0x70, 0x6f, 0x6f, 0x6c, 0x69, 0x6e, 0x67, 0x31,
  0x64, 0x5f, 0x32, 0x37, 0x2f, 0x4d, 0x61, 0x78, 0x50, 0x6f, 0x6f, 0x6c,
  0x00, 0x00, 0x00, 0x00, 0x04, 0x00, 0x00, 0x00, 0x01, 0x00, 0x00, 0x00,
  0x02, 0x00, 0x00, 0x00, 0x01, 0x00, 0x00, 0x00, 0x04, 0x00, 0x00, 0x00,
  0x02, 0xf2, 0xff, 0xff, 0x14, 0x00, 0x00, 0x00, 0x30, 0x00, 0x00, 0x00,
  0x1a, 0x00, 0x00, 0x00, 0x00, 0x00, 0x00, 0x09, 0x58, 0x00, 0x00, 0x00,
  0xf4, 0xf1, 0xff, 0xff, 0x08, 0x00, 0x00, 0x00, 0x10, 0x00, 0x00, 0x00,
  0x01, 0x00, 0x00, 0x00, 0xfb, 0xff, 0xff, 0xff, 0xff, 0xff, 0xff, 0xff,
  0x01, 0x00, 0x00, 0x00, 0x11, 0xb8, 0x64, 0x3d, 0x2c, 0x00, 0x00, 0x00,
  0x70, 0x72, 0x65, 0x64, 0x69, 0x63, 0x74, 0x6f, 0x72, 0x5f, 0x6d, 0x6f,
  0x64, 0x65, 0x6c, 0x2f, 0x6d, 0x61, 0x78, 0x5f, 0x70, 0x6f, 0x6f, 0x6c,
  0x69, 0x6e, 0x67, 0x31, 0x64, 0x5f, 0x32, 0x37, 0x2f, 0x45, 0x78, 0x70,
  0x61, 0x6e, 0x64, 0x44, 0x69, 0x6d, 0x73, 0x31, 0x00, 0x00, 0x00, 0x00,
  0x04, 0x00, 0x00, 0x00, 0x01, 0x00, 0x00, 0x00, 0x07, 0x00, 0x00, 0x00,
  0x01, 0x00, 0x00, 0x00, 0x04, 0x00, 0x00, 0x00, 0x82, 0xf2, 0xff, 0xff,
  0x14, 0x00, 0x00, 0x00, 0x34, 0x00, 0x00, 0x00, 0x19, 0x00, 0x00, 0x00,
  0x00, 0x00, 0x00, 0x09, 0xd0, 0x00, 0x00, 0x00, 0x74, 0xf2, 0xff, 0xff,
  0x08, 0x00, 0x00, 0x00, 0x14, 0x00, 0x00, 0x00, 0x01, 0x00, 0x00, 0x00,
  0xfb, 0xff, 0xff, 0xff, 0xff, 0xff, 0xff, 0xff, 0x00, 0x00, 0x00, 0x00,
  0x01, 0x00, 0x00, 0x00, 0x11, 0xb8, 0x64, 0x3d, 0xa1, 0x00, 0x00, 0x00,
  0x70, 0x72, 0x65, 0x64, 0x69, 0x63, 0x74, 0x6f, 0x72, 0x5f, 0x6d, 0x6f,
  0x64, 0x65, 0x6c, 0x2f, 0x63, 0x6f, 0x6e, 0x76, 0x31, 0x64, 0x5f, 0x31,
  0x31, 0x30, 0x2f, 0x42, 0x69, 0x61, 0x73, 0x41, 0x64, 0x64, 0x3b, 0x70,
  0x72, 0x65, 0x64, 0x69, 0x63, 0x74, 0x6f, 0x72, 0x5f, 0x6d, 0x6f, 0x64,
  0x65, 0x6c, 0x2f, 0x63, 0x6f, 0x6e, 0x76, 0x31, 0x64, 0x5f, 0x31, 0x31,
  0x30, 0x2f, 0x63, 0x6f, 0x6e, 0x76, 0x31, 0x64, 0x2f, 0x53, 0x71, 0x75,
  0x65, 0x65, 0x7a, 0x65, 0x3b, 0x63, 0x6f, 0x6e, 0x76, 0x31, 0x64, 0x5f,
  0x31, 0x31, 0x30, 0x2f, 0x62, 0x69, 0x61, 0x73, 0x3b, 0x70, 0x72, 0x65,
  0x64, 0x69, 0x63, 0x74, 0x6f, 0x72, 0x5f, 0x6d, 0x6f, 0x64, 0x65, 0x6c,
  0x2f, 0x63, 0x6f, 0x6e, 0x76, 0x31, 0x64, 0x5f, 0x31, 0x30, 0x38, 0x2f,
  0x63, 0x6f, 0x6e, 0x76, 0x31, 0x64, 0x3b, 0x70, 0x72, 0x65, 0x64, 0x69,
  0x63, 0x74, 0x6f, 0x72, 0x5f, 0x6d, 0x6f, 0x64, 0x65, 0x6c, 0x2f, 0x63,
  0x6f, 0x6e, 0x76, 0x31, 0x64, 0x5f, 0x31, 0x31, 0x30, 0x2f, 0x63, 0x6f,
  0x6e, 0x76, 0x31, 0x64, 0x31, 0x00, 0x00, 0x00, 0x04, 0x00, 0x00, 0x00,
  0x01, 0x00, 0x00, 0x00, 0x01, 0x00, 0x00, 0x00, 0x07, 0x00, 0x00, 0x00,
  0x04, 0x00, 0x00, 0x00, 0x7a, 0xf3, 0xff, 0xff, 0x14, 0x00, 0x00, 0x00,
  0x30, 0x00, 0x00, 0x00, 0x18, 0x00, 0x00, 0x00, 0x00, 0x00, 0x00, 0x09,
  0x58, 0x00, 0x00, 0x00, 0x6c, 0xf3, 0xff, 0xff, 0x08, 0x00, 0x00, 0x00,
  0x10, 0x00, 0x00, 0x00, 0x01, 0x00, 0x00, 0x00, 0xf4, 0xff, 0xff, 0xff,
  0xff, 0xff, 0xff, 0xff, 0x01, 0x00, 0x00, 0x00, 0x8d, 0x86, 0x4f, 0x3d,
  0x2d, 0x00, 0x00, 0x00, 0x70, 0x72, 0x65, 0x64, 0x69, 0x63, 0x74, 0x6f,
  0x72, 0x5f, 0x6d, 0x6f, 0x64, 0x65, 0x6c, 0x2f, 0x63, 0x6f, 0x6e, 0x76,
  0x31, 0x64, 0x5f, 0x31, 0x31, 0x30, 0x2f, 0x63, 0x6f, 0x6e, 0x76, 0x31,
  0x64, 0x2f, 0x45, 0x78, 0x70, 0x61, 0x6e, 0x64, 0x44, 0x69, 0x6d, 0x73,
  0x31, 0x00, 0x00, 0x00, 0x04, 0x00, 0x00, 0x00, 0x01, 0x00, 0x00, 0x00,
  0x01, 0x00, 0x00, 0x00, 0x07, 0x00, 0x00, 0x00, 0x04, 0x00, 0x00, 0x00,
  0xfa, 0xf3, 0xff, 0xff, 0x14, 0x00, 0x00, 0x00, 0x34, 0x00, 0x00, 0x00,
  0x17, 0x00, 0x00, 0x00, 0x00, 0x00, 0x00, 0x09, 0x58, 0x00, 0x00, 0x00,
  0xec, 0xf3, 0xff, 0xff, 0x08, 0x00, 0x00, 0x00, 0x14, 0x00, 0x00, 0x00,
  0x01, 0x00, 0x00, 0x00, 0xf4, 0xff, 0xff, 0xff, 0xff, 0xff, 0xff, 0xff,
  0x00, 0x00, 0x00, 0x00, 0x01, 0x00, 0x00, 0x00, 0x8d, 0x86, 0x4f, 0x3d,
  0x28, 0x00, 0x00, 0x00, 0x70, 0x72, 0x65, 0x64, 0x69, 0x63, 0x74, 0x6f,
  0x72, 0x5f, 0x6d, 0x6f, 0x64, 0x65, 0x6c, 0x2f, 0x6d, 0x61, 0x78, 0x5f,
  0x70, 0x6f, 0x6f, 0x6c, 0x69, 0x6e, 0x67, 0x31, 0x64, 0x5f, 0x32, 0x36,
  0x2f, 0x4d, 0x61, 0x78, 0x50, 0x6f, 0x6f, 0x6c, 0x00, 0x00, 0x00, 0x00,
  0x04, 0x00, 0x00, 0x00, 0x01, 0x00, 0x00, 0x00, 0x07, 0x00, 0x00, 0x00,
  0x01, 0x00, 0x00, 0x00, 0x04, 0x00, 0x00, 0x00, 0x7a, 0xf4, 0xff, 0xff,
  0x14, 0x00, 0x00, 0x00, 0x30, 0x00, 0x00, 0x00, 0x16, 0x00, 0x00, 0x00,
  0x00, 0x00, 0x00, 0x09, 0x58, 0x00, 0x00, 0x00, 0x6c, 0xf4, 0xff, 0xff,
  0x08, 0x00, 0x00, 0x00, 0x10, 0x00, 0x00, 0x00, 0x01, 0x00, 0x00, 0x00,
  0xf4, 0xff, 0xff, 0xff, 0xff, 0xff, 0xff, 0xff, 0x01, 0x00, 0x00, 0x00,
  0x8d, 0x86, 0x4f, 0x3d, 0x2c, 0x00, 0x00, 0x00, 0x70, 0x72, 0x65, 0x64,
  0x69, 0x63, 0x74, 0x6f, 0x72, 0x5f, 0x6d, 0x6f, 0x64, 0x65, 0x6c, 0x2f,
  0x6d, 0x61, 0x78, 0x5f, 0x70, 0x6f, 0x6f, 0x6c, 0x69, 0x6e, 0x67, 0x31,
  0x64, 0x5f, 0x32, 0x36, 0x2f, 0x45, 0x78, 0x70, 0x61, 0x6e, 0x64, 0x44,
  0x69, 0x6d, 0x73, 0x31, 0x00, 0x00, 0x00, 0x00, 0x04, 0x00, 0x00, 0x00,
  0x01, 0x00, 0x00, 0x00, 0x1e, 0x00, 0x00, 0x00, 0x01, 0x00, 0x00, 0x00,
  0x04, 0x00, 0x00, 0x00, 0xfa, 0xf4, 0xff, 0xff, 0x14, 0x00, 0x00, 0x00,
  0x34, 0x00, 0x00, 0x00, 0x15, 0x00, 0x00, 0x00, 0x00, 0x00, 0x00, 0x09,
  0xd0, 0x00, 0x00, 0x00, 0xec, 0xf4, 0xff, 0xff, 0x08, 0x00, 0x00, 0x00,
  0x14, 0x00, 0x00, 0x00, 0x01, 0x00, 0x00, 0x00, 0xf4, 0xff, 0xff, 0xff,
  0xff, 0xff, 0xff, 0xff, 0x00, 0x00, 0x00, 0x00, 0x01, 0x00, 0x00, 0x00,
  0x8d, 0x86, 0x4f, 0x3d, 0xa1, 0x00, 0x00, 0x00, 0x70, 0x72, 0x65, 0x64,
  0x69, 0x63, 0x74, 0x6f, 0x72, 0x5f, 0x6d, 0x6f, 0x64, 0x65, 0x6c, 0x2f,
  0x63, 0x6f, 0x6e, 0x76, 0x31, 0x64, 0x5f, 0x31, 0x30, 0x39, 0x2f, 0x42,
  0x69, 0x61, 0x73, 0x41, 0x64, 0x64, 0x3b, 0x70, 0x72, 0x65, 0x64, 0x69,
  0x63, 0x74, 0x6f, 0x72, 0x5f, 0x6d, 0x6f, 0x64, 0x65, 0x6c, 0x2f, 0x63,
  0x6f, 0x6e, 0x76, 0x31, 0x64, 0x5f, 0x31, 0x30, 0x39, 0x2f, 0x63, 0x6f,
  0x6e, 0x76, 0x31, 0x64, 0x2f, 0x53, 0x71, 0x75, 0x65, 0x65, 0x7a, 0x65,
  0x3b, 0x63, 0x6f, 0x6e, 0x76, 0x31, 0x64, 0x5f, 0x31, 0x30, 0x39, 0x2f,
  0x62, 0x69, 0x61, 0x73, 0x3b, 0x70, 0x72, 0x65, 0x64, 0x69, 0x63, 0x74,
  0x6f, 0x72, 0x5f, 0x6d, 0x6f, 0x64, 0x65, 0x6c, 0x2f, 0x63, 0x6f, 0x6e,
  0x76, 0x31, 0x64, 0x5f, 0x31, 0x30, 0x38, 0x2f, 0x63, 0x6f, 0x6e, 0x76,
  0x31, 0x64, 0x3b, 0x70, 0x72, 0x65, 0x64, 0x69, 0x63, 0x74, 0x6f, 0x72,
  0x5f, 0x6d, 0x6f, 0x64, 0x65, 0x6c, 0x2f, 0x63, 0x6f, 0x6e, 0x76, 0x31,
  0x64, 0x5f, 0x31, 0x30, 0x39, 0x2f, 0x63, 0x6f, 0x6e, 0x76, 0x31, 0x64,
  0x31, 0x00, 0x00, 0x00, 0x04, 0x00, 0x00, 0x00, 0x01, 0x00, 0x00, 0x00,
  0x01, 0x00, 0x00, 0x00, 0x1e, 0x00, 0x00, 0x00, 0x04, 0x00, 0x00, 0x00,
  0xf2, 0xf5, 0xff, 0xff, 0x14, 0x00, 0x00, 0x00, 0x30, 0x00, 0x00, 0x00,
  0x14, 0x00, 0x00, 0x00, 0x00, 0x00, 0x00, 0x09, 0xa8, 0x00, 0x00, 0x00,
  0xe4, 0xf5, 0xff, 0xff, 0x08, 0x00, 0x00, 0x00, 0x10, 0x00, 0x00, 0x00,
  0x01, 0x00, 0x00, 0x00, 0xfa, 0xff, 0xff, 0xff, 0xff, 0xff, 0xff, 0xff,
  0x01, 0x00, 0x00, 0x00, 0xac, 0xdf, 0x3a, 0x3d, 0x7f, 0x00, 0x00, 0x00,
  0x70, 0x72, 0x65, 0x64, 0x69, 0x63, 0x74, 0x6f, 0x72, 0x5f, 0x6d, 0x6f,
  0x64, 0x65, 0x6c, 0x2f, 0x63, 0x6f, 0x6e, 0x76, 0x31, 0x64, 0x5f, 0x31,
  0x30, 0x38, 0x2f, 0x42, 0x69, 0x61, 0x73, 0x41, 0x64, 0x64, 0x3b, 0x70,
  0x72, 0x65, 0x64, 0x69, 0x63, 0x74, 0x6f, 0x72, 0x5f, 0x6d, 0x6f, 0x64,
  0x65, 0x6c, 0x2f, 0x63, 0x6f, 0x6e, 0x76, 0x31, 0x64, 0x5f, 0x31, 0x30,
  0x38, 0x2f, 0x63, 0x6f, 0x6e, 0x76, 0x31, 0x64, 0x2f, 0x53, 0x71, 0x75,
  0x65, 0x65, 0x7a, 0x65, 0x3b, 0x63, 0x6f, 0x6e, 0x76, 0x31, 0x64, 0x5f,
  0x31, 0x30, 0x38, 0x2f, 0x62, 0x69, 0x61, 0x73, 0x3b, 0x70, 0x72, 0x65,
  0x64, 0x69, 0x63, 0x74, 0x6f, 0x72, 0x5f, 0x6d, 0x6f, 0x64, 0x65, 0x6c,
  0x2f, 0x63, 0x6f, 0x6e, 0x76, 0x31, 0x64, 0x5f, 0x31, 0x30, 0x38, 0x2f,
  0x63, 0x6f, 0x6e, 0x76, 0x31, 0x64, 0x31, 0x00, 0x04, 0x00, 0x00, 0x00,
  0x01, 0x00, 0x00, 0x00, 0x01, 0x00, 0x00, 0x00, 0x1e, 0x00, 0x00, 0x00,
  0x04, 0x00, 0x00, 0x00, 0xc2, 0xf6, 0xff, 0xff, 0x14, 0x00, 0x00, 0x00,
  0x30, 0x00, 0x00, 0x00, 0x13, 0x00, 0x00, 0x00, 0x00, 0x00, 0x00, 0x09,
  0x58, 0x00, 0x00, 0x00, 0xb4, 0xf6, 0xff, 0xff, 0x08, 0x00, 0x00, 0x00,
  0x10, 0x00, 0x00, 0x00, 0x01, 0x00, 0x00, 0x00, 0x07, 0x00, 0x00, 0x00,
  0x00, 0x00, 0x00, 0x00, 0x01, 0x00, 0x00, 0x00, 0x53, 0x8d, 0x9d, 0x3d,
  0x2d, 0x00, 0x00, 0x00, 0x70, 0x72, 0x65, 0x64, 0x69, 0x63, 0x74, 0x6f,
  0x72, 0x5f, 0x6d, 0x6f, 0x64, 0x65, 0x6c, 0x2f, 0x63, 0x6f, 0x6e, 0x76,
  0x31, 0x64, 0x5f, 0x31, 0x30, 0x38, 0x2f, 0x63, 0x6f, 0x6e, 0x76, 0x31,
  0x64, 0x2f, 0x45, 0x78, 0x70, 0x61, 0x6e, 0x64, 0x44, 0x69, 0x6d, 0x73,
  0x31, 0x00, 0x00, 0x00, 0x04, 0x00, 0x00, 0x00, 0x01, 0x00, 0x00, 0x00,
  0x01, 0x00, 0x00, 0x00, 0x1e, 0x00, 0x00, 0x00, 0x06, 0x00, 0x00, 0x00,
  0x42, 0xf7, 0xff, 0xff, 0x14, 0x00, 0x00, 0x00, 0x34, 0x00, 0x00, 0x00,
  0x12, 0x00, 0x00, 0x00, 0x00, 0x00, 0x00, 0x02, 0x3c, 0x00, 0x00, 0x00,
  0x34, 0xf7, 0xff, 0xff, 0x08, 0x00, 0x00, 0x00, 0x14, 0x00, 0x00, 0x00,
  0x01, 0x00, 0x00, 0x00, 0x00, 0x00, 0x00, 0x00, 0x00, 0x00, 0x00, 0x00,
  0x00, 0x00, 0x00, 0x00, 0x01, 0x00, 0x00, 0x00, 0x20, 0xd6, 0x12, 0x39,
  0x0d, 0x00, 0x00, 0x00, 0x64, 0x65, 0x6e, 0x73, 0x65, 0x5f, 0x32, 0x30,
  0x2f, 0x62, 0x69, 0x61, 0x73, 0x00, 0x00, 0x00, 0x01, 0x00, 0x00, 0x00,
  0x03, 0x00, 0x00, 0x00, 0x9a, 0xf7, 0xff, 0xff, 0x14, 0x00, 0x00, 0x00,
  0x30, 0x00, 0x00, 0x00, 0x11, 0x00, 0x00, 0x00, 0x00, 0x00, 0x00, 0x09,
  0x48, 0x00, 0x00, 0x00, 0x8c, 0xf7, 0xff, 0xff, 0x08, 0x00, 0x00, 0x00,
  0x10, 0x00, 0x00, 0x00, 0x01, 0x00, 0x00, 0x00, 0x00, 0x00, 0x00, 0x00,
  0x00, 0x00, 0x00, 0x00, 0x01, 0x00, 0x00, 0x00, 0x57, 0xc9, 0x9a, 0x3b,
  0x1f, 0x00, 0x00, 0x00, 0x70, 0x72, 0x65, 0x64, 0x69, 0x63, 0x74, 0x6f,
  0x72, 0x5f, 0x6d, 0x6f, 0x64, 0x65, 0x6c, 0x2f, 0x64, 0x65, 0x6e, 0x73,
  0x65, 0x5f, 0x32, 0x30, 0x2f, 0x4d, 0x61, 0x74, 0x4d, 0x75, 0x6c, 0x00,
  0x02, 0x00, 0x00, 0x00, 0x03, 0x00, 0x00, 0x00, 0x10, 0x00, 0x00, 0x00,
  0x02, 0xf8, 0xff, 0xff, 0x14, 0x00, 0x00, 0x00, 0x34, 0x00, 0x00, 0x00,
  0x10, 0x00, 0x00, 0x00, 0x00, 0x00, 0x00, 0x02, 0x3c, 0x00, 0x00, 0x00,
  0xf4, 0xf7, 0xff, 0xff, 0x08, 0x00, 0x00, 0x00, 0x14, 0x00, 0x00, 0x00,
  0x01, 0x00, 0x00, 0x00, 0x00, 0x00, 0x00, 0x00, 0x00, 0x00, 0x00, 0x00,
  0x00, 0x00, 0x00, 0x00, 0x01, 0x00, 0x00, 0x00, 0xc9, 0xfe, 0xac, 0x38,
  0x0d, 0x00, 0x00, 0x00, 0x64, 0x65, 0x6e, 0x73, 0x65, 0x5f, 0x31, 0x39,
  0x2f, 0x62, 0x69, 0x61, 0x73, 0x00, 0x00, 0x00, 0x01, 0x00, 0x00, 0x00,
  0x10, 0x00, 0x00, 0x00, 0x5a, 0xf8, 0xff, 0xff, 0x14, 0x00, 0x00, 0x00,
  0x30, 0x00, 0x00, 0x00, 0x0f, 0x00, 0x00, 0x00, 0x00, 0x00, 0x00, 0x09,
  0x48, 0x00, 0x00, 0x00, 0x4c, 0xf8, 0xff, 0xff, 0x08, 0x00, 0x00, 0x00,
  0x10, 0x00, 0x00, 0x00, 0x01, 0x00, 0x00, 0x00, 0x00, 0x00, 0x00, 0x00,
  0x00, 0x00, 0x00, 0x00, 0x01, 0x00, 0x00, 0x00, 0xe5, 0xc5, 0x4c, 0x3b,
  0x1f, 0x00, 0x00, 0x00, 0x70, 0x72, 0x65, 0x64, 0x69, 0x63, 0x74, 0x6f,
  0x72, 0x5f, 0x6d, 0x6f, 0x64, 0x65, 0x6c, 0x2f, 0x64, 0x65, 0x6e, 0x73,
  0x65, 0x5f, 0x31, 0x39, 0x2f, 0x4d, 0x61, 0x74, 0x4d, 0x75, 0x6c, 0x00,
  0x02, 0x00, 0x00, 0x00, 0x10, 0x00, 0x00, 0x00, 0x40, 0x00, 0x00, 0x00,
  0xc2, 0xf8, 0xff, 0xff, 0x14, 0x00, 0x00, 0x00, 0x34, 0x00, 0x00, 0x00,
  0x0e, 0x00, 0x00, 0x00, 0x00, 0x00, 0x00, 0x02, 0x3c, 0x00, 0x00, 0x00,
  0xb4, 0xf8, 0xff, 0xff, 0x08, 0x00, 0x00, 0x00, 0x14, 0x00, 0x00, 0x00,
  0x01, 0x00, 0x00, 0x00, 0x00, 0x00, 0x00, 0x00, 0x00, 0x00, 0x00, 0x00,
  0x00, 0x00, 0x00, 0x00, 0x01, 0x00, 0x00, 0x00, 0x8e, 0xa3, 0x35, 0x39,
  0x0d, 0x00, 0x00, 0x00, 0x64, 0x65, 0x6e, 0x73, 0x65, 0x5f, 0x31, 0x38,
  0x2f, 0x62, 0x69, 0x61, 0x73, 0x00, 0x00, 0x00, 0x01, 0x00, 0x00, 0x00,
  0x40, 0x00, 0x00, 0x00, 0x1a, 0xf9, 0xff, 0xff, 0x14, 0x00, 0x00, 0x00,
  0x30, 0x00, 0x00, 0x00, 0x0d, 0x00, 0x00, 0x00, 0x00, 0x00, 0x00, 0x09,
  0x48, 0x00, 0x00, 0x00, 0x0c, 0xf9, 0xff, 0xff, 0x08, 0x00, 0x00, 0x00,
  0x10, 0x00, 0x00, 0x00, 0x01, 0x00, 0x00, 0x00, 0x00, 0x00, 0x00, 0x00,
  0x00, 0x00, 0x00, 0x00, 0x01, 0x00, 0x00, 0x00, 0xe6, 0x4d, 0x4b, 0x3b,
  0x1f, 0x00, 0x00, 0x00, 0x70, 0x72, 0x65, 0x64, 0x69, 0x63, 0x74, 0x6f,
  0x72, 0x5f, 0x6d, 0x6f, 0x64, 0x65, 0x6c, 0x2f, 0x64, 0x65, 0x6e, 0x73,
  0x65, 0x5f, 0x31, 0x38, 0x2f, 0x4d, 0x61, 0x74, 0x4d, 0x75, 0x6c, 0x00,
  0x02, 0x00, 0x00, 0x00, 0x40, 0x00, 0x00, 0x00, 0x08, 0x00, 0x00, 0x00,
  0x82, 0xf9, 0xff, 0xff, 0x14, 0x00, 0x00, 0x00, 0x58, 0x00, 0x00, 0x00,
  0x0c, 0x00, 0x00, 0x00, 0x00, 0x00, 0x00, 0x02, 0xf4, 0x00, 0x00, 0x00,
  0x74, 0xf9, 0xff, 0xff, 0x08, 0x00, 0x00, 0x00, 0x2c, 0x00, 0x00, 0x00,
  0x04, 0x00, 0x00, 0x00, 0x00, 0x00, 0x00, 0x00, 0x00, 0x00, 0x00, 0x00,
  0x00, 0x00, 0x00, 0x00, 0x00, 0x00, 0x00, 0x00, 0x00, 0x00, 0x00, 0x00,
  0x00, 0x00, 0x00, 0x00, 0x00, 0x00, 0x00, 0x00, 0x00, 0x00, 0x00, 0x00,
  0x00, 0x00, 0x00, 0x00, 0x04, 0x00, 0x00, 0x00, 0x14, 0x8a, 0x19, 0x39,
  0xff, 0x4b, 0x29, 0x39, 0x6e, 0xec, 0x1c, 0x39, 0x15, 0x93, 0x54, 0x39,
  0xa0, 0x00, 0x00, 0x00, 0x70, 0x72, 0x65, 0x64, 0x69, 0x63, 0x74, 0x6f,
  0x72, 0x5f, 0x6d, 0x6f, 0x64, 0x65, 0x6c, 0x2f, 0x63, 0x6f, 0x6e, 0x76,
  0x31, 0x64, 0x5f, 0x31, 0x31, 0x30, 0x2f, 0x42, 0x69, 0x61, 0x73, 0x41,
  0x64, 0x64, 0x3b, 0x70, 0x72, 0x65, 0x64, 0x69, 0x63, 0x74, 0x6f, 0x72,
  0x5f, 0x6d, 0x6f, 0x64, 0x65, 0x6c, 0x2f, 0x63, 0x6f, 0x6e, 0x76, 0x31,
  0x64, 0x5f, 0x31, 0x31, 0x30, 0x2f, 0x63, 0x6f, 0x6e, 0x76, 0x31, 0x64,
  0x2f, 0x53, 0x71, 0x75, 0x65, 0x65, 0x7a, 0x65, 0x3b, 0x63, 0x6f, 0x6e,
  0x76, 0x31, 0x64, 0x5f, 0x31, 0x31, 0x30, 0x2f, 0x62, 0x69, 0x61, 0x73,
  0x3b, 0x70, 0x72, 0x65, 0x64, 0x69, 0x63, 0x74, 0x6f, 0x72, 0x5f, 0x6d,
  0x6f, 0x64, 0x65, 0x6c, 0x2f, 0x63, 0x6f, 0x6e, 0x76, 0x31, 0x64, 0x5f,
  0x31, 0x30, 0x38, 0x2f, 0x63, 0x6f, 0x6e, 0x76, 0x31, 0x64, 0x3b, 0x70,
  0x72, 0x65, 0x64, 0x69, 0x63, 0x74, 0x6f, 0x72, 0x5f, 0x6d, 0x6f, 0x64,
  0x65, 0x6c, 0x2f, 0x63, 0x6f, 0x6e, 0x76, 0x31, 0x64, 0x5f, 0x31, 0x31,
  0x30, 0x2f, 0x63, 0x6f, 0x6e, 0x76, 0x31, 0x64, 0x00, 0x00, 0x00, 0x00,
  0x01, 0x00, 0x00, 0x00, 0x04, 0x00, 0x00, 0x00, 0x92, 0xfa, 0xff, 0xff,
  0x14, 0x00, 0x00, 0x00, 0x54, 0x00, 0x00, 0x00, 0x0b, 0x00, 0x00, 0x00,
  0x00, 0x00, 0x00, 0x09, 0x70, 0x00, 0x00, 0x00, 0x84, 0xfa, 0xff, 0xff,
  0x08, 0x00, 0x00, 0x00, 0x28, 0x00, 0x00, 0x00, 0x04, 0x00, 0x00, 0x00,
  0x00, 0x00, 0x00, 0x00, 0x00, 0x00, 0x00, 0x00, 0x00, 0x00, 0x00, 0x00,
  0x00, 0x00, 0x00, 0x00, 0x00, 0x00, 0x00, 0x00, 0x00, 0x00, 0x00, 0x00,
  0x00, 0x00, 0x00, 0x00, 0x00, 0x00, 0x00, 0x00, 0x04, 0x00, 0x00, 0x00,
  0x4e, 0x67, 0x3d, 0x3b, 0x7a, 0xd7, 0x50, 0x3b, 0x05, 0x94, 0x41, 0x3b,
  0x39, 0x1d, 0x83, 0x3b, 0x21, 0x00, 0x00, 0x00, 0x70, 0x72, 0x65, 0x64,
  0x69, 0x63, 0x74, 0x6f, 0x72, 0x5f, 0x6d, 0x6f, 0x64, 0x65, 0x6c, 0x2f,
  0x63, 0x6f, 0x6e, 0x76, 0x31, 0x64, 0x5f, 0x31, 0x31, 0x30, 0x2f, 0x63,
  0x6f, 0x6e, 0x76, 0x31, 0x64, 0x00, 0x00, 0x00, 0x04, 0x00, 0x00, 0x00,
  0x04, 0x00, 0x00, 0x00, 0x01, 0x00, 0x00, 0x00, 0x0a, 0x00, 0x00, 0x00,
  0x04, 0x00, 0x00, 0x00, 0x2a, 0xfb, 0xff, 0xff, 0x14, 0x00, 0x00, 0x00,
  0x58, 0x00, 0x00, 0x00, 0x0a, 0x00, 0x00, 0x00, 0x00, 0x00, 0x00, 0x02,
  0xf4, 0x00, 0x00, 0x00, 0x1c, 0xfb, 0xff, 0xff, 0x08, 0x00, 0x00, 0x00,
  0x2c, 0x00, 0x00, 0x00, 0x04, 0x00, 0x00, 0x00, 0x00, 0x00, 0x00, 0x00,
  0x00, 0x00, 0x00, 0x00, 0x00, 0x00, 0x00, 0x00, 0x00, 0x00, 0x00, 0x00,
  0x00, 0x00, 0x00, 0x00, 0x00, 0x00, 0x00, 0x00, 0x00, 0x00, 0x00, 0x00,
  0x00, 0x00, 0x00, 0x00, 0x00, 0x00, 0x00, 0x00, 0x04, 0x00, 0x00, 0x00,
  0x66, 0x94, 0x41, 0x39, 0x76, 0xf4, 0x16, 0x39, 0xf9, 0x14, 0x0a, 0x39,
  0xd1, 0x47, 0x0a, 0x39, 0xa0, 0x00, 0x00, 0x00, 0x70, 0x72, 0x65, 0x64,
  0x69, 0x63, 0x74, 0x6f, 0x72, 0x5f, 0x6d, 0x6f, 0x64, 0x65, 0x6c, 0x2f,
  0x63, 0x6f, 0x6e, 0x76, 0x31, 0x64, 0x5f, 0x31, 0x30, 0x39, 0x2f, 0x42,
  0x69, 0x61, 0x73, 0x41, 0x64, 0x64, 0x3b, 0x70, 0x72, 0x65, 0x64, 0x69,
  0x63, 0x74, 0x6f, 0x72, 0x5f, 0x6d, 0x6f, 0x64, 0x65, 0x6c, 0x2f, 0x63,
  0x6f, 0x6e, 0x76, 0x31, 0x64, 0x5f, 0x31, 0x30, 0x39, 0x2f, 0x63, 0x6f,
  0x6e, 0x76, 0x31, 0x64, 0x2f, 0x53, 0x71, 0x75, 0x65, 0x65, 0x7a, 0x65,
  0x3b, 0x63, 0x6f, 0x6e, 0x76, 0x31, 0x64, 0x5f, 0x31, 0x30, 0x39, 0x2f,
  0x62, 0x69, 0x61, 0x73, 0x3b, 0x70, 0x72, 0x65, 0x64, 0x69, 0x63, 0x74,
  0x6f, 0x72, 0x5f, 0x6d, 0x6f, 0x64, 0x65, 0x6c, 0x2f, 0x63, 0x6f, 0x6e,
  0x76, 0x31, 0x64, 0x5f, 0x31, 0x30, 0x38, 0x2f, 0x63, 0x6f, 0x6e, 0x76,
  0x31, 0x64, 0x3b, 0x70, 0x72, 0x65, 0x64, 0x69, 0x63, 0x74, 0x6f, 0x72,
  0x5f, 0x6d, 0x6f, 0x64, 0x65, 0x6c, 0x2f, 0x63, 0x6f, 0x6e, 0x76, 0x31,
  0x64, 0x5f, 0x31, 0x30, 0x39, 0x2f, 0x63, 0x6f, 0x6e, 0x76, 0x31, 0x64,
  0x00, 0x00, 0x00, 0x00, 0x01, 0x00, 0x00, 0x00, 0x04, 0x00, 0x00, 0x00,
  0x3a, 0xfc, 0xff, 0xff, 0x14, 0x00, 0x00, 0x00, 0x54, 0x00, 0x00, 0x00,
  0x09, 0x00, 0x00, 0x00, 0x00, 0x00, 0x00, 0x09, 0x70, 0x00, 0x00, 0x00,
  0x2c, 0xfc, 0xff, 0xff, 0x08, 0x00, 0x00, 0x00, 0x28, 0x00, 0x00, 0x00,
  0x04, 0x00, 0x00, 0x00, 0x00, 0x00, 0x00, 0x00, 0x00, 0x00, 0x00, 0x00,
  0x00, 0x00, 0x00, 0x00, 0x00, 0x00, 0x00, 0x00, 0x00, 0x00, 0x00, 0x00,
  0x00, 0x00, 0x00, 0x00, 0x00, 0x00, 0x00, 0x00, 0x00, 0x00, 0x00, 0x00,
  0x04, 0x00, 0x00, 0x00, 0xe1, 0x97, 0x84, 0x3b, 0x66, 0xcb, 0x4e, 0x3b,
  0xe1, 0x28, 0x3d, 0x3b, 0x87, 0x6e, 0x3d, 0x3b, 0x21, 0x00, 0x00, 0x00,
  0x70, 0x72, 0x65, 0x64, 0x69, 0x63, 0x74, 0x6f, 0x72, 0x5f, 0x6d, 0x6f,
  0x64, 0x65, 0x6c, 0x2f, 0x63, 0x6f, 0x6e, 0x76, 0x31, 0x64, 0x5f, 0x31,
  0x30, 0x39, 0x2f, 0x63, 0x6f, 0x6e, 0x76, 0x31, 0x64, 0x00, 0x00, 0x00,
  0x04, 0x00, 0x00, 0x00, 0x04, 0x00, 0x00, 0x00, 0x01, 0x00, 0x00, 0x00,
  0x0a, 0x00, 0x00, 0x00, 0x04, 0x00, 0x00, 0x00, 0xd2, 0xfc, 0xff, 0xff,
  0x14, 0x00, 0x00, 0x00, 0x54, 0x00, 0x00, 0x00, 0x08, 0x00, 0x00, 0x00,
  0x00, 0x00, 0x00, 0x02, 0xcc, 0x00, 0x00, 0x00, 0xc4, 0xfc, 0xff, 0xff,
  0x08, 0x00, 0x00, 0x00, 0x28, 0x00, 0x00, 0x00, 0x04, 0x00, 0x00, 0x00,
  0x00, 0x00, 0x00, 0x00, 0x00, 0x00, 0x00, 0x00, 0x00, 0x00, 0x00, 0x00,
  0x00, 0x00, 0x00, 0x00, 0x00, 0x00, 0x00, 0x00, 0x00, 0x00, 0x00, 0x00,
  0x00, 0x00, 0x00, 0x00, 0x00, 0x00, 0x00, 0x00, 0x04, 0x00, 0x00, 0x00,
  0x05, 0x1b, 0x98, 0x39, 0xb0, 0x32, 0x90, 0x39, 0xe7, 0x48, 0x46, 0x39,
  0x28, 0x97, 0xbd, 0x39, 0x7e, 0x00, 0x00, 0x00, 0x70, 0x72, 0x65, 0x64,
  0x69, 0x63, 0x74, 0x6f, 0x72, 0x5f, 0x6d, 0x6f, 0x64, 0x65, 0x6c, 0x2f,
  0x63, 0x6f, 0x6e, 0x76, 0x31, 0x64, 0x5f, 0x31, 0x30, 0x38, 0x2f, 0x42,
  0x69, 0x61, 0x73, 0x41, 0x64, 0x64, 0x3b, 0x70, 0x72, 0x65, 0x64, 0x69,
  0x63, 0x74, 0x6f, 0x72, 0x5f, 0x6d, 0x6f, 0x64, 0x65, 0x6c, 0x2f, 0x63,
  0x6f, 0x6e, 0x76, 0x31, 0x64, 0x5f, 0x31, 0x30, 0x38, 0x2f, 0x63, 0x6f,
  0x6e, 0x76, 0x31, 0x64, 0x2f, 0x53, 0x71, 0x75, 0x65, 0x65, 0x7a, 0x65,
  0x3b, 0x63, 0x6f, 0x6e, 0x76, 0x31, 0x64, 0x5f, 0x31, 0x30, 0x38, 0x2f,
  0x62, 0x69, 0x61, 0x73, 0x3b, 0x70, 0x72, 0x65, 0x64, 0x69, 0x63, 0x74,
  0x6f, 0x72, 0x5f, 0x6d, 0x6f, 0x64, 0x65, 0x6c, 0x2f, 0x63, 0x6f, 0x6e,
  0x76, 0x31, 0x64, 0x5f, 0x31, 0x30, 0x38, 0x2f, 0x63, 0x6f, 0x6e, 0x76,
  0x31, 0x64, 0x00, 0x00, 0x01, 0x00, 0x00, 0x00, 0x04, 0x00, 0x00, 0x00,
  0xba, 0xfd, 0xff, 0xff, 0x14, 0x00, 0x00, 0x00, 0x58, 0x00, 0x00, 0x00,
  0x07, 0x00, 0x00, 0x00, 0x00, 0x00, 0x00, 0x09, 0x74, 0x00, 0x00, 0x00,
  0xac, 0xfd, 0xff, 0xff, 0x08, 0x00, 0x00, 0x00, 0x2c, 0x00, 0x00, 0x00,
  0x04, 0x00, 0x00, 0x00, 0x00, 0x00, 0x00, 0x00, 0x00, 0x00, 0x00, 0x00,
  0x00, 0x00, 0x00, 0x00, 0x00, 0x00, 0x00, 0x00, 0x00, 0x00, 0x00, 0x00,
  0x00, 0x00, 0x00, 0x00, 0x00, 0x00, 0x00, 0x00, 0x00, 0x00, 0x00, 0x00,
  0x00, 0x00, 0x00, 0x00, 0x04, 0x00, 0x00, 0x00, 0x73, 0x26, 0x77, 0x3b,
  0x32, 0x4d, 0x6a, 0x3b, 0xad, 0x17, 0x21, 0x3b, 0x6a, 0x07, 0x9a, 0x3b,
  0x21, 0x00, 0x00, 0x00, 0x70, 0x72, 0x65, 0x64, 0x69, 0x63, 0x74, 0x6f,
  0x72, 0x5f, 0x6d, 0x6f, 0x64, 0x65, 0x6c, 0x2f, 0x63, 0x6f, 0x6e, 0x76,
  0x31, 0x64, 0x5f, 0x31, 0x30, 0x38, 0x2f, 0x63, 0x6f, 0x6e, 0x76, 0x31,
  0x64, 0x00, 0x00, 0x00, 0x04, 0x00, 0x00, 0x00, 0x04, 0x00, 0x00, 0x00,
  0x01, 0x00, 0x00, 0x00, 0x0a, 0x00, 0x00, 0x00, 0x06, 0x00, 0x00, 0x00,
  0x56, 0xfe, 0xff, 0xff, 0x14, 0x00, 0x00, 0x00, 0x14, 0x00, 0x00, 0x00,
  0x06, 0x00, 0x00, 0x00, 0x00, 0x00, 0x00, 0x02, 0x30, 0x00, 0x00, 0x00,
  0xb4, 0xfe, 0xff, 0xff, 0x20, 0x00, 0x00, 0x00, 0x70, 0x72, 0x65, 0x64,
  0x69, 0x63, 0x74, 0x6f, 0x72, 0x5f, 0x6d, 0x6f, 0x64, 0x65, 0x6c, 0x2f,
  0x66, 0x6c, 0x61, 0x74, 0x74, 0x65, 0x6e, 0x5f, 0x31, 0x30, 0x2f, 0x43,
  0x6f, 0x6e, 0x73, 0x74, 0x00, 0x00, 0x00, 0x00, 0x01, 0x00, 0x00, 0x00,
  0x02, 0x00, 0x00, 0x00, 0xa2, 0xfe, 0xff, 0xff, 0x14, 0x00, 0x00, 0x00,
  0x14, 0x00, 0x00, 0x00, 0x05, 0x00, 0x00, 0x00, 0x00, 0x00, 0x00, 0x02,
  0x38, 0x00, 0x00, 0x00, 0x00, 0xff, 0xff, 0xff, 0x2b, 0x00, 0x00, 0x00,
  0x70, 0x72, 0x65, 0x64, 0x69, 0x63, 0x74, 0x6f, 0x72, 0x5f, 0x6d, 0x6f,
  0x64, 0x65, 0x6c, 0x2f, 0x6d, 0x61, 0x78, 0x5f, 0x70, 0x6f, 0x6f, 0x6c,
  0x69, 0x6e, 0x67, 0x31, 0x64, 0x5f, 0x32, 0x37, 0x2f, 0x45, 0x78, 0x70,
  0x61, 0x6e, 0x64, 0x44, 0x69, 0x6d, 0x73, 0x00, 0x01, 0x00, 0x00, 0x00,
  0x04, 0x00, 0x00, 0x00, 0xf6, 0xfe, 0xff, 0xff, 0x14, 0x00, 0x00, 0x00,
  0x14, 0x00, 0x00, 0x00, 0x04, 0x00, 0x00, 0x00, 0x00, 0x00, 0x00, 0x02,
  0x3c, 0x00, 0x00, 0x00, 0x54, 0xff, 0xff, 0xff, 0x2c, 0x00, 0x00, 0x00,
  0x70, 0x72, 0x65, 0x64, 0x69, 0x63, 0x74, 0x6f, 0x72, 0x5f, 0x6d, 0x6f,
  0x64, 0x65, 0x6c, 0x2f, 0x63, 0x6f, 0x6e, 0x76, 0x31, 0x64, 0x5f, 0x31,
  0x31, 0x30, 0x2f, 0x63, 0x6f, 0x6e, 0x76, 0x31, 0x64, 0x2f, 0x45, 0x78,
  0x70, 0x61, 0x6e, 0x64, 0x44, 0x69, 0x6d, 0x73, 0x00, 0x00, 0x00, 0x00,
  0x01, 0x00, 0x00, 0x00, 0x04, 0x00, 0x00, 0x00, 0x4e, 0xff, 0xff, 0xff,
  0x14, 0x00, 0x00, 0x00, 0x14, 0x00, 0x00, 0x00, 0x03, 0x00, 0x00, 0x00,
  0x00, 0x00, 0x00, 0x02, 0x38, 0x00, 0x00, 0x00, 0xac, 0xff, 0xff, 0xff,
  0x2b, 0x00, 0x00, 0x00, 0x70, 0x72, 0x65, 0x64, 0x69, 0x63, 0x74, 0x6f,
  0x72, 0x5f, 0x6d, 0x6f, 0x64, 0x65, 0x6c, 0x2f, 0x6d, 0x61, 0x78, 0x5f,
  0x70, 0x6f, 0x6f, 0x6c, 0x69, 0x6e, 0x67, 0x31, 0x64, 0x5f, 0x32, 0x36,
  0x2f, 0x45, 0x78, 0x70, 0x61, 0x6e, 0x64, 0x44, 0x69, 0x6d, 0x73, 0x00,
  0x01, 0x00, 0x00, 0x00, 0x04, 0x00, 0x00, 0x00, 0xa2, 0xff, 0xff, 0xff,
  0x18, 0x00, 0x00, 0x00, 0x18, 0x00, 0x00, 0x00, 0x02, 0x00, 0x00, 0x00,
  0x00, 0x00, 0x00, 0x02, 0x40, 0x00, 0x00, 0x00, 0x04, 0x00, 0x04, 0x00,
  0x04, 0x00, 0x00, 0x00, 0x2c, 0x00, 0x00, 0x00, 0x70, 0x72, 0x65, 0x64,
  0x69, 0x63, 0x74, 0x6f, 0x72, 0x5f, 0x6d, 0x6f, 0x64, 0x65, 0x6c, 0x2f,
  0x63, 0x6f, 0x6e, 0x76, 0x31, 0x64, 0x5f, 0x31, 0x30, 0x38, 0x2f, 0x63,
  0x6f, 0x6e, 0x76, 0x31, 0x64, 0x2f, 0x45, 0x78, 0x70, 0x61, 0x6e, 0x64,
  0x44, 0x69, 0x6d, 0x73, 0x00, 0x00, 0x00, 0x00, 0x01, 0x00, 0x00, 0x00,
  0x04, 0x00, 0x00, 0x00, 0x00, 0x00, 0x0e, 0x00, 0x18, 0x00, 0x14, 0x00,
  0x13, 0x00, 0x0c, 0x00, 0x08, 0x00, 0x04, 0x00, 0x0e, 0x00, 0x00, 0x00,
  0x20, 0x00, 0x00, 0x00, 0x40, 0x00, 0x00, 0x00, 0x01, 0x00, 0x00, 0x00,
  0x00, 0x00, 0x00, 0x09, 0x4c, 0x00, 0x00, 0x00, 0x0c, 0x00, 0x0c, 0x00,
  0x00, 0x00, 0x00, 0x00, 0x08, 0x00, 0x04, 0x00, 0x0c, 0x00, 0x00, 0x00,
  0x08, 0x00, 0x00, 0x00, 0x14, 0x00, 0x00, 0x00, 0x01, 0x00, 0x00, 0x00,
  0x07, 0x00, 0x00, 0x00, 0x00, 0x00, 0x00, 0x00, 0x00, 0x00, 0x00, 0x00,
  0x01, 0x00, 0x00, 0x00, 0x53, 0x8d, 0x9d, 0x3d, 0x13, 0x00, 0x00, 0x00,
  0x73, 0x65, 0x72, 0x76, 0x69, 0x6e, 0x67, 0x5f, 0x64, 0x65, 0x66, 0x61,
  0x75, 0x6c, 0x74, 0x5f, 0x78, 0x3a, 0x30, 0x00, 0x04, 0x00, 0x00, 0x00,
  0x01, 0x00, 0x00, 0x00, 0x1e, 0x00, 0x00, 0x00, 0x06, 0x00, 0x00, 0x00,
  0x01, 0x00, 0x00, 0x00, 0x04, 0x00, 0x00, 0x00, 0x58, 0x00, 0x00, 0x00,
  0x38, 0x00, 0x00, 0x00, 0x18, 0x00, 0x00, 0x00, 0x04, 0x00, 0x00, 0x00,
  0xe0, 0xff, 0xff, 0xff, 0x09, 0x00, 0x00, 0x00, 0x04, 0x00, 0x00, 0x00,
  0x00, 0x00, 0x00, 0x09, 0xf0, 0xff, 0xff, 0xff, 0x11, 0x00, 0x00, 0x00,
  0x02, 0x00, 0x00, 0x00, 0x00, 0x00, 0x00, 0x11, 0x0c, 0x00, 0x10, 0x00,
  0x0f, 0x00, 0x00, 0x00, 0x08, 0x00, 0x04, 0x00, 0x0c, 0x00, 0x00, 0x00,
  0x03, 0x00, 0x00, 0x00, 0x03, 0x00, 0x00, 0x00, 0x00, 0x00, 0x00, 0x03,
  0x0c, 0x00, 0x0c, 0x00, 0x0b, 0x00, 0x00, 0x00, 0x00, 0x00, 0x04, 0x00,
  0x0c, 0x00, 0x00, 0x00, 0x16, 0x00, 0x00, 0x00, 0x00, 0x00, 0x00, 0x16
};
unsigned int predictor_tflite_len = 8544;
