unsigned char g_motion_detection_4_class_model_data[] = {
  0x1c, 0x00, 0x00, 0x00, 0x54, 0x46, 0x4c, 0x33, 0x14, 0x00, 0x20, 0x00,
  0x1c, 0x00, 0x18, 0x00, 0x14, 0x00, 0x10, 0x00, 0x0c, 0x00, 0x00, 0x00,
  0x08, 0x00, 0x04, 0x00, 0x14, 0x00, 0x00, 0x00, 0x1c, 0x00, 0x00, 0x00,
  0x1c, 0x00, 0x00, 0x00, 0x4c, 0x00, 0x00, 0x00, 0xcc, 0x18, 0x00, 0x00,
  0xdc, 0x18, 0x00, 0x00, 0x20, 0x2e, 0x00, 0x00, 0x03, 0x00, 0x00, 0x00,
  0x00, 0x00, 0x00, 0x00, 0x01, 0x00, 0x00, 0x00, 0x0c, 0x00, 0x00, 0x00,
  0x08, 0x00, 0x0c, 0x00, 0x08, 0x00, 0x04, 0x00, 0x08, 0x00, 0x00, 0x00,
  0x1c, 0x00, 0x00, 0x00, 0x04, 0x00, 0x00, 0x00, 0x13, 0x00, 0x00, 0x00,
  0x6d, 0x69, 0x6e, 0x5f, 0x72, 0x75, 0x6e, 0x74, 0x69, 0x6d, 0x65, 0x5f,
  0x76, 0x65, 0x72, 0x73, 0x69, 0x6f, 0x6e, 0x00, 0x1d, 0x00, 0x00, 0x00,
  0x7c, 0x18, 0x00, 0x00, 0x74, 0x18, 0x00, 0x00, 0x5c, 0x18, 0x00, 0x00,
  0xb4, 0x17, 0x00, 0x00, 0x7c, 0x17, 0x00, 0x00, 0x74, 0x17, 0x00, 0x00,
  0x6c, 0x17, 0x00, 0x00, 0x3c, 0x14, 0x00, 0x00, 0xdc, 0x13, 0x00, 0x00,
  0xd4, 0x13, 0x00, 0x00, 0xcc, 0x13, 0x00, 0x00, 0xc4, 0x13, 0x00, 0x00,
  0xb4, 0x09, 0x00, 0x00, 0x24, 0x09, 0x00, 0x00, 0x1c, 0x09, 0x00, 0x00,
  0x0c, 0x05, 0x00, 0x00, 0x7c, 0x04, 0x00, 0x00, 0x74, 0x04, 0x00, 0x00,
  0x64, 0x02, 0x00, 0x00, 0x14, 0x02, 0x00, 0x00, 0x0c, 0x02, 0x00, 0x00,
  0xfc, 0x00, 0x00, 0x00, 0xac, 0x00, 0x00, 0x00, 0xa4, 0x00, 0x00, 0x00,
  0x54, 0x00, 0x00, 0x00, 0x34, 0x00, 0x00, 0x00, 0x2c, 0x00, 0x00, 0x00,
  0x24, 0x00, 0x00, 0x00, 0x04, 0x00, 0x00, 0x00, 0x5a, 0xe7, 0xff, 0xff,
  0x04, 0x00, 0x00, 0x00, 0x10, 0x00, 0x00, 0x00, 0x31, 0x2e, 0x31, 0x34,
  0x2e, 0x30, 0x00, 0x00, 0x00, 0x00, 0x00, 0x00, 0x00, 0x00, 0x00, 0x00,
  0x6c, 0xd3, 0xff, 0xff, 0x70, 0xd3, 0xff, 0xff, 0x7e, 0xe7, 0xff, 0xff,
  0x04, 0x00, 0x00, 0x00, 0x10, 0x00, 0x00, 0x00, 0x11, 0x00, 0x00, 0x00,
  0xd0, 0xff, 0xff, 0xff, 0x07, 0x00, 0x00, 0x00, 0x21, 0x00, 0x00, 0x00,
  0x9a, 0xe7, 0xff, 0xff, 0x04, 0x00, 0x00, 0x00, 0x40, 0x00, 0x00, 0x00,
  0x03, 0xf2, 0xec, 0x08, 0xfd, 0x23, 0xcb, 0x1a, 0xc0, 0xe0, 0xc6, 0x07,
  0xe0, 0x0f, 0x18, 0xf0, 0x16, 0xe3, 0xec, 0x0e, 0xc9, 0x1e, 0x00, 0xf1,
  0x0f, 0xf3, 0x04, 0xf5, 0x00, 0xca, 0xa5, 0x81, 0xe7, 0xf1, 0x00, 0xf8,
  0x29, 0x13, 0xe1, 0xe4, 0x02, 0xe8, 0x06, 0x1a, 0x00, 0x15, 0xef, 0xe1,
  0xf9, 0x09, 0xec, 0xea, 0xff, 0x0c, 0x07, 0x1b, 0x1d, 0xeb, 0xe1, 0xff,
  0xeb, 0xf9, 0x03, 0x1c, 0xdc, 0xd3, 0xff, 0xff, 0xea, 0xe7, 0xff, 0xff,
  0x04, 0x00, 0x00, 0x00, 0x40, 0x00, 0x00, 0x00, 0xba, 0xff, 0xff, 0xff,
  0x64, 0x00, 0x00, 0x00, 0x17, 0x00, 0x00, 0x00, 0xba, 0xff, 0xff, 0xff,
  0x59, 0x00, 0x00, 0x00, 0xe7, 0xff, 0xff, 0xff, 0xc1, 0xff, 0xff, 0xff,
  0x55, 0x00, 0x00, 0x00, 0x2b, 0x00, 0x00, 0x00, 0x7f, 0xff, 0xff, 0xff,
  0xce, 0xff, 0xff, 0xff, 0x31, 0x00, 0x00, 0x00, 0xcb, 0xff, 0xff, 0xff,
  0x60, 0x00, 0x00, 0x00, 0x9e, 0x00, 0x00, 0x00, 0xf5, 0xff, 0xff, 0xff,
  0x36, 0xe8, 0xff, 0xff, 0x04, 0x00, 0x00, 0x00, 0x00, 0x01, 0x00, 0x00,
  0xad, 0x81, 0x2a, 0x21, 0x06, 0x25, 0xca, 0xff, 0x00, 0x14, 0xca, 0x1d,
  0x0d, 0xe5, 0xeb, 0xe5, 0xd6, 0xf8, 0x4e, 0x19, 0xbf, 0x42, 0x20, 0xf4,
  0x33, 0x1c, 0xba, 0x2c, 0x11, 0x4d, 0xcc, 0x04, 0xa2, 0xc4, 0x1d, 0x2f,
  0x34, 0xc7, 0xbd, 0x08, 0x0b, 0xec, 0x17, 0x26, 0xee, 0x2a, 0x1d, 0x03,
  0x11, 0xaf, 0xe0, 0x0e, 0x1e, 0xf2, 0x0f, 0xf7, 0xf3, 0xf3, 0x38, 0x25,
  0xde, 0x34, 0xef, 0x33, 0xde, 0xce, 0x09, 0xb9, 0xd8, 0x36, 0xb0, 0x3e,
  0x3a, 0xe9, 0xfc, 0xbb, 0x23, 0x18, 0xf3, 0x1d, 0xb9, 0xe1, 0x01, 0x0a,
  0x02, 0x3a, 0x04, 0xf3, 0x1a, 0x3c, 0x33, 0x32, 0xbb, 0xbe, 0xc3, 0x40,
  0x07, 0x63, 0xfc, 0x3e, 0x00, 0xd2, 0xb4, 0x20, 0x05, 0xbf, 0x2f, 0xbb,
  0x09, 0xd1, 0x02, 0xe5, 0x40, 0x11, 0x4c, 0x01, 0xed, 0xff, 0xda, 0x36,
  0x21, 0x0d, 0x16, 0xf0, 0xe6, 0xfc, 0x02, 0xe1, 0x2b, 0x24, 0xfd, 0xf0,
  0xe6, 0xde, 0x36, 0x16, 0xc8, 0x21, 0xd2, 0x3c, 0x15, 0x21, 0xb7, 0xf8,
  0xed, 0x11, 0x1c, 0xac, 0x24, 0x0b, 0x1f, 0x1e, 0x1a, 0x04, 0xd2, 0x3a,
  0xb0, 0xfd, 0xee, 0xfe, 0xe0, 0xb1, 0xf2, 0x30, 0xb3, 0x20, 0x40, 0x49,
  0xe9, 0xae, 0x0b, 0x33, 0xbd, 0xfc, 0x2e, 0x5a, 0xfa, 0x0f, 0xed, 0xf3,
  0x22, 0xdc, 0x1f, 0x19, 0x09, 0x26, 0x1c, 0x26, 0xcc, 0x41, 0xfc, 0xeb,
  0xd2, 0x20, 0x19, 0xff, 0x02, 0x14, 0x21, 0xe5, 0xbc, 0x08, 0xf9, 0x3b,
  0xdd, 0x3c, 0x4f, 0x29, 0xe0, 0x39, 0xe3, 0x9b, 0x21, 0x3d, 0x23, 0xed,
  0x3d, 0x0c, 0x1d, 0xd0, 0xed, 0xf5, 0xf6, 0x4a, 0x23, 0xe7, 0x29, 0xed,
  0x31, 0xfb, 0x36, 0xeb, 0x2b, 0xf8, 0x00, 0xd5, 0xe4, 0x1c, 0xe3, 0xdb,
  0x22, 0xc2, 0x0c, 0x15, 0x57, 0xca, 0xb7, 0x42, 0x1e, 0xab, 0xfe, 0x9e,
  0x10, 0x06, 0x23, 0xf8, 0x38, 0xd5, 0xff, 0xff, 0x46, 0xe9, 0xff, 0xff,
  0x04, 0x00, 0x00, 0x00, 0x40, 0x00, 0x00, 0x00, 0xdc, 0xff, 0xff, 0xff,
  0x32, 0x00, 0x00, 0x00, 0x4f, 0x00, 0x00, 0x00, 0x5e, 0xff, 0xff, 0xff,
  0x2d, 0x00, 0x00, 0x00, 0x11, 0x00, 0x00, 0x00, 0x17, 0x00, 0x00, 0x00,
  0x16, 0x00, 0x00, 0x00, 0x92, 0x00, 0x00, 0x00, 0x61, 0x00, 0x00, 0x00,
  0x15, 0x00, 0x00, 0x00, 0xce, 0xff, 0xff, 0xff, 0x22, 0x00, 0x00, 0x00,
  0x6f, 0x00, 0x00, 0x00, 0xdf, 0xff, 0xff, 0xff, 0xb2, 0xff, 0xff, 0xff,
  0x92, 0xe9, 0xff, 0xff, 0x04, 0x00, 0x00, 0x00, 0x00, 0x02, 0x00, 0x00,
  0xf9, 0x23, 0xf3, 0x20, 0xe0, 0xed, 0xb7, 0xd5, 0xd5, 0xec, 0x0d, 0x02,
  0x81, 0x01, 0x30, 0xee, 0x23, 0xc2, 0x19, 0x0f, 0xfa, 0xda, 0x3c, 0x00,
  0xf4, 0x02, 0xec, 0x11, 0x21, 0x04, 0x22, 0xe1, 0xe4, 0x24, 0xf9, 0xf4,
  0x14, 0xde, 0x38, 0xde, 0xe4, 0xff, 0x34, 0xf5, 0xd3, 0xde, 0xff, 0x01,
  0xf7, 0xf7, 0xd9, 0xe9, 0x14, 0x10, 0xf7, 0xe4, 0x1b, 0xfd, 0x39, 0xe9,
  0x02, 0x14, 0xec, 0x2b, 0x0d, 0x1e, 0xec, 0xf3, 0x0a, 0x20, 0x2a, 0xdf,
  0x09, 0x06, 0x06, 0x0e, 0xf6, 0x2c, 0xdf, 0xe1, 0x2b, 0xff, 0x08, 0xf1,
  0x13, 0x0f, 0xf6, 0xde, 0x0c, 0x40, 0xf6, 0x12, 0x16, 0xde, 0x24, 0xf3,
  0x1e, 0xf5, 0xe1, 0x26, 0x0f, 0x1d, 0xfd, 0x27, 0x07, 0x0c, 0x1d, 0x0b,
  0x1b, 0x1d, 0xfa, 0xe0, 0xe5, 0xfd, 0x0e, 0xfa, 0xfd, 0x0e, 0xe8, 0x07,
  0xe8, 0xe5, 0x18, 0x21, 0x03, 0xfa, 0x12, 0xff, 0xea, 0xe3, 0x3b, 0xe1,
  0xfe, 0x1d, 0x02, 0x21, 0xdb, 0xf2, 0x08, 0x01, 0xb6, 0x21, 0x02, 0xf5,
  0xea, 0x30, 0xd1, 0x25, 0xe9, 0xef, 0xcc, 0x1d, 0xf1, 0xf0, 0x0f, 0xe1,
  0x72, 0xdc, 0x2f, 0x2f, 0x13, 0xfd, 0xfa, 0xfb, 0x0a, 0x2a, 0xe8, 0xda,
  0x1b, 0x04, 0x25, 0xd5, 0x19, 0xfe, 0x36, 0xf8, 0x21, 0xe9, 0xd4, 0x18,
  0xe3, 0xe3, 0xec, 0xf7, 0x22, 0x00, 0xea, 0x22, 0x41, 0x1a, 0x35, 0xe7,
  0xd8, 0x0f, 0xcb, 0xe6, 0xe0, 0x02, 0xeb, 0xdb, 0xf8, 0x0d, 0x03, 0x0c,
  0x1f, 0xfc, 0x0f, 0xd3, 0xfa, 0x28, 0x12, 0x2d, 0xe7, 0x16, 0xe9, 0xe7,
  0x10, 0x07, 0x0e, 0xf4, 0x35, 0x2b, 0xf8, 0xe1, 0xec, 0x00, 0xbb, 0x0d,
  0xc4, 0xde, 0x27, 0x24, 0x1b, 0x26, 0x23, 0xe8, 0x10, 0xfc, 0xe7, 0xd8,
  0xf0, 0xe6, 0xff, 0x03, 0x0c, 0x00, 0x1d, 0xfb, 0x0d, 0xf6, 0x03, 0x11,
  0x1c, 0x03, 0x10, 0x33, 0xfc, 0xf4, 0xf8, 0xde, 0x09, 0xe2, 0xeb, 0x24,
  0xfd, 0x13, 0x01, 0x0f, 0xed, 0x25, 0x2c, 0xfe, 0xfa, 0x31, 0xda, 0xf4,
  0x04, 0x26, 0xfa, 0xe4, 0x0a, 0xf4, 0x26, 0xd7, 0x0a, 0x28, 0x21, 0x20,
  0xde, 0x00, 0xd8, 0xc7, 0xff, 0x2c, 0x10, 0xe1, 0xd4, 0x19, 0x17, 0xe9,
  0x1f, 0x1d, 0x26, 0xd8, 0xde, 0x0c, 0xf4, 0xf3, 0x1c, 0xfa, 0xd8, 0xf2,
  0x28, 0x1d, 0xe3, 0xe9, 0xf5, 0x10, 0x08, 0xdc, 0x27, 0xe5, 0x47, 0xdc,
  0x16, 0x23, 0x03, 0x22, 0x1c, 0x00, 0xd4, 0x0a, 0xbf, 0x01, 0x27, 0x10,
  0xfe, 0x12, 0xf3, 0x3c, 0xf2, 0x1d, 0xc9, 0x13, 0xe7, 0x27, 0x19, 0x00,
  0x53, 0xee, 0x0e, 0x25, 0xf3, 0x26, 0x30, 0x12, 0x0a, 0xec, 0xe0, 0x26,
  0x28, 0x19, 0x24, 0xd7, 0x2b, 0x14, 0x25, 0x20, 0x01, 0x00, 0xdd, 0x0a,
  0x0a, 0x0e, 0xfd, 0x1a, 0x24, 0xfb, 0xee, 0x15, 0x09, 0x12, 0x11, 0xd7,
  0xe5, 0xf1, 0xe6, 0xde, 0x11, 0x07, 0x03, 0xde, 0x1e, 0xe1, 0xe6, 0xd6,
  0x21, 0x18, 0xd9, 0x15, 0x31, 0x05, 0xf3, 0xf9, 0x12, 0x27, 0xe0, 0x05,
  0x1f, 0xf2, 0xff, 0x00, 0xe2, 0x16, 0x11, 0xf0, 0xf4, 0x02, 0x01, 0xd3,
  0xf2, 0x1f, 0x28, 0xf4, 0x29, 0x05, 0xee, 0x1b, 0x03, 0x04, 0x0e, 0x11,
  0x1b, 0xb0, 0xca, 0x13, 0x2e, 0x19, 0xe1, 0xed, 0x0e, 0xe7, 0x1c, 0x0a,
  0x35, 0x31, 0x06, 0xee, 0xe7, 0x06, 0x0e, 0x12, 0x06, 0xfb, 0x0a, 0x06,
  0xe5, 0xf2, 0x10, 0xe8, 0x00, 0x18, 0x16, 0xf7, 0x4b, 0x0c, 0xd4, 0x3c,
  0x07, 0xda, 0x29, 0x02, 0xe5, 0xdb, 0x30, 0xf8, 0xf2, 0xe9, 0x03, 0xf6,
  0xf7, 0xec, 0x0f, 0x0d, 0xf5, 0x11, 0x16, 0x01, 0xf4, 0x3a, 0xed, 0x00,
  0xd6, 0xd6, 0xf1, 0x16, 0xfe, 0x24, 0xf6, 0xec, 0xed, 0x1d, 0xfe, 0x14,
  0x00, 0x0b, 0x07, 0x2e, 0xe3, 0x07, 0xfa, 0xff, 0x94, 0xd7, 0xff, 0xff,
  0xa2, 0xeb, 0xff, 0xff, 0x04, 0x00, 0x00, 0x00, 0x80, 0x00, 0x00, 0x00,
  0xfb, 0xff, 0xff, 0xff, 0xfc, 0xff, 0xff, 0xff, 0xf2, 0xff, 0xff, 0xff,
  0x8a, 0xff, 0xff, 0xff, 0x28, 0x00, 0x00, 0x00, 0x24, 0x00, 0x00, 0x00,
  0x3c, 0x00, 0x00, 0x00, 0xf4, 0xff, 0xff, 0xff, 0x09, 0x00, 0x00, 0x00,
  0x15, 0x00, 0x00, 0x00, 0xae, 0xff, 0xff, 0xff, 0x26, 0x00, 0x00, 0x00,
  0xe2, 0xff, 0xff, 0xff, 0x37, 0x00, 0x00, 0x00, 0x1e, 0x00, 0x00, 0x00,
  0x00, 0x00, 0x00, 0x00, 0xf1, 0xff, 0xff, 0xff, 0x29, 0x00, 0x00, 0x00,
  0xd6, 0xff, 0xff, 0xff, 0xfe, 0xff, 0xff, 0xff, 0x49, 0x00, 0x00, 0x00,
  0x75, 0x00, 0x00, 0x00, 0xb3, 0xff, 0xff, 0xff, 0xb8, 0xff, 0xff, 0xff,
  0x3c, 0x00, 0x00, 0x00, 0x1b, 0x00, 0x00, 0x00, 0x37, 0x00, 0x00, 0x00,
  0x08, 0x00, 0x00, 0x00, 0x58, 0x00, 0x00, 0x00, 0x93, 0x00, 0x00, 0x00,
  0x35, 0x00, 0x00, 0x00, 0x1a, 0x00, 0x00, 0x00, 0x2e, 0xec, 0xff, 0xff,
  0x04, 0x00, 0x00, 0x00, 0x00, 0x04, 0x00, 0x00, 0xe8, 0x0e, 0xf8, 0xeb,
  0xdd, 0xf7, 0xee, 0xfa, 0x12, 0xe0, 0xd9, 0xfb, 0x19, 0x11, 0xe5, 0xe8,
  0xe9, 0xf7, 0xe9, 0xf0, 0xdf, 0xfc, 0xdb, 0x1e, 0xe6, 0xe4, 0x02, 0xfc,
  0x00, 0xf2, 0x21, 0x14, 0xf4, 0x0b, 0x4a, 0xf5, 0x01, 0x11, 0xfd, 0xd3,
  0x32, 0x15, 0xe7, 0x0d, 0x00, 0x0e, 0x1c, 0xea, 0x1b, 0xfc, 0x01, 0xee,
  0xdc, 0xe1, 0xe1, 0x1b, 0x25, 0xfe, 0x18, 0xfd, 0xeb, 0xf3, 0x1e, 0x01,
  0x13, 0x15, 0x0f, 0xf8, 0xd6, 0x10, 0x0c, 0xf9, 0xf1, 0x0c, 0x11, 0x2a,
  0xe1, 0x2a, 0xdb, 0xf5, 0x32, 0xeb, 0x08, 0xec, 0xd0, 0xfc, 0xf2, 0xfd,
  0xd3, 0xf5, 0x10, 0x0a, 0xfe, 0xf0, 0xd2, 0xee, 0x12, 0xda, 0x13, 0xf6,
  0x13, 0x17, 0x12, 0xf5, 0x0b, 0xfd, 0x0e, 0x1d, 0x10, 0xf8, 0x20, 0xe8,
  0x14, 0xdc, 0x2b, 0xe9, 0xe8, 0x22, 0x04, 0x27, 0x02, 0xec, 0x11, 0x10,
  0x20, 0x0e, 0x0f, 0x1c, 0x0b, 0xe7, 0xf9, 0x21, 0xe6, 0xf1, 0xdb, 0xdf,
  0x13, 0x23, 0xe9, 0x16, 0x01, 0xdf, 0xf9, 0xf0, 0xfa, 0x10, 0x29, 0x9c,
  0x14, 0x19, 0xe7, 0x24, 0xe5, 0x03, 0x1f, 0xfe, 0xea, 0x09, 0xff, 0x21,
  0x2a, 0x07, 0xea, 0xe1, 0x0e, 0xeb, 0xd8, 0x09, 0x0a, 0x15, 0x00, 0xed,
  0x06, 0xf4, 0x0f, 0xe5, 0xf5, 0x05, 0xe9, 0x12, 0x1f, 0x29, 0xf8, 0x33,
  0x09, 0x10, 0x27, 0x06, 0x05, 0x15, 0x0a, 0x05, 0xf5, 0xc0, 0x18, 0xd1,
  0x1f, 0x0c, 0x13, 0x04, 0xfd, 0xd5, 0x17, 0xf8, 0xea, 0x0e, 0xe3, 0x00,
  0x1e, 0x1a, 0x2d, 0xee, 0xe9, 0xf0, 0xed, 0x0d, 0xff, 0xe0, 0xe5, 0xd3,
  0xea, 0xf7, 0xd1, 0xe3, 0xfc, 0xf9, 0xed, 0xe1, 0x0a, 0xf1, 0x0f, 0xf5,
  0xf7, 0xe2, 0xe1, 0xe2, 0x14, 0xd8, 0x10, 0xeb, 0xfb, 0x00, 0xe1, 0x03,
  0xfe, 0xea, 0x04, 0xf3, 0xd6, 0x03, 0x20, 0xdb, 0xe6, 0xdd, 0xde, 0xff,
  0xf5, 0xee, 0xe3, 0xf9, 0xee, 0x02, 0x0a, 0x1a, 0x12, 0x17, 0xfb, 0xec,
  0xd8, 0x09, 0xe7, 0x1f, 0xf7, 0x13, 0xd4, 0xe9, 0xf7, 0x13, 0xef, 0xed,
  0x12, 0x13, 0x1b, 0xf6, 0xe6, 0xe8, 0xf8, 0x02, 0xfd, 0xd1, 0x1d, 0xed,
  0x1d, 0x10, 0x0e, 0x0a, 0x35, 0xe7, 0x0f, 0xf4, 0xd1, 0x0c, 0xe0, 0x0c,
  0xc3, 0xda, 0xf6, 0x0d, 0x13, 0xf9, 0x22, 0x09, 0x28, 0xd7, 0xf3, 0x27,
  0x0b, 0x27, 0xe8, 0x1d, 0xfa, 0x04, 0x2a, 0xe7, 0x22, 0x10, 0x0b, 0x31,
  0xf9, 0x05, 0xf2, 0x26, 0x2a, 0x0b, 0xd0, 0xe1, 0x0d, 0x0a, 0x3d, 0x1a,
  0xf1, 0xdf, 0x22, 0x0e, 0x01, 0xfb, 0xf4, 0x29, 0xf4, 0x0b, 0xcb, 0xfe,
  0xfb, 0xe4, 0x0d, 0x28, 0x21, 0x22, 0xf5, 0xf6, 0x12, 0xd9, 0x21, 0x09,
  0x01, 0x1a, 0xe9, 0x19, 0x18, 0x17, 0x11, 0x1a, 0x03, 0xfd, 0xe1, 0x25,
  0x0f, 0xe1, 0x0c, 0x10, 0xf8, 0x1d, 0x12, 0xe7, 0xfb, 0x2a, 0x10, 0x15,
  0xff, 0x1a, 0x0b, 0xd2, 0x03, 0x03, 0x11, 0x21, 0x22, 0xe7, 0xe2, 0x24,
  0x05, 0xf6, 0xff, 0x0c, 0xe5, 0xdf, 0x19, 0x00, 0xfc, 0x09, 0x06, 0xf7,
  0xfa, 0xf7, 0xfa, 0xfe, 0x00, 0xd7, 0x0f, 0x20, 0x0a, 0xe6, 0xf2, 0x23,
  0x0f, 0x03, 0x0e, 0x05, 0xdf, 0xe1, 0xf0, 0x0d, 0x1e, 0xff, 0x21, 0x2c,
  0xdf, 0xe6, 0x01, 0x1c, 0x00, 0x26, 0xef, 0xf0, 0xfe, 0xf9, 0x19, 0xf2,
  0x1d, 0x00, 0xd1, 0x1f, 0xff, 0xe3, 0xe6, 0xed, 0x01, 0x1a, 0x1d, 0xdd,
  0xd8, 0x10, 0x27, 0x05, 0xf3, 0xf2, 0x13, 0x0b, 0xfe, 0x0b, 0x08, 0x15,
  0xfe, 0x15, 0xc4, 0x15, 0x2d, 0x30, 0x0b, 0x20, 0xf6, 0xf1, 0xf1, 0xeb,
  0xf2, 0xdd, 0x02, 0x0a, 0x04, 0x1f, 0xf1, 0x07, 0xfb, 0xf4, 0xfd, 0x06,
  0x02, 0xf0, 0xfc, 0xe6, 0x2d, 0xef, 0xfa, 0xd1, 0x26, 0xee, 0x2b, 0xe6,
  0xf1, 0x08, 0x20, 0x25, 0x09, 0x07, 0x3c, 0x07, 0xe4, 0x07, 0x31, 0x0c,
  0x24, 0x10, 0xb3, 0xe3, 0xd3, 0x11, 0x1a, 0xf5, 0x03, 0xfc, 0xf4, 0x34,
  0xde, 0xea, 0xfc, 0x08, 0xd7, 0x14, 0x07, 0x10, 0xe9, 0x08, 0x1e, 0xe9,
  0x20, 0x15, 0xa0, 0x27, 0xf2, 0xfd, 0xe8, 0xf3, 0xf8, 0xfc, 0xf3, 0xf2,
  0x8b, 0xe1, 0xd0, 0xda, 0x0d, 0x02, 0xec, 0x1d, 0xf7, 0xd9, 0xd6, 0x4f,
  0x2a, 0xfb, 0xa7, 0xff, 0x03, 0x0b, 0x08, 0xfd, 0xea, 0x13, 0x81, 0xe4,
  0x23, 0x03, 0x06, 0x1a, 0xfa, 0x17, 0xdf, 0xeb, 0xf1, 0x1e, 0xf5, 0xf8,
  0x0c, 0x0a, 0x20, 0x24, 0x0d, 0xf3, 0xe8, 0x43, 0xfd, 0x08, 0x23, 0x1f,
  0xef, 0xe6, 0xef, 0x12, 0xe6, 0xb2, 0x13, 0xf4, 0x11, 0x10, 0xda, 0xed,
  0xcb, 0xe4, 0x16, 0x08, 0x08, 0xd5, 0x09, 0x02, 0x23, 0x22, 0x1a, 0x02,
  0x04, 0xfa, 0xcc, 0xf8, 0x26, 0x02, 0x16, 0x16, 0xe3, 0x1e, 0x00, 0xee,
  0xe1, 0xf4, 0x0c, 0xf0, 0x03, 0xfd, 0x32, 0x04, 0x27, 0xda, 0x1e, 0xff,
  0xdf, 0x03, 0x0d, 0x03, 0x26, 0xfb, 0x21, 0xec, 0xee, 0x0f, 0xf0, 0x0d,
  0x0f, 0xd9, 0xff, 0xd3, 0xfc, 0xe0, 0xee, 0xe0, 0xf0, 0xed, 0xf8, 0x1f,
  0x0b, 0x10, 0x0b, 0xe1, 0xe2, 0xfa, 0xdd, 0x10, 0xfa, 0xd6, 0xfe, 0x11,
  0x44, 0x21, 0xea, 0x01, 0x13, 0x08, 0xef, 0x02, 0xe7, 0xfa, 0x05, 0x11,
  0xe9, 0x04, 0x20, 0xff, 0x0c, 0x1c, 0x3e, 0xe5, 0xe8, 0xe5, 0x06, 0x3a,
  0xdb, 0x05, 0x22, 0x19, 0x1c, 0xdf, 0xe5, 0x03, 0x08, 0x1f, 0x01, 0x1a,
  0xeb, 0x1e, 0xe7, 0xf5, 0xdc, 0x39, 0xca, 0x08, 0xf4, 0x0b, 0xca, 0xf7,
  0x09, 0x09, 0xcf, 0x15, 0xfe, 0xe2, 0xe1, 0xe9, 0x15, 0xf7, 0x11, 0xf8,
  0x25, 0xf1, 0xe1, 0x20, 0x0f, 0xf9, 0x0a, 0xf6, 0x13, 0x16, 0xe8, 0x11,
  0x0e, 0xdc, 0x03, 0x15, 0x24, 0x30, 0x08, 0x05, 0x01, 0x2a, 0xe8, 0x0d,
  0xe2, 0x18, 0x18, 0xe3, 0xf9, 0x2c, 0x09, 0xfe, 0xe3, 0xfb, 0xfe, 0x1b,
  0x06, 0x37, 0xe2, 0x0d, 0x15, 0xd2, 0xdc, 0xfe, 0xf8, 0x33, 0x1a, 0xf6,
  0xdf, 0xf5, 0xf7, 0x16, 0x26, 0x1c, 0xd9, 0x1f, 0x10, 0x1d, 0xfe, 0xec,
  0xfc, 0x06, 0xf2, 0xfb, 0xbb, 0xfb, 0xeb, 0xe9, 0x14, 0xf3, 0x06, 0x40,
  0xe2, 0xd6, 0xcf, 0x21, 0x1d, 0x0d, 0xf2, 0xe7, 0x1d, 0x2b, 0x17, 0xdb,
  0xe6, 0xee, 0x36, 0x06, 0x0a, 0x0b, 0xd8, 0x9a, 0xe4, 0xe4, 0x2f, 0xfe,
  0xfe, 0xf9, 0x00, 0xf6, 0xca, 0xf4, 0x08, 0x0b, 0xf5, 0x02, 0x0f, 0x15,
  0xfd, 0xe4, 0xdc, 0x10, 0xf4, 0x59, 0xec, 0x1a, 0xed, 0xed, 0xfb, 0xe2,
  0xfc, 0xdf, 0x20, 0x01, 0xe4, 0x05, 0x01, 0x02, 0xe6, 0xfe, 0xd7, 0xf6,
  0xe8, 0x34, 0x01, 0x07, 0x2b, 0xff, 0xf5, 0x01, 0x13, 0x07, 0x2f, 0x17,
  0xe0, 0xdf, 0xd5, 0x16, 0xdc, 0x29, 0x18, 0xda, 0xe7, 0x03, 0xf3, 0x45,
  0xfd, 0x0f, 0x0d, 0xca, 0xbd, 0x3b, 0x15, 0x17, 0xce, 0xe6, 0xae, 0xe0,
  0xe7, 0xfe, 0x21, 0x1f, 0x21, 0x0f, 0xce, 0x2e, 0xe2, 0xb9, 0xef, 0xe1,
  0xfd, 0x23, 0x0d, 0xf7, 0x0f, 0xfd, 0x0b, 0xdb, 0x21, 0xf2, 0xec, 0xde,
  0xff, 0x24, 0x00, 0x27, 0xe2, 0x0b, 0xfa, 0x1b, 0x00, 0xfe, 0xf3, 0x02,
  0x20, 0xe7, 0xe2, 0xfe, 0xfa, 0xf5, 0x20, 0xc9, 0x1a, 0x2d, 0xe2, 0x14,
  0x04, 0xeb, 0x27, 0x0c, 0x1c, 0x1f, 0xf9, 0xee, 0x1b, 0xe2, 0xf3, 0xf3,
  0xfc, 0x17, 0x36, 0xe6, 0x08, 0xf5, 0x1f, 0xe1, 0x1a, 0x07, 0x0d, 0x0b,
  0x0b, 0x26, 0xd8, 0xe7, 0xf0, 0x10, 0x06, 0xf3, 0x14, 0x14, 0x20, 0x18,
  0xfc, 0x14, 0x12, 0xe0, 0xe4, 0x18, 0xd4, 0xda, 0xef, 0x17, 0x1c, 0xfc,
  0x1d, 0xf2, 0xca, 0x19, 0xf7, 0xe4, 0xba, 0xf9, 0x18, 0x24, 0x0b, 0xdd,
  0x30, 0xdc, 0xff, 0xff, 0x3e, 0xf0, 0xff, 0xff, 0x04, 0x00, 0x00, 0x00,
  0x80, 0x00, 0x00, 0x00, 0xfb, 0xff, 0xff, 0xff, 0x03, 0x00, 0x00, 0x00,
  0x27, 0x00, 0x00, 0x00, 0x2e, 0x00, 0x00, 0x00, 0x17, 0x00, 0x00, 0x00,
  0x0c, 0x00, 0x00, 0x00, 0x20, 0x00, 0x00, 0x00, 0x0a, 0x00, 0x00, 0x00,
  0x07, 0x00, 0x00, 0x00, 0x0e, 0x00, 0x00, 0x00, 0xe9, 0xff, 0xff, 0xff,
  0x50, 0xff, 0xff, 0xff, 0x41, 0xff, 0xff, 0xff, 0x21, 0x00, 0x00, 0x00,
  0x0a, 0x00, 0x00, 0x00, 0x54, 0x00, 0x00, 0x00, 0x20, 0x00, 0x00, 0x00,
  0x87, 0x00, 0x00, 0x00, 0x2c, 0x00, 0x00, 0x00, 0x57, 0x00, 0x00, 0x00,
  0x34, 0x00, 0x00, 0x00, 0xa7, 0xff, 0xff, 0xff, 0x96, 0xff, 0xff, 0xff,
  0xd0, 0xff, 0xff, 0xff, 0x3a, 0x00, 0x00, 0x00, 0x54, 0x00, 0x00, 0x00,
  0x94, 0xff, 0xff, 0xff, 0xe1, 0xff, 0xff, 0xff, 0x21, 0x00, 0x00, 0x00,
  0x18, 0x00, 0x00, 0x00, 0x53, 0x00, 0x00, 0x00, 0x84, 0xff, 0xff, 0xff,
  0xca, 0xf0, 0xff, 0xff, 0x04, 0x00, 0x00, 0x00, 0x00, 0x0a, 0x00, 0x00,
  0xf0, 0x01, 0x00, 0xf4, 0x0c, 0x09, 0xf6, 0xe0, 0x19, 0x01, 0xec, 0xe7,
  0x08, 0xf1, 0xf6, 0xf8, 0xf6, 0xe4, 0x0e, 0xf9, 0xd4, 0xf5, 0x0b, 0xff,
  0xff, 0xf9, 0xeb, 0xea, 0x19, 0x19, 0xcf, 0x02, 0x07, 0xfb, 0x06, 0xf9,
  0xe5, 0x06, 0x10, 0xf3, 0xf8, 0x06, 0x0b, 0x05, 0x0a, 0xfa, 0xfb, 0x0c,
  0x01, 0x10, 0x05, 0x1c, 0x0c, 0x0c, 0xf9, 0x12, 0xfb, 0x03, 0xfc, 0xfa,
  0x01, 0xff, 0x09, 0x00, 0x08, 0x06, 0x0b, 0x08, 0x1f, 0x0a, 0xff, 0x10,
  0xfb, 0x0f, 0x0d, 0x10, 0xed, 0x0b, 0x0f, 0xde, 0xc0, 0xf7, 0xf6, 0xd4,
  0x15, 0x04, 0x06, 0x07, 0xff, 0xf2, 0xec, 0xe4, 0xe6, 0xf1, 0xf0, 0x09,
  0x08, 0x12, 0xe6, 0xf1, 0xec, 0xf3, 0x00, 0xe4, 0xf4, 0xf8, 0xfd, 0xfc,
  0x0c, 0x08, 0x07, 0xdc, 0xe5, 0xf2, 0x00, 0xf5, 0xe8, 0x13, 0xf2, 0x10,
  0xf2, 0x0a, 0x12, 0x0d, 0xf0, 0xfc, 0x06, 0x05, 0x15, 0xf4, 0xfc, 0x06,
  0xf2, 0x02, 0x08, 0x0a, 0xf6, 0x11, 0x10, 0xef, 0x08, 0xfc, 0x13, 0xfd,
  0xf0, 0x0d, 0xec, 0x11, 0x20, 0x0a, 0xfe, 0x10, 0xfa, 0x01, 0x08, 0xff,
  0x04, 0xee, 0x07, 0xef, 0x01, 0xf7, 0xec, 0xb7, 0xfe, 0xfa, 0x05, 0xea,
  0xec, 0xf2, 0x17, 0x01, 0x02, 0x06, 0x03, 0xf7, 0x18, 0xf6, 0xb7, 0x07,
  0xfd, 0x04, 0xda, 0xd0, 0xe3, 0xff, 0x0f, 0xf2, 0xff, 0xcf, 0x06, 0x10,
  0xf6, 0xfd, 0x04, 0xdb, 0x24, 0xd2, 0xde, 0x08, 0xf9, 0x08, 0xbf, 0xca,
  0xf8, 0x12, 0xf8, 0x05, 0x06, 0x1a, 0x23, 0x0d, 0x01, 0xf7, 0x05, 0xe7,
  0x1c, 0xe4, 0xe9, 0x12, 0x03, 0x08, 0xea, 0xdf, 0x0a, 0x0d, 0xed, 0x09,
  0x18, 0x0a, 0x1a, 0x13, 0xfb, 0xfd, 0x05, 0xf5, 0x0d, 0x44, 0xfe, 0x19,
  0xf9, 0x03, 0x09, 0xf9, 0x1a, 0x14, 0xf3, 0x0c, 0x07, 0xf7, 0xeb, 0x03,
  0x02, 0x0a, 0xfa, 0x0c, 0x01, 0x18, 0xf5, 0xf9, 0xe8, 0xf6, 0xf0, 0xf6,
  0x15, 0x0c, 0x1b, 0x1a, 0x12, 0xe8, 0xf2, 0xed, 0x05, 0xfe, 0xff, 0x1a,
  0xf1, 0x11, 0xff, 0x09, 0xea, 0xe4, 0x16, 0x0c, 0x1b, 0x01, 0x0c, 0x0b,
  0x0e, 0xed, 0xf1, 0xd0, 0x00, 0xfb, 0xff, 0xf5, 0xf5, 0x0d, 0x06, 0x0b,
  0x01, 0xdc, 0x12, 0x09, 0x09, 0x04, 0x16, 0xf1, 0x02, 0x0f, 0xf7, 0xe9,
  0x04, 0x09, 0xfd, 0x05, 0x0e, 0xf7, 0xf5, 0xff, 0x01, 0xff, 0xf9, 0xfb,
  0x08, 0x04, 0x09, 0x0c, 0xf4, 0x10, 0x1c, 0xff, 0xfa, 0xf9, 0x09, 0x00,
  0xff, 0x0f, 0xfe, 0x06, 0x16, 0xfc, 0xfa, 0xf1, 0x0b, 0x09, 0x1a, 0xf9,
  0xf6, 0xd5, 0x23, 0x04, 0xfc, 0x02, 0xfd, 0xf9, 0x02, 0x06, 0x02, 0xf9,
  0x19, 0x05, 0x04, 0xeb, 0x18, 0x0b, 0x01, 0xe8, 0xf2, 0xe1, 0x20, 0x16,
  0x03, 0x0b, 0x0b, 0xe4, 0x12, 0x17, 0xfe, 0x03, 0x02, 0x04, 0x0a, 0xfc,
  0x07, 0x0e, 0xfe, 0xf1, 0xfd, 0x04, 0x10, 0xfe, 0x02, 0xfb, 0x05, 0xfa,
  0x01, 0x11, 0x12, 0x19, 0x02, 0x07, 0xec, 0x07, 0xfa, 0xfc, 0xf9, 0xd6,
  0x08, 0xd6, 0x09, 0x08, 0x03, 0x14, 0x11, 0x09, 0x10, 0x08, 0x0a, 0x08,
  0x09, 0xf8, 0xfd, 0x09, 0xf2, 0xe5, 0x16, 0xe0, 0xf2, 0xc2, 0x16, 0x03,
  0xf0, 0xfd, 0x0d, 0xff, 0x12, 0xf5, 0xfe, 0xf9, 0x1a, 0x08, 0x0f, 0x13,
  0xf7, 0xf7, 0xf9, 0xe5, 0xff, 0xca, 0xf4, 0x06, 0xfe, 0x07, 0xff, 0xf7,
  0x16, 0xfa, 0x01, 0xfe, 0x15, 0xf9, 0x1a, 0x05, 0x10, 0xf9, 0xfe, 0x00,
  0x01, 0x06, 0xe1, 0x01, 0x07, 0xff, 0xff, 0xfe, 0x0d, 0xf6, 0xfe, 0xd3,
  0x17, 0xf9, 0x22, 0x1e, 0xea, 0x04, 0x04, 0x06, 0x19, 0x1d, 0x0d, 0x0c,
  0x0d, 0x05, 0x08, 0x0f, 0xff, 0xee, 0x0a, 0xf4, 0x1d, 0xf1, 0x10, 0x10,
  0xe4, 0xf3, 0xee, 0xea, 0x09, 0x20, 0x09, 0xfd, 0x05, 0xf6, 0x04, 0xf5,
  0x10, 0xf4, 0x0a, 0x04, 0x13, 0xfe, 0x20, 0x03, 0xde, 0xf9, 0xe5, 0xd7,
  0xfd, 0x16, 0x1e, 0xfb, 0x01, 0xfd, 0xfd, 0xf3, 0x09, 0xf5, 0x0b, 0x09,
  0x07, 0x05, 0xfe, 0x05, 0x09, 0xf7, 0xe2, 0xee, 0xf3, 0x03, 0x12, 0x05,
  0x08, 0xf7, 0x16, 0xf0, 0x0e, 0xf5, 0x02, 0x03, 0x08, 0xeb, 0x0d, 0x01,
  0x1f, 0x08, 0x09, 0xf6, 0x11, 0x06, 0xf3, 0x0f, 0x12, 0xf1, 0x05, 0x02,
  0xeb, 0x0b, 0x0e, 0x07, 0x23, 0xe9, 0x1e, 0x06, 0x0f, 0x1f, 0xed, 0x01,
  0x13, 0x2e, 0x13, 0x17, 0x12, 0x03, 0x04, 0x09, 0xf6, 0x16, 0x03, 0xff,
  0x1c, 0xc9, 0x01, 0xeb, 0x20, 0x04, 0xfc, 0x12, 0x07, 0x3d, 0x12, 0xf5,
  0x16, 0xf3, 0xe8, 0x08, 0x06, 0xff, 0x03, 0x08, 0xec, 0xf9, 0x04, 0xe1,
  0xfa, 0xf5, 0xfe, 0xb9, 0xf7, 0xef, 0xff, 0xbf, 0x06, 0xe9, 0xec, 0x17,
  0x02, 0x18, 0x0d, 0x17, 0x04, 0x02, 0xfb, 0x01, 0xd7, 0x13, 0xf2, 0xf9,
  0xfa, 0x06, 0x05, 0xf9, 0x02, 0xff, 0x04, 0x04, 0x09, 0xe7, 0x03, 0x1a,
  0x1e, 0x07, 0x01, 0x03, 0xdf, 0x02, 0xdd, 0xd6, 0x05, 0x1a, 0xf4, 0x07,
  0xf7, 0xf8, 0xf6, 0xe9, 0xee, 0xf4, 0x11, 0x08, 0x20, 0xfe, 0x24, 0x0b,
  0xf7, 0x0e, 0xd9, 0xdb, 0x0e, 0x21, 0xcf, 0x09, 0xfd, 0xf4, 0x0d, 0xfa,
  0xe0, 0x09, 0x10, 0xfb, 0x0d, 0x11, 0x1f, 0x05, 0x02, 0x08, 0xf3, 0xfc,
  0x13, 0x09, 0xe9, 0x0d, 0x15, 0x06, 0x08, 0x09, 0x00, 0x00, 0x15, 0xfb,
  0xf4, 0x10, 0x07, 0x15, 0x09, 0x0a, 0xfe, 0x0b, 0x0f, 0xff, 0xee, 0x00,
  0xf8, 0x0d, 0x0a, 0x0d, 0xf1, 0x04, 0x16, 0xf5, 0xeb, 0xfe, 0x09, 0x1f,
  0x0d, 0x09, 0x07, 0x0b, 0x13, 0xf7, 0xef, 0xf2, 0x01, 0xff, 0x00, 0x08,
  0xee, 0xf7, 0x15, 0xfc, 0xed, 0x12, 0x08, 0x15, 0x15, 0x13, 0xf1, 0x0e,
  0x14, 0x19, 0xd7, 0xfe, 0xfd, 0xf2, 0xfa, 0xf9, 0xe7, 0x0a, 0x14, 0x10,
  0xfd, 0x11, 0x0c, 0x14, 0xf6, 0x16, 0xfa, 0x07, 0x12, 0x06, 0xef, 0xf9,
  0x00, 0xff, 0x03, 0xff, 0xe8, 0xfd, 0x16, 0xf7, 0xfe, 0x0f, 0xde, 0xea,
  0x22, 0x0c, 0x01, 0x02, 0x01, 0x22, 0x10, 0x06, 0xe0, 0xff, 0x05, 0x13,
  0x0b, 0xde, 0xf8, 0x06, 0x07, 0x10, 0xd9, 0xe7, 0x26, 0xfa, 0x0a, 0xf6,
  0xfd, 0x3b, 0x12, 0xff, 0xec, 0x0e, 0x03, 0x20, 0x06, 0xdf, 0xf6, 0xf0,
  0x0a, 0x0b, 0xe2, 0xf1, 0x31, 0xf8, 0x0b, 0xeb, 0xf6, 0x28, 0x07, 0x17,
  0xed, 0x08, 0xf6, 0x1a, 0x14, 0xef, 0xf7, 0xf7, 0x0f, 0x12, 0xf8, 0xfb,
  0xfa, 0x0d, 0x0f, 0xfc, 0x0b, 0x09, 0x19, 0x0e, 0x01, 0x0c, 0x02, 0x17,
  0xf8, 0x06, 0xf8, 0x07, 0xfe, 0x17, 0x04, 0x15, 0x17, 0x07, 0xfd, 0xed,
  0xef, 0x0c, 0xf8, 0x15, 0xed, 0x18, 0x08, 0xfa, 0x0b, 0x1c, 0xfc, 0xd4,
  0x09, 0xfc, 0x02, 0x11, 0x03, 0x15, 0x0d, 0xf4, 0x16, 0xf2, 0xfe, 0x1b,
  0xf0, 0x10, 0x16, 0x0f, 0x11, 0xfa, 0x08, 0xd5, 0xf7, 0x07, 0x0c, 0x03,
  0xdf, 0x07, 0xea, 0xff, 0x09, 0x03, 0xeb, 0x0e, 0xf3, 0x0a, 0x04, 0x02,
  0xfc, 0x06, 0x07, 0xe5, 0x0b, 0x10, 0x13, 0xff, 0xf9, 0x06, 0xf8, 0x08,
  0xf6, 0x00, 0xeb, 0x04, 0xfc, 0x0d, 0x0f, 0xf9, 0xfe, 0xf1, 0x06, 0xc3,
  0xf6, 0x03, 0x06, 0xfd, 0xf4, 0x0f, 0xfb, 0x09, 0x06, 0x1b, 0x0d, 0x0d,
  0xd2, 0xfe, 0x0f, 0x09, 0x0f, 0xee, 0xec, 0xc1, 0x06, 0x06, 0x12, 0x04,
  0x00, 0xff, 0xef, 0x10, 0xfc, 0x1a, 0x01, 0x07, 0xd3, 0x04, 0x06, 0xf8,
  0x16, 0xe7, 0xf7, 0xd2, 0xfa, 0xfb, 0x0b, 0x05, 0x21, 0x14, 0x11, 0x02,
  0x15, 0x19, 0xfe, 0x0b, 0xd2, 0xfe, 0x0a, 0x01, 0x07, 0xf2, 0xff, 0xcb,
  0xfd, 0x01, 0xfc, 0x1c, 0xfb, 0x0e, 0x02, 0x17, 0x09, 0x0a, 0xfb, 0x17,
  0xfa, 0x08, 0x0d, 0x07, 0x01, 0xd8, 0x11, 0x8e, 0x0f, 0x09, 0xc2, 0x02,
  0xf2, 0x08, 0x0c, 0x0b, 0xe1, 0x2d, 0x11, 0x06, 0xeb, 0xfe, 0x09, 0xfb,
  0xfc, 0xf3, 0xea, 0xfd, 0x29, 0xfa, 0xff, 0x06, 0x05, 0x0a, 0xe2, 0xf9,
  0xf2, 0x3b, 0x1a, 0xe9, 0xec, 0xfe, 0x02, 0x07, 0x17, 0xfc, 0x07, 0x16,
  0x1a, 0x04, 0xf1, 0x04, 0x03, 0x00, 0xf2, 0xf5, 0xfc, 0x27, 0x03, 0xf2,
  0xf8, 0xf5, 0xf7, 0x08, 0x07, 0xf9, 0x13, 0x06, 0xe2, 0x15, 0x01, 0xf8,
  0xff, 0x07, 0xfb, 0xed, 0xfb, 0x03, 0x17, 0xf3, 0x08, 0xf3, 0x01, 0x04,
  0x01, 0x0b, 0x0c, 0x12, 0xfb, 0x13, 0xb4, 0xf8, 0xfa, 0xf8, 0x08, 0xfd,
  0xe5, 0xff, 0xf3, 0xfd, 0xf8, 0xfb, 0x01, 0x06, 0x04, 0xe9, 0xfc, 0x10,
  0x03, 0x25, 0xee, 0x07, 0xeb, 0xfa, 0x1d, 0xeb, 0xf6, 0xe8, 0xfe, 0x07,
  0xf2, 0xf6, 0x10, 0xf7, 0x11, 0xf7, 0x04, 0x06, 0xfb, 0x12, 0xf9, 0x12,
  0x09, 0x15, 0x14, 0xfe, 0xf6, 0xfb, 0xee, 0x05, 0x11, 0xf1, 0x0f, 0x03,
  0xfb, 0xfb, 0x0e, 0x10, 0xef, 0x03, 0x07, 0xef, 0xfe, 0x0c, 0x16, 0x04,
  0x0b, 0x0a, 0xf7, 0xef, 0x11, 0xf4, 0xf6, 0x09, 0x09, 0x04, 0x10, 0x14,
  0xf7, 0x1b, 0xf4, 0x1c, 0xf0, 0x0f, 0x06, 0x00, 0xfd, 0x00, 0x10, 0x09,
  0xf5, 0xfd, 0x17, 0x0b, 0x0e, 0xfb, 0x11, 0x04, 0x11, 0x22, 0xf3, 0x1a,
  0xdd, 0x01, 0xfe, 0x0a, 0x05, 0xde, 0x29, 0x13, 0xf6, 0x19, 0x1c, 0x0d,
  0x16, 0x00, 0x0c, 0x01, 0x01, 0x1a, 0xec, 0x13, 0xf1, 0x02, 0x0c, 0x23,
  0xfd, 0xff, 0x2c, 0x18, 0xfc, 0x0f, 0x0f, 0x08, 0x16, 0xf0, 0x00, 0x0d,
  0x0a, 0x05, 0x00, 0x19, 0xff, 0x04, 0x09, 0x22, 0xe6, 0xfb, 0x1b, 0x17,
  0xf9, 0x0f, 0x16, 0xfd, 0x03, 0xf3, 0x0d, 0x0e, 0x0a, 0x03, 0x3a, 0x07,
  0xf6, 0x13, 0x08, 0x03, 0xf5, 0x17, 0x0b, 0xff, 0xfb, 0x0a, 0xf4, 0xf5,
  0x09, 0x09, 0x04, 0x07, 0x17, 0xef, 0x34, 0x05, 0xf8, 0xf8, 0xf9, 0xcd,
  0xfc, 0x08, 0x0b, 0xe1, 0x02, 0xfc, 0xf9, 0xf6, 0x13, 0x11, 0xfa, 0x0d,
  0x22, 0xf7, 0x21, 0x03, 0x0c, 0xe5, 0xea, 0xf0, 0xf6, 0x13, 0x14, 0xe9,
  0x15, 0xfd, 0xf7, 0xf8, 0x06, 0x04, 0x02, 0x04, 0x01, 0x09, 0x10, 0x06,
  0x03, 0xe2, 0xf7, 0xeb, 0xfd, 0xec, 0x12, 0xd8, 0x00, 0xfc, 0xf7, 0xf4,
  0x01, 0x1e, 0x1b, 0x06, 0xfa, 0xf9, 0x10, 0x03, 0x0d, 0x10, 0x01, 0x00,
  0x0e, 0xf1, 0x0e, 0xfc, 0x09, 0x01, 0xf5, 0x05, 0x07, 0xf6, 0x17, 0x11,
  0x01, 0xfc, 0x20, 0x0d, 0xfc, 0xf7, 0x15, 0x00, 0x08, 0x07, 0xfd, 0xef,
  0x1a, 0x08, 0xfb, 0x00, 0x08, 0xf5, 0x04, 0x0c, 0x04, 0xeb, 0x21, 0xfd,
  0xe6, 0xec, 0x1c, 0xd4, 0xfc, 0x16, 0x08, 0xec, 0x09, 0x0e, 0x03, 0xf2,
  0x12, 0x0c, 0xfd, 0x0b, 0x12, 0xf8, 0x0d, 0xff, 0xfc, 0xf9, 0xe5, 0xf6,
  0xf3, 0xfd, 0x0f, 0xf8, 0x13, 0xf9, 0x00, 0xe5, 0x04, 0x01, 0x12, 0x09,
  0x0c, 0xee, 0xdb, 0xf8, 0x12, 0x05, 0xfe, 0x1f, 0xf6, 0x17, 0x27, 0xe5,
  0x06, 0xe1, 0xca, 0x09, 0xf0, 0x1a, 0x08, 0x16, 0xf6, 0xd6, 0xfc, 0xfe,
  0x0e, 0xfc, 0x0f, 0x25, 0xfb, 0x0f, 0x1b, 0xc3, 0x01, 0xb9, 0xcb, 0x0b,
  0xef, 0x10, 0x04, 0x06, 0xed, 0xd6, 0x05, 0x0d, 0x20, 0x02, 0x24, 0x3c,
  0xfe, 0x1e, 0x17, 0xa8, 0x01, 0xc5, 0xe0, 0x0a, 0xfd, 0x17, 0x02, 0x0c,
  0xe8, 0x09, 0x1b, 0xff, 0xfb, 0x16, 0x18, 0xea, 0x01, 0x05, 0xfd, 0xb1,
  0x0a, 0xe0, 0xea, 0x08, 0xfd, 0x0c, 0x15, 0x10, 0x0b, 0xfc, 0x3e, 0x25,
  0x01, 0xf5, 0x0f, 0xfb, 0xf7, 0xf9, 0x0f, 0xf0, 0xeb, 0xf9, 0xfc, 0xf9,
  0x06, 0x20, 0xf9, 0xf2, 0xff, 0xf2, 0x3b, 0x18, 0x0e, 0xdf, 0x25, 0xd1,
  0xf1, 0xdb, 0x18, 0xeb, 0xee, 0xff, 0x0f, 0xf4, 0x1a, 0x06, 0x0b, 0xf8,
  0x06, 0x01, 0x27, 0x05, 0x1f, 0xef, 0x0d, 0xfa, 0xeb, 0xc5, 0x13, 0x06,
  0xf1, 0xf8, 0x07, 0xff, 0xf7, 0x07, 0x06, 0xf8, 0xf0, 0x0b, 0x04, 0xf7,
  0x01, 0x06, 0x0a, 0x0d, 0xf7, 0xfd, 0x01, 0xef, 0xef, 0x05, 0x04, 0x0c,
  0x0a, 0x08, 0xf8, 0xfb, 0x0d, 0xde, 0xdd, 0xe1, 0x0d, 0xec, 0x01, 0x04,
  0xfa, 0x00, 0x0d, 0xcc, 0x02, 0xf7, 0xd2, 0x03, 0xf6, 0x22, 0xfb, 0x0b,
  0xe7, 0xfb, 0xd5, 0xf4, 0x1c, 0xe5, 0x0f, 0xc4, 0xfc, 0xfd, 0xfb, 0xdd,
  0xfd, 0xf6, 0xf7, 0x14, 0xfe, 0x16, 0x04, 0x0b, 0xf0, 0x11, 0xd9, 0x03,
  0x1b, 0xfc, 0xf6, 0x19, 0x02, 0x00, 0xfc, 0x06, 0x06, 0x13, 0xfb, 0x0d,
  0xfa, 0x0d, 0x07, 0x0c, 0x0f, 0x0c, 0xfa, 0xf8, 0x0c, 0x04, 0x06, 0x12,
  0x03, 0x07, 0x0e, 0x0b, 0x11, 0x12, 0x02, 0x0b, 0x03, 0xfe, 0xf8, 0xfc,
  0xfc, 0xf3, 0xe0, 0xf3, 0x13, 0xfb, 0x03, 0x08, 0x02, 0x06, 0xe5, 0xfe,
  0x0a, 0x01, 0xf9, 0x09, 0xf7, 0x14, 0x04, 0x0f, 0xf6, 0x09, 0xec, 0xf2,
  0x06, 0x03, 0x0c, 0x00, 0x0a, 0x0e, 0xfd, 0x0c, 0x0a, 0xf7, 0x03, 0x14,
  0x0a, 0xff, 0xfe, 0x03, 0x0d, 0x1f, 0xf0, 0xf4, 0x00, 0x0a, 0xf1, 0xff,
  0x01, 0x1e, 0x0f, 0x25, 0xdc, 0x09, 0x0f, 0x05, 0x0b, 0xea, 0xf0, 0xea,
  0x05, 0x0b, 0xef, 0x0a, 0x0a, 0x0f, 0xf5, 0x15, 0xf5, 0x08, 0x01, 0x11,
  0xe5, 0x00, 0x09, 0x06, 0x03, 0xcb, 0xec, 0xb1, 0x04, 0x02, 0xfa, 0x0b,
  0x06, 0x14, 0x07, 0xf5, 0x09, 0x39, 0xfc, 0x02, 0xe2, 0xfe, 0xf1, 0xf7,
  0x00, 0xf4, 0x02, 0xfd, 0xf2, 0x10, 0xfb, 0x02, 0xe9, 0xfc, 0xfd, 0x04,
  0x0b, 0x28, 0xed, 0xfe, 0xe1, 0x0a, 0x12, 0xeb, 0x0c, 0x07, 0xf8, 0xf6,
  0xff, 0x08, 0x07, 0x16, 0xef, 0x0c, 0xe1, 0xf4, 0x0c, 0x48, 0xee, 0x01,
  0xdb, 0x11, 0x01, 0x00, 0x0f, 0x08, 0x11, 0xec, 0x0d, 0x05, 0x12, 0x0d,
  0x01, 0x05, 0xf3, 0x06, 0x0e, 0x01, 0x16, 0x06, 0x0a, 0x10, 0x01, 0xfa,
  0x12, 0xfe, 0x1e, 0xf9, 0x06, 0x05, 0xfd, 0xed, 0x0f, 0xe5, 0xe5, 0xce,
  0x02, 0xfd, 0x0d, 0x03, 0xf9, 0x03, 0xfa, 0xfe, 0x09, 0x08, 0xfc, 0x03,
  0x06, 0xfb, 0x0a, 0xf7, 0x25, 0xff, 0x02, 0xf3, 0x00, 0xc4, 0xf4, 0x14,
  0x02, 0x20, 0x07, 0x0f, 0x06, 0x13, 0xf7, 0xf8, 0x0c, 0xde, 0x15, 0xfd,
  0x25, 0x00, 0xf9, 0x17, 0xf7, 0x12, 0xf9, 0xfd, 0x05, 0x07, 0x05, 0x0d,
  0x0a, 0x07, 0xf2, 0xff, 0x0a, 0xd5, 0x0c, 0xf8, 0x05, 0xf6, 0xfb, 0xf7,
  0xfb, 0xfd, 0xeb, 0xf7, 0x0c, 0x03, 0x00, 0x11, 0xfe, 0x12, 0xf3, 0xcd,
  0x04, 0xfd, 0xdd, 0xf0, 0x1e, 0xeb, 0x06, 0xed, 0xf3, 0x05, 0x14, 0x11,
  0x02, 0xfc, 0xe9, 0xfa, 0x04, 0x07, 0xfa, 0x0b, 0xfd, 0x10, 0xd7, 0x06,
  0x03, 0x02, 0x02, 0xdc, 0x03, 0xf5, 0x0b, 0x12, 0xee, 0x03, 0x05, 0x13,
  0x14, 0x06, 0xf7, 0x09, 0xf4, 0x01, 0xe9, 0x07, 0x03, 0xfb, 0x20, 0xc8,
  0x04, 0xf0, 0x11, 0x09, 0xe7, 0x14, 0x01, 0x0e, 0xfa, 0xff, 0x05, 0x00,
  0x0b, 0x07, 0xf2, 0x06, 0x0d, 0x02, 0x04, 0x1f, 0x0e, 0x05, 0xfa, 0x16,
  0x01, 0x12, 0x0d, 0x13, 0x0d, 0xe9, 0x01, 0xf2, 0x11, 0xec, 0x14, 0x17,
  0xe3, 0xe5, 0x05, 0xfb, 0xfc, 0xfd, 0xfa, 0xe6, 0x02, 0xf2, 0x03, 0xf3,
  0xff, 0x14, 0x02, 0xfd, 0x16, 0xf6, 0x21, 0x1b, 0xf8, 0xfb, 0x31, 0x10,
  0xf9, 0xe8, 0x02, 0xec, 0x06, 0xfe, 0x04, 0x01, 0x09, 0x0b, 0x02, 0xfb,
  0x00, 0xe4, 0x19, 0x1c, 0xf3, 0xf6, 0x19, 0xf7, 0x09, 0xd3, 0x0f, 0xdd,
  0x08, 0xfb, 0x06, 0xfc, 0x02, 0xfd, 0xff, 0xfc, 0x06, 0xf0, 0x23, 0x1a,
  0x00, 0xf8, 0xfa, 0xf0, 0xf7, 0xfe, 0x1f, 0xda, 0x13, 0xf9, 0xff, 0xfd,
  0xfb, 0x04, 0x16, 0x02, 0x00, 0xf8, 0x2d, 0x2d, 0xed, 0x12, 0xf1, 0xda,
  0x0e, 0xf7, 0xf2, 0x01, 0xef, 0x01, 0x0c, 0xf7, 0xe3, 0x24, 0x0d, 0xbe,
  0x27, 0xfe, 0x26, 0x1e, 0xe8, 0x0c, 0x06, 0xf0, 0xff, 0x01, 0x02, 0x0d,
  0xfb, 0x0b, 0x15, 0xfb, 0xf2, 0x24, 0x15, 0xcf, 0x19, 0xf7, 0x0a, 0x12,
  0xd5, 0x11, 0x07, 0x01, 0xf7, 0x05, 0xfc, 0x05, 0x14, 0x03, 0x0a, 0xfa,
  0xf7, 0xfc, 0x04, 0xe6, 0xf5, 0xf3, 0x06, 0xfa, 0xed, 0x03, 0xeb, 0xf4,
  0xf8, 0x06, 0x05, 0xef, 0xf9, 0xfb, 0xf8, 0xec, 0xf0, 0xe2, 0x0a, 0xda,
  0x05, 0x01, 0xe7, 0xf0, 0xfb, 0xf8, 0xfb, 0xfd, 0xee, 0x00, 0x12, 0x0c,
  0xf9, 0x02, 0x05, 0x06, 0x07, 0x06, 0xec, 0x00, 0xf8, 0xeb, 0x09, 0x01,
  0x1b, 0xf6, 0x1a, 0x16, 0xfc, 0x07, 0xfa, 0xe9, 0x06, 0x04, 0xf4, 0xf4,
  0xfd, 0xf8, 0x0a, 0xfb, 0xfa, 0x0f, 0x0a, 0xfc, 0x1d, 0x12, 0x08, 0xf6,
  0x00, 0xed, 0xfd, 0x03, 0x00, 0xe4, 0x04, 0x07, 0xfa, 0xfc, 0xff, 0x06,
  0x00, 0xf7, 0x0a, 0x04, 0x09, 0xfb, 0x07, 0xfe, 0x08, 0x0b, 0x0b, 0x00,
  0xfe, 0xfa, 0x10, 0xf4, 0x15, 0x00, 0xf2, 0xf8, 0x07, 0xec, 0x04, 0xfc,
  0x06, 0x14, 0x09, 0xf6, 0x0e, 0x01, 0x0a, 0xfa, 0x0c, 0xfa, 0xeb, 0x0b,
  0xa4, 0x05, 0x14, 0xf6, 0xe6, 0xe9, 0xe9, 0xff, 0x16, 0x0c, 0x19, 0xe1,
  0x06, 0xfd, 0x12, 0xc5, 0x0d, 0xfc, 0xf3, 0x04, 0x88, 0xf0, 0x07, 0xf2,
  0xe5, 0x09, 0xee, 0xfd, 0x0d, 0x0a, 0x11, 0xf3, 0x19, 0x03, 0xd1, 0xe5,
  0x0d, 0xfc, 0xf2, 0x06, 0x9c, 0xf6, 0x0a, 0xfa, 0xfc, 0xee, 0x0b, 0x0a,
  0xf2, 0x05, 0x08, 0xf9, 0xfd, 0xff, 0xb5, 0xf3, 0x11, 0x08, 0xfa, 0xfb,
  0xdb, 0xf8, 0x0d, 0xd3, 0xf5, 0xea, 0xb6, 0x05, 0xf5, 0xfc, 0x0d, 0x00,
  0x0a, 0xf2, 0x06, 0xc6, 0xf7, 0xee, 0xe6, 0xf5, 0xfa, 0x02, 0xfc, 0x05,
  0xe8, 0xec, 0xde, 0x07, 0x15, 0xfc, 0x22, 0x08, 0x05, 0xc2, 0x08, 0xf1,
  0x03, 0xc9, 0xde, 0x0c, 0x06, 0x07, 0x04, 0x0c, 0xea, 0xf9, 0xed, 0x02,
  0xfe, 0xf8, 0x25, 0x0a, 0xfd, 0xdb, 0xf8, 0xf2, 0x01, 0xd7, 0x01, 0xff,
  0x0b, 0xf5, 0x0a, 0x01, 0xf2, 0x0f, 0xfd, 0x04, 0x0d, 0xfb, 0x1d, 0x1a,
  0x07, 0xf6, 0x10, 0xf1, 0x06, 0x0a, 0x16, 0x04, 0x0c, 0x0c, 0x17, 0xfc,
  0x02, 0xf9, 0xf7, 0xf9, 0x00, 0xdb, 0xfc, 0x00, 0xe5, 0xc9, 0x0b, 0xef,
  0x0e, 0x08, 0x0d, 0x0b, 0x01, 0xf7, 0xee, 0xfe, 0x01, 0xf7, 0x07, 0x18,
  0x05, 0xe3, 0xf0, 0x03, 0xeb, 0xaf, 0xfb, 0xef, 0x15, 0x0d, 0x15, 0xfd,
  0x06, 0x07, 0xed, 0xfe, 0xf4, 0x00, 0x02, 0x1b, 0x1c, 0xe5, 0x12, 0x01,
  0xfe, 0xbf, 0xfb, 0xed, 0x10, 0x04, 0xff, 0x1b, 0x02, 0x15, 0x00, 0x05,
  0xf7, 0x09, 0x1b, 0x0d, 0x06, 0xf4, 0x1e, 0x06, 0x08, 0x01, 0x08, 0xf5,
  0x15, 0x04, 0xf9, 0x1c, 0xf4, 0x02, 0x14, 0xfc, 0xf6, 0xfc, 0xf6, 0x0f,
  0xe2, 0x11, 0xe8, 0x10, 0x1f, 0x03, 0xef, 0x0b, 0xc3, 0xf6, 0x0a, 0x09,
  0xef, 0xc6, 0x1d, 0xb6, 0x06, 0x1c, 0x02, 0x06, 0x8e, 0x18, 0xe7, 0x05,
  0x04, 0x00, 0xf9, 0x12, 0xba, 0x04, 0x05, 0xfa, 0xf4, 0xc8, 0x01, 0xb1,
  0x00, 0x0e, 0xf3, 0x00, 0x9d, 0x02, 0xf1, 0x00, 0x0b, 0x11, 0xf8, 0x03,
  0xb2, 0x0c, 0x0b, 0xe0, 0x00, 0xee, 0xff, 0xbe, 0x06, 0xff, 0x01, 0xf8,
  0xea, 0x0a, 0xf3, 0x01, 0x0c, 0x09, 0xe7, 0x09, 0xe8, 0xf6, 0x05, 0xf3,
  0x04, 0xc2, 0x02, 0x81, 0xcc, 0xe6, 0xff, 0xff, 0xd0, 0xe6, 0xff, 0xff,
  0xd4, 0xe6, 0xff, 0xff, 0xe2, 0xfa, 0xff, 0xff, 0x04, 0x00, 0x00, 0x00,
  0x50, 0x00, 0x00, 0x00, 0x42, 0x00, 0x00, 0x00, 0xed, 0xfe, 0xff, 0xff,
  0xe9, 0xff, 0xff, 0xff, 0xda, 0xfe, 0xff, 0xff, 0x86, 0x00, 0x00, 0x00,
  0x91, 0xfe, 0xff, 0xff, 0x34, 0x00, 0x00, 0x00, 0xbc, 0xff, 0xff, 0xff,
  0x0b, 0xff, 0xff, 0xff, 0x8d, 0x00, 0x00, 0x00, 0xca, 0x02, 0x00, 0x00,
  0xca, 0xfd, 0xff, 0xff, 0x0b, 0x02, 0x00, 0x00, 0x59, 0xfe, 0xff, 0xff,
  0x5d, 0xfe, 0xff, 0xff, 0xf7, 0xff, 0xff, 0xff, 0x9b, 0x00, 0x00, 0x00,
  0x0a, 0x01, 0x00, 0x00, 0xbc, 0xff, 0xff, 0xff, 0x91, 0x02, 0x00, 0x00,
  0x3e, 0xfb, 0xff, 0xff, 0x04, 0x00, 0x00, 0x00, 0x20, 0x03, 0x00, 0x00,
  0x05, 0xfd, 0x7f, 0x1f, 0x5b, 0x09, 0xe7, 0x01, 0xc1, 0x1c, 0xf7, 0xf4,
  0xf7, 0xfd, 0xcd, 0x13, 0xe3, 0x03, 0xe1, 0x3b, 0xea, 0x4c, 0xba, 0xfc,
  0x2b, 0xf8, 0xa2, 0x19, 0xa2, 0xb0, 0xe9, 0x3d, 0x0b, 0xf5, 0x02, 0xf4,
  0xc9, 0xf7, 0xbb, 0xbc, 0xf3, 0xe9, 0xa3, 0xf7, 0xe6, 0xe5, 0xda, 0xf7,
  0xdd, 0xba, 0xf8, 0x41, 0x03, 0x05, 0xcd, 0xdf, 0xff, 0xd0, 0xcd, 0xfd,
  0xe3, 0x7f, 0x2e, 0x06, 0x26, 0xdf, 0x16, 0xfd, 0x4f, 0xe4, 0xe8, 0x36,
  0xf3, 0x0e, 0x21, 0xe5, 0x2a, 0x4a, 0x06, 0xf7, 0xe7, 0xf7, 0x0e, 0xfd,
  0xf0, 0x7f, 0xf9, 0xdf, 0xe2, 0xe9, 0x0a, 0xe8, 0x05, 0xf8, 0x14, 0xd0,
  0xea, 0x26, 0xdb, 0x00, 0xfd, 0xe4, 0x0f, 0xfb, 0x02, 0x00, 0xde, 0xf4,
  0xfa, 0x0d, 0x00, 0xfc, 0x03, 0xfd, 0x11, 0xf8, 0xef, 0xff, 0xf7, 0x16,
  0x0a, 0x0a, 0xe5, 0xf6, 0xe6, 0x2e, 0xf6, 0x12, 0xe1, 0x06, 0xe6, 0x11,
  0xf3, 0xfc, 0xe5, 0x7f, 0x02, 0x00, 0x0a, 0xf7, 0xe3, 0x08, 0xfe, 0x00,
  0xfc, 0xf2, 0x03, 0xf2, 0xf4, 0xf0, 0x05, 0xfe, 0xfa, 0xff, 0xf3, 0xee,
  0x02, 0x12, 0xed, 0xec, 0x43, 0x91, 0xc4, 0xf3, 0xf3, 0xf4, 0x08, 0xf1,
  0xf1, 0x12, 0x11, 0xcb, 0xd4, 0xf3, 0xfa, 0xe9, 0x06, 0xe6, 0xdf, 0x10,
  0x47, 0x81, 0xa9, 0x4d, 0xf0, 0xe6, 0x35, 0xf8, 0xf5, 0x29, 0x02, 0xa5,
  0xd1, 0x01, 0xf3, 0xe7, 0x49, 0xf8, 0xe6, 0x2d, 0xe9, 0x06, 0x0d, 0xe3,
  0xfa, 0xfa, 0x04, 0x77, 0xff, 0xfa, 0x29, 0x61, 0xea, 0xec, 0x12, 0x03,
  0xff, 0xbe, 0xdd, 0xec, 0x09, 0xe6, 0xfb, 0xee, 0xe2, 0xf9, 0xe9, 0x7f,
  0x04, 0xcf, 0x2f, 0xf9, 0x06, 0xf5, 0xf4, 0x08, 0xfe, 0xdf, 0x02, 0xe8,
  0x7f, 0xb3, 0xb7, 0x01, 0xa9, 0xf7, 0x6b, 0xb1, 0x0d, 0xf1, 0x6a, 0x9e,
  0xba, 0xf8, 0x8e, 0xf8, 0x09, 0xd0, 0xe8, 0xeb, 0x38, 0xe2, 0x2f, 0xf9,
  0xe3, 0x02, 0x53, 0xdc, 0xea, 0x08, 0x04, 0xce, 0xf8, 0x0e, 0xef, 0x14,
  0xea, 0xd1, 0x1c, 0xf2, 0xf4, 0x21, 0xf6, 0xfc, 0xde, 0x0c, 0x43, 0xea,
  0x5c, 0xce, 0x07, 0x12, 0xf7, 0x04, 0xc6, 0xf4, 0x7f, 0xf9, 0xfd, 0xe7,
  0x03, 0xfc, 0xe4, 0xe2, 0xf1, 0xd0, 0xf3, 0x48, 0xe2, 0x1c, 0xd2, 0xf7,
  0xca, 0xd2, 0xa7, 0xf2, 0xfd, 0x07, 0xe3, 0xcb, 0x02, 0xf8, 0xea, 0xf9,
  0xe1, 0xfe, 0xff, 0x7f, 0x07, 0xdf, 0x3e, 0xbc, 0xe4, 0xf8, 0x01, 0x0a,
  0xf8, 0x03, 0x1c, 0xcd, 0x42, 0xdb, 0xfc, 0xf8, 0xed, 0xf0, 0x00, 0xff,
  0x1a, 0xe0, 0xf3, 0x13, 0xf8, 0xf9, 0xea, 0x44, 0x01, 0x36, 0xf2, 0xf2,
  0xf5, 0x6b, 0x0f, 0x00, 0x11, 0xff, 0xf4, 0x7f, 0xfa, 0xc7, 0xf4, 0xd8,
  0xfe, 0x0a, 0x27, 0xf4, 0x1a, 0x3e, 0xd0, 0xb8, 0xc7, 0xe8, 0x08, 0x00,
  0x02, 0x21, 0xed, 0xbe, 0xb4, 0xc1, 0xaf, 0xbf, 0x11, 0xfd, 0x1e, 0xf2,
  0xbf, 0xde, 0xad, 0xcb, 0xd1, 0x19, 0x1f, 0x18, 0xcb, 0xf3, 0x0b, 0x8d,
  0x07, 0x03, 0x8f, 0x2e, 0x1b, 0xeb, 0x64, 0xe2, 0xf9, 0x95, 0xf2, 0xac,
  0x8e, 0xf4, 0x25, 0xf7, 0x97, 0x26, 0xf9, 0x81, 0x0c, 0x55, 0xdf, 0xe6,
  0x02, 0xe7, 0x3d, 0xfa, 0x09, 0x89, 0xf4, 0x4b, 0xcc, 0xe4, 0x21, 0xe7,
  0x06, 0xf8, 0xf5, 0x3f, 0x60, 0xc7, 0xf4, 0x81, 0x04, 0xf0, 0x46, 0xf4,
  0x23, 0x22, 0xf4, 0x35, 0x28, 0x40, 0xef, 0xf2, 0x1b, 0xb0, 0x7a, 0xd8,
  0xed, 0x48, 0xed, 0x33, 0x12, 0xd6, 0x74, 0xca, 0xec, 0xa4, 0x1e, 0xc5,
  0xfe, 0xca, 0x04, 0x1b, 0xea, 0x07, 0xd6, 0x00, 0x99, 0x4a, 0xef, 0xd6,
  0xea, 0x7f, 0x24, 0x1e, 0xc3, 0x05, 0xd0, 0x0a, 0xd1, 0xef, 0x3e, 0x43,
  0x37, 0xd5, 0xa8, 0x20, 0xb7, 0xe8, 0xea, 0xf7, 0xfe, 0xab, 0x1d, 0xd7,
  0xbd, 0x30, 0xcf, 0x0e, 0x03, 0x01, 0xff, 0xff, 0xdd, 0xf8, 0x30, 0xcc,
  0x18, 0xff, 0x0e, 0x18, 0x14, 0xf6, 0x03, 0x0c, 0x2e, 0x03, 0x01, 0x52,
  0x28, 0x04, 0x33, 0xf2, 0x7f, 0xf2, 0xd8, 0xf4, 0xa5, 0x54, 0x10, 0x02,
  0xf2, 0xfe, 0xd5, 0xe1, 0x33, 0xdb, 0x27, 0x53, 0xf3, 0x03, 0x25, 0xf3,
  0xf1, 0x0f, 0xee, 0x17, 0x0f, 0x15, 0xec, 0xd7, 0x1c, 0xf3, 0xfd, 0xe3,
  0xf6, 0xdd, 0x37, 0xf8, 0xeb, 0x5f, 0x07, 0xf3, 0x48, 0x7f, 0x0a, 0x02,
  0x11, 0x22, 0xf2, 0x05, 0x07, 0xf6, 0xea, 0x2d, 0xd4, 0xed, 0xfc, 0xed,
  0x2e, 0x96, 0xb1, 0xe8, 0xb5, 0xf7, 0xdc, 0x0a, 0xe6, 0x47, 0x2a, 0xa6,
  0xd0, 0x48, 0x9e, 0xe9, 0x50, 0xf0, 0x0f, 0x1e, 0xd6, 0x1a, 0x04, 0x05,
  0x0c, 0xdf, 0x7f, 0xee, 0x11, 0xcd, 0xde, 0xb0, 0xd6, 0x0d, 0xfe, 0xfc,
  0x2d, 0xfd, 0x37, 0x1a, 0xd9, 0x0f, 0x36, 0xfc, 0x2c, 0xe1, 0xe8, 0xd6,
  0xfe, 0xe8, 0xfc, 0xef, 0x15, 0xf8, 0x25, 0xf4, 0xe6, 0xcf, 0xf5, 0x7f,
  0xef, 0xfe, 0x3c, 0x13, 0xcc, 0xe4, 0xef, 0xc8, 0xfc, 0xd6, 0xee, 0x01,
  0x28, 0xf6, 0x36, 0xcd, 0x0b, 0xda, 0x06, 0xf6, 0xdc, 0xf5, 0xd7, 0x36,
  0xf4, 0xf2, 0x02, 0xf3, 0xb7, 0x04, 0xd6, 0xa1, 0xc1, 0xef, 0x09, 0x38,
  0xe4, 0xec, 0xc4, 0x37, 0x25, 0xdb, 0xf1, 0x11, 0x22, 0x09, 0xd1, 0xdf,
  0xff, 0x15, 0x7f, 0xbf, 0xf2, 0xe9, 0x07, 0x4e, 0xe7, 0xd5, 0xe4, 0x58,
  0x10, 0xf1, 0xe6, 0xef, 0xf5, 0x5f, 0xe9, 0x22, 0xda, 0xc1, 0x00, 0xec,
  0xea, 0x12, 0xec, 0xd0, 0xee, 0x15, 0x16, 0xd0, 0xe5, 0xfa, 0xe8, 0x02,
  0xcf, 0x7f, 0x06, 0x20, 0xff, 0xc3, 0x0a, 0x09, 0xfe, 0x00, 0xf1, 0xee,
  0x04, 0x1c, 0x1d, 0xee, 0xdd, 0xf4, 0x15, 0x48, 0xcb, 0xec, 0xf3, 0xed,
  0xc6, 0xf2, 0xe6, 0xfa, 0xf0, 0xfd, 0xfd, 0xe9, 0xf6, 0xf9, 0xe7, 0xc5,
  0xdb, 0x0e, 0x04, 0xeb, 0x11, 0xe3, 0xdd, 0xf6, 0xfc, 0xf2, 0xea, 0xf9,
  0x04, 0x7f, 0x15, 0xf1, 0xe6, 0xf2, 0xef, 0xff, 0x60, 0xea, 0xff, 0xff,
  0x64, 0xea, 0xff, 0xff, 0x72, 0xfe, 0xff, 0xff, 0x04, 0x00, 0x00, 0x00,
  0x28, 0x00, 0x00, 0x00, 0x6e, 0xff, 0xff, 0xff, 0x47, 0xff, 0xff, 0xff,
  0x17, 0xff, 0xff, 0xff, 0x21, 0x00, 0x00, 0x00, 0x3a, 0xff, 0xff, 0xff,
  0x27, 0xff, 0xff, 0xff, 0x5f, 0xff, 0xff, 0xff, 0xe5, 0xfe, 0xff, 0xff,
  0x20, 0xff, 0xff, 0xff, 0x09, 0xff, 0xff, 0xff, 0xa6, 0xfe, 0xff, 0xff,
  0x04, 0x00, 0x00, 0x00, 0x96, 0x00, 0x00, 0x00, 0xcf, 0xd0, 0x21, 0x22,
  0xcc, 0x82, 0xfb, 0x14, 0x81, 0x0d, 0x3b, 0x5b, 0x00, 0xd7, 0x2f, 0xde,
  0x09, 0xb0, 0x38, 0x06, 0x7f, 0xaa, 0xf3, 0xac, 0x39, 0x04, 0x67, 0xf7,
  0xf2, 0xc6, 0x3d, 0xfc, 0x81, 0x16, 0x2f, 0x9f, 0xfe, 0xf4, 0x3b, 0xe9,
  0x04, 0x26, 0x84, 0xd9, 0x72, 0x30, 0x81, 0xc7, 0xe7, 0x38, 0x0a, 0x2a,
  0xe6, 0xe2, 0x1c, 0xc2, 0xb1, 0xfb, 0x42, 0x1b, 0xe6, 0xea, 0x6f, 0xea,
  0xe4, 0x4a, 0xec, 0xfc, 0xf9, 0xf6, 0x09, 0x81, 0x04, 0x1a, 0xc0, 0x6c,
  0xf5, 0x15, 0x03, 0xf3, 0x12, 0x81, 0x17, 0xce, 0x01, 0xf4, 0xe5, 0x1d,
  0xfc, 0x0b, 0x14, 0x07, 0x07, 0xe9, 0xb2, 0x81, 0xf4, 0x3f, 0x6c, 0x08,
  0xfd, 0x06, 0x01, 0xf8, 0x00, 0x21, 0x15, 0x8b, 0x38, 0xda, 0xea, 0xb7,
  0xdc, 0x81, 0xdc, 0xc0, 0x36, 0xfc, 0xed, 0x0f, 0x08, 0x40, 0x5d, 0x0f,
  0xe3, 0x81, 0xc3, 0x12, 0x52, 0x64, 0x04, 0xf4, 0xba, 0xc2, 0xd0, 0xe3,
  0xeb, 0x37, 0xee, 0x07, 0xc6, 0xfb, 0x14, 0x81, 0xe8, 0xff, 0x55, 0xd2,
  0xe3, 0x57, 0x00, 0x00, 0x4a, 0xff, 0xff, 0xff, 0x04, 0x00, 0x00, 0x00,
  0x08, 0x00, 0x00, 0x00, 0xff, 0xff, 0xff, 0xff, 0x50, 0x00, 0x00, 0x00,
  0x54, 0xeb, 0xff, 0xff, 0x58, 0xeb, 0xff, 0xff, 0x0f, 0x00, 0x00, 0x00,
  0x4d, 0x4c, 0x49, 0x52, 0x20, 0x43, 0x6f, 0x6e, 0x76, 0x65, 0x72, 0x74,
  0x65, 0x64, 0x2e, 0x00, 0x01, 0x00, 0x00, 0x00, 0x14, 0x00, 0x00, 0x00,
  0x00, 0x00, 0x0e, 0x00, 0x18, 0x00, 0x14, 0x00, 0x10, 0x00, 0x0c, 0x00,
  0x08, 0x00, 0x04, 0x00, 0x0e, 0x00, 0x00, 0x00, 0x14, 0x00, 0x00, 0x00,
  0x1c, 0x00, 0x00, 0x00, 0xf8, 0x02, 0x00, 0x00, 0xfc, 0x02, 0x00, 0x00,
  0x00, 0x03, 0x00, 0x00, 0x04, 0x00, 0x00, 0x00, 0x6d, 0x61, 0x69, 0x6e,
  0x00, 0x00, 0x00, 0x00, 0x0b, 0x00, 0x00, 0x00, 0x94, 0x02, 0x00, 0x00,
  0x34, 0x02, 0x00, 0x00, 0xe4, 0x01, 0x00, 0x00, 0xa4, 0x01, 0x00, 0x00,
  0x7c, 0x01, 0x00, 0x00, 0x2c, 0x01, 0x00, 0x00, 0xf0, 0x00, 0x00, 0x00,
  0xb4, 0x00, 0x00, 0x00, 0x78, 0x00, 0x00, 0x00, 0x40, 0x00, 0x00, 0x00,
  0x04, 0x00, 0x00, 0x00, 0x02, 0xfe, 0xff, 0xff, 0x1c, 0x00, 0x00, 0x00,
  0x00, 0x00, 0x00, 0x09, 0x1c, 0x00, 0x00, 0x00, 0x20, 0x00, 0x00, 0x00,
  0x04, 0x00, 0x00, 0x00, 0x00, 0x00, 0x06, 0x00, 0x08, 0x00, 0x04, 0x00,
  0x06, 0x00, 0x00, 0x00, 0x00, 0x00, 0x80, 0x3f, 0x01, 0x00, 0x00, 0x00,
  0x1a, 0x00, 0x00, 0x00, 0x01, 0x00, 0x00, 0x00, 0x19, 0x00, 0x00, 0x00,
  0x3a, 0xfe, 0xff, 0xff, 0x14, 0x00, 0x00, 0x00, 0x00, 0x00, 0x00, 0x08,
  0x10, 0x00, 0x00, 0x00, 0x14, 0x00, 0x00, 0x00, 0x03, 0x00, 0x00, 0x00,
  0x2c, 0xec, 0xff, 0xff, 0x01, 0x00, 0x00, 0x00, 0x19, 0x00, 0x00, 0x00,
  0x03, 0x00, 0x00, 0x00, 0x16, 0x00, 0x00, 0x00, 0x17, 0x00, 0x00, 0x00,
  0x18, 0x00, 0x00, 0x00, 0x6e, 0xfe, 0xff, 0xff, 0x14, 0x00, 0x00, 0x00,
  0x00, 0x00, 0x00, 0x08, 0x14, 0x00, 0x00, 0x00, 0x18, 0x00, 0x00, 0x00,
  0x03, 0x00, 0x00, 0x00, 0x56, 0xff, 0xff, 0xff, 0x00, 0x00, 0x00, 0x01,
  0x01, 0x00, 0x00, 0x00, 0x16, 0x00, 0x00, 0x00, 0x03, 0x00, 0x00, 0x00,
  0x13, 0x00, 0x00, 0x00, 0x14, 0x00, 0x00, 0x00, 0x15, 0x00, 0x00, 0x00,
  0xa6, 0xfe, 0xff, 0xff, 0x14, 0x00, 0x00, 0x00, 0x00, 0x00, 0x00, 0x08,
  0x14, 0x00, 0x00, 0x00, 0x18, 0x00, 0x00, 0x00, 0x03, 0x00, 0x00, 0x00,
  0x8e, 0xff, 0xff, 0xff, 0x00, 0x00, 0x00, 0x01, 0x01, 0x00, 0x00, 0x00,
  0x13, 0x00, 0x00, 0x00, 0x03, 0x00, 0x00, 0x00, 0x10, 0x00, 0x00, 0x00,
  0x11, 0x00, 0x00, 0x00, 0x12, 0x00, 0x00, 0x00, 0xde, 0xfe, 0xff, 0xff,
  0x14, 0x00, 0x00, 0x00, 0x00, 0x00, 0x00, 0x08, 0x14, 0x00, 0x00, 0x00,
  0x18, 0x00, 0x00, 0x00, 0x03, 0x00, 0x00, 0x00, 0xc6, 0xff, 0xff, 0xff,
  0x00, 0x00, 0x00, 0x01, 0x01, 0x00, 0x00, 0x00, 0x10, 0x00, 0x00, 0x00,
  0x03, 0x00, 0x00, 0x00, 0x0d, 0x00, 0x00, 0x00, 0x0e, 0x00, 0x00, 0x00,
  0x0f, 0x00, 0x00, 0x00, 0x16, 0xff, 0xff, 0xff, 0x1c, 0x00, 0x00, 0x00,
  0x00, 0x00, 0x00, 0x08, 0x1c, 0x00, 0x00, 0x00, 0x20, 0x00, 0x00, 0x00,
  0x03, 0x00, 0x00, 0x00, 0x00, 0x00, 0x06, 0x00, 0x08, 0x00, 0x07, 0x00,
  0x06, 0x00, 0x00, 0x00, 0x00, 0x00, 0x00, 0x01, 0x01, 0x00, 0x00, 0x00,
  0x0d, 0x00, 0x00, 0x00, 0x03, 0x00, 0x00, 0x00, 0x0a, 0x00, 0x00, 0x00,
  0x0b, 0x00, 0x00, 0x00, 0x0c, 0x00, 0x00, 0x00, 0x00, 0x00, 0x0a, 0x00,
  0x10, 0x00, 0x0c, 0x00, 0x08, 0x00, 0x04, 0x00, 0x0a, 0x00, 0x00, 0x00,
  0x0c, 0x00, 0x00, 0x00, 0x10, 0x00, 0x00, 0x00, 0x02, 0x00, 0x00, 0x00,
  0x01, 0x00, 0x00, 0x00, 0x0a, 0x00, 0x00, 0x00, 0x02, 0x00, 0x00, 0x00,
  0x09, 0x00, 0x00, 0x00, 0x01, 0x00, 0x00, 0x00, 0x86, 0xff, 0xff, 0xff,
  0x14, 0x00, 0x00, 0x00, 0x00, 0x00, 0x00, 0x05, 0x20, 0x00, 0x00, 0x00,
  0x24, 0x00, 0x00, 0x00, 0x01, 0x00, 0x00, 0x00, 0x76, 0xff, 0xff, 0xff,
  0x03, 0x00, 0x00, 0x00, 0x01, 0x00, 0x00, 0x00, 0x03, 0x00, 0x00, 0x00,
  0x01, 0x00, 0x00, 0x00, 0x01, 0x00, 0x00, 0x00, 0x09, 0x00, 0x00, 0x00,
  0x01, 0x00, 0x00, 0x00, 0x08, 0x00, 0x00, 0x00, 0x66, 0xff, 0xff, 0xff,
  0x10, 0x00, 0x00, 0x00, 0x00, 0x00, 0x00, 0x01, 0x18, 0x00, 0x00, 0x00,
  0x1c, 0x00, 0x00, 0x00, 0x58, 0xff, 0xff, 0xff, 0x00, 0x00, 0x00, 0x01,
  0x01, 0x00, 0x00, 0x00, 0x01, 0x00, 0x00, 0x00, 0x01, 0x00, 0x00, 0x00,
  0x08, 0x00, 0x00, 0x00, 0x03, 0x00, 0x00, 0x00, 0x05, 0x00, 0x00, 0x00,
  0x06, 0x00, 0x00, 0x00, 0x07, 0x00, 0x00, 0x00, 0x00, 0x00, 0x0e, 0x00,
  0x1a, 0x00, 0x14, 0x00, 0x10, 0x00, 0x0c, 0x00, 0x0b, 0x00, 0x04, 0x00,
  0x0e, 0x00, 0x00, 0x00, 0x24, 0x00, 0x00, 0x00, 0x00, 0x00, 0x00, 0x05,
  0x30, 0x00, 0x00, 0x00, 0x34, 0x00, 0x00, 0x00, 0x01, 0x00, 0x00, 0x00,
  0x00, 0x00, 0x0e, 0x00, 0x14, 0x00, 0x00, 0x00, 0x10, 0x00, 0x0c, 0x00,
  0x08, 0x00, 0x04, 0x00, 0x0e, 0x00, 0x00, 0x00, 0x03, 0x00, 0x00, 0x00,
  0x03, 0x00, 0x00, 0x00, 0x03, 0x00, 0x00, 0x00, 0x03, 0x00, 0x00, 0x00,
  0x01, 0x00, 0x00, 0x00, 0x05, 0x00, 0x00, 0x00, 0x01, 0x00, 0x00, 0x00,
  0x04, 0x00, 0x00, 0x00, 0x00, 0x00, 0x0e, 0x00, 0x14, 0x00, 0x00, 0x00,
  0x10, 0x00, 0x0c, 0x00, 0x0b, 0x00, 0x04, 0x00, 0x0e, 0x00, 0x00, 0x00,
  0x1c, 0x00, 0x00, 0x00, 0x00, 0x00, 0x00, 0x01, 0x24, 0x00, 0x00, 0x00,
  0x28, 0x00, 0x00, 0x00, 0x0c, 0x00, 0x10, 0x00, 0x00, 0x00, 0x0c, 0x00,
  0x08, 0x00, 0x07, 0x00, 0x0c, 0x00, 0x00, 0x00, 0x00, 0x00, 0x00, 0x01,
  0x01, 0x00, 0x00, 0x00, 0x01, 0x00, 0x00, 0x00, 0x01, 0x00, 0x00, 0x00,
  0x04, 0x00, 0x00, 0x00, 0x03, 0x00, 0x00, 0x00, 0x00, 0x00, 0x00, 0x00,
  0x02, 0x00, 0x00, 0x00, 0x03, 0x00, 0x00, 0x00, 0x01, 0x00, 0x00, 0x00,
  0x1a, 0x00, 0x00, 0x00, 0x01, 0x00, 0x00, 0x00, 0x00, 0x00, 0x00, 0x00,
  0x1b, 0x00, 0x00, 0x00, 0xa8, 0x11, 0x00, 0x00, 0x44, 0x11, 0x00, 0x00,
  0x5c, 0x10, 0x00, 0x00, 0x48, 0x0f, 0x00, 0x00, 0x74, 0x0e, 0x00, 0x00,
  0xf0, 0x0d, 0x00, 0x00, 0x94, 0x0c, 0x00, 0x00, 0x08, 0x0b, 0x00, 0x00,
  0x34, 0x0a, 0x00, 0x00, 0xb0, 0x09, 0x00, 0x00, 0x3c, 0x09, 0x00, 0x00,
  0x88, 0x08, 0x00, 0x00, 0x2c, 0x08, 0x00, 0x00, 0x78, 0x07, 0x00, 0x00,
  0xc4, 0x06, 0x00, 0x00, 0x68, 0x06, 0x00, 0x00, 0xb4, 0x05, 0x00, 0x00,
  0x00, 0x05, 0x00, 0x00, 0xa4, 0x04, 0x00, 0x00, 0xf0, 0x03, 0x00, 0x00,
  0x3c, 0x03, 0x00, 0x00, 0xe0, 0x02, 0x00, 0x00, 0x2c, 0x02, 0x00, 0x00,
  0x70, 0x01, 0x00, 0x00, 0x0c, 0x01, 0x00, 0x00, 0x70, 0x00, 0x00, 0x00,
  0x04, 0x00, 0x00, 0x00, 0xd2, 0xee, 0xff, 0xff, 0x14, 0x00, 0x00, 0x00,
  0x34, 0x00, 0x00, 0x00, 0x1b, 0x00, 0x00, 0x00, 0x00, 0x00, 0x00, 0x09,
  0x48, 0x00, 0x00, 0x00, 0xc4, 0xee, 0xff, 0xff, 0x08, 0x00, 0x00, 0x00,
  0x14, 0x00, 0x00, 0x00, 0x01, 0x00, 0x00, 0x00, 0x80, 0xff, 0xff, 0xff,
  0xff, 0xff, 0xff, 0xff, 0x00, 0x00, 0x00, 0x00, 0x01, 0x00, 0x00, 0x00,
  0x00, 0x00, 0x80, 0x3b, 0x19, 0x00, 0x00, 0x00, 0x53, 0x74, 0x61, 0x74,
  0x65, 0x66, 0x75, 0x6c, 0x50, 0x61, 0x72, 0x74, 0x69, 0x74, 0x69, 0x6f,
  0x6e, 0x65, 0x64, 0x43, 0x61, 0x6c, 0x6c, 0x3a, 0x30, 0x00, 0x00, 0x00,
  0x02, 0x00, 0x00, 0x00, 0x01, 0x00, 0x00, 0x00, 0x04, 0x00, 0x00, 0x00,
  0x3a, 0xef, 0xff, 0xff, 0x14, 0x00, 0x00, 0x00, 0x34, 0x00, 0x00, 0x00,
  0x1a, 0x00, 0x00, 0x00, 0x00, 0x00, 0x00, 0x09, 0x78, 0x00, 0x00, 0x00,
  0x2c, 0xef, 0xff, 0xff, 0x08, 0x00, 0x00, 0x00, 0x14, 0x00, 0x00, 0x00,
  0x01, 0x00, 0x00, 0x00, 0x5b, 0x00, 0x00, 0x00, 0x00, 0x00, 0x00, 0x00,
  0x00, 0x00, 0x00, 0x00, 0x01, 0x00, 0x00, 0x00, 0xaf, 0x1f, 0x96, 0x3e,
  0x4a, 0x00, 0x00, 0x00, 0x73, 0x65, 0x71, 0x75, 0x65, 0x6e, 0x74, 0x69,
  0x61, 0x6c, 0x5f, 0x33, 0x2f, 0x71, 0x75, 0x61, 0x6e, 0x74, 0x5f, 0x43,
  0x6c, 0x61, 0x73, 0x73, 0x69, 0x66, 0x69, 0x65, 0x72, 0x2f, 0x4d, 0x61,
  0x74, 0x4d, 0x75, 0x6c, 0x3b, 0x73, 0x65, 0x71, 0x75, 0x65, 0x6e, 0x74,
  0x69, 0x61, 0x6c, 0x5f, 0x33, 0x2f, 0x71, 0x75, 0x61, 0x6e, 0x74, 0x5f,
  0x43, 0x6c, 0x61, 0x73, 0x73, 0x69, 0x66, 0x69, 0x65, 0x72, 0x2f, 0x42,
  0x69, 0x61, 0x73, 0x41, 0x64, 0x64, 0x00, 0x00, 0x02, 0x00, 0x00, 0x00,
  0x01, 0x00, 0x00, 0x00, 0x04, 0x00, 0x00, 0x00, 0xd2, 0xef, 0xff, 0xff,
  0x14, 0x00, 0x00, 0x00, 0x34, 0x00, 0x00, 0x00, 0x19, 0x00, 0x00, 0x00,
  0x00, 0x00, 0x00, 0x02, 0x44, 0x00, 0x00, 0x00, 0xc4, 0xef, 0xff, 0xff,
  0x08, 0x00, 0x00, 0x00, 0x14, 0x00, 0x00, 0x00, 0x01, 0x00, 0x00, 0x00,
  0x00, 0x00, 0x00, 0x00, 0x00, 0x00, 0x00, 0x00, 0x00, 0x00, 0x00, 0x00,
  0x01, 0x00, 0x00, 0x00, 0x37, 0x22, 0x47, 0x3b, 0x15, 0x00, 0x00, 0x00,
  0x71, 0x75, 0x61, 0x6e, 0x74, 0x5f, 0x43, 0x6c, 0x61, 0x73, 0x73, 0x69,
  0x66, 0x69, 0x65, 0x72, 0x2f, 0x62, 0x69, 0x61, 0x73, 0x00, 0x00, 0x00,
  0x01, 0x00, 0x00, 0x00, 0x04, 0x00, 0x00, 0x00, 0x32, 0xf0, 0xff, 0xff,
  0x14, 0x00, 0x00, 0x00, 0x34, 0x00, 0x00, 0x00, 0x18, 0x00, 0x00, 0x00,
  0x00, 0x00, 0x00, 0x09, 0x98, 0x00, 0x00, 0x00, 0x24, 0xf0, 0xff, 0xff,
  0x08, 0x00, 0x00, 0x00, 0x14, 0x00, 0x00, 0x00, 0x01, 0x00, 0x00, 0x00,
  0x00, 0x00, 0x00, 0x00, 0x00, 0x00, 0x00, 0x00, 0x00, 0x00, 0x00, 0x00,
  0x01, 0x00, 0x00, 0x00, 0x7a, 0x36, 0x80, 0x3c, 0x69, 0x00, 0x00, 0x00,
  0x73, 0x65, 0x71, 0x75, 0x65, 0x6e, 0x74, 0x69, 0x61, 0x6c, 0x5f, 0x33,
  0x2f, 0x71, 0x75, 0x61, 0x6e, 0x74, 0x5f, 0x43, 0x6c, 0x61, 0x73, 0x73,
  0x69, 0x66, 0x69, 0x65, 0x72, 0x2f, 0x4d, 0x61, 0x74, 0x4d, 0x75, 0x6c,
  0x3b, 0x73, 0x65, 0x71, 0x75, 0x65, 0x6e, 0x74, 0x69, 0x61, 0x6c, 0x5f,
  0x33, 0x2f, 0x71, 0x75, 0x61, 0x6e, 0x74, 0x5f, 0x43, 0x6c, 0x61, 0x73,
  0x73, 0x69, 0x66, 0x69, 0x65, 0x72, 0x2f, 0x4c, 0x61, 0x73, 0x74, 0x56,
  0x61, 0x6c, 0x75, 0x65, 0x51, 0x75, 0x61, 0x6e, 0x74, 0x2f, 0x46, 0x61,
  0x6b, 0x65, 0x51, 0x75, 0x61, 0x6e, 0x74, 0x57, 0x69, 0x74, 0x68, 0x4d,
  0x69, 0x6e, 0x4d, 0x61, 0x78, 0x56, 0x61, 0x72, 0x73, 0x00, 0x00, 0x00,
  0x02, 0x00, 0x00, 0x00, 0x04, 0x00, 0x00, 0x00, 0x10, 0x00, 0x00, 0x00,
  0xea, 0xf0, 0xff, 0xff, 0x14, 0x00, 0x00, 0x00, 0x30, 0x00, 0x00, 0x00,
  0x17, 0x00, 0x00, 0x00, 0x00, 0x00, 0x00, 0x09, 0x90, 0x00, 0x00, 0x00,
  0xdc, 0xf0, 0xff, 0xff, 0x08, 0x00, 0x00, 0x00, 0x10, 0x00, 0x00, 0x00,
  0x01, 0x00, 0x00, 0x00, 0x80, 0xff, 0xff, 0xff, 0xff, 0xff, 0xff, 0xff,
  0x01, 0x00, 0x00, 0x00, 0x9a, 0xcd, 0x46, 0x3e, 0x67, 0x00, 0x00, 0x00,
  0x73, 0x65, 0x71, 0x75, 0x65, 0x6e, 0x74, 0x69, 0x61, 0x6c, 0x5f, 0x33,
  0x2f, 0x71, 0x75, 0x61, 0x6e, 0x74, 0x5f, 0x64, 0x65, 0x6e, 0x73, 0x65,
  0x5f, 0x31, 0x30, 0x2f, 0x4d, 0x61, 0x74, 0x4d, 0x75, 0x6c, 0x3b, 0x73,
  0x65, 0x71, 0x75, 0x65, 0x6e, 0x74, 0x69, 0x61, 0x6c, 0x5f, 0x33, 0x2f,
  0x71, 0x75, 0x61, 0x6e, 0x74, 0x5f, 0x64, 0x65, 0x6e, 0x73, 0x65, 0x5f,
  0x31, 0x30, 0x2f, 0x42, 0x69, 0x61, 0x73, 0x41, 0x64, 0x64, 0x3b, 0x73,
  0x65, 0x71, 0x75, 0x65, 0x6e, 0x74, 0x69, 0x61, 0x6c, 0x5f, 0x33, 0x2f,
  0x71, 0x75, 0x61, 0x6e, 0x74, 0x5f, 0x64, 0x65, 0x6e, 0x73, 0x65, 0x5f,
  0x31, 0x30, 0x2f, 0x52, 0x65, 0x6c, 0x75, 0x00, 0x02, 0x00, 0x00, 0x00,
  0x01, 0x00, 0x00, 0x00, 0x10, 0x00, 0x00, 0x00, 0x9a, 0xf1, 0xff, 0xff,
  0x14, 0x00, 0x00, 0x00, 0x30, 0x00, 0x00, 0x00, 0x16, 0x00, 0x00, 0x00,
  0x00, 0x00, 0x00, 0x02, 0x3c, 0x00, 0x00, 0x00, 0x8c, 0xf1, 0xff, 0xff,
  0x08, 0x00, 0x00, 0x00, 0x10, 0x00, 0x00, 0x00, 0x01, 0x00, 0x00, 0x00,
  0x00, 0x00, 0x00, 0x00, 0x00, 0x00, 0x00, 0x00, 0x01, 0x00, 0x00, 0x00,
  0x6b, 0xf2, 0xec, 0x3a, 0x13, 0x00, 0x00, 0x00, 0x71, 0x75, 0x61, 0x6e,
  0x74, 0x5f, 0x64, 0x65, 0x6e, 0x73, 0x65, 0x5f, 0x31, 0x30, 0x2f, 0x62,
  0x69, 0x61, 0x73, 0x00, 0x01, 0x00, 0x00, 0x00, 0x10, 0x00, 0x00, 0x00,
  0xf2, 0xf1, 0xff, 0xff, 0x14, 0x00, 0x00, 0x00, 0x30, 0x00, 0x00, 0x00,
  0x15, 0x00, 0x00, 0x00, 0x00, 0x00, 0x00, 0x09, 0x90, 0x00, 0x00, 0x00,
  0xe4, 0xf1, 0xff, 0xff, 0x08, 0x00, 0x00, 0x00, 0x10, 0x00, 0x00, 0x00,
  0x01, 0x00, 0x00, 0x00, 0x00, 0x00, 0x00, 0x00, 0x00, 0x00, 0x00, 0x00,
  0x01, 0x00, 0x00, 0x00, 0x3d, 0xe6, 0xc1, 0x3b, 0x65, 0x00, 0x00, 0x00,
  0x73, 0x65, 0x71, 0x75, 0x65, 0x6e, 0x74, 0x69, 0x61, 0x6c, 0x5f, 0x33,
  0x2f, 0x71, 0x75, 0x61, 0x6e, 0x74, 0x5f, 0x64, 0x65, 0x6e, 0x73, 0x65,
  0x5f, 0x31, 0x30, 0x2f, 0x4d, 0x61, 0x74, 0x4d, 0x75, 0x6c, 0x3b, 0x73,
  0x65, 0x71, 0x75, 0x65, 0x6e, 0x74, 0x69, 0x61, 0x6c, 0x5f, 0x33, 0x2f,
  0x71, 0x75, 0x61, 0x6e, 0x74, 0x5f, 0x64, 0x65, 0x6e, 0x73, 0x65, 0x5f,
  0x31, 0x30, 0x2f, 0x4c, 0x61, 0x73, 0x74, 0x56, 0x61, 0x6c, 0x75, 0x65,
  0x51, 0x75, 0x61, 0x6e, 0x74, 0x2f, 0x46, 0x61, 0x6b, 0x65, 0x51, 0x75,
  0x61, 0x6e, 0x74, 0x57, 0x69, 0x74, 0x68, 0x4d, 0x69, 0x6e, 0x4d, 0x61,
  0x78, 0x56, 0x61, 0x72, 0x73, 0x00, 0x00, 0x00, 0x02, 0x00, 0x00, 0x00,
  0x10, 0x00, 0x00, 0x00, 0x10, 0x00, 0x00, 0x00, 0xa2, 0xf2, 0xff, 0xff,
  0x14, 0x00, 0x00, 0x00, 0x30, 0x00, 0x00, 0x00, 0x14, 0x00, 0x00, 0x00,
  0x00, 0x00, 0x00, 0x09, 0x90, 0x00, 0x00, 0x00, 0x94, 0xf2, 0xff, 0xff,
  0x08, 0x00, 0x00, 0x00, 0x10, 0x00, 0x00, 0x00, 0x01, 0x00, 0x00, 0x00,
  0x80, 0xff, 0xff, 0xff, 0xff, 0xff, 0xff, 0xff, 0x01, 0x00, 0x00, 0x00,
  0xd2, 0x6a, 0x9c, 0x3e, 0x64, 0x00, 0x00, 0x00, 0x73, 0x65, 0x71, 0x75,
  0x65, 0x6e, 0x74, 0x69, 0x61, 0x6c, 0x5f, 0x33, 0x2f, 0x71, 0x75, 0x61,
  0x6e, 0x74, 0x5f, 0x64, 0x65, 0x6e, 0x73, 0x65, 0x5f, 0x39, 0x2f, 0x4d,
  0x61, 0x74, 0x4d, 0x75, 0x6c, 0x3b, 0x73, 0x65, 0x71, 0x75, 0x65, 0x6e,
  0x74, 0x69, 0x61, 0x6c, 0x5f, 0x33, 0x2f, 0x71, 0x75, 0x61, 0x6e, 0x74,
  0x5f, 0x64, 0x65, 0x6e, 0x73, 0x65, 0x5f, 0x39, 0x2f, 0x42, 0x69, 0x61,
  0x73, 0x41, 0x64, 0x64, 0x3b, 0x73, 0x65, 0x71, 0x75, 0x65, 0x6e, 0x74,
  0x69, 0x61, 0x6c, 0x5f, 0x33, 0x2f, 0x71, 0x75, 0x61, 0x6e, 0x74, 0x5f,
  0x64, 0x65, 0x6e, 0x73, 0x65, 0x5f, 0x39, 0x2f, 0x52, 0x65, 0x6c, 0x75,
  0x00, 0x00, 0x00, 0x00, 0x02, 0x00, 0x00, 0x00, 0x01, 0x00, 0x00, 0x00,
  0x10, 0x00, 0x00, 0x00, 0x52, 0xf3, 0xff, 0xff, 0x14, 0x00, 0x00, 0x00,
  0x30, 0x00, 0x00, 0x00, 0x13, 0x00, 0x00, 0x00, 0x00, 0x00, 0x00, 0x02,
  0x3c, 0x00, 0x00, 0x00, 0x44, 0xf3, 0xff, 0xff, 0x08, 0x00, 0x00, 0x00,
  0x10, 0x00, 0x00, 0x00, 0x01, 0x00, 0x00, 0x00, 0x00, 0x00, 0x00, 0x00,
  0x00, 0x00, 0x00, 0x00, 0x01, 0x00, 0x00, 0x00, 0xbc, 0x35, 0x38, 0x3b,
  0x12, 0x00, 0x00, 0x00, 0x71, 0x75, 0x61, 0x6e, 0x74, 0x5f, 0x64, 0x65,
  0x6e, 0x73, 0x65, 0x5f, 0x39, 0x2f, 0x62, 0x69, 0x61, 0x73, 0x00, 0x00,
  0x01, 0x00, 0x00, 0x00, 0x10, 0x00, 0x00, 0x00, 0xaa, 0xf3, 0xff, 0xff,
  0x14, 0x00, 0x00, 0x00, 0x34, 0x00, 0x00, 0x00, 0x12, 0x00, 0x00, 0x00,
  0x00, 0x00, 0x00, 0x09, 0x90, 0x00, 0x00, 0x00, 0x9c, 0xf3, 0xff, 0xff,
  0x08, 0x00, 0x00, 0x00, 0x14, 0x00, 0x00, 0x00, 0x01, 0x00, 0x00, 0x00,
  0x00, 0x00, 0x00, 0x00, 0x00, 0x00, 0x00, 0x00, 0x00, 0x00, 0x00, 0x00,
  0x01, 0x00, 0x00, 0x00, 0x63, 0xc5, 0x00, 0x3c, 0x63, 0x00, 0x00, 0x00,
  0x73, 0x65, 0x71, 0x75, 0x65, 0x6e, 0x74, 0x69, 0x61, 0x6c, 0x5f, 0x33,
  0x2f, 0x71, 0x75, 0x61, 0x6e, 0x74, 0x5f, 0x64, 0x65, 0x6e, 0x73, 0x65,
  0x5f, 0x39, 0x2f, 0x4d, 0x61, 0x74, 0x4d, 0x75, 0x6c, 0x3b, 0x73, 0x65,
  0x71, 0x75, 0x65, 0x6e, 0x74, 0x69, 0x61, 0x6c, 0x5f, 0x33, 0x2f, 0x71,
  0x75, 0x61, 0x6e, 0x74, 0x5f, 0x64, 0x65, 0x6e, 0x73, 0x65, 0x5f, 0x39,
  0x2f, 0x4c, 0x61, 0x73, 0x74, 0x56, 0x61, 0x6c, 0x75, 0x65, 0x51, 0x75,
  0x61, 0x6e, 0x74, 0x2f, 0x46, 0x61, 0x6b, 0x65, 0x51, 0x75, 0x61, 0x6e,
  0x74, 0x57, 0x69, 0x74, 0x68, 0x4d, 0x69, 0x6e, 0x4d, 0x61, 0x78, 0x56,
  0x61, 0x72, 0x73, 0x00, 0x02, 0x00, 0x00, 0x00, 0x10, 0x00, 0x00, 0x00,
  0x20, 0x00, 0x00, 0x00, 0x5a, 0xf4, 0xff, 0xff, 0x14, 0x00, 0x00, 0x00,
  0x30, 0x00, 0x00, 0x00, 0x11, 0x00, 0x00, 0x00, 0x00, 0x00, 0x00, 0x09,
  0x90, 0x00, 0x00, 0x00, 0x4c, 0xf4, 0xff, 0xff, 0x08, 0x00, 0x00, 0x00,
  0x10, 0x00, 0x00, 0x00, 0x01, 0x00, 0x00, 0x00, 0x80, 0xff, 0xff, 0xff,
  0xff, 0xff, 0xff, 0xff, 0x01, 0x00, 0x00, 0x00, 0x5e, 0x1b, 0xb7, 0x3e,
  0x64, 0x00, 0x00, 0x00, 0x73, 0x65, 0x71, 0x75, 0x65, 0x6e, 0x74, 0x69,
  0x61, 0x6c, 0x5f, 0x33, 0x2f, 0x71, 0x75, 0x61, 0x6e, 0x74, 0x5f, 0x64,
  0x65, 0x6e, 0x73, 0x65, 0x5f, 0x38, 0x2f, 0x4d, 0x61, 0x74, 0x4d, 0x75,
  0x6c, 0x3b, 0x73, 0x65, 0x71, 0x75, 0x65, 0x6e, 0x74, 0x69, 0x61, 0x6c,
  0x5f, 0x33, 0x2f, 0x71, 0x75, 0x61, 0x6e, 0x74, 0x5f, 0x64, 0x65, 0x6e,
  0x73, 0x65, 0x5f, 0x38, 0x2f, 0x42, 0x69, 0x61, 0x73, 0x41, 0x64, 0x64,
  0x3b, 0x73, 0x65, 0x71, 0x75, 0x65, 0x6e, 0x74, 0x69, 0x61, 0x6c, 0x5f,
  0x33, 0x2f, 0x71, 0x75, 0x61, 0x6e, 0x74, 0x5f, 0x64, 0x65, 0x6e, 0x73,
  0x65, 0x5f, 0x38, 0x2f, 0x52, 0x65, 0x6c, 0x75, 0x00, 0x00, 0x00, 0x00,
  0x02, 0x00, 0x00, 0x00, 0x01, 0x00, 0x00, 0x00, 0x20, 0x00, 0x00, 0x00,
  0x0a, 0xf5, 0xff, 0xff, 0x14, 0x00, 0x00, 0x00, 0x30, 0x00, 0x00, 0x00,
  0x10, 0x00, 0x00, 0x00, 0x00, 0x00, 0x00, 0x02, 0x3c, 0x00, 0x00, 0x00,
  0xfc, 0xf4, 0xff, 0xff, 0x08, 0x00, 0x00, 0x00, 0x10, 0x00, 0x00, 0x00,
  0x01, 0x00, 0x00, 0x00, 0x00, 0x00, 0x00, 0x00, 0x00, 0x00, 0x00, 0x00,
  0x01, 0x00, 0x00, 0x00, 0xa7, 0x4c, 0x97, 0x3b, 0x12, 0x00, 0x00, 0x00,
  0x71, 0x75, 0x61, 0x6e, 0x74, 0x5f, 0x64, 0x65, 0x6e, 0x73, 0x65, 0x5f,
  0x38, 0x2f, 0x62, 0x69, 0x61, 0x73, 0x00, 0x00, 0x01, 0x00, 0x00, 0x00,
  0x20, 0x00, 0x00, 0x00, 0x62, 0xf5, 0xff, 0xff, 0x14, 0x00, 0x00, 0x00,
  0x34, 0x00, 0x00, 0x00, 0x0f, 0x00, 0x00, 0x00, 0x00, 0x00, 0x00, 0x09,
  0x90, 0x00, 0x00, 0x00, 0x54, 0xf5, 0xff, 0xff, 0x08, 0x00, 0x00, 0x00,
  0x14, 0x00, 0x00, 0x00, 0x01, 0x00, 0x00, 0x00, 0x00, 0x00, 0x00, 0x00,
  0x00, 0x00, 0x00, 0x00, 0x00, 0x00, 0x00, 0x00, 0x01, 0x00, 0x00, 0x00,
  0x7d, 0x06, 0x00, 0x3c, 0x63, 0x00, 0x00, 0x00, 0x73, 0x65, 0x71, 0x75,
  0x65, 0x6e, 0x74, 0x69, 0x61, 0x6c, 0x5f, 0x33, 0x2f, 0x71, 0x75, 0x61,
  0x6e, 0x74, 0x5f, 0x64, 0x65, 0x6e, 0x73, 0x65, 0x5f, 0x38, 0x2f, 0x4d,
  0x61, 0x74, 0x4d, 0x75, 0x6c, 0x3b, 0x73, 0x65, 0x71, 0x75, 0x65, 0x6e,
  0x74, 0x69, 0x61, 0x6c, 0x5f, 0x33, 0x2f, 0x71, 0x75, 0x61, 0x6e, 0x74,
  0x5f, 0x64, 0x65, 0x6e, 0x73, 0x65, 0x5f, 0x38, 0x2f, 0x4c, 0x61, 0x73,
  0x74, 0x56, 0x61, 0x6c, 0x75, 0x65, 0x51, 0x75, 0x61, 0x6e, 0x74, 0x2f,
  0x46, 0x61, 0x6b, 0x65, 0x51, 0x75, 0x61, 0x6e, 0x74, 0x57, 0x69, 0x74,
  0x68, 0x4d, 0x69, 0x6e, 0x4d, 0x61, 0x78, 0x56, 0x61, 0x72, 0x73, 0x00,
  0x02, 0x00, 0x00, 0x00, 0x20, 0x00, 0x00, 0x00, 0x20, 0x00, 0x00, 0x00,
  0x12, 0xf6, 0xff, 0xff, 0x14, 0x00, 0x00, 0x00, 0x30, 0x00, 0x00, 0x00,
  0x0e, 0x00, 0x00, 0x00, 0x00, 0x00, 0x00, 0x09, 0x90, 0x00, 0x00, 0x00,
  0x04, 0xf6, 0xff, 0xff, 0x08, 0x00, 0x00, 0x00, 0x10, 0x00, 0x00, 0x00,
  0x01, 0x00, 0x00, 0x00, 0x80, 0xff, 0xff, 0xff, 0xff, 0xff, 0xff, 0xff,
  0x01, 0x00, 0x00, 0x00, 0xfb, 0x44, 0x17, 0x3f, 0x64, 0x00, 0x00, 0x00,
  0x73, 0x65, 0x71, 0x75, 0x65, 0x6e, 0x74, 0x69, 0x61, 0x6c, 0x5f, 0x33,
  0x2f, 0x71, 0x75, 0x61, 0x6e, 0x74, 0x5f, 0x64, 0x65, 0x6e, 0x73, 0x65,
  0x5f, 0x37, 0x2f, 0x4d, 0x61, 0x74, 0x4d, 0x75, 0x6c, 0x3b, 0x73, 0x65,
  0x71, 0x75, 0x65, 0x6e, 0x74, 0x69, 0x61, 0x6c, 0x5f, 0x33, 0x2f, 0x71,
  0x75, 0x61, 0x6e, 0x74, 0x5f, 0x64, 0x65, 0x6e, 0x73, 0x65, 0x5f, 0x37,
  0x2f, 0x42, 0x69, 0x61, 0x73, 0x41, 0x64, 0x64, 0x3b, 0x73, 0x65, 0x71,
  0x75, 0x65, 0x6e, 0x74, 0x69, 0x61, 0x6c, 0x5f, 0x33, 0x2f, 0x71, 0x75,
  0x61, 0x6e, 0x74, 0x5f, 0x64, 0x65, 0x6e, 0x73, 0x65, 0x5f, 0x37, 0x2f,
  0x52, 0x65, 0x6c, 0x75, 0x00, 0x00, 0x00, 0x00, 0x02, 0x00, 0x00, 0x00,
  0x01, 0x00, 0x00, 0x00, 0x20, 0x00, 0x00, 0x00, 0xc2, 0xf6, 0xff, 0xff,
  0x14, 0x00, 0x00, 0x00, 0x30, 0x00, 0x00, 0x00, 0x0d, 0x00, 0x00, 0x00,
  0x00, 0x00, 0x00, 0x02, 0x3c, 0x00, 0x00, 0x00, 0xb4, 0xf6, 0xff, 0xff,
  0x08, 0x00, 0x00, 0x00, 0x10, 0x00, 0x00, 0x00, 0x01, 0x00, 0x00, 0x00,
  0x00, 0x00, 0x00, 0x00, 0x00, 0x00, 0x00, 0x00, 0x01, 0x00, 0x00, 0x00,
  0x62, 0xa9, 0x79, 0x3b, 0x12, 0x00, 0x00, 0x00, 0x71, 0x75, 0x61, 0x6e,
  0x74, 0x5f, 0x64, 0x65, 0x6e, 0x73, 0x65, 0x5f, 0x37, 0x2f, 0x62, 0x69,
  0x61, 0x73, 0x00, 0x00, 0x01, 0x00, 0x00, 0x00, 0x20, 0x00, 0x00, 0x00,
  0x1a, 0xf7, 0xff, 0xff, 0x14, 0x00, 0x00, 0x00, 0x34, 0x00, 0x00, 0x00,
  0x0c, 0x00, 0x00, 0x00, 0x00, 0x00, 0x00, 0x09, 0x90, 0x00, 0x00, 0x00,
  0x0c, 0xf7, 0xff, 0xff, 0x08, 0x00, 0x00, 0x00, 0x14, 0x00, 0x00, 0x00,
  0x01, 0x00, 0x00, 0x00, 0x00, 0x00, 0x00, 0x00, 0x00, 0x00, 0x00, 0x00,
  0x00, 0x00, 0x00, 0x00, 0x01, 0x00, 0x00, 0x00, 0x0b, 0x2b, 0x3d, 0x3c,
  0x63, 0x00, 0x00, 0x00, 0x73, 0x65, 0x71, 0x75, 0x65, 0x6e, 0x74, 0x69,
  0x61, 0x6c, 0x5f, 0x33, 0x2f, 0x71, 0x75, 0x61, 0x6e, 0x74, 0x5f, 0x64,
  0x65, 0x6e, 0x73, 0x65, 0x5f, 0x37, 0x2f, 0x4d, 0x61, 0x74, 0x4d, 0x75,
  0x6c, 0x3b, 0x73, 0x65, 0x71, 0x75, 0x65, 0x6e, 0x74, 0x69, 0x61, 0x6c,
  0x5f, 0x33, 0x2f, 0x71, 0x75, 0x61, 0x6e, 0x74, 0x5f, 0x64, 0x65, 0x6e,
  0x73, 0x65, 0x5f, 0x37, 0x2f, 0x4c, 0x61, 0x73, 0x74, 0x56, 0x61, 0x6c,
  0x75, 0x65, 0x51, 0x75, 0x61, 0x6e, 0x74, 0x2f, 0x46, 0x61, 0x6b, 0x65,
  0x51, 0x75, 0x61, 0x6e, 0x74, 0x57, 0x69, 0x74, 0x68, 0x4d, 0x69, 0x6e,
  0x4d, 0x61, 0x78, 0x56, 0x61, 0x72, 0x73, 0x00, 0x02, 0x00, 0x00, 0x00,
  0x20, 0x00, 0x00, 0x00, 0x50, 0x00, 0x00, 0x00, 0xca, 0xf7, 0xff, 0xff,
  0x14, 0x00, 0x00, 0x00, 0x30, 0x00, 0x00, 0x00, 0x0b, 0x00, 0x00, 0x00,
  0x00, 0x00, 0x00, 0x09, 0x50, 0x00, 0x00, 0x00, 0xbc, 0xf7, 0xff, 0xff,
  0x08, 0x00, 0x00, 0x00, 0x10, 0x00, 0x00, 0x00, 0x01, 0x00, 0x00, 0x00,
  0x80, 0xff, 0xff, 0xff, 0xff, 0xff, 0xff, 0xff, 0x01, 0x00, 0x00, 0x00,
  0xc8, 0xee, 0xa8, 0x3e, 0x24, 0x00, 0x00, 0x00, 0x73, 0x65, 0x71, 0x75,
  0x65, 0x6e, 0x74, 0x69, 0x61, 0x6c, 0x5f, 0x33, 0x2f, 0x71, 0x75, 0x61,
  0x6e, 0x74, 0x5f, 0x66, 0x6c, 0x61, 0x74, 0x74, 0x65, 0x6e, 0x5f, 0x33,
  0x2f, 0x52, 0x65, 0x73, 0x68, 0x61, 0x70, 0x65, 0x00, 0x00, 0x00, 0x00,
  0x02, 0x00, 0x00, 0x00, 0x01, 0x00, 0x00, 0x00, 0x50, 0x00, 0x00, 0x00,
  0x3a, 0xf8, 0xff, 0xff, 0x14, 0x00, 0x00, 0x00, 0x34, 0x00, 0x00, 0x00,
  0x0a, 0x00, 0x00, 0x00, 0x00, 0x00, 0x00, 0x09, 0x58, 0x00, 0x00, 0x00,
  0x2c, 0xf8, 0xff, 0xff, 0x08, 0x00, 0x00, 0x00, 0x14, 0x00, 0x00, 0x00,
  0x01, 0x00, 0x00, 0x00, 0x80, 0xff, 0xff, 0xff, 0xff, 0xff, 0xff, 0xff,
  0x00, 0x00, 0x00, 0x00, 0x01, 0x00, 0x00, 0x00, 0xc8, 0xee, 0xa8, 0x3e,
  0x2a, 0x00, 0x00, 0x00, 0x73, 0x65, 0x71, 0x75, 0x65, 0x6e, 0x74, 0x69,
  0x61, 0x6c, 0x5f, 0x33, 0x2f, 0x71, 0x75, 0x61, 0x6e, 0x74, 0x5f, 0x6d,
  0x61, 0x78, 0x5f, 0x70, 0x6f, 0x6f, 0x6c, 0x69, 0x6e, 0x67, 0x32, 0x64,
  0x5f, 0x37, 0x2f, 0x4d, 0x61, 0x78, 0x50, 0x6f, 0x6f, 0x6c, 0x00, 0x00,
  0x04, 0x00, 0x00, 0x00, 0x01, 0x00, 0x00, 0x00, 0x04, 0x00, 0x00, 0x00,
  0x01, 0x00, 0x00, 0x00, 0x14, 0x00, 0x00, 0x00, 0xba, 0xf8, 0xff, 0xff,
  0x14, 0x00, 0x00, 0x00, 0x34, 0x00, 0x00, 0x00, 0x09, 0x00, 0x00, 0x00,
  0x00, 0x00, 0x00, 0x09, 0xa8, 0x00, 0x00, 0x00, 0xac, 0xf8, 0xff, 0xff,
  0x08, 0x00, 0x00, 0x00, 0x14, 0x00, 0x00, 0x00, 0x01, 0x00, 0x00, 0x00,
  0x80, 0xff, 0xff, 0xff, 0xff, 0xff, 0xff, 0xff, 0x00, 0x00, 0x00, 0x00,
  0x01, 0x00, 0x00, 0x00, 0xc8, 0xee, 0xa8, 0x3e, 0x7b, 0x00, 0x00, 0x00,
  0x73, 0x65, 0x71, 0x75, 0x65, 0x6e, 0x74, 0x69, 0x61, 0x6c, 0x5f, 0x33,
  0x2f, 0x71, 0x75, 0x61, 0x6e, 0x74, 0x5f, 0x63, 0x6f, 0x6e, 0x76, 0x32,
  0x64, 0x5f, 0x37, 0x2f, 0x52, 0x65, 0x6c, 0x75, 0x3b, 0x73, 0x65, 0x71,
  0x75, 0x65, 0x6e, 0x74, 0x69, 0x61, 0x6c, 0x5f, 0x33, 0x2f, 0x71, 0x75,
  0x61, 0x6e, 0x74, 0x5f, 0x63, 0x6f, 0x6e, 0x76, 0x32, 0x64, 0x5f, 0x37,
  0x2f, 0x42, 0x69, 0x61, 0x73, 0x41, 0x64, 0x64, 0x3b, 0x73, 0x65, 0x71,
  0x75, 0x65, 0x6e, 0x74, 0x69, 0x61, 0x6c, 0x5f, 0x33, 0x2f, 0x71, 0x75,
  0x61, 0x6e, 0x74, 0x5f, 0x63, 0x6f, 0x6e, 0x76, 0x32, 0x64, 0x5f, 0x37,
  0x2f, 0x43, 0x6f, 0x6e, 0x76, 0x32, 0x44, 0x3b, 0x71, 0x75, 0x61, 0x6e,
  0x74, 0x5f, 0x63, 0x6f, 0x6e, 0x76, 0x32, 0x64, 0x5f, 0x37, 0x2f, 0x62,
  0x69, 0x61, 0x73, 0x00, 0x04, 0x00, 0x00, 0x00, 0x01, 0x00, 0x00, 0x00,
  0x0a, 0x00, 0x00, 0x00, 0x01, 0x00, 0x00, 0x00, 0x14, 0x00, 0x00, 0x00,
  0x8a, 0xf9, 0xff, 0xff, 0x14, 0x00, 0x00, 0x00, 0x18, 0x01, 0x00, 0x00,
  0x08, 0x00, 0x00, 0x00, 0x00, 0x00, 0x00, 0x02, 0x6c, 0x01, 0x00, 0x00,
  0x7c, 0xf9, 0xff, 0xff, 0x08, 0x00, 0x00, 0x00, 0xac, 0x00, 0x00, 0x00,
  0x14, 0x00, 0x00, 0x00, 0x00, 0x00, 0x00, 0x00, 0x00, 0x00, 0x00, 0x00,
  0x00, 0x00, 0x00, 0x00, 0x00, 0x00, 0x00, 0x00, 0x00, 0x00, 0x00, 0x00,
  0x00, 0x00, 0x00, 0x00, 0x00, 0x00, 0x00, 0x00, 0x00, 0x00, 0x00, 0x00,
  0x00, 0x00, 0x00, 0x00, 0x00, 0x00, 0x00, 0x00, 0x00, 0x00, 0x00, 0x00,
  0x00, 0x00, 0x00, 0x00, 0x00, 0x00, 0x00, 0x00, 0x00, 0x00, 0x00, 0x00,
  0x00, 0x00, 0x00, 0x00, 0x00, 0x00, 0x00, 0x00, 0x00, 0x00, 0x00, 0x00,
  0x00, 0x00, 0x00, 0x00, 0x00, 0x00, 0x00, 0x00, 0x00, 0x00, 0x00, 0x00,
  0x00, 0x00, 0x00, 0x00, 0x00, 0x00, 0x00, 0x00, 0x00, 0x00, 0x00, 0x00,
  0x00, 0x00, 0x00, 0x00, 0x00, 0x00, 0x00, 0x00, 0x00, 0x00, 0x00, 0x00,
  0x00, 0x00, 0x00, 0x00, 0x00, 0x00, 0x00, 0x00, 0x00, 0x00, 0x00, 0x00,
  0x00, 0x00, 0x00, 0x00, 0x00, 0x00, 0x00, 0x00, 0x00, 0x00, 0x00, 0x00,
  0x00, 0x00, 0x00, 0x00, 0x00, 0x00, 0x00, 0x00, 0x00, 0x00, 0x00, 0x00,
  0x00, 0x00, 0x00, 0x00, 0x00, 0x00, 0x00, 0x00, 0x00, 0x00, 0x00, 0x00,
  0x00, 0x00, 0x00, 0x00, 0x00, 0x00, 0x00, 0x00, 0x00, 0x00, 0x00, 0x00,
  0x14, 0x00, 0x00, 0x00, 0x5e, 0x57, 0xae, 0x3a, 0x21, 0x2e, 0xa5, 0x3a,
  0xb6, 0x4e, 0xb6, 0x3a, 0x4f, 0x74, 0xb6, 0x3a, 0x95, 0x62, 0xb6, 0x3a,
  0xa6, 0xa8, 0xb6, 0x3a, 0x95, 0xcd, 0xa0, 0x3a, 0x42, 0x6c, 0xb6, 0x3a,
  0xa2, 0x5e, 0xb6, 0x3a, 0x41, 0x47, 0xb6, 0x3a, 0xa4, 0xdd, 0x82, 0x3a,
  0x32, 0xbb, 0x89, 0x3a, 0xd9, 0x8a, 0x37, 0x3a, 0x82, 0xf7, 0xa6, 0x3a,
  0x07, 0xc8, 0x9c, 0x3a, 0xb9, 0x52, 0xaa, 0x3a, 0x16, 0x6b, 0xb6, 0x3a,
  0x44, 0xb3, 0xa6, 0x3a, 0x96, 0x35, 0xb4, 0x3a, 0xe1, 0x26, 0xa3, 0x3a,
  0x5a, 0x00, 0x00, 0x00, 0x73, 0x65, 0x71, 0x75, 0x65, 0x6e, 0x74, 0x69,
  0x61, 0x6c, 0x5f, 0x33, 0x2f, 0x71, 0x75, 0x61, 0x6e, 0x74, 0x5f, 0x63,
  0x6f, 0x6e, 0x76, 0x32, 0x64, 0x5f, 0x37, 0x2f, 0x42, 0x69, 0x61, 0x73,
  0x41, 0x64, 0x64, 0x3b, 0x73, 0x65, 0x71, 0x75, 0x65, 0x6e, 0x74, 0x69,
  0x61, 0x6c, 0x5f, 0x33, 0x2f, 0x71, 0x75, 0x61, 0x6e, 0x74, 0x5f, 0x63,
  0x6f, 0x6e, 0x76, 0x32, 0x64, 0x5f, 0x37, 0x2f, 0x43, 0x6f, 0x6e, 0x76,
  0x32, 0x44, 0x3b, 0x71, 0x75, 0x61, 0x6e, 0x74, 0x5f, 0x63, 0x6f, 0x6e,
  0x76, 0x32, 0x64, 0x5f, 0x37, 0x2f, 0x62, 0x69, 0x61, 0x73, 0x00, 0x00,
  0x01, 0x00, 0x00, 0x00, 0x14, 0x00, 0x00, 0x00, 0x12, 0xfb, 0xff, 0xff,
  0x14, 0x00, 0x00, 0x00, 0x14, 0x01, 0x00, 0x00, 0x07, 0x00, 0x00, 0x00,
  0x00, 0x00, 0x00, 0x09, 0x30, 0x01, 0x00, 0x00, 0x04, 0xfb, 0xff, 0xff,
  0x08, 0x00, 0x00, 0x00, 0xa8, 0x00, 0x00, 0x00, 0x14, 0x00, 0x00, 0x00,
  0x00, 0x00, 0x00, 0x00, 0x00, 0x00, 0x00, 0x00, 0x00, 0x00, 0x00, 0x00,
  0x00, 0x00, 0x00, 0x00, 0x00, 0x00, 0x00, 0x00, 0x00, 0x00, 0x00, 0x00,
  0x00, 0x00, 0x00, 0x00, 0x00, 0x00, 0x00, 0x00, 0x00, 0x00, 0x00, 0x00,
  0x00, 0x00, 0x00, 0x00, 0x00, 0x00, 0x00, 0x00, 0x00, 0x00, 0x00, 0x00,
  0x00, 0x00, 0x00, 0x00, 0x00, 0x00, 0x00, 0x00, 0x00, 0x00, 0x00, 0x00,
  0x00, 0x00, 0x00, 0x00, 0x00, 0x00, 0x00, 0x00, 0x00, 0x00, 0x00, 0x00,
  0x00, 0x00, 0x00, 0x00, 0x00, 0x00, 0x00, 0x00, 0x00, 0x00, 0x00, 0x00,
  0x00, 0x00, 0x00, 0x00, 0x00, 0x00, 0x00, 0x00, 0x00, 0x00, 0x00, 0x00,
  0x00, 0x00, 0x00, 0x00, 0x00, 0x00, 0x00, 0x00, 0x00, 0x00, 0x00, 0x00,
  0x00, 0x00, 0x00, 0x00, 0x00, 0x00, 0x00, 0x00, 0x00, 0x00, 0x00, 0x00,
  0x00, 0x00, 0x00, 0x00, 0x00, 0x00, 0x00, 0x00, 0x00, 0x00, 0x00, 0x00,
  0x00, 0x00, 0x00, 0x00, 0x00, 0x00, 0x00, 0x00, 0x00, 0x00, 0x00, 0x00,
  0x00, 0x00, 0x00, 0x00, 0x00, 0x00, 0x00, 0x00, 0x00, 0x00, 0x00, 0x00,
  0x00, 0x00, 0x00, 0x00, 0x14, 0x00, 0x00, 0x00, 0x8e, 0xdf, 0x74, 0x3b,
  0x86, 0x01, 0x68, 0x3b, 0xf9, 0x07, 0x80, 0x3b, 0x60, 0x22, 0x80, 0x3b,
  0xed, 0x15, 0x80, 0x3b, 0x22, 0x47, 0x80, 0x3b, 0xa5, 0xdb, 0x61, 0x3b,
  0xb9, 0x1c, 0x80, 0x3b, 0x27, 0x13, 0x80, 0x3b, 0xbc, 0x02, 0x80, 0x3b,
  0x28, 0xcf, 0x37, 0x3b, 0xc1, 0x73, 0x41, 0x3b, 0xfd, 0xe5, 0x00, 0x3b,
  0xf1, 0x83, 0x6a, 0x3b, 0x92, 0x35, 0x5c, 0x3b, 0xc3, 0x3a, 0x6f, 0x3b,
  0xe6, 0x1b, 0x80, 0x3b, 0x16, 0x24, 0x6a, 0x3b, 0x84, 0x1d, 0x7d, 0x3b,
  0x33, 0x28, 0x65, 0x3b, 0x22, 0x00, 0x00, 0x00, 0x73, 0x65, 0x71, 0x75,
  0x65, 0x6e, 0x74, 0x69, 0x61, 0x6c, 0x5f, 0x33, 0x2f, 0x71, 0x75, 0x61,
  0x6e, 0x74, 0x5f, 0x63, 0x6f, 0x6e, 0x76, 0x32, 0x64, 0x5f, 0x37, 0x2f,
  0x43, 0x6f, 0x6e, 0x76, 0x32, 0x44, 0x00, 0x00, 0x04, 0x00, 0x00, 0x00,
  0x14, 0x00, 0x00, 0x00, 0x04, 0x00, 0x00, 0x00, 0x01, 0x00, 0x00, 0x00,
  0x0a, 0x00, 0x00, 0x00, 0x6a, 0xfc, 0xff, 0xff, 0x14, 0x00, 0x00, 0x00,
  0x34, 0x00, 0x00, 0x00, 0x06, 0x00, 0x00, 0x00, 0x00, 0x00, 0x00, 0x09,
  0x58, 0x00, 0x00, 0x00, 0x5c, 0xfc, 0xff, 0xff, 0x08, 0x00, 0x00, 0x00,
  0x14, 0x00, 0x00, 0x00, 0x01, 0x00, 0x00, 0x00, 0x80, 0xff, 0xff, 0xff,
  0xff, 0xff, 0xff, 0xff, 0x00, 0x00, 0x00, 0x00, 0x01, 0x00, 0x00, 0x00,
  0x5c, 0x43, 0xb6, 0x3e, 0x2a, 0x00, 0x00, 0x00, 0x73, 0x65, 0x71, 0x75,
  0x65, 0x6e, 0x74, 0x69, 0x61, 0x6c, 0x5f, 0x33, 0x2f, 0x71, 0x75, 0x61,
  0x6e, 0x74, 0x5f, 0x6d, 0x61, 0x78, 0x5f, 0x70, 0x6f, 0x6f, 0x6c, 0x69,
  0x6e, 0x67, 0x32, 0x64, 0x5f, 0x36, 0x2f, 0x4d, 0x61, 0x78, 0x50, 0x6f,
  0x6f, 0x6c, 0x00, 0x00, 0x04, 0x00, 0x00, 0x00, 0x01, 0x00, 0x00, 0x00,
  0x0a, 0x00, 0x00, 0x00, 0x01, 0x00, 0x00, 0x00, 0x0a, 0x00, 0x00, 0x00,
  0xea, 0xfc, 0xff, 0xff, 0x14, 0x00, 0x00, 0x00, 0x34, 0x00, 0x00, 0x00,
  0x05, 0x00, 0x00, 0x00, 0x00, 0x00, 0x00, 0x09, 0xa8, 0x00, 0x00, 0x00,
  0xdc, 0xfc, 0xff, 0xff, 0x08, 0x00, 0x00, 0x00, 0x14, 0x00, 0x00, 0x00,
  0x01, 0x00, 0x00, 0x00, 0x80, 0xff, 0xff, 0xff, 0xff, 0xff, 0xff, 0xff,
  0x00, 0x00, 0x00, 0x00, 0x01, 0x00, 0x00, 0x00, 0x5c, 0x43, 0xb6, 0x3e,
  0x7b, 0x00, 0x00, 0x00, 0x73, 0x65, 0x71, 0x75, 0x65, 0x6e, 0x74, 0x69,
  0x61, 0x6c, 0x5f, 0x33, 0x2f, 0x71, 0x75, 0x61, 0x6e, 0x74, 0x5f, 0x63,
  0x6f, 0x6e, 0x76, 0x32, 0x64, 0x5f, 0x36, 0x2f, 0x52, 0x65, 0x6c, 0x75,
  0x3b, 0x73, 0x65, 0x71, 0x75, 0x65, 0x6e, 0x74, 0x69, 0x61, 0x6c, 0x5f,
  0x33, 0x2f, 0x71, 0x75, 0x61, 0x6e, 0x74, 0x5f, 0x63, 0x6f, 0x6e, 0x76,
  0x32, 0x64, 0x5f, 0x36, 0x2f, 0x42, 0x69, 0x61, 0x73, 0x41, 0x64, 0x64,
  0x3b, 0x73, 0x65, 0x71, 0x75, 0x65, 0x6e, 0x74, 0x69, 0x61, 0x6c, 0x5f,
  0x33, 0x2f, 0x71, 0x75, 0x61, 0x6e, 0x74, 0x5f, 0x63, 0x6f, 0x6e, 0x76,
  0x32, 0x64, 0x5f, 0x36, 0x2f, 0x43, 0x6f, 0x6e, 0x76, 0x32, 0x44, 0x3b,
  0x71, 0x75, 0x61, 0x6e, 0x74, 0x5f, 0x63, 0x6f, 0x6e, 0x76, 0x32, 0x64,
  0x5f, 0x36, 0x2f, 0x62, 0x69, 0x61, 0x73, 0x00, 0x04, 0x00, 0x00, 0x00,
  0x01, 0x00, 0x00, 0x00, 0x1e, 0x00, 0x00, 0x00, 0x03, 0x00, 0x00, 0x00,
  0x0a, 0x00, 0x00, 0x00, 0xba, 0xfd, 0xff, 0xff, 0x14, 0x00, 0x00, 0x00,
  0xa0, 0x00, 0x00, 0x00, 0x04, 0x00, 0x00, 0x00, 0x00, 0x00, 0x00, 0x02,
  0xf4, 0x00, 0x00, 0x00, 0xac, 0xfd, 0xff, 0xff, 0x08, 0x00, 0x00, 0x00,
  0x5c, 0x00, 0x00, 0x00, 0x0a, 0x00, 0x00, 0x00, 0x00, 0x00, 0x00, 0x00,
  0x00, 0x00, 0x00, 0x00, 0x00, 0x00, 0x00, 0x00, 0x00, 0x00, 0x00, 0x00,
  0x00, 0x00, 0x00, 0x00, 0x00, 0x00, 0x00, 0x00, 0x00, 0x00, 0x00, 0x00,
  0x00, 0x00, 0x00, 0x00, 0x00, 0x00, 0x00, 0x00, 0x00, 0x00, 0x00, 0x00,
  0x00, 0x00, 0x00, 0x00, 0x00, 0x00, 0x00, 0x00, 0x00, 0x00, 0x00, 0x00,
  0x00, 0x00, 0x00, 0x00, 0x00, 0x00, 0x00, 0x00, 0x00, 0x00, 0x00, 0x00,
  0x00, 0x00, 0x00, 0x00, 0x00, 0x00, 0x00, 0x00, 0x00, 0x00, 0x00, 0x00,
  0x00, 0x00, 0x00, 0x00, 0x00, 0x00, 0x00, 0x00, 0x0a, 0x00, 0x00, 0x00,
  0xda, 0x2b, 0xf0, 0x3a, 0x71, 0x80, 0x5e, 0x3b, 0x25, 0xe6, 0x39, 0x3b,
  0x8f, 0x89, 0xef, 0x3a, 0xda, 0x01, 0x5c, 0x3b, 0x77, 0x98, 0x38, 0x3b,
  0xee, 0x80, 0x70, 0x3b, 0x90, 0xc3, 0x26, 0x3b, 0xff, 0x0b, 0x12, 0x3b,
  0x20, 0x9d, 0x55, 0x3b, 0x5a, 0x00, 0x00, 0x00, 0x73, 0x65, 0x71, 0x75,
  0x65, 0x6e, 0x74, 0x69, 0x61, 0x6c, 0x5f, 0x33, 0x2f, 0x71, 0x75, 0x61,
  0x6e, 0x74, 0x5f, 0x63, 0x6f, 0x6e, 0x76, 0x32, 0x64, 0x5f, 0x36, 0x2f,
  0x42, 0x69, 0x61, 0x73, 0x41, 0x64, 0x64, 0x3b, 0x73, 0x65, 0x71, 0x75,
  0x65, 0x6e, 0x74, 0x69, 0x61, 0x6c, 0x5f, 0x33, 0x2f, 0x71, 0x75, 0x61,
  0x6e, 0x74, 0x5f, 0x63, 0x6f, 0x6e, 0x76, 0x32, 0x64, 0x5f, 0x36, 0x2f,
  0x43, 0x6f, 0x6e, 0x76, 0x32, 0x44, 0x3b, 0x71, 0x75, 0x61, 0x6e, 0x74,
  0x5f, 0x63, 0x6f, 0x6e, 0x76, 0x32, 0x64, 0x5f, 0x36, 0x2f, 0x62, 0x69,
  0x61, 0x73, 0x00, 0x00, 0x01, 0x00, 0x00, 0x00, 0x0a, 0x00, 0x00, 0x00,
  0xca, 0xfe, 0xff, 0xff, 0x14, 0x00, 0x00, 0x00, 0xa0, 0x00, 0x00, 0x00,
  0x03, 0x00, 0x00, 0x00, 0x00, 0x00, 0x00, 0x09, 0xbc, 0x00, 0x00, 0x00,
  0xbc, 0xfe, 0xff, 0xff, 0x08, 0x00, 0x00, 0x00, 0x5c, 0x00, 0x00, 0x00,
  0x0a, 0x00, 0x00, 0x00, 0x00, 0x00, 0x00, 0x00, 0x00, 0x00, 0x00, 0x00,
  0x00, 0x00, 0x00, 0x00, 0x00, 0x00, 0x00, 0x00, 0x00, 0x00, 0x00, 0x00,
  0x00, 0x00, 0x00, 0x00, 0x00, 0x00, 0x00, 0x00, 0x00, 0x00, 0x00, 0x00,
  0x00, 0x00, 0x00, 0x00, 0x00, 0x00, 0x00, 0x00, 0x00, 0x00, 0x00, 0x00,
  0x00, 0x00, 0x00, 0x00, 0x00, 0x00, 0x00, 0x00, 0x00, 0x00, 0x00, 0x00,
  0x00, 0x00, 0x00, 0x00, 0x00, 0x00, 0x00, 0x00, 0x00, 0x00, 0x00, 0x00,
  0x00, 0x00, 0x00, 0x00, 0x00, 0x00, 0x00, 0x00, 0x00, 0x00, 0x00, 0x00,
  0x00, 0x00, 0x00, 0x00, 0x0a, 0x00, 0x00, 0x00, 0x35, 0x5e, 0x00, 0x3b,
  0x06, 0xd9, 0x6d, 0x3b, 0x74, 0xb8, 0x46, 0x3b, 0x77, 0x07, 0x00, 0x3b,
  0x64, 0x2e, 0x6b, 0x3b, 0xc3, 0x53, 0x45, 0x3b, 0xae, 0x8b, 0x80, 0x3b,
  0x04, 0x44, 0x32, 0x3b, 0xa8, 0x1e, 0x1c, 0x3b, 0xc7, 0x58, 0x64, 0x3b,
  0x22, 0x00, 0x00, 0x00, 0x73, 0x65, 0x71, 0x75, 0x65, 0x6e, 0x74, 0x69,
  0x61, 0x6c, 0x5f, 0x33, 0x2f, 0x71, 0x75, 0x61, 0x6e, 0x74, 0x5f, 0x63,
  0x6f, 0x6e, 0x76, 0x32, 0x64, 0x5f, 0x36, 0x2f, 0x43, 0x6f, 0x6e, 0x76,
  0x32, 0x44, 0x00, 0x00, 0x04, 0x00, 0x00, 0x00, 0x0a, 0x00, 0x00, 0x00,
  0x05, 0x00, 0x00, 0x00, 0x03, 0x00, 0x00, 0x00, 0x01, 0x00, 0x00, 0x00,
  0xae, 0xff, 0xff, 0xff, 0x18, 0x00, 0x00, 0x00, 0x18, 0x00, 0x00, 0x00,
  0x02, 0x00, 0x00, 0x00, 0x00, 0x00, 0x00, 0x02, 0x34, 0x00, 0x00, 0x00,
  0x04, 0x00, 0x04, 0x00, 0x04, 0x00, 0x00, 0x00, 0x22, 0x00, 0x00, 0x00,
  0x73, 0x65, 0x71, 0x75, 0x65, 0x6e, 0x74, 0x69, 0x61, 0x6c, 0x5f, 0x33,
  0x2f, 0x71, 0x75, 0x61, 0x6e, 0x74, 0x5f, 0x66, 0x6c, 0x61, 0x74, 0x74,
  0x65, 0x6e, 0x5f, 0x33, 0x2f, 0x43, 0x6f, 0x6e, 0x73, 0x74, 0x00, 0x00,
  0x01, 0x00, 0x00, 0x00, 0x02, 0x00, 0x00, 0x00, 0x00, 0x00, 0x0e, 0x00,
  0x18, 0x00, 0x14, 0x00, 0x13, 0x00, 0x0c, 0x00, 0x08, 0x00, 0x04, 0x00,
  0x0e, 0x00, 0x00, 0x00, 0x20, 0x00, 0x00, 0x00, 0x3c, 0x00, 0x00, 0x00,
  0x01, 0x00, 0x00, 0x00, 0x00, 0x00, 0x00, 0x09, 0x48, 0x00, 0x00, 0x00,
  0x0c, 0x00, 0x0c, 0x00, 0x00, 0x00, 0x00, 0x00, 0x08, 0x00, 0x04, 0x00,
  0x0c, 0x00, 0x00, 0x00, 0x08, 0x00, 0x00, 0x00, 0x10, 0x00, 0x00, 0x00,
  0x01, 0x00, 0x00, 0x00, 0xe3, 0xff, 0xff, 0xff, 0xff, 0xff, 0xff, 0xff,
  0x01, 0x00, 0x00, 0x00, 0x98, 0x7b, 0x6f, 0x3f, 0x13, 0x00, 0x00, 0x00,
  0x73, 0x65, 0x72, 0x76, 0x69, 0x6e, 0x67, 0x5f, 0x64, 0x65, 0x66, 0x61,
  0x75, 0x6c, 0x74, 0x5f, 0x78, 0x3a, 0x30, 0x00, 0x04, 0x00, 0x00, 0x00,
  0x01, 0x00, 0x00, 0x00, 0x1e, 0x00, 0x00, 0x00, 0x03, 0x00, 0x00, 0x00,
  0x01, 0x00, 0x00, 0x00, 0x05, 0x00, 0x00, 0x00, 0x68, 0x00, 0x00, 0x00,
  0x48, 0x00, 0x00, 0x00, 0x38, 0x00, 0x00, 0x00, 0x18, 0x00, 0x00, 0x00,
  0x04, 0x00, 0x00, 0x00, 0xb8, 0xff, 0xff, 0xff, 0x19, 0x00, 0x00, 0x00,
  0x02, 0x00, 0x00, 0x00, 0x00, 0x00, 0x00, 0x19, 0xc8, 0xff, 0xff, 0xff,
  0x09, 0x00, 0x00, 0x00, 0x04, 0x00, 0x00, 0x00, 0x00, 0x00, 0x00, 0x09,
  0x0c, 0x00, 0x0c, 0x00, 0x0b, 0x00, 0x00, 0x00, 0x00, 0x00, 0x04, 0x00,
  0x0c, 0x00, 0x00, 0x00, 0x16, 0x00, 0x00, 0x00, 0x00, 0x00, 0x00, 0x16,
  0xf0, 0xff, 0xff, 0xff, 0x11, 0x00, 0x00, 0x00, 0x02, 0x00, 0x00, 0x00,
  0x00, 0x00, 0x00, 0x11, 0x0c, 0x00, 0x10, 0x00, 0x0f, 0x00, 0x00, 0x00,
  0x08, 0x00, 0x04, 0x00, 0x0c, 0x00, 0x00, 0x00, 0x03, 0x00, 0x00, 0x00,
  0x03, 0x00, 0x00, 0x00, 0x00, 0x00, 0x00, 0x03
};
unsigned int g_motion_detection_4_class_model_data_len = 11984;
