// Converted from pnn_May28_nsteps-30_vloss-0.2614_vacc-0.9041.tflite.
unsigned char g_motion_detection_4_class_model_data[] = {
  0x1c, 0x00, 0x00, 0x00, 0x54, 0x46, 0x4c, 0x33, 0x14, 0x00, 0x20, 0x00,
  0x1c, 0x00, 0x18, 0x00, 0x14, 0x00, 0x10, 0x00, 0x0c, 0x00, 0x00, 0x00,
  0x08, 0x00, 0x04, 0x00, 0x14, 0x00, 0x00, 0x00, 0x1c, 0x00, 0x00, 0x00,
  0x1c, 0x00, 0x00, 0x00, 0x4c, 0x00, 0x00, 0x00, 0x94, 0x15, 0x00, 0x00,
  0xa4, 0x15, 0x00, 0x00, 0xe8, 0x26, 0x00, 0x00, 0x03, 0x00, 0x00, 0x00,
  0x00, 0x00, 0x00, 0x00, 0x01, 0x00, 0x00, 0x00, 0x0c, 0x00, 0x00, 0x00,
  0x08, 0x00, 0x0c, 0x00, 0x08, 0x00, 0x04, 0x00, 0x08, 0x00, 0x00, 0x00,
  0x16, 0x00, 0x00, 0x00, 0x04, 0x00, 0x00, 0x00, 0x13, 0x00, 0x00, 0x00,
  0x6d, 0x69, 0x6e, 0x5f, 0x72, 0x75, 0x6e, 0x74, 0x69, 0x6d, 0x65, 0x5f,
  0x76, 0x65, 0x72, 0x73, 0x69, 0x6f, 0x6e, 0x00, 0x17, 0x00, 0x00, 0x00,
  0x44, 0x15, 0x00, 0x00, 0x3c, 0x15, 0x00, 0x00, 0x24, 0x15, 0x00, 0x00,
  0x24, 0x14, 0x00, 0x00, 0xec, 0x13, 0x00, 0x00, 0xe4, 0x13, 0x00, 0x00,
  0xdc, 0x13, 0x00, 0x00, 0xac, 0x10, 0x00, 0x00, 0x4c, 0x10, 0x00, 0x00,
  0x44, 0x10, 0x00, 0x00, 0x3c, 0x10, 0x00, 0x00, 0x34, 0x10, 0x00, 0x00,
  0x24, 0x06, 0x00, 0x00, 0x94, 0x05, 0x00, 0x00, 0x8c, 0x05, 0x00, 0x00,
  0x7c, 0x01, 0x00, 0x00, 0xec, 0x00, 0x00, 0x00, 0xe4, 0x00, 0x00, 0x00,
  0x54, 0x00, 0x00, 0x00, 0x34, 0x00, 0x00, 0x00, 0x2c, 0x00, 0x00, 0x00,
  0x24, 0x00, 0x00, 0x00, 0x04, 0x00, 0x00, 0x00, 0x82, 0xea, 0xff, 0xff,
  0x04, 0x00, 0x00, 0x00, 0x10, 0x00, 0x00, 0x00, 0x31, 0x2e, 0x31, 0x34,
  0x2e, 0x30, 0x00, 0x00, 0x00, 0x00, 0x00, 0x00, 0x00, 0x00, 0x00, 0x00,
  0x8c, 0xda, 0xff, 0xff, 0x90, 0xda, 0xff, 0xff, 0xa6, 0xea, 0xff, 0xff,
  0x04, 0x00, 0x00, 0x00, 0x10, 0x00, 0x00, 0x00, 0xab, 0x00, 0x00, 0x00,
  0x69, 0xff, 0xff, 0xff, 0xd0, 0xff, 0xff, 0xff, 0x8e, 0x00, 0x00, 0x00,
  0xc2, 0xea, 0xff, 0xff, 0x04, 0x00, 0x00, 0x00, 0x80, 0x00, 0x00, 0x00,
  0x05, 0xd0, 0x05, 0xd6, 0xe0, 0x08, 0x25, 0x27, 0xcb, 0xbd, 0x94, 0xb0,
  0x81, 0xa7, 0xa4, 0xb4, 0x3d, 0x09, 0x47, 0xfa, 0x8b, 0xdb, 0x2e, 0x55,
  0x9f, 0x9b, 0xab, 0xfb, 0xd6, 0x0c, 0xf7, 0x6d, 0x6b, 0xe9, 0x15, 0xd6,
  0x0a, 0x28, 0xe7, 0xd7, 0x33, 0x1f, 0xcc, 0x14, 0x62, 0xdb, 0xa8, 0x19,
  0x8c, 0xc9, 0x1f, 0xf5, 0x2b, 0x57, 0xad, 0x27, 0x38, 0xe4, 0x67, 0xcc,
  0xd9, 0x8f, 0x32, 0x56, 0xd5, 0xe2, 0xce, 0xdb, 0x4d, 0x85, 0x26, 0x51,
  0x68, 0x08, 0x14, 0xdb, 0x2c, 0xb5, 0xf4, 0xcb, 0x6b, 0xf8, 0xbd, 0xdf,
  0xa5, 0xee, 0xbf, 0xa3, 0x0c, 0xba, 0xe7, 0xea, 0x1d, 0x66, 0x22, 0xfc,
  0x0e, 0xae, 0xa8, 0xa6, 0x13, 0xc9, 0xbb, 0x29, 0xba, 0x17, 0xa3, 0xd3,
  0x07, 0x82, 0xb0, 0xfb, 0xc4, 0x67, 0x03, 0x20, 0x01, 0xfa, 0x28, 0xf5,
  0x03, 0x5c, 0xea, 0x44, 0x1a, 0xcd, 0x47, 0x15, 0x3c, 0xdb, 0xff, 0xff,
  0x52, 0xeb, 0xff, 0xff, 0x04, 0x00, 0x00, 0x00, 0x80, 0x00, 0x00, 0x00,
  0x73, 0xff, 0xff, 0xff, 0x6e, 0xfe, 0xff, 0xff, 0xaf, 0x00, 0x00, 0x00,
  0x11, 0xff, 0xff, 0xff, 0x73, 0xff, 0xff, 0xff, 0x27, 0x00, 0x00, 0x00,
  0x75, 0x00, 0x00, 0x00, 0x47, 0x00, 0x00, 0x00, 0xd8, 0xff, 0xff, 0xff,
  0x76, 0x00, 0x00, 0x00, 0xdb, 0xff, 0xff, 0xff, 0x10, 0xff, 0xff, 0xff,
  0xbc, 0xff, 0xff, 0xff, 0xb8, 0xff, 0xff, 0xff, 0x59, 0x00, 0x00, 0x00,
  0x10, 0xff, 0xff, 0xff, 0x32, 0x00, 0x00, 0x00, 0x65, 0x01, 0x00, 0x00,
  0x8e, 0x00, 0x00, 0x00, 0x19, 0x00, 0x00, 0x00, 0x7d, 0xff, 0xff, 0xff,
  0xf8, 0xff, 0xff, 0xff, 0x29, 0x02, 0x00, 0x00, 0x15, 0xff, 0xff, 0xff,
  0x76, 0xff, 0xff, 0xff, 0x17, 0xff, 0xff, 0xff, 0x56, 0xff, 0xff, 0xff,
  0x0d, 0x01, 0x00, 0x00, 0xdf, 0x00, 0x00, 0x00, 0x7a, 0xff, 0xff, 0xff,
  0x1c, 0x00, 0x00, 0x00, 0x5d, 0x00, 0x00, 0x00, 0xde, 0xeb, 0xff, 0xff,
  0x04, 0x00, 0x00, 0x00, 0x00, 0x04, 0x00, 0x00, 0xd3, 0xa3, 0x3a, 0x2d,
  0xf9, 0x3c, 0x95, 0xc3, 0x57, 0xb7, 0xf0, 0x9d, 0xa6, 0xae, 0xad, 0x1a,
  0xa9, 0x58, 0xcb, 0xc1, 0x9d, 0x38, 0xa9, 0x51, 0x0f, 0x30, 0xae, 0xff,
  0x28, 0xf2, 0xa5, 0x3a, 0xfc, 0xa6, 0x51, 0x11, 0xf8, 0x52, 0xb5, 0x8c,
  0xa1, 0xcc, 0x00, 0xbb, 0x1a, 0xad, 0x13, 0xd7, 0x30, 0xa7, 0xa1, 0xb1,
  0xfa, 0x0a, 0xec, 0x5e, 0x19, 0x94, 0x31, 0xde, 0xb3, 0x2d, 0xcf, 0xab,
  0x53, 0xc5, 0x3f, 0x5d, 0xe9, 0xbe, 0x2a, 0x11, 0x0e, 0xba, 0x02, 0xfa,
  0x66, 0xf7, 0x1e, 0xc1, 0xe1, 0x2f, 0xf8, 0x47, 0x22, 0xb9, 0xba, 0x60,
  0x56, 0xc1, 0x3b, 0xca, 0xef, 0xc2, 0xf0, 0x2e, 0x0e, 0xc6, 0xa0, 0xfa,
  0xf3, 0x0c, 0x97, 0x29, 0xe1, 0xb4, 0xdf, 0x1e, 0x4e, 0x27, 0x3a, 0xab,
  0xff, 0x9f, 0x50, 0xa1, 0xae, 0x63, 0xe6, 0xf8, 0xe2, 0xa4, 0x2a, 0xfc,
  0xaf, 0xfa, 0x36, 0x9a, 0xc8, 0xd9, 0xc0, 0xe3, 0xb3, 0x1a, 0xe0, 0x2c,
  0x5f, 0xcf, 0xa7, 0x0d, 0x2b, 0x55, 0xc8, 0x4e, 0x37, 0xcf, 0xcf, 0x02,
  0x2e, 0xfa, 0xd6, 0x59, 0xd0, 0xaf, 0x1f, 0x55, 0x44, 0xf3, 0xbe, 0x2c,
  0x5a, 0x5a, 0xcd, 0x48, 0x1e, 0xcf, 0x34, 0x2f, 0x8d, 0xbe, 0x56, 0x0b,
  0xe3, 0x51, 0x50, 0xc6, 0x44, 0x07, 0xec, 0xf7, 0xa3, 0xc3, 0x12, 0x53,
  0x59, 0xdb, 0x20, 0xcb, 0xbb, 0xc2, 0xf4, 0xf2, 0x21, 0x24, 0xe2, 0x18,
  0x5f, 0xc4, 0x08, 0xa9, 0xb8, 0xba, 0x59, 0xa7, 0x08, 0xf0, 0xd2, 0xd2,
  0xc0, 0x08, 0xc7, 0xe5, 0x2b, 0x23, 0xae, 0xf6, 0x34, 0x41, 0x43, 0x24,
  0xd1, 0x2c, 0xcf, 0x19, 0x20, 0xc9, 0xeb, 0x27, 0xd4, 0x70, 0x23, 0x59,
  0x22, 0x37, 0xf6, 0xed, 0x03, 0xbe, 0x28, 0xe0, 0x54, 0xdd, 0xb0, 0x56,
  0x30, 0x04, 0xf7, 0xec, 0x60, 0x5b, 0xe9, 0x1e, 0xc0, 0xe0, 0xa6, 0x14,
  0x4a, 0x5f, 0x2c, 0x93, 0xb1, 0x55, 0xce, 0xa8, 0xcc, 0xd8, 0x0c, 0x61,
  0xbb, 0x37, 0x35, 0xbf, 0xde, 0xab, 0xd0, 0x5b, 0x38, 0x5a, 0xd8, 0x40,
  0x1c, 0x43, 0xe6, 0x32, 0x1c, 0xb7, 0xd1, 0x13, 0x2f, 0x14, 0x29, 0x8b,
  0xcf, 0x55, 0xdc, 0x68, 0x22, 0x16, 0xd2, 0xdf, 0xc7, 0x39, 0x3f, 0xda,
  0xaf, 0x39, 0x8f, 0x47, 0xd4, 0x21, 0x04, 0xc0, 0xd1, 0x60, 0xe0, 0xe8,
  0xf2, 0xb7, 0x1d, 0xb8, 0x16, 0xb2, 0xae, 0x40, 0xd5, 0xc7, 0xce, 0x1c,
  0x18, 0xb3, 0x22, 0x44, 0x28, 0x19, 0xd0, 0xcf, 0xe5, 0xfb, 0x29, 0xd4,
  0x0c, 0x5a, 0xe6, 0xcd, 0xbb, 0xfd, 0xf1, 0xe9, 0x50, 0xd0, 0xda, 0xa3,
  0x48, 0x62, 0x1e, 0x83, 0x25, 0xfe, 0xc3, 0x1f, 0x33, 0xc5, 0x14, 0x25,
  0x4d, 0x07, 0x63, 0xed, 0x38, 0xc6, 0xe5, 0x31, 0x49, 0xcd, 0xef, 0xbc,
  0x0c, 0xd0, 0xda, 0xb2, 0x99, 0xd9, 0x1d, 0x96, 0x24, 0x48, 0x9f, 0xb4,
  0x5b, 0x37, 0x30, 0x3f, 0xa8, 0x0e, 0x62, 0x52, 0x4a, 0x2d, 0x4c, 0x12,
  0xae, 0x9e, 0x16, 0x15, 0x48, 0x52, 0x45, 0x45, 0xa1, 0x1f, 0x44, 0xc7,
  0xc9, 0x64, 0xc9, 0x49, 0x1d, 0x2b, 0x17, 0x49, 0x09, 0x25, 0xa9, 0x13,
  0xa7, 0xf0, 0xbc, 0xeb, 0x0f, 0xdf, 0x9b, 0xcb, 0xd6, 0xf4, 0x07, 0x38,
  0x40, 0xad, 0x2f, 0xbe, 0xf6, 0x35, 0xa9, 0x68, 0x3b, 0x0a, 0xfd, 0x0e,
  0xbb, 0x42, 0xaf, 0xd3, 0x1c, 0x5e, 0x00, 0x34, 0x26, 0xf5, 0xce, 0x14,
  0x45, 0xae, 0x0f, 0x98, 0x2f, 0x22, 0xd0, 0x0c, 0xca, 0x2f, 0x48, 0x43,
  0xcf, 0x60, 0x2c, 0x42, 0xaf, 0x0f, 0x20, 0xd9, 0x1d, 0xe3, 0x1c, 0xb5,
  0xc7, 0xff, 0x2b, 0x3e, 0x01, 0xb3, 0xbd, 0xd4, 0x49, 0x08, 0xa9, 0xf6,
  0x21, 0x8b, 0x10, 0x2a, 0x03, 0xbb, 0x5a, 0x16, 0xcb, 0xfd, 0x45, 0x30,
  0x40, 0xf0, 0xc3, 0xa3, 0x0f, 0x29, 0xd9, 0x50, 0x44, 0xe1, 0xaa, 0xf1,
  0xfe, 0x5c, 0x40, 0x3b, 0xbb, 0xe5, 0x40, 0xae, 0x58, 0xd1, 0xb2, 0xbf,
  0xd9, 0x23, 0xb4, 0x13, 0x13, 0x22, 0xbc, 0xc7, 0xf9, 0x30, 0x52, 0xab,
  0x78, 0xf2, 0x14, 0xfd, 0x4f, 0x2c, 0x48, 0x3a, 0xb7, 0xe4, 0xa5, 0xfa,
  0x02, 0x32, 0x0d, 0xb2, 0xf1, 0x09, 0xab, 0x69, 0xc6, 0x61, 0x3c, 0xf2,
  0x5e, 0x12, 0xe7, 0x66, 0xcf, 0x46, 0x0f, 0x03, 0x4b, 0x1c, 0x74, 0xc6,
  0x04, 0xa8, 0x96, 0xb1, 0xe3, 0x2d, 0xbc, 0x42, 0xd2, 0x4a, 0x9c, 0x52,
  0xe1, 0x05, 0xa3, 0x22, 0x13, 0x53, 0xe1, 0xa5, 0xb5, 0x91, 0xa1, 0xcb,
  0x04, 0x0c, 0xbf, 0x3c, 0x70, 0xf4, 0x3a, 0x3b, 0xcd, 0x24, 0x3c, 0x0e,
  0x9f, 0xe7, 0xa6, 0x20, 0x2d, 0xcd, 0x30, 0x4c, 0x39, 0xfc, 0xdd, 0x14,
  0x09, 0xdc, 0x59, 0x19, 0x3f, 0x25, 0xbb, 0x5b, 0x01, 0xb3, 0x57, 0xaa,
  0xae, 0xc0, 0x51, 0x23, 0xc0, 0x39, 0x4d, 0x12, 0xe8, 0x49, 0xfa, 0x33,
  0xf4, 0x16, 0xe2, 0xb6, 0xa6, 0xa4, 0x04, 0xec, 0x9f, 0xce, 0xce, 0xaf,
  0xda, 0x4b, 0x37, 0xfc, 0x13, 0x2d, 0x09, 0x36, 0xc9, 0xc4, 0xfc, 0x1a,
  0xbf, 0xfb, 0xc5, 0x13, 0x08, 0xd2, 0xc7, 0xf0, 0x16, 0xc9, 0xf3, 0x9d,
  0xe3, 0xb6, 0xfb, 0x36, 0x3d, 0x5d, 0x18, 0xd7, 0xcd, 0x33, 0xc1, 0xd9,
  0x63, 0xa0, 0x0e, 0x5f, 0xd5, 0x09, 0xd0, 0xe5, 0x3d, 0x38, 0xba, 0x39,
  0x32, 0xf6, 0xb4, 0xb9, 0x01, 0xd3, 0x30, 0xa6, 0x2c, 0x09, 0x17, 0xf8,
  0xc4, 0xb8, 0x98, 0xeb, 0x5c, 0x00, 0xcd, 0xea, 0x3c, 0xb2, 0xfe, 0x04,
  0xae, 0x23, 0x3f, 0x0e, 0xd1, 0xa3, 0x16, 0xdc, 0x36, 0x31, 0x33, 0xb3,
  0x3e, 0xd6, 0xfb, 0xad, 0x19, 0xc1, 0x48, 0xba, 0xbd, 0x4a, 0xc5, 0x37,
  0xa7, 0xf9, 0xef, 0xbb, 0x31, 0x02, 0x0e, 0x33, 0xcc, 0xb4, 0x15, 0x1f,
  0xe8, 0x11, 0xd2, 0xc0, 0xad, 0xd1, 0x01, 0x56, 0x26, 0xb3, 0x4b, 0x0f,
  0x31, 0x39, 0xea, 0xb1, 0xbc, 0xff, 0x58, 0xbb, 0x0e, 0x60, 0xf9, 0xb0,
  0x03, 0xbd, 0xd0, 0xcc, 0x09, 0x17, 0x99, 0x02, 0xa5, 0xe7, 0x32, 0x36,
  0x1a, 0x97, 0x3d, 0xc3, 0x46, 0xf3, 0xac, 0x10, 0x38, 0x07, 0x5d, 0x4c,
  0xa8, 0xbd, 0xd2, 0x43, 0x03, 0xbd, 0xb3, 0x32, 0x29, 0x9a, 0xcc, 0xae,
  0x89, 0xf3, 0x02, 0xe3, 0x2a, 0xc3, 0x43, 0x35, 0x2a, 0x38, 0x4f, 0x46,
  0x10, 0xfe, 0x38, 0xda, 0x4e, 0x4d, 0x56, 0x58, 0xd2, 0x3c, 0x46, 0x04,
  0x9e, 0x3a, 0xa3, 0x19, 0xd0, 0x32, 0xb1, 0x35, 0x60, 0xc3, 0x28, 0x2f,
  0x24, 0x09, 0xda, 0x63, 0x6e, 0x18, 0x5f, 0x0f, 0x44, 0xa4, 0xdc, 0xf9,
  0xb7, 0x00, 0x3e, 0x02, 0x11, 0xe1, 0x36, 0xfb, 0xf7, 0xc3, 0xe8, 0x17,
  0xd5, 0xe6, 0x44, 0x81, 0xe1, 0x0d, 0x32, 0xc6, 0x20, 0x72, 0xb1, 0xa6,
  0x68, 0x11, 0xd2, 0x5c, 0x57, 0xaf, 0x53, 0xe9, 0xc3, 0xc4, 0xcd, 0xff,
  0xeb, 0xa1, 0xf8, 0x8e, 0xdc, 0x49, 0x9e, 0x6f, 0x88, 0x4c, 0xfd, 0xdf,
  0xe8, 0xf0, 0x31, 0x9a, 0xbd, 0x3a, 0x01, 0xee, 0xf7, 0xf8, 0x98, 0xba,
  0xf8, 0xeb, 0xe9, 0xbb, 0x1c, 0x34, 0x3a, 0xb8, 0xa3, 0x3d, 0xbd, 0x08,
  0x04, 0x06, 0x4c, 0x3d, 0x0e, 0xc7, 0x17, 0xfa, 0xac, 0x49, 0x08, 0xee,
  0xcc, 0x26, 0x55, 0xab, 0xd7, 0x3f, 0xcb, 0xe6, 0x0e, 0x58, 0xb3, 0x40,
  0x19, 0x25, 0xc0, 0xd6, 0x95, 0xb6, 0xfe, 0xf6, 0x10, 0x54, 0x51, 0x10,
  0x59, 0x2d, 0x12, 0x15, 0xd4, 0xea, 0x38, 0xbc, 0x5f, 0xf8, 0xb7, 0x61,
  0x0b, 0x5e, 0x3e, 0xd2, 0xfe, 0xaa, 0xb9, 0xc1, 0x3c, 0x59, 0xe5, 0x4e,
  0xec, 0x5e, 0x4a, 0xd0, 0x5f, 0x9b, 0x36, 0xd7, 0x5f, 0xe8, 0xff, 0xb1,
  0xd8, 0xdf, 0xff, 0xff, 0xee, 0xef, 0xff, 0xff, 0x04, 0x00, 0x00, 0x00,
  0x80, 0x00, 0x00, 0x00, 0x79, 0x02, 0x00, 0x00, 0x4e, 0x00, 0x00, 0x00,
  0x2e, 0xff, 0xff, 0xff, 0xe6, 0x01, 0x00, 0x00, 0xb8, 0x01, 0x00, 0x00,
  0x76, 0x00, 0x00, 0x00, 0xc9, 0xff, 0xff, 0xff, 0x8c, 0x00, 0x00, 0x00,
  0xd7, 0xff, 0xff, 0xff, 0x1e, 0x00, 0x00, 0x00, 0x60, 0xff, 0xff, 0xff,
  0xa1, 0xff, 0xff, 0xff, 0xdc, 0xfe, 0xff, 0xff, 0x74, 0x00, 0x00, 0x00,
  0xe5, 0xff, 0xff, 0xff, 0x6c, 0xff, 0xff, 0xff, 0xf0, 0xff, 0xff, 0xff,
  0x80, 0x00, 0x00, 0x00, 0xa4, 0xfe, 0xff, 0xff, 0x09, 0x00, 0x00, 0x00,
  0x8b, 0xff, 0xff, 0xff, 0xc5, 0xfe, 0xff, 0xff, 0x5d, 0xff, 0xff, 0xff,
  0xda, 0xff, 0xff, 0xff, 0x31, 0x00, 0x00, 0x00, 0xbd, 0xff, 0xff, 0xff,
  0x96, 0xff, 0xff, 0xff, 0x06, 0x00, 0x00, 0x00, 0x6a, 0xff, 0xff, 0xff,
  0x9b, 0x00, 0x00, 0x00, 0xd2, 0x00, 0x00, 0x00, 0x9a, 0xff, 0xff, 0xff,
  0x7a, 0xf0, 0xff, 0xff, 0x04, 0x00, 0x00, 0x00, 0x00, 0x0a, 0x00, 0x00,
  0xee, 0xd1, 0xdb, 0x20, 0xfb, 0xe8, 0xd4, 0x51, 0xf1, 0x1e, 0xe6, 0x0a,
  0x23, 0x4b, 0x36, 0x44, 0x53, 0x34, 0x4f, 0xe2, 0x0e, 0x4a, 0xf5, 0x47,
  0x11, 0xf3, 0x4d, 0xc7, 0x38, 0x47, 0xd1, 0x1b, 0xe7, 0x4e, 0x52, 0xf8,
  0x2b, 0x2d, 0xf6, 0x48, 0x5c, 0xfe, 0x1a, 0x65, 0x4e, 0x1d, 0x1d, 0xd8,
  0xef, 0x42, 0x2a, 0x4c, 0x47, 0x3d, 0x12, 0xc5, 0xd5, 0x0f, 0x2d, 0x52,
  0x0e, 0x1b, 0x5b, 0x01, 0xd2, 0xcf, 0x22, 0xbc, 0x0d, 0xdc, 0x36, 0xfb,
  0x4b, 0x2b, 0x49, 0xc5, 0x13, 0x2c, 0x17, 0x37, 0xcc, 0xfb, 0x22, 0xb9,
  0x40, 0xcf, 0x38, 0x0d, 0x0a, 0xd3, 0xd8, 0x46, 0xc4, 0x28, 0x37, 0xc8,
  0xb5, 0x17, 0xba, 0x29, 0xef, 0xf8, 0x41, 0xcc, 0x1b, 0x17, 0xfa, 0x09,
  0x31, 0x0e, 0xe0, 0x4c, 0xf3, 0xc1, 0x1c, 0x2b, 0xfd, 0x2e, 0x07, 0x3a,
  0xc4, 0x0e, 0x24, 0xca, 0x3e, 0x01, 0x45, 0x06, 0x1b, 0x48, 0xc8, 0x0c,
  0xe6, 0xf5, 0xc0, 0x21, 0xd6, 0x5a, 0x57, 0xe2, 0xda, 0x28, 0xd2, 0x0b,
  0x21, 0x15, 0x42, 0x55, 0xea, 0xc2, 0xdd, 0x45, 0x0d, 0x1a, 0xc4, 0x1a,
  0xaf, 0x58, 0x0c, 0xce, 0xd6, 0x24, 0xf0, 0xbb, 0xd0, 0xa0, 0x02, 0x22,
  0xd9, 0xd0, 0x2a, 0xe8, 0x00, 0x18, 0x21, 0x16, 0x0a, 0xfc, 0x1d, 0xc8,
  0xb5, 0xa2, 0xaa, 0xcd, 0xb9, 0x15, 0xef, 0x0c, 0xaf, 0xa2, 0xb8, 0x28,
  0x00, 0x3b, 0xdb, 0xde, 0x45, 0x09, 0x2e, 0xc9, 0x09, 0xae, 0xcf, 0x35,
  0xb3, 0x17, 0xe8, 0xdb, 0xeb, 0xf1, 0xd9, 0xe4, 0xf0, 0x1d, 0xca, 0x24,
  0xbe, 0x17, 0xd4, 0xbf, 0xc7, 0xe4, 0x2e, 0xff, 0x38, 0x23, 0x0d, 0xdc,
  0xbc, 0xe7, 0x37, 0xff, 0xc0, 0xfe, 0x20, 0x20, 0xb3, 0x37, 0x09, 0xd0,
  0x4d, 0x3a, 0xbd, 0x0f, 0x4e, 0xc2, 0x00, 0xd3, 0xc4, 0x26, 0xf9, 0x21,
  0xfc, 0x2d, 0x49, 0xb7, 0x43, 0x0e, 0xb2, 0xea, 0x36, 0xd0, 0x28, 0x61,
  0xbe, 0xf1, 0xea, 0x05, 0xb5, 0x41, 0x36, 0xd5, 0xe3, 0x41, 0xee, 0x15,
  0xf4, 0xd0, 0x2e, 0x01, 0x0e, 0x96, 0xcd, 0xf8, 0xc9, 0xd6, 0xd4, 0xb1,
  0xe3, 0x49, 0xdb, 0x56, 0x1a, 0xd2, 0x63, 0xfe, 0x09, 0x30, 0x11, 0xf9,
  0x6a, 0xfc, 0x40, 0xf4, 0xb3, 0xfc, 0xe0, 0x9a, 0x17, 0xc9, 0x1f, 0x3c,
  0xfb, 0x30, 0x19, 0x14, 0xf3, 0xef, 0x2b, 0xf1, 0x09, 0x34, 0x24, 0x40,
  0x40, 0xfc, 0xc1, 0x0a, 0xcf, 0x4c, 0x31, 0x53, 0x6d, 0xe2, 0x56, 0x48,
  0x5b, 0x5c, 0xd4, 0x04, 0x1d, 0xee, 0x5c, 0x50, 0xbe, 0x3d, 0x19, 0x3b,
  0x00, 0x09, 0x1e, 0x1d, 0x0f, 0xea, 0xd8, 0x48, 0x1b, 0x44, 0xf6, 0x10,
  0x7f, 0xf4, 0x4d, 0x36, 0xcf, 0xd1, 0x28, 0xfd, 0xf5, 0xcd, 0xfb, 0xd4,
  0x44, 0x0c, 0x4a, 0x17, 0x26, 0x48, 0xea, 0x05, 0x0a, 0x40, 0xdb, 0x5e,
  0x40, 0x25, 0xf8, 0x5f, 0xba, 0x41, 0xfe, 0xfc, 0x12, 0x45, 0xcc, 0x65,
  0x1a, 0xda, 0xdd, 0x35, 0xbc, 0xf8, 0x27, 0x07, 0x32, 0x59, 0xeb, 0x3c,
  0xc2, 0xc9, 0x5e, 0x57, 0xfe, 0xe0, 0x48, 0xc4, 0x16, 0x26, 0xe2, 0xa5,
  0x36, 0xf8, 0xe6, 0xf0, 0x18, 0x34, 0xdc, 0x34, 0xee, 0x2b, 0x0d, 0x09,
  0xa5, 0xaf, 0x50, 0x10, 0x3b, 0x3c, 0x4e, 0xf8, 0xdb, 0xeb, 0xc6, 0xd9,
  0xf5, 0x23, 0x13, 0xb8, 0x01, 0x34, 0x02, 0x54, 0x2c, 0x10, 0x3a, 0xd0,
  0x50, 0x00, 0xd4, 0xbe, 0x31, 0x23, 0xe5, 0x27, 0xe6, 0x50, 0xeb, 0xc6,
  0x23, 0xbd, 0xc7, 0x26, 0xf0, 0xcd, 0x0c, 0x0f, 0x30, 0xf5, 0xd5, 0x15,
  0x28, 0x4a, 0x08, 0xc9, 0xee, 0xee, 0x1d, 0x46, 0x44, 0xda, 0x17, 0x3f,
  0xec, 0x27, 0xb2, 0x4d, 0x2d, 0x48, 0xf6, 0xbb, 0x9b, 0x10, 0x3e, 0xe0,
  0x3e, 0x4e, 0xd1, 0x19, 0x14, 0x18, 0x47, 0xee, 0x36, 0xe4, 0xe9, 0xe4,
  0x5f, 0x4f, 0xb1, 0x05, 0xaf, 0x1f, 0xdb, 0xd7, 0x34, 0xcc, 0x20, 0x49,
  0x33, 0xee, 0x3b, 0xcc, 0xe9, 0xd9, 0x22, 0xcd, 0xf7, 0x19, 0x1b, 0xd7,
  0x28, 0x41, 0x06, 0xfd, 0x39, 0x1c, 0x31, 0x1f, 0xfa, 0x03, 0xd6, 0x12,
  0x10, 0x32, 0xf9, 0xea, 0x45, 0x32, 0xe9, 0x39, 0xa9, 0x0e, 0xb1, 0x1f,
  0xcf, 0xcf, 0x33, 0x4c, 0xf8, 0x44, 0x0c, 0xef, 0xd3, 0x1f, 0x00, 0x2a,
  0x12, 0xe0, 0xb5, 0xcc, 0xc4, 0x35, 0xcc, 0x1b, 0xc9, 0xce, 0x3f, 0x51,
  0xba, 0x65, 0xe8, 0x3a, 0x4d, 0x03, 0xe6, 0x28, 0x07, 0x10, 0x43, 0xe9,
  0xe8, 0x0d, 0x13, 0xdc, 0x11, 0x2a, 0xca, 0x04, 0x23, 0x50, 0x0a, 0xd0,
  0x38, 0x08, 0x3f, 0xfb, 0x6b, 0x11, 0xf4, 0xf0, 0xfb, 0xcd, 0x42, 0xfb,
  0x36, 0x0f, 0xd4, 0xb9, 0x3a, 0x19, 0x20, 0xee, 0xfa, 0xf5, 0xfa, 0x12,
  0x65, 0x14, 0x36, 0x2d, 0x2f, 0x1c, 0xdd, 0xee, 0xe1, 0xeb, 0xbf, 0xe3,
  0x1d, 0xf1, 0xf0, 0x1a, 0xeb, 0x15, 0xbe, 0x43, 0x39, 0xdb, 0x05, 0x10,
  0xde, 0xfd, 0x32, 0x4b, 0x47, 0x26, 0x0e, 0x1c, 0x15, 0xa4, 0x2f, 0xe1,
  0xdb, 0xdd, 0x39, 0xe7, 0x19, 0xd9, 0x2b, 0xd3, 0x2f, 0x27, 0xfa, 0xc0,
  0xf2, 0x0a, 0x39, 0x34, 0x50, 0x9f, 0x15, 0x32, 0x04, 0x22, 0x1f, 0x13,
  0x52, 0xba, 0x32, 0xde, 0x3d, 0x24, 0xc6, 0x11, 0xc2, 0x12, 0x3e, 0xf6,
  0x06, 0x1a, 0x40, 0x42, 0x18, 0x05, 0xf6, 0x93, 0xd5, 0x9e, 0xf1, 0xc6,
  0x4a, 0xfd, 0x01, 0xf3, 0x57, 0xeb, 0x33, 0x21, 0xe7, 0x04, 0x15, 0x37,
  0xd9, 0x20, 0x35, 0xf5, 0x4f, 0x0e, 0xec, 0xdf, 0x5d, 0xf3, 0x36, 0x4e,
  0x36, 0x1b, 0x0e, 0xcc, 0x0f, 0x22, 0x3a, 0xc2, 0x3d, 0x33, 0xc6, 0x4d,
  0xcf, 0x1e, 0x4a, 0xcd, 0x4d, 0x4a, 0xfd, 0x4b, 0x4c, 0xde, 0xbb, 0xe9,
  0x14, 0x2f, 0xdb, 0x52, 0xe5, 0xc9, 0x3c, 0xf4, 0x3f, 0x50, 0x22, 0xcf,
  0x4f, 0xdf, 0x4d, 0x18, 0xf7, 0x51, 0x3c, 0xfb, 0x09, 0xf2, 0x3a, 0xed,
  0xd6, 0x35, 0xef, 0x37, 0x42, 0x19, 0x65, 0x04, 0x27, 0xb9, 0x1b, 0xd4,
  0xde, 0x4b, 0xdd, 0x3a, 0x42, 0x34, 0x18, 0x08, 0x2e, 0x10, 0xd1, 0x2e,
  0xf5, 0x23, 0xed, 0xdd, 0xd3, 0x23, 0xec, 0xb7, 0x37, 0x08, 0xdf, 0x45,
  0xd1, 0x12, 0xdf, 0x0a, 0xea, 0xaf, 0x06, 0x63, 0xb3, 0x54, 0xa9, 0x0c,
  0x2d, 0x4c, 0xdb, 0x2c, 0x44, 0x08, 0x0e, 0x1d, 0x3f, 0x1b, 0x3e, 0xfe,
  0xd1, 0x1b, 0xd4, 0x45, 0xd8, 0xdf, 0x12, 0xb0, 0xc7, 0x58, 0xe3, 0xaf,
  0x3e, 0xd4, 0xf4, 0x0f, 0xb8, 0xc7, 0xe3, 0xdf, 0x1a, 0x1a, 0x39, 0xe0,
  0xab, 0x32, 0xca, 0x1b, 0xba, 0x58, 0x20, 0xce, 0x4a, 0xc5, 0x32, 0xfb,
  0x03, 0x0d, 0x30, 0xf5, 0xf3, 0xe7, 0xd1, 0xc8, 0xd0, 0x50, 0xce, 0xa4,
  0xe3, 0x00, 0xbc, 0x46, 0xd6, 0xd5, 0x49, 0x02, 0xcd, 0xc2, 0x00, 0x00,
  0x1d, 0x29, 0xd7, 0xe3, 0x1d, 0x40, 0x39, 0x2c, 0xfb, 0xf7, 0x33, 0xf1,
  0x3c, 0xfc, 0xfe, 0xc0, 0x43, 0x1d, 0xef, 0x11, 0xce, 0xfa, 0xbd, 0xfc,
  0x27, 0x5a, 0xc7, 0x1f, 0xec, 0xe8, 0xa9, 0x3b, 0xae, 0x13, 0x13, 0x1d,
  0xc1, 0xad, 0xe2, 0xd4, 0xce, 0x00, 0x40, 0xe1, 0x90, 0x2a, 0xde, 0xe5,
  0xa3, 0x0f, 0x42, 0x35, 0x0d, 0xaf, 0xf4, 0xfa, 0xc0, 0xd1, 0x2a, 0xe0,
  0xa5, 0x1d, 0xb9, 0xf0, 0xca, 0x9f, 0xd4, 0xe4, 0xfb, 0xba, 0xf5, 0xbb,
  0xbd, 0xf9, 0xd0, 0x0c, 0xd7, 0xbb, 0xd2, 0xb7, 0x2b, 0x2a, 0x40, 0x45,
  0x2f, 0x06, 0xa5, 0xd8, 0xb4, 0xc2, 0xa6, 0xfb, 0xd9, 0xe0, 0x3f, 0xaa,
  0xc9, 0xd4, 0xf8, 0xcd, 0x05, 0x1b, 0x32, 0xbc, 0xeb, 0x16, 0x1a, 0xd2,
  0xcf, 0xf5, 0x1e, 0x16, 0xc2, 0xe7, 0xc9, 0x42, 0x0d, 0xe3, 0xbf, 0x1a,
  0xe9, 0x3d, 0x2a, 0xcf, 0xf5, 0xa7, 0xd6, 0xfd, 0x14, 0xd1, 0x2a, 0xd8,
  0xb6, 0xb0, 0x3f, 0xe3, 0xe4, 0x17, 0xa8, 0x1b, 0xf2, 0xee, 0xbe, 0x3c,
  0xed, 0xb7, 0xd9, 0xbf, 0xce, 0x46, 0xce, 0x24, 0xc2, 0xcb, 0x51, 0x3f,
  0xc8, 0x4c, 0xce, 0xce, 0xdf, 0x04, 0x22, 0xe3, 0xe6, 0xd3, 0x3c, 0x10,
  0x99, 0x54, 0x44, 0xcc, 0x25, 0xe0, 0x31, 0x2c, 0x10, 0x60, 0xb4, 0x34,
  0x31, 0x36, 0x13, 0xd7, 0x29, 0x43, 0xdf, 0xe4, 0x0e, 0x0c, 0x38, 0xc0,
  0xcc, 0xe1, 0x61, 0xe4, 0x23, 0xdb, 0xe4, 0xe4, 0x11, 0x3b, 0x33, 0xd4,
  0xbc, 0xda, 0x2a, 0x22, 0xf4, 0x41, 0xe6, 0xff, 0xc2, 0x44, 0x2f, 0x44,
  0x2f, 0x32, 0x0c, 0xd4, 0x0a, 0x11, 0xc7, 0x35, 0x2b, 0xc5, 0xec, 0x17,
  0xa5, 0x58, 0xd2, 0xc7, 0xbb, 0xd0, 0xde, 0x2a, 0xc6, 0x1e, 0x2f, 0x3d,
  0xee, 0xfc, 0x0a, 0x0f, 0x23, 0xd6, 0x02, 0xb6, 0xa8, 0x46, 0xe3, 0xcf,
  0xe9, 0x2a, 0x4e, 0x1e, 0xd9, 0xdf, 0x22, 0x49, 0xdd, 0x12, 0x31, 0x57,
  0xa1, 0x16, 0xe0, 0xc1, 0x27, 0xd4, 0xb3, 0xeb, 0xb7, 0xee, 0x26, 0xdc,
  0xd7, 0xf1, 0xca, 0xc3, 0x1b, 0x13, 0xe8, 0x46, 0x11, 0x42, 0xe7, 0x10,
  0x06, 0xc9, 0x30, 0x3c, 0x11, 0xd8, 0xd7, 0x0b, 0x02, 0xc3, 0xff, 0xdb,
  0x20, 0x02, 0x35, 0xfa, 0x21, 0xe6, 0x3c, 0xc6, 0x20, 0xfb, 0x0c, 0xd3,
  0x22, 0xcd, 0xc7, 0xec, 0x17, 0xb6, 0x26, 0xe8, 0x02, 0xff, 0xd8, 0xb9,
  0x30, 0xce, 0x0e, 0x98, 0x25, 0x1d, 0xe9, 0x13, 0x19, 0xd1, 0x17, 0xa6,
  0x1b, 0x8e, 0x20, 0xf7, 0xb3, 0x02, 0x22, 0x9f, 0x57, 0xac, 0x4f, 0xd8,
  0xc1, 0xd8, 0x5b, 0x0d, 0xc6, 0x32, 0x1a, 0xfb, 0x41, 0xac, 0x34, 0x2e,
  0xbf, 0xf7, 0x20, 0x13, 0x6d, 0xd6, 0xc5, 0xb0, 0x66, 0xb0, 0x30, 0x2a,
  0xb4, 0x3b, 0xb3, 0xcc, 0x08, 0x3a, 0xbc, 0x0b, 0xbc, 0x2d, 0x05, 0x50,
  0x36, 0x04, 0xef, 0x2d, 0x46, 0xe7, 0x15, 0xf3, 0xdc, 0x00, 0x3a, 0x3e,
  0xca, 0xf2, 0xe9, 0x18, 0x48, 0x0d, 0x2c, 0xdf, 0xd6, 0xeb, 0xfb, 0x56,
  0xfe, 0xd8, 0x36, 0xe3, 0x2a, 0x38, 0xd1, 0xc2, 0x13, 0xf3, 0x1f, 0x28,
  0x1d, 0xc9, 0x26, 0x56, 0xd8, 0x1a, 0xd0, 0x2c, 0x37, 0x5b, 0x19, 0x17,
  0xd9, 0x4e, 0x58, 0x40, 0xe2, 0x02, 0x17, 0xce, 0xdb, 0x12, 0xbc, 0x35,
  0xf4, 0x30, 0x20, 0x50, 0xda, 0xc1, 0xac, 0x31, 0xb0, 0x2b, 0x57, 0x0e,
  0xea, 0x5b, 0xaa, 0x9c, 0x33, 0xc0, 0x4d, 0xea, 0x01, 0xdf, 0xa1, 0xca,
  0x1a, 0x21, 0xbe, 0x3b, 0xe2, 0xc6, 0x1f, 0xc0, 0xc9, 0xf3, 0x3a, 0xe7,
  0x39, 0xe2, 0xdf, 0xf1, 0x92, 0x22, 0x01, 0x36, 0x14, 0x30, 0x36, 0x26,
  0xbb, 0xb1, 0xf7, 0x05, 0xba, 0xda, 0xfc, 0xa7, 0xfe, 0xd9, 0x28, 0x19,
  0x35, 0x39, 0xca, 0x52, 0xfb, 0x39, 0xe0, 0x08, 0xfd, 0x07, 0x19, 0x3e,
  0x12, 0xd7, 0xc2, 0xc9, 0x01, 0x06, 0x44, 0xe9, 0x3a, 0xe3, 0x1c, 0x52,
  0xc6, 0x39, 0xac, 0x29, 0xce, 0xbc, 0x2e, 0xe0, 0xbe, 0x21, 0x2a, 0xfa,
  0xbf, 0xb5, 0x1b, 0x11, 0xd7, 0xbc, 0x02, 0x2b, 0xa6, 0xb7, 0x10, 0xb3,
  0x42, 0x2b, 0xcf, 0xac, 0xb3, 0xb5, 0xcf, 0xd0, 0xb4, 0xc7, 0x2d, 0xe9,
  0xd5, 0xd9, 0x1d, 0x2a, 0x2c, 0xa2, 0x04, 0x17, 0x41, 0xe6, 0xc1, 0xdb,
  0x07, 0xe3, 0xaf, 0x08, 0x03, 0x0d, 0x06, 0xb6, 0xa9, 0xb6, 0x24, 0x98,
  0xe3, 0x1d, 0xa0, 0x3b, 0xe9, 0xf6, 0x2d, 0x19, 0xb2, 0x2a, 0xc9, 0xc7,
  0xf7, 0xd2, 0xa0, 0xd7, 0xea, 0x31, 0xb2, 0x98, 0xbf, 0x37, 0xef, 0x18,
  0x31, 0xe9, 0xcb, 0xfc, 0xc1, 0x3f, 0xbf, 0x04, 0xc5, 0x02, 0xd0, 0x0e,
  0xbe, 0xcd, 0xc1, 0x0b, 0x9c, 0xeb, 0x24, 0xe4, 0x18, 0x9a, 0xf2, 0x5e,
  0x35, 0x17, 0xdf, 0xdc, 0xcd, 0xea, 0x27, 0xd8, 0xe0, 0xc7, 0xcf, 0xdd,
  0xe9, 0xd2, 0x14, 0xaf, 0x36, 0xe2, 0x41, 0xdb, 0xf8, 0x22, 0xa5, 0x30,
  0xcf, 0x28, 0x25, 0x00, 0xeb, 0xf2, 0xdb, 0x40, 0x16, 0x08, 0xc8, 0xf1,
  0xf3, 0x00, 0x48, 0xce, 0xb0, 0x4b, 0x23, 0xa9, 0xa4, 0x46, 0x00, 0xc5,
  0xed, 0x0a, 0xfc, 0x2f, 0xea, 0x0e, 0x05, 0x4a, 0xe6, 0xfa, 0xf1, 0x4e,
  0xf5, 0xef, 0x0d, 0x1b, 0xc4, 0xdf, 0xb3, 0x17, 0x2f, 0xcb, 0xc8, 0xdd,
  0x22, 0xf9, 0x10, 0x19, 0xb2, 0x68, 0x4a, 0x2a, 0xe5, 0xf0, 0x30, 0x18,
  0x19, 0xc5, 0x15, 0x25, 0x39, 0xc1, 0x1f, 0x31, 0x0a, 0xff, 0xe9, 0x07,
  0x33, 0x3e, 0xb5, 0x4e, 0xfe, 0x33, 0xbb, 0xcb, 0x0b, 0xca, 0xb7, 0x61,
  0x28, 0x2a, 0x03, 0x39, 0x17, 0x4c, 0xf1, 0xa9, 0xf0, 0x41, 0xbd, 0xc5,
  0xbe, 0x2e, 0xd0, 0x28, 0xf3, 0x04, 0x27, 0x1d, 0x98, 0x1a, 0xe0, 0xcb,
  0x15, 0xd7, 0x17, 0x3c, 0xd1, 0x09, 0xc2, 0xaf, 0xf2, 0xdd, 0x23, 0x04,
  0x27, 0x35, 0xa0, 0x46, 0xa5, 0x19, 0xc2, 0x30, 0x09, 0xb8, 0xef, 0x37,
  0xbe, 0x4f, 0x1a, 0x17, 0x33, 0xba, 0xd7, 0xaa, 0xa4, 0xf7, 0x14, 0xed,
  0x2d, 0xa3, 0x28, 0x12, 0x34, 0xab, 0xff, 0xd1, 0xd3, 0xc0, 0xc2, 0xd3,
  0x43, 0xec, 0xc3, 0xe6, 0xa9, 0xf1, 0xe4, 0xb5, 0xe5, 0x18, 0xce, 0xa7,
  0xbd, 0xbc, 0x0a, 0xd1, 0x41, 0x16, 0xec, 0xab, 0x06, 0xa7, 0xd9, 0x21,
  0x28, 0x19, 0xe0, 0x3d, 0xc9, 0x11, 0xcf, 0x05, 0x02, 0x18, 0xd0, 0x44,
  0xce, 0xe5, 0x2c, 0xe6, 0xb2, 0x1e, 0x47, 0xae, 0xd0, 0x1c, 0xfc, 0xb6,
  0x4c, 0x00, 0xb7, 0xc5, 0xf2, 0x22, 0x34, 0x2a, 0x25, 0xd4, 0x3d, 0xe1,
  0x2f, 0xa5, 0x4f, 0xd7, 0xbf, 0xfb, 0x13, 0xd1, 0x1f, 0xcb, 0xb3, 0xcf,
  0xb8, 0xed, 0xc1, 0xbd, 0xcd, 0x25, 0xac, 0x28, 0xbb, 0xfa, 0x44, 0x37,
  0xf7, 0xbe, 0x2d, 0x31, 0xf6, 0xe7, 0xf3, 0xf0, 0x3a, 0xa6, 0x02, 0x0c,
  0x01, 0x23, 0xd7, 0xbd, 0xde, 0xa9, 0xb2, 0x02, 0xae, 0xe9, 0xcd, 0x1b,
  0x4c, 0x9c, 0xe4, 0xdf, 0xcd, 0xd4, 0x4b, 0x51, 0xb7, 0x1f, 0xba, 0xf1,
  0xe5, 0x31, 0x03, 0x2f, 0x45, 0xa1, 0xe9, 0x19, 0x05, 0xb6, 0x12, 0x2b,
  0x3a, 0xc2, 0xf6, 0xee, 0xd4, 0x4b, 0xd6, 0x4d, 0x14, 0xbc, 0x3a, 0xe1,
  0x1d, 0x1d, 0xf4, 0x2d, 0xc3, 0xef, 0xd1, 0x1b, 0xfb, 0xe1, 0x11, 0xd4,
  0xd0, 0xe9, 0x0f, 0x38, 0xbe, 0xd5, 0xc7, 0xcc, 0xf5, 0xc4, 0xd8, 0x28,
  0xf2, 0x45, 0x35, 0x32, 0xd4, 0x3b, 0x53, 0x0f, 0xe3, 0xe3, 0xea, 0x46,
  0x5b, 0x1c, 0xb3, 0x23, 0xbe, 0xa0, 0x29, 0x21, 0x32, 0xe9, 0x26, 0xae,
  0x1e, 0xfb, 0x17, 0x1d, 0x2c, 0xf7, 0xef, 0x31, 0x29, 0xfa, 0xdd, 0x00,
  0x3d, 0x1e, 0xe4, 0x09, 0x3e, 0xf4, 0xcc, 0x00, 0x50, 0xb3, 0x48, 0xed,
  0xf1, 0xe1, 0xfe, 0xee, 0x45, 0x32, 0x2e, 0x2f, 0x0b, 0x24, 0x10, 0x13,
  0xc9, 0xc6, 0xe8, 0x51, 0xe1, 0xf6, 0x23, 0xd1, 0x21, 0x29, 0xe1, 0xdc,
  0xec, 0x49, 0xf6, 0xe3, 0x00, 0x4e, 0x1a, 0x33, 0xb4, 0xe1, 0x34, 0x23,
  0xf0, 0xaf, 0x25, 0x1e, 0x12, 0xb8, 0xcf, 0xcb, 0x05, 0x3f, 0x04, 0x58,
  0x68, 0x2c, 0xeb, 0x28, 0x18, 0xe8, 0x12, 0xd4, 0x28, 0xe3, 0x35, 0x30,
  0xfc, 0x41, 0x30, 0x30, 0x26, 0xda, 0x02, 0xdc, 0xae, 0xf9, 0xf7, 0xf5,
  0x2a, 0xd3, 0x3e, 0xac, 0xb8, 0xfa, 0x45, 0x11, 0xb2, 0x35, 0xf7, 0x45,
  0x44, 0xee, 0x56, 0x48, 0x30, 0xad, 0x21, 0xe1, 0xdd, 0x37, 0x5f, 0xaf,
  0xe3, 0x14, 0x37, 0x16, 0xf4, 0xfd, 0xea, 0x35, 0x48, 0xdb, 0x4f, 0x40,
  0xdf, 0xb8, 0x32, 0xfc, 0xe9, 0x0b, 0x3c, 0x02, 0xc1, 0xec, 0x43, 0x30,
  0xd9, 0xff, 0xd9, 0xf4, 0xee, 0x3a, 0xd3, 0x5e, 0xc1, 0xe5, 0x39, 0xaa,
  0x00, 0x14, 0x5a, 0x07, 0x35, 0x25, 0xe5, 0xf0, 0x00, 0xa6, 0x1f, 0xf2,
  0xde, 0x2d, 0xe0, 0xf5, 0xe4, 0x47, 0xbb, 0x0c, 0x31, 0x49, 0x33, 0xeb,
  0x12, 0x2c, 0x1e, 0xbf, 0xe6, 0x35, 0x1f, 0xf7, 0x22, 0x44, 0xf6, 0xd6,
  0x51, 0x31, 0x9d, 0x0d, 0xf4, 0xc7, 0x07, 0x24, 0xfa, 0xc1, 0xb4, 0xdc,
  0xf9, 0x0b, 0xde, 0xf5, 0xf0, 0xd3, 0xc1, 0x24, 0x3f, 0x0a, 0xab, 0x40,
  0x0a, 0x48, 0xff, 0x21, 0xc1, 0xff, 0xcb, 0xcd, 0x40, 0xa6, 0xb4, 0x38,
  0x1e, 0x4c, 0x27, 0xee, 0xc8, 0x42, 0xc0, 0x02, 0xc5, 0xf3, 0xc6, 0xd2,
  0x37, 0xea, 0x46, 0xe9, 0x0d, 0x18, 0xe1, 0xf7, 0x43, 0xef, 0x2b, 0x35,
  0x09, 0xfe, 0x32, 0x20, 0xe6, 0xe9, 0x32, 0xd2, 0x9f, 0x48, 0xd8, 0xf3,
  0xfd, 0x31, 0xbb, 0xc4, 0x3c, 0x37, 0xbe, 0x3f, 0xd0, 0x08, 0xb4, 0xbc,
  0x2b, 0x1c, 0x0e, 0x20, 0xb2, 0x2a, 0x05, 0x33, 0x17, 0x5d, 0x43, 0x3e,
  0xfc, 0x08, 0x5a, 0x5b, 0x0e, 0xe8, 0x13, 0xe6, 0x58, 0xc3, 0x51, 0xdf,
  0xc3, 0x0d, 0x3b, 0x4d, 0xca, 0xfc, 0xe2, 0xfa, 0xf0, 0xeb, 0x54, 0x18,
  0xc9, 0xca, 0x30, 0x2b, 0x0a, 0xd5, 0xd5, 0x11, 0xf8, 0x36, 0xc2, 0xf3,
  0x2e, 0x39, 0x35, 0x3a, 0x11, 0xb0, 0xf8, 0xfa, 0x4a, 0xc2, 0xd9, 0xe2,
  0xf5, 0xaf, 0xd0, 0xd8, 0x2f, 0x28, 0xed, 0xfa, 0x09, 0x9b, 0xe3, 0x1b,
  0xe6, 0xb7, 0xd7, 0xdc, 0x17, 0xf0, 0xbe, 0xe0, 0xe8, 0x03, 0xe3, 0x28,
  0x45, 0xc8, 0xe6, 0xbd, 0xf1, 0x3c, 0xd2, 0x3a, 0x16, 0x46, 0x1f, 0xca,
  0xd0, 0x97, 0xec, 0x0d, 0xaa, 0x9e, 0xe8, 0x00, 0x49, 0xe6, 0x02, 0xb1,
  0x44, 0xaa, 0x3c, 0x46, 0x2a, 0xfc, 0xbb, 0x12, 0xb7, 0xc7, 0x12, 0x03,
  0x4b, 0x2e, 0xe9, 0xac, 0x39, 0x00, 0xd4, 0x64, 0xf7, 0x10, 0x13, 0xf9,
  0x5e, 0xd2, 0x4a, 0xec, 0xd6, 0x24, 0x14, 0xf9, 0x4d, 0x27, 0x33, 0xd0,
  0xc6, 0x25, 0x18, 0xdd, 0xfb, 0x21, 0xbb, 0x43, 0x67, 0xf8, 0x34, 0xc4,
  0xc9, 0x33, 0xce, 0x56, 0xf3, 0x23, 0xc9, 0x05, 0x23, 0x5f, 0x51, 0xde,
  0xdc, 0x64, 0x30, 0x4d, 0x5b, 0xb1, 0x48, 0xd6, 0xfb, 0xcc, 0x23, 0x27,
  0x72, 0xfc, 0xdf, 0x32, 0x1d, 0xdb, 0x21, 0x34, 0xfd, 0x3c, 0x1b, 0x37,
  0xde, 0x05, 0x04, 0x50, 0xb3, 0x01, 0x1f, 0xb5, 0x4e, 0xc9, 0xc8, 0x08,
  0x20, 0xdc, 0x4a, 0x39, 0xc3, 0xf6, 0x35, 0xf2, 0x16, 0x57, 0x32, 0x0c,
  0xba, 0x32, 0x09, 0xbc, 0xbc, 0x00, 0x05, 0x36, 0xf6, 0xf0, 0xef, 0x09,
  0x3c, 0x39, 0xf2, 0x1e, 0xee, 0x04, 0xfc, 0x38, 0xf9, 0x05, 0x0f, 0xf5,
  0x59, 0xe1, 0x12, 0x13, 0xda, 0x46, 0x31, 0xe0, 0x3e, 0xaf, 0xb1, 0xb6,
  0xc0, 0x45, 0xf8, 0xc7, 0xce, 0x2f, 0xe4, 0xb2, 0x37, 0x0f, 0x13, 0x2c,
  0x08, 0x0e, 0x66, 0xd1, 0xc6, 0x44, 0xed, 0x2e, 0x5c, 0xd2, 0x36, 0xef,
  0xfb, 0x4a, 0xf8, 0xc5, 0x15, 0x17, 0xd6, 0x0f, 0xfc, 0xb8, 0xa2, 0xec,
  0x4a, 0xd1, 0x21, 0x1a, 0x25, 0xdd, 0xa9, 0xc1, 0x05, 0xc0, 0xcc, 0x2a,
  0x25, 0x39, 0xc8, 0xdf, 0xde, 0xb6, 0x04, 0xdf, 0x48, 0xdf, 0x2d, 0x22,
  0x3f, 0x2e, 0xe1, 0xd7, 0xbb, 0x22, 0xab, 0x26, 0xca, 0xce, 0x39, 0xbc,
  0xfe, 0x4a, 0xe6, 0x39, 0x11, 0xa6, 0xfd, 0xd8, 0xde, 0x24, 0x07, 0x1e,
  0x1d, 0x3e, 0x19, 0xcd, 0x02, 0xbe, 0xc4, 0x43, 0xa2, 0x43, 0xc7, 0xf6,
  0xec, 0x2d, 0x17, 0x21, 0xf5, 0xdd, 0xf3, 0xfd, 0x04, 0xbe, 0xf6, 0xe2,
  0xe4, 0xed, 0x0e, 0x41, 0x74, 0xea, 0xff, 0xff, 0x78, 0xea, 0xff, 0xff,
  0x7c, 0xea, 0xff, 0xff, 0x92, 0xfa, 0xff, 0xff, 0x04, 0x00, 0x00, 0x00,
  0x50, 0x00, 0x00, 0x00, 0x2f, 0x00, 0x00, 0x00, 0xeb, 0xff, 0xff, 0xff,
  0x92, 0x00, 0x00, 0x00, 0x48, 0x00, 0x00, 0x00, 0x11, 0xff, 0xff, 0xff,
  0xf5, 0xff, 0xff, 0xff, 0x08, 0xff, 0xff, 0xff, 0x71, 0xff, 0xff, 0xff,
  0x6f, 0xff, 0xff, 0xff, 0xf1, 0xff, 0xff, 0xff, 0xae, 0xff, 0xff, 0xff,
  0x57, 0xff, 0xff, 0xff, 0xd2, 0xff, 0xff, 0xff, 0xd0, 0xff, 0xff, 0xff,
  0x47, 0x00, 0x00, 0x00, 0x51, 0x00, 0x00, 0x00, 0x7e, 0x00, 0x00, 0x00,
  0xac, 0xff, 0xff, 0xff, 0x7d, 0x00, 0x00, 0x00, 0x49, 0x00, 0x00, 0x00,
  0xee, 0xfa, 0xff, 0xff, 0x04, 0x00, 0x00, 0x00, 0x20, 0x03, 0x00, 0x00,
  0xe3, 0xda, 0x2f, 0x32, 0xb8, 0x81, 0x27, 0xc9, 0xcb, 0xaf, 0xd3, 0x0d,
  0xdd, 0x5c, 0x9b, 0xa9, 0x01, 0x2e, 0x5d, 0x2a, 0x0f, 0xa9, 0xe1, 0x5c,
  0xd6, 0xb8, 0xc9, 0xfa, 0xe2, 0xfc, 0xae, 0x0d, 0x1d, 0xc0, 0xd8, 0x94,
  0x3f, 0x27, 0xb7, 0xf7, 0xcd, 0x4d, 0x6a, 0xcf, 0x77, 0x7d, 0xe6, 0xcd,
  0xf7, 0xd2, 0x29, 0x04, 0x0c, 0xb4, 0xb8, 0x7f, 0x0e, 0x5f, 0xb3, 0xb9,
  0x2e, 0x26, 0x39, 0x02, 0x68, 0x37, 0xec, 0xb7, 0xc6, 0x59, 0x57, 0x4e,
  0xf2, 0x2b, 0x28, 0x69, 0xd2, 0xf7, 0x01, 0x21, 0xe4, 0xae, 0xb3, 0x51,
  0xd5, 0xbc, 0x41, 0xe3, 0xb8, 0x51, 0xb6, 0xc9, 0x0d, 0x10, 0xc1, 0x20,
  0xd3, 0xc7, 0xbd, 0x60, 0x62, 0x62, 0xaa, 0x40, 0xba, 0xbe, 0xa2, 0x02,
  0xe4, 0xd5, 0xa0, 0x1e, 0xf9, 0x27, 0x49, 0x47, 0x81, 0x10, 0xf6, 0x52,
  0xef, 0x93, 0x81, 0x55, 0x18, 0xe0, 0xa0, 0x3c, 0x0a, 0x59, 0x60, 0x16,
  0xf3, 0x56, 0xa2, 0x99, 0xb8, 0xf3, 0xbd, 0xf7, 0x44, 0xa5, 0xdb, 0xef,
  0xdc, 0x45, 0xbe, 0xe6, 0xfa, 0x30, 0x1d, 0x95, 0xde, 0x16, 0xac, 0x9b,
  0xec, 0xfe, 0x4c, 0x1b, 0xfa, 0x81, 0xff, 0xc6, 0x95, 0x1a, 0x45, 0xd9,
  0xb7, 0xb8, 0x1f, 0xeb, 0xb3, 0x2b, 0xfb, 0xd3, 0xad, 0x98, 0xfe, 0x33,
  0xb2, 0xb0, 0x0b, 0x65, 0x8f, 0x74, 0x16, 0x9c, 0x34, 0xe7, 0x91, 0x31,
  0x69, 0x17, 0xa3, 0x12, 0xf5, 0xb7, 0x01, 0xcb, 0x31, 0x06, 0xc8, 0xc7,
  0xca, 0x53, 0xae, 0xb3, 0x40, 0xde, 0x4a, 0xf1, 0x81, 0xe8, 0x23, 0xf5,
  0x83, 0x58, 0xc9, 0x1b, 0xd6, 0x07, 0x32, 0xc6, 0xed, 0x58, 0x2b, 0xfb,
  0x32, 0x4e, 0x20, 0x46, 0xea, 0xa9, 0x28, 0x35, 0xdc, 0xb9, 0xd2, 0xb1,
  0x44, 0x3d, 0x64, 0xac, 0x32, 0x61, 0x78, 0x00, 0x39, 0xb3, 0x25, 0x4a,
  0x46, 0x5c, 0xe3, 0xe3, 0x03, 0x8d, 0x29, 0xd0, 0x30, 0x42, 0x0b, 0xce,
  0x61, 0x1c, 0x7b, 0x89, 0xe1, 0x55, 0xbb, 0xef, 0x55, 0x9d, 0x95, 0x7f,
  0xad, 0x49, 0xe2, 0xe4, 0xd1, 0x51, 0x5a, 0xed, 0x36, 0x61, 0x2f, 0xea,
  0x99, 0xef, 0xcd, 0xdf, 0xfe, 0x24, 0x61, 0x67, 0xa0, 0x14, 0x14, 0xfb,
  0xe3, 0x7f, 0x2a, 0xa0, 0x72, 0x0e, 0x46, 0xbf, 0x3d, 0x64, 0xd7, 0x60,
  0xad, 0x36, 0x5c, 0xed, 0x92, 0x35, 0xb8, 0xc8, 0xb9, 0x09, 0xba, 0xda,
  0xba, 0xdb, 0xa0, 0x3f, 0x8b, 0xab, 0x4a, 0xd1, 0x0b, 0xa8, 0x22, 0x31,
  0xfe, 0x28, 0x81, 0x06, 0x46, 0x8b, 0x02, 0x08, 0xd1, 0x16, 0x2b, 0xfd,
  0xe4, 0x38, 0x3a, 0x41, 0xae, 0x1a, 0x1a, 0x58, 0x9c, 0x4a, 0xb4, 0xfa,
  0x39, 0x31, 0x7f, 0xe8, 0x29, 0x0a, 0x12, 0x40, 0x5e, 0xe8, 0x36, 0x91,
  0x3f, 0x0e, 0xaf, 0xbd, 0xbf, 0x96, 0x21, 0x0b, 0x26, 0x02, 0x5a, 0x4c,
  0xe1, 0xbc, 0x6d, 0xbf, 0xf9, 0x22, 0xae, 0x16, 0x3a, 0xae, 0x2a, 0xfe,
  0x6c, 0xe6, 0x7b, 0xf7, 0x14, 0x8a, 0x39, 0xb1, 0xfe, 0x50, 0x81, 0x1c,
  0x50, 0x0f, 0xec, 0x3d, 0xef, 0xa3, 0x83, 0x20, 0x16, 0x5e, 0xc7, 0xf2,
  0xf9, 0xd1, 0x88, 0x64, 0x89, 0x6d, 0xdd, 0x63, 0xa5, 0x29, 0x3b, 0x05,
  0xbb, 0xc3, 0x8a, 0x31, 0x81, 0xa7, 0x42, 0x23, 0xc4, 0x2d, 0xaa, 0x4a,
  0xcc, 0xd7, 0x40, 0x68, 0xa7, 0x2c, 0x0e, 0xa1, 0xd7, 0x97, 0x4d, 0xd1,
  0x8a, 0x81, 0xcc, 0x96, 0x06, 0x5c, 0xd9, 0x52, 0xd6, 0x78, 0xaa, 0x32,
  0xee, 0xc1, 0x2e, 0x2d, 0x91, 0xdf, 0xfd, 0x70, 0x2d, 0x19, 0x07, 0xc3,
  0xfb, 0x2a, 0xf7, 0xa0, 0x4c, 0x81, 0xb0, 0xb9, 0x59, 0xfd, 0x0b, 0x9d,
  0x5b, 0xa3, 0xbe, 0xe2, 0x7a, 0x48, 0xaa, 0x5a, 0xab, 0xbb, 0x06, 0xd9,
  0xcb, 0xaf, 0x67, 0xe3, 0x62, 0x15, 0x5c, 0xe3, 0x34, 0x6a, 0x19, 0xd3,
  0x30, 0x4c, 0x89, 0x6a, 0x93, 0x09, 0x47, 0xbd, 0x23, 0x82, 0x53, 0x05,
  0x64, 0x26, 0x63, 0x8a, 0xbb, 0x22, 0x96, 0xfc, 0xc9, 0x6b, 0x5c, 0x1c,
  0xf9, 0x13, 0x3f, 0xad, 0xc4, 0x41, 0xea, 0x81, 0x9d, 0xe2, 0xd2, 0xc3,
  0x44, 0x7c, 0xe0, 0x9c, 0xbc, 0x0a, 0x52, 0x54, 0x01, 0x65, 0x94, 0x23,
  0x38, 0xac, 0xc8, 0xd3, 0xc5, 0x39, 0x2c, 0x99, 0x83, 0x4b, 0xae, 0x02,
  0x1f, 0x08, 0xb3, 0x9d, 0x46, 0xa4, 0x30, 0x43, 0xc9, 0xc6, 0xfe, 0x4d,
  0xe8, 0x98, 0xed, 0xc7, 0xdd, 0x81, 0x27, 0x03, 0x0f, 0x24, 0x67, 0x2a,
  0x26, 0x3b, 0x41, 0xcd, 0x46, 0xae, 0xcd, 0xab, 0x42, 0x39, 0xe4, 0xdc,
  0xba, 0xd5, 0x39, 0x4e, 0x31, 0x4c, 0x20, 0xf4, 0xd6, 0x52, 0x51, 0xf6,
  0xec, 0x00, 0xaa, 0xd4, 0x47, 0xd3, 0xbb, 0x0e, 0x19, 0xca, 0x41, 0x7f,
  0xe0, 0xc1, 0xd1, 0x4d, 0xfa, 0xca, 0xf3, 0xe6, 0xae, 0xf4, 0x9c, 0xdd,
  0xea, 0xf3, 0x23, 0xc8, 0xca, 0x13, 0xda, 0x59, 0xe7, 0xd0, 0x0a, 0x0e,
  0xd9, 0xbf, 0x88, 0x2f, 0xbb, 0x0e, 0xff, 0x55, 0xde, 0x33, 0xe2, 0xcc,
  0x81, 0x2f, 0x88, 0xe3, 0xea, 0xee, 0x09, 0x32, 0xf5, 0x7f, 0x58, 0xfb,
  0x1f, 0xed, 0x66, 0x55, 0xfd, 0xcd, 0xa8, 0x7c, 0xec, 0xa8, 0xda, 0x2b,
  0x3e, 0xb4, 0xaf, 0x2d, 0xfb, 0x3d, 0xbc, 0xde, 0x5a, 0xbc, 0xc5, 0x62,
  0xd2, 0xea, 0x10, 0x7e, 0xe5, 0x14, 0xfb, 0x43, 0x03, 0xcc, 0x4b, 0xf4,
  0x3b, 0xb3, 0x81, 0x50, 0x31, 0xea, 0x05, 0xb8, 0xf5, 0xda, 0x0e, 0xe0,
  0x0b, 0xf1, 0xe9, 0x4b, 0xa9, 0x45, 0x40, 0xc8, 0xf3, 0x3f, 0xa1, 0x47,
  0xa9, 0xcf, 0xa7, 0xb1, 0xc6, 0x30, 0x16, 0xfb, 0xb5, 0x43, 0xa8, 0x72,
  0x2f, 0xcf, 0x1b, 0xfb, 0xd5, 0x3f, 0x66, 0xa1, 0xcd, 0xd5, 0x64, 0xf5,
  0xe8, 0x3c, 0x13, 0x13, 0xeb, 0xe4, 0xa0, 0x0b, 0x25, 0x61, 0x3c, 0x0a,
  0xb4, 0xf6, 0x3d, 0xfa, 0x48, 0x81, 0xcb, 0x2f, 0xb6, 0x0c, 0x02, 0xec,
  0xc0, 0x3e, 0xb9, 0x99, 0x76, 0xc4, 0xb8, 0x0a, 0x08, 0xee, 0xff, 0xff,
  0x0c, 0xee, 0xff, 0xff, 0x22, 0xfe, 0xff, 0xff, 0x04, 0x00, 0x00, 0x00,
  0x28, 0x00, 0x00, 0x00, 0x00, 0x00, 0x00, 0x00, 0xe0, 0xff, 0xff, 0xff,
  0x02, 0x00, 0x00, 0x00, 0x04, 0x00, 0x00, 0x00, 0xe2, 0xff, 0xff, 0xff,
  0xe1, 0xff, 0xff, 0xff, 0xe5, 0xff, 0xff, 0xff, 0x02, 0x00, 0x00, 0x00,
  0xf2, 0xff, 0xff, 0xff, 0x01, 0x00, 0x00, 0x00, 0x56, 0xfe, 0xff, 0xff,
  0x04, 0x00, 0x00, 0x00, 0xf0, 0x00, 0x00, 0x00, 0xc8, 0x41, 0x7f, 0x44,
  0x48, 0x54, 0x42, 0x18, 0x32, 0x50, 0xbf, 0x25, 0x95, 0x11, 0xd7, 0x4e,
  0xcc, 0xc3, 0xad, 0x1c, 0x77, 0x66, 0x0c, 0xe3, 0xa7, 0xf3, 0x78, 0xe1,
  0xdf, 0x1a, 0x26, 0x03, 0x8d, 0x0c, 0xae, 0x5e, 0x56, 0x7f, 0xb4, 0xb7,
  0xb8, 0x68, 0x23, 0x09, 0xdb, 0x28, 0xf2, 0x60, 0xa2, 0xfd, 0xfd, 0xcd,
  0x9f, 0xc4, 0xdc, 0xf8, 0xe4, 0xd5, 0xc5, 0xcc, 0x90, 0xc6, 0xee, 0xf2,
  0xae, 0xc3, 0x81, 0xd9, 0x15, 0xa9, 0xa9, 0xc1, 0xcf, 0x16, 0xb7, 0x47,
  0xeb, 0x0f, 0xf6, 0xf8, 0xb0, 0x53, 0x01, 0x8b, 0x31, 0xcb, 0xab, 0x18,
  0x40, 0x81, 0x16, 0xf6, 0x21, 0x00, 0xe2, 0x09, 0xb2, 0xd4, 0x81, 0x10,
  0xde, 0x30, 0xe6, 0xda, 0xb9, 0x40, 0x7a, 0xd4, 0xf1, 0x8c, 0x52, 0x1c,
  0x63, 0xf7, 0xfb, 0xf3, 0xd7, 0xda, 0x03, 0xd5, 0x17, 0xed, 0x70, 0x23,
  0xe6, 0x66, 0xf7, 0x4a, 0x79, 0xf7, 0xdd, 0x31, 0xc8, 0x19, 0x14, 0xf2,
  0xdb, 0x7f, 0x43, 0x19, 0xf2, 0x43, 0xe8, 0x6c, 0xdc, 0xee, 0xae, 0x47,
  0xd4, 0xc2, 0x14, 0xb8, 0x81, 0xf8, 0xbb, 0xf9, 0xff, 0xa2, 0x97, 0xc4,
  0xca, 0xe9, 0x1f, 0xc2, 0x98, 0xeb, 0xd7, 0xeb, 0x09, 0xef, 0xac, 0x43,
  0xf2, 0xa3, 0xc7, 0xc8, 0xc0, 0xfc, 0xda, 0x81, 0x37, 0x20, 0xeb, 0x56,
  0x3a, 0xa2, 0x02, 0x67, 0x45, 0x52, 0x46, 0x56, 0xd7, 0xe5, 0x82, 0xb0,
  0xcd, 0x8b, 0x09, 0x36, 0xdb, 0x27, 0xd0, 0xd8, 0xc8, 0x04, 0xe2, 0x25,
  0xdf, 0x81, 0x49, 0xef, 0xa7, 0x12, 0xf9, 0x9a, 0xc9, 0x33, 0xe3, 0xad,
  0x65, 0xd8, 0xb7, 0xe7, 0xd7, 0x7f, 0x67, 0xeb, 0xdc, 0x43, 0x26, 0xf6,
  0xb9, 0x51, 0xa0, 0xe6, 0xfe, 0x23, 0xdd, 0x0d, 0x52, 0xff, 0xff, 0xff,
  0x04, 0x00, 0x00, 0x00, 0x08, 0x00, 0x00, 0x00, 0xff, 0xff, 0xff, 0xff,
  0x50, 0x00, 0x00, 0x00, 0x54, 0xef, 0xff, 0xff, 0x58, 0xef, 0xff, 0xff,
  0x0f, 0x00, 0x00, 0x00, 0x4d, 0x4c, 0x49, 0x52, 0x20, 0x43, 0x6f, 0x6e,
  0x76, 0x65, 0x72, 0x74, 0x65, 0x64, 0x2e, 0x00, 0x01, 0x00, 0x00, 0x00,
  0x14, 0x00, 0x00, 0x00, 0x00, 0x00, 0x0e, 0x00, 0x18, 0x00, 0x14, 0x00,
  0x10, 0x00, 0x0c, 0x00, 0x08, 0x00, 0x04, 0x00, 0x0e, 0x00, 0x00, 0x00,
  0x14, 0x00, 0x00, 0x00, 0x1c, 0x00, 0x00, 0x00, 0x80, 0x02, 0x00, 0x00,
  0x84, 0x02, 0x00, 0x00, 0x88, 0x02, 0x00, 0x00, 0x04, 0x00, 0x00, 0x00,
  0x6d, 0x61, 0x69, 0x6e, 0x00, 0x00, 0x00, 0x00, 0x09, 0x00, 0x00, 0x00,
  0x1c, 0x02, 0x00, 0x00, 0xbc, 0x01, 0x00, 0x00, 0x6c, 0x01, 0x00, 0x00,
  0x2c, 0x01, 0x00, 0x00, 0x04, 0x01, 0x00, 0x00, 0xb4, 0x00, 0x00, 0x00,
  0x78, 0x00, 0x00, 0x00, 0x40, 0x00, 0x00, 0x00, 0x04, 0x00, 0x00, 0x00,
  0x72, 0xfe, 0xff, 0xff, 0x1c, 0x00, 0x00, 0x00, 0x00, 0x00, 0x00, 0x09,
  0x1c, 0x00, 0x00, 0x00, 0x20, 0x00, 0x00, 0x00, 0x04, 0x00, 0x00, 0x00,
  0x00, 0x00, 0x06, 0x00, 0x08, 0x00, 0x04, 0x00, 0x06, 0x00, 0x00, 0x00,
  0x00, 0x00, 0x80, 0x3f, 0x01, 0x00, 0x00, 0x00, 0x14, 0x00, 0x00, 0x00,
  0x01, 0x00, 0x00, 0x00, 0x13, 0x00, 0x00, 0x00, 0xaa, 0xfe, 0xff, 0xff,
  0x14, 0x00, 0x00, 0x00, 0x00, 0x00, 0x00, 0x08, 0x10, 0x00, 0x00, 0x00,
  0x14, 0x00, 0x00, 0x00, 0x03, 0x00, 0x00, 0x00, 0x24, 0xf0, 0xff, 0xff,
  0x01, 0x00, 0x00, 0x00, 0x13, 0x00, 0x00, 0x00, 0x03, 0x00, 0x00, 0x00,
  0x10, 0x00, 0x00, 0x00, 0x11, 0x00, 0x00, 0x00, 0x12, 0x00, 0x00, 0x00,
  0xde, 0xfe, 0xff, 0xff, 0x14, 0x00, 0x00, 0x00, 0x00, 0x00, 0x00, 0x08,
  0x14, 0x00, 0x00, 0x00, 0x18, 0x00, 0x00, 0x00, 0x03, 0x00, 0x00, 0x00,
  0xc6, 0xff, 0xff, 0xff, 0x00, 0x00, 0x00, 0x01, 0x01, 0x00, 0x00, 0x00,
  0x10, 0x00, 0x00, 0x00, 0x03, 0x00, 0x00, 0x00, 0x0d, 0x00, 0x00, 0x00,
  0x0e, 0x00, 0x00, 0x00, 0x0f, 0x00, 0x00, 0x00, 0x16, 0xff, 0xff, 0xff,
  0x1c, 0x00, 0x00, 0x00, 0x00, 0x00, 0x00, 0x08, 0x1c, 0x00, 0x00, 0x00,
  0x20, 0x00, 0x00, 0x00, 0x03, 0x00, 0x00, 0x00, 0x00, 0x00, 0x06, 0x00,
  0x08, 0x00, 0x07, 0x00, 0x06, 0x00, 0x00, 0x00, 0x00, 0x00, 0x00, 0x01,
  0x01, 0x00, 0x00, 0x00, 0x0d, 0x00, 0x00, 0x00, 0x03, 0x00, 0x00, 0x00,
  0x0a, 0x00, 0x00, 0x00, 0x0b, 0x00, 0x00, 0x00, 0x0c, 0x00, 0x00, 0x00,
  0x00, 0x00, 0x0a, 0x00, 0x10, 0x00, 0x0c, 0x00, 0x08, 0x00, 0x04, 0x00,
  0x0a, 0x00, 0x00, 0x00, 0x0c, 0x00, 0x00, 0x00, 0x10, 0x00, 0x00, 0x00,
  0x02, 0x00, 0x00, 0x00, 0x01, 0x00, 0x00, 0x00, 0x0a, 0x00, 0x00, 0x00,
  0x02, 0x00, 0x00, 0x00, 0x09, 0x00, 0x00, 0x00, 0x01, 0x00, 0x00, 0x00,
  0x86, 0xff, 0xff, 0xff, 0x14, 0x00, 0x00, 0x00, 0x00, 0x00, 0x00, 0x05,
  0x20, 0x00, 0x00, 0x00, 0x24, 0x00, 0x00, 0x00, 0x01, 0x00, 0x00, 0x00,
  0x76, 0xff, 0xff, 0xff, 0x03, 0x00, 0x00, 0x00, 0x01, 0x00, 0x00, 0x00,
  0x03, 0x00, 0x00, 0x00, 0x01, 0x00, 0x00, 0x00, 0x01, 0x00, 0x00, 0x00,
  0x09, 0x00, 0x00, 0x00, 0x01, 0x00, 0x00, 0x00, 0x08, 0x00, 0x00, 0x00,
  0x66, 0xff, 0xff, 0xff, 0x10, 0x00, 0x00, 0x00, 0x00, 0x00, 0x00, 0x01,
  0x18, 0x00, 0x00, 0x00, 0x1c, 0x00, 0x00, 0x00, 0x58, 0xff, 0xff, 0xff,
  0x00, 0x00, 0x00, 0x01, 0x01, 0x00, 0x00, 0x00, 0x01, 0x00, 0x00, 0x00,
  0x01, 0x00, 0x00, 0x00, 0x08, 0x00, 0x00, 0x00, 0x03, 0x00, 0x00, 0x00,
  0x05, 0x00, 0x00, 0x00, 0x06, 0x00, 0x00, 0x00, 0x07, 0x00, 0x00, 0x00,
  0x00, 0x00, 0x0e, 0x00, 0x1a, 0x00, 0x14, 0x00, 0x10, 0x00, 0x0c, 0x00,
  0x0b, 0x00, 0x04, 0x00, 0x0e, 0x00, 0x00, 0x00, 0x24, 0x00, 0x00, 0x00,
  0x00, 0x00, 0x00, 0x05, 0x30, 0x00, 0x00, 0x00, 0x34, 0x00, 0x00, 0x00,
  0x01, 0x00, 0x00, 0x00, 0x00, 0x00, 0x0e, 0x00, 0x14, 0x00, 0x00, 0x00,
  0x10, 0x00, 0x0c, 0x00, 0x08, 0x00, 0x04, 0x00, 0x0e, 0x00, 0x00, 0x00,
  0x03, 0x00, 0x00, 0x00, 0x03, 0x00, 0x00, 0x00, 0x03, 0x00, 0x00, 0x00,
  0x03, 0x00, 0x00, 0x00, 0x01, 0x00, 0x00, 0x00, 0x05, 0x00, 0x00, 0x00,
  0x01, 0x00, 0x00, 0x00, 0x04, 0x00, 0x00, 0x00, 0x00, 0x00, 0x0e, 0x00,
  0x14, 0x00, 0x00, 0x00, 0x10, 0x00, 0x0c, 0x00, 0x0b, 0x00, 0x04, 0x00,
  0x0e, 0x00, 0x00, 0x00, 0x1c, 0x00, 0x00, 0x00, 0x00, 0x00, 0x00, 0x01,
  0x24, 0x00, 0x00, 0x00, 0x28, 0x00, 0x00, 0x00, 0x0c, 0x00, 0x10, 0x00,
  0x00, 0x00, 0x0c, 0x00, 0x08, 0x00, 0x07, 0x00, 0x0c, 0x00, 0x00, 0x00,
  0x00, 0x00, 0x00, 0x01, 0x01, 0x00, 0x00, 0x00, 0x01, 0x00, 0x00, 0x00,
  0x01, 0x00, 0x00, 0x00, 0x04, 0x00, 0x00, 0x00, 0x03, 0x00, 0x00, 0x00,
  0x00, 0x00, 0x00, 0x00, 0x02, 0x00, 0x00, 0x00, 0x03, 0x00, 0x00, 0x00,
  0x01, 0x00, 0x00, 0x00, 0x14, 0x00, 0x00, 0x00, 0x01, 0x00, 0x00, 0x00,
  0x00, 0x00, 0x00, 0x00, 0x15, 0x00, 0x00, 0x00, 0x20, 0x0e, 0x00, 0x00,
  0xbc, 0x0d, 0x00, 0x00, 0xd4, 0x0c, 0x00, 0x00, 0xc0, 0x0b, 0x00, 0x00,
  0xec, 0x0a, 0x00, 0x00, 0x68, 0x0a, 0x00, 0x00, 0x0c, 0x09, 0x00, 0x00,
  0x80, 0x07, 0x00, 0x00, 0xac, 0x06, 0x00, 0x00, 0x28, 0x06, 0x00, 0x00,
  0xb4, 0x05, 0x00, 0x00, 0x00, 0x05, 0x00, 0x00, 0xa4, 0x04, 0x00, 0x00,
  0xf0, 0x03, 0x00, 0x00, 0x3c, 0x03, 0x00, 0x00, 0xe0, 0x02, 0x00, 0x00,
  0x2c, 0x02, 0x00, 0x00, 0x70, 0x01, 0x00, 0x00, 0x0c, 0x01, 0x00, 0x00,
  0x70, 0x00, 0x00, 0x00, 0x04, 0x00, 0x00, 0x00, 0x42, 0xf2, 0xff, 0xff,
  0x14, 0x00, 0x00, 0x00, 0x34, 0x00, 0x00, 0x00, 0x15, 0x00, 0x00, 0x00,
  0x00, 0x00, 0x00, 0x09, 0x48, 0x00, 0x00, 0x00, 0x34, 0xf2, 0xff, 0xff,
  0x08, 0x00, 0x00, 0x00, 0x14, 0x00, 0x00, 0x00, 0x01, 0x00, 0x00, 0x00,
  0x80, 0xff, 0xff, 0xff, 0xff, 0xff, 0xff, 0xff, 0x00, 0x00, 0x00, 0x00,
  0x01, 0x00, 0x00, 0x00, 0x00, 0x00, 0x80, 0x3b, 0x19, 0x00, 0x00, 0x00,
  0x53, 0x74, 0x61, 0x74, 0x65, 0x66, 0x75, 0x6c, 0x50, 0x61, 0x72, 0x74,
  0x69, 0x74, 0x69, 0x6f, 0x6e, 0x65, 0x64, 0x43, 0x61, 0x6c, 0x6c, 0x3a,
  0x30, 0x00, 0x00, 0x00, 0x02, 0x00, 0x00, 0x00, 0x01, 0x00, 0x00, 0x00,
  0x04, 0x00, 0x00, 0x00, 0xaa, 0xf2, 0xff, 0xff, 0x14, 0x00, 0x00, 0x00,
  0x34, 0x00, 0x00, 0x00, 0x14, 0x00, 0x00, 0x00, 0x00, 0x00, 0x00, 0x09,
  0x78, 0x00, 0x00, 0x00, 0x9c, 0xf2, 0xff, 0xff, 0x08, 0x00, 0x00, 0x00,
  0x14, 0x00, 0x00, 0x00, 0x01, 0x00, 0x00, 0x00, 0x02, 0x00, 0x00, 0x00,
  0x00, 0x00, 0x00, 0x00, 0x00, 0x00, 0x00, 0x00, 0x01, 0x00, 0x00, 0x00,
  0x54, 0xd1, 0x46, 0x3d, 0x4a, 0x00, 0x00, 0x00, 0x73, 0x65, 0x71, 0x75,
  0x65, 0x6e, 0x74, 0x69, 0x61, 0x6c, 0x5f, 0x33, 0x2f, 0x71, 0x75, 0x61,
  0x6e, 0x74, 0x5f, 0x43, 0x6c, 0x61, 0x73, 0x73, 0x69, 0x66, 0x69, 0x65,
  0x72, 0x2f, 0x4d, 0x61, 0x74, 0x4d, 0x75, 0x6c, 0x3b, 0x73, 0x65, 0x71,
  0x75, 0x65, 0x6e, 0x74, 0x69, 0x61, 0x6c, 0x5f, 0x33, 0x2f, 0x71, 0x75,
  0x61, 0x6e, 0x74, 0x5f, 0x43, 0x6c, 0x61, 0x73, 0x73, 0x69, 0x66, 0x69,
  0x65, 0x72, 0x2f, 0x42, 0x69, 0x61, 0x73, 0x41, 0x64, 0x64, 0x00, 0x00,
  0x02, 0x00, 0x00, 0x00, 0x01, 0x00, 0x00, 0x00, 0x04, 0x00, 0x00, 0x00,
  0x42, 0xf3, 0xff, 0xff, 0x14, 0x00, 0x00, 0x00, 0x34, 0x00, 0x00, 0x00,
  0x13, 0x00, 0x00, 0x00, 0x00, 0x00, 0x00, 0x02, 0x44, 0x00, 0x00, 0x00,
  0x34, 0xf3, 0xff, 0xff, 0x08, 0x00, 0x00, 0x00, 0x14, 0x00, 0x00, 0x00,
  0x01, 0x00, 0x00, 0x00, 0x00, 0x00, 0x00, 0x00, 0x00, 0x00, 0x00, 0x00,
  0x00, 0x00, 0x00, 0x00, 0x01, 0x00, 0x00, 0x00, 0xdb, 0xeb, 0x36, 0x39,
  0x15, 0x00, 0x00, 0x00, 0x71, 0x75, 0x61, 0x6e, 0x74, 0x5f, 0x43, 0x6c,
  0x61, 0x73, 0x73, 0x69, 0x66, 0x69, 0x65, 0x72, 0x2f, 0x62, 0x69, 0x61,
  0x73, 0x00, 0x00, 0x00, 0x01, 0x00, 0x00, 0x00, 0x04, 0x00, 0x00, 0x00,
  0xa2, 0xf3, 0xff, 0xff, 0x14, 0x00, 0x00, 0x00, 0x34, 0x00, 0x00, 0x00,
  0x12, 0x00, 0x00, 0x00, 0x00, 0x00, 0x00, 0x09, 0x98, 0x00, 0x00, 0x00,
  0x94, 0xf3, 0xff, 0xff, 0x08, 0x00, 0x00, 0x00, 0x14, 0x00, 0x00, 0x00,
  0x01, 0x00, 0x00, 0x00, 0x00, 0x00, 0x00, 0x00, 0x00, 0x00, 0x00, 0x00,
  0x00, 0x00, 0x00, 0x00, 0x01, 0x00, 0x00, 0x00, 0x90, 0xef, 0x66, 0x3b,
  0x69, 0x00, 0x00, 0x00, 0x73, 0x65, 0x71, 0x75, 0x65, 0x6e, 0x74, 0x69,
  0x61, 0x6c, 0x5f, 0x33, 0x2f, 0x71, 0x75, 0x61, 0x6e, 0x74, 0x5f, 0x43,
  0x6c, 0x61, 0x73, 0x73, 0x69, 0x66, 0x69, 0x65, 0x72, 0x2f, 0x4d, 0x61,
  0x74, 0x4d, 0x75, 0x6c, 0x3b, 0x73, 0x65, 0x71, 0x75, 0x65, 0x6e, 0x74,
  0x69, 0x61, 0x6c, 0x5f, 0x33, 0x2f, 0x71, 0x75, 0x61, 0x6e, 0x74, 0x5f,
  0x43, 0x6c, 0x61, 0x73, 0x73, 0x69, 0x66, 0x69, 0x65, 0x72, 0x2f, 0x4c,
  0x61, 0x73, 0x74, 0x56, 0x61, 0x6c, 0x75, 0x65, 0x51, 0x75, 0x61, 0x6e,
  0x74, 0x2f, 0x46, 0x61, 0x6b, 0x65, 0x51, 0x75, 0x61, 0x6e, 0x74, 0x57,
  0x69, 0x74, 0x68, 0x4d, 0x69, 0x6e, 0x4d, 0x61, 0x78, 0x56, 0x61, 0x72,
  0x73, 0x00, 0x00, 0x00, 0x02, 0x00, 0x00, 0x00, 0x04, 0x00, 0x00, 0x00,
  0x20, 0x00, 0x00, 0x00, 0x5a, 0xf4, 0xff, 0xff, 0x14, 0x00, 0x00, 0x00,
  0x30, 0x00, 0x00, 0x00, 0x11, 0x00, 0x00, 0x00, 0x00, 0x00, 0x00, 0x09,
  0x90, 0x00, 0x00, 0x00, 0x4c, 0xf4, 0xff, 0xff, 0x08, 0x00, 0x00, 0x00,
  0x10, 0x00, 0x00, 0x00, 0x01, 0x00, 0x00, 0x00, 0xe4, 0xff, 0xff, 0xff,
  0xff, 0xff, 0xff, 0xff, 0x01, 0x00, 0x00, 0x00, 0x3c, 0xc6, 0x4a, 0x3d,
  0x64, 0x00, 0x00, 0x00, 0x73, 0x65, 0x71, 0x75, 0x65, 0x6e, 0x74, 0x69,
  0x61, 0x6c, 0x5f, 0x33, 0x2f, 0x71, 0x75, 0x61, 0x6e, 0x74, 0x5f, 0x64,
  0x65, 0x6e, 0x73, 0x65, 0x5f, 0x33, 0x2f, 0x4d, 0x61, 0x74, 0x4d, 0x75,
  0x6c, 0x3b, 0x73, 0x65, 0x71, 0x75, 0x65, 0x6e, 0x74, 0x69, 0x61, 0x6c,
  0x5f, 0x33, 0x2f, 0x71, 0x75, 0x61, 0x6e, 0x74, 0x5f, 0x64, 0x65, 0x6e,
  0x73, 0x65, 0x5f, 0x33, 0x2f, 0x42, 0x69, 0x61, 0x73, 0x41, 0x64, 0x64,
  0x3b, 0x73, 0x65, 0x71, 0x75, 0x65, 0x6e, 0x74, 0x69, 0x61, 0x6c, 0x5f,
  0x33, 0x2f, 0x71, 0x75, 0x61, 0x6e, 0x74, 0x5f, 0x64, 0x65, 0x6e, 0x73,
  0x65, 0x5f, 0x33, 0x2f, 0x52, 0x65, 0x6c, 0x75, 0x00, 0x00, 0x00, 0x00,
  0x02, 0x00, 0x00, 0x00, 0x01, 0x00, 0x00, 0x00, 0x20, 0x00, 0x00, 0x00,
  0x0a, 0xf5, 0xff, 0xff, 0x14, 0x00, 0x00, 0x00, 0x30, 0x00, 0x00, 0x00,
  0x10, 0x00, 0x00, 0x00, 0x00, 0x00, 0x00, 0x02, 0x3c, 0x00, 0x00, 0x00,
  0xfc, 0xf4, 0xff, 0xff, 0x08, 0x00, 0x00, 0x00, 0x10, 0x00, 0x00, 0x00,
  0x01, 0x00, 0x00, 0x00, 0x00, 0x00, 0x00, 0x00, 0x00, 0x00, 0x00, 0x00,
  0x01, 0x00, 0x00, 0x00, 0x43, 0x4d, 0x26, 0x39, 0x12, 0x00, 0x00, 0x00,
  0x71, 0x75, 0x61, 0x6e, 0x74, 0x5f, 0x64, 0x65, 0x6e, 0x73, 0x65, 0x5f,
  0x33, 0x2f, 0x62, 0x69, 0x61, 0x73, 0x00, 0x00, 0x01, 0x00, 0x00, 0x00,
  0x20, 0x00, 0x00, 0x00, 0x62, 0xf5, 0xff, 0xff, 0x14, 0x00, 0x00, 0x00,
  0x34, 0x00, 0x00, 0x00, 0x0f, 0x00, 0x00, 0x00, 0x00, 0x00, 0x00, 0x09,
  0x90, 0x00, 0x00, 0x00, 0x54, 0xf5, 0xff, 0xff, 0x08, 0x00, 0x00, 0x00,
  0x14, 0x00, 0x00, 0x00, 0x01, 0x00, 0x00, 0x00, 0x00, 0x00, 0x00, 0x00,
  0x00, 0x00, 0x00, 0x00, 0x00, 0x00, 0x00, 0x00, 0x01, 0x00, 0x00, 0x00,
  0x2d, 0x9f, 0x41, 0x3b, 0x63, 0x00, 0x00, 0x00, 0x73, 0x65, 0x71, 0x75,
  0x65, 0x6e, 0x74, 0x69, 0x61, 0x6c, 0x5f, 0x33, 0x2f, 0x71, 0x75, 0x61,
  0x6e, 0x74, 0x5f, 0x64, 0x65, 0x6e, 0x73, 0x65, 0x5f, 0x33, 0x2f, 0x4d,
  0x61, 0x74, 0x4d, 0x75, 0x6c, 0x3b, 0x73, 0x65, 0x71, 0x75, 0x65, 0x6e,
  0x74, 0x69, 0x61, 0x6c, 0x5f, 0x33, 0x2f, 0x71, 0x75, 0x61, 0x6e, 0x74,
  0x5f, 0x64, 0x65, 0x6e, 0x73, 0x65, 0x5f, 0x33, 0x2f, 0x4c, 0x61, 0x73,
  0x74, 0x56, 0x61, 0x6c, 0x75, 0x65, 0x51, 0x75, 0x61, 0x6e, 0x74, 0x2f,
  0x46, 0x61, 0x6b, 0x65, 0x51, 0x75, 0x61, 0x6e, 0x74, 0x57, 0x69, 0x74,
  0x68, 0x4d, 0x69, 0x6e, 0x4d, 0x61, 0x78, 0x56, 0x61, 0x72, 0x73, 0x00,
  0x02, 0x00, 0x00, 0x00, 0x20, 0x00, 0x00, 0x00, 0x20, 0x00, 0x00, 0x00,
  0x12, 0xf6, 0xff, 0xff, 0x14, 0x00, 0x00, 0x00, 0x30, 0x00, 0x00, 0x00,
  0x0e, 0x00, 0x00, 0x00, 0x00, 0x00, 0x00, 0x09, 0x90, 0x00, 0x00, 0x00,
  0x04, 0xf6, 0xff, 0xff, 0x08, 0x00, 0x00, 0x00, 0x10, 0x00, 0x00, 0x00,
  0x01, 0x00, 0x00, 0x00, 0xdc, 0xff, 0xff, 0xff, 0xff, 0xff, 0xff, 0xff,
  0x01, 0x00, 0x00, 0x00, 0xe4, 0xe0, 0x5b, 0x3d, 0x64, 0x00, 0x00, 0x00,
  0x73, 0x65, 0x71, 0x75, 0x65, 0x6e, 0x74, 0x69, 0x61, 0x6c, 0x5f, 0x33,
  0x2f, 0x71, 0x75, 0x61, 0x6e, 0x74, 0x5f, 0x64, 0x65, 0x6e, 0x73, 0x65,
  0x5f, 0x32, 0x2f, 0x4d, 0x61, 0x74, 0x4d, 0x75, 0x6c, 0x3b, 0x73, 0x65,
  0x71, 0x75, 0x65, 0x6e, 0x74, 0x69, 0x61, 0x6c, 0x5f, 0x33, 0x2f, 0x71,
  0x75, 0x61, 0x6e, 0x74, 0x5f, 0x64, 0x65, 0x6e, 0x73, 0x65, 0x5f, 0x32,
  0x2f, 0x42, 0x69, 0x61, 0x73, 0x41, 0x64, 0x64, 0x3b, 0x73, 0x65, 0x71,
  0x75, 0x65, 0x6e, 0x74, 0x69, 0x61, 0x6c, 0x5f, 0x33, 0x2f, 0x71, 0x75,
  0x61, 0x6e, 0x74, 0x5f, 0x64, 0x65, 0x6e, 0x73, 0x65, 0x5f, 0x32, 0x2f,
  0x52, 0x65, 0x6c, 0x75, 0x00, 0x00, 0x00, 0x00, 0x02, 0x00, 0x00, 0x00,
  0x01, 0x00, 0x00, 0x00, 0x20, 0x00, 0x00, 0x00, 0xc2, 0xf6, 0xff, 0xff,
  0x14, 0x00, 0x00, 0x00, 0x30, 0x00, 0x00, 0x00, 0x0d, 0x00, 0x00, 0x00,
  0x00, 0x00, 0x00, 0x02, 0x3c, 0x00, 0x00, 0x00, 0xb4, 0xf6, 0xff, 0xff,
  0x08, 0x00, 0x00, 0x00, 0x10, 0x00, 0x00, 0x00, 0x01, 0x00, 0x00, 0x00,
  0x00, 0x00, 0x00, 0x00, 0x00, 0x00, 0x00, 0x00, 0x01, 0x00, 0x00, 0x00,
  0x66, 0x8e, 0x1d, 0x39, 0x12, 0x00, 0x00, 0x00, 0x71, 0x75, 0x61, 0x6e,
  0x74, 0x5f, 0x64, 0x65, 0x6e, 0x73, 0x65, 0x5f, 0x32, 0x2f, 0x62, 0x69,
  0x61, 0x73, 0x00, 0x00, 0x01, 0x00, 0x00, 0x00, 0x20, 0x00, 0x00, 0x00,
  0x1a, 0xf7, 0xff, 0xff, 0x14, 0x00, 0x00, 0x00, 0x34, 0x00, 0x00, 0x00,
  0x0c, 0x00, 0x00, 0x00, 0x00, 0x00, 0x00, 0x09, 0x90, 0x00, 0x00, 0x00,
  0x0c, 0xf7, 0xff, 0xff, 0x08, 0x00, 0x00, 0x00, 0x14, 0x00, 0x00, 0x00,
  0x01, 0x00, 0x00, 0x00, 0x00, 0x00, 0x00, 0x00, 0x00, 0x00, 0x00, 0x00,
  0x00, 0x00, 0x00, 0x00, 0x01, 0x00, 0x00, 0x00, 0xd0, 0xd0, 0x35, 0x3b,
  0x63, 0x00, 0x00, 0x00, 0x73, 0x65, 0x71, 0x75, 0x65, 0x6e, 0x74, 0x69,
  0x61, 0x6c, 0x5f, 0x33, 0x2f, 0x71, 0x75, 0x61, 0x6e, 0x74, 0x5f, 0x64,
  0x65, 0x6e, 0x73, 0x65, 0x5f, 0x32, 0x2f, 0x4d, 0x61, 0x74, 0x4d, 0x75,
  0x6c, 0x3b, 0x73, 0x65, 0x71, 0x75, 0x65, 0x6e, 0x74, 0x69, 0x61, 0x6c,
  0x5f, 0x33, 0x2f, 0x71, 0x75, 0x61, 0x6e, 0x74, 0x5f, 0x64, 0x65, 0x6e,
  0x73, 0x65, 0x5f, 0x32, 0x2f, 0x4c, 0x61, 0x73, 0x74, 0x56, 0x61, 0x6c,
  0x75, 0x65, 0x51, 0x75, 0x61, 0x6e, 0x74, 0x2f, 0x46, 0x61, 0x6b, 0x65,
  0x51, 0x75, 0x61, 0x6e, 0x74, 0x57, 0x69, 0x74, 0x68, 0x4d, 0x69, 0x6e,
  0x4d, 0x61, 0x78, 0x56, 0x61, 0x72, 0x73, 0x00, 0x02, 0x00, 0x00, 0x00,
  0x20, 0x00, 0x00, 0x00, 0x50, 0x00, 0x00, 0x00, 0xca, 0xf7, 0xff, 0xff,
  0x14, 0x00, 0x00, 0x00, 0x30, 0x00, 0x00, 0x00, 0x0b, 0x00, 0x00, 0x00,
  0x00, 0x00, 0x00, 0x09, 0x50, 0x00, 0x00, 0x00, 0xbc, 0xf7, 0xff, 0xff,
  0x08, 0x00, 0x00, 0x00, 0x10, 0x00, 0x00, 0x00, 0x01, 0x00, 0x00, 0x00,
  0xdb, 0xff, 0xff, 0xff, 0xff, 0xff, 0xff, 0xff, 0x01, 0x00, 0x00, 0x00,
  0x9e, 0xd7, 0x5d, 0x3d, 0x24, 0x00, 0x00, 0x00, 0x73, 0x65, 0x71, 0x75,
  0x65, 0x6e, 0x74, 0x69, 0x61, 0x6c, 0x5f, 0x33, 0x2f, 0x71, 0x75, 0x61,
  0x6e, 0x74, 0x5f, 0x66, 0x6c, 0x61, 0x74, 0x74, 0x65, 0x6e, 0x5f, 0x31,
  0x2f, 0x52, 0x65, 0x73, 0x68, 0x61, 0x70, 0x65, 0x00, 0x00, 0x00, 0x00,
  0x02, 0x00, 0x00, 0x00, 0x01, 0x00, 0x00, 0x00, 0x50, 0x00, 0x00, 0x00,
  0x3a, 0xf8, 0xff, 0xff, 0x14, 0x00, 0x00, 0x00, 0x34, 0x00, 0x00, 0x00,
  0x0a, 0x00, 0x00, 0x00, 0x00, 0x00, 0x00, 0x09, 0x58, 0x00, 0x00, 0x00,
  0x2c, 0xf8, 0xff, 0xff, 0x08, 0x00, 0x00, 0x00, 0x14, 0x00, 0x00, 0x00,
  0x01, 0x00, 0x00, 0x00, 0xdb, 0xff, 0xff, 0xff, 0xff, 0xff, 0xff, 0xff,
  0x00, 0x00, 0x00, 0x00, 0x01, 0x00, 0x00, 0x00, 0x9e, 0xd7, 0x5d, 0x3d,
  0x2a, 0x00, 0x00, 0x00, 0x73, 0x65, 0x71, 0x75, 0x65, 0x6e, 0x74, 0x69,
  0x61, 0x6c, 0x5f, 0x33, 0x2f, 0x71, 0x75, 0x61, 0x6e, 0x74, 0x5f, 0x6d,
  0x61, 0x78, 0x5f, 0x70, 0x6f, 0x6f, 0x6c, 0x69, 0x6e, 0x67, 0x32, 0x64,
  0x5f, 0x33, 0x2f, 0x4d, 0x61, 0x78, 0x50, 0x6f, 0x6f, 0x6c, 0x00, 0x00,
  0x04, 0x00, 0x00, 0x00, 0x01, 0x00, 0x00, 0x00, 0x04, 0x00, 0x00, 0x00,
  0x01, 0x00, 0x00, 0x00, 0x14, 0x00, 0x00, 0x00, 0xba, 0xf8, 0xff, 0xff,
  0x14, 0x00, 0x00, 0x00, 0x34, 0x00, 0x00, 0x00, 0x09, 0x00, 0x00, 0x00,
  0x00, 0x00, 0x00, 0x09, 0xa8, 0x00, 0x00, 0x00, 0xac, 0xf8, 0xff, 0xff,
  0x08, 0x00, 0x00, 0x00, 0x14, 0x00, 0x00, 0x00, 0x01, 0x00, 0x00, 0x00,
  0xdb, 0xff, 0xff, 0xff, 0xff, 0xff, 0xff, 0xff, 0x00, 0x00, 0x00, 0x00,
  0x01, 0x00, 0x00, 0x00, 0x9e, 0xd7, 0x5d, 0x3d, 0x7b, 0x00, 0x00, 0x00,
  0x73, 0x65, 0x71, 0x75, 0x65, 0x6e, 0x74, 0x69, 0x61, 0x6c, 0x5f, 0x33,
  0x2f, 0x71, 0x75, 0x61, 0x6e, 0x74, 0x5f, 0x63, 0x6f, 0x6e, 0x76, 0x32,
  0x64, 0x5f, 0x33, 0x2f, 0x52, 0x65, 0x6c, 0x75, 0x3b, 0x73, 0x65, 0x71,
  0x75, 0x65, 0x6e, 0x74, 0x69, 0x61, 0x6c, 0x5f, 0x33, 0x2f, 0x71, 0x75,
  0x61, 0x6e, 0x74, 0x5f, 0x63, 0x6f, 0x6e, 0x76, 0x32, 0x64, 0x5f, 0x33,
  0x2f, 0x42, 0x69, 0x61, 0x73, 0x41, 0x64, 0x64, 0x3b, 0x73, 0x65, 0x71,
  0x75, 0x65, 0x6e, 0x74, 0x69, 0x61, 0x6c, 0x5f, 0x33, 0x2f, 0x71, 0x75,
  0x61, 0x6e, 0x74, 0x5f, 0x63, 0x6f, 0x6e, 0x76, 0x32, 0x64, 0x5f, 0x33,
  0x2f, 0x43, 0x6f, 0x6e, 0x76, 0x32, 0x44, 0x3b, 0x71, 0x75, 0x61, 0x6e,
  0x74, 0x5f, 0x63, 0x6f, 0x6e, 0x76, 0x32, 0x64, 0x5f, 0x33, 0x2f, 0x62,
  0x69, 0x61, 0x73, 0x00, 0x04, 0x00, 0x00, 0x00, 0x01, 0x00, 0x00, 0x00,
  0x0a, 0x00, 0x00, 0x00, 0x01, 0x00, 0x00, 0x00, 0x14, 0x00, 0x00, 0x00,
  0x8a, 0xf9, 0xff, 0xff, 0x14, 0x00, 0x00, 0x00, 0x18, 0x01, 0x00, 0x00,
  0x08, 0x00, 0x00, 0x00, 0x00, 0x00, 0x00, 0x02, 0x6c, 0x01, 0x00, 0x00,
  0x7c, 0xf9, 0xff, 0xff, 0x08, 0x00, 0x00, 0x00, 0xac, 0x00, 0x00, 0x00,
  0x14, 0x00, 0x00, 0x00, 0x00, 0x00, 0x00, 0x00, 0x00, 0x00, 0x00, 0x00,
  0x00, 0x00, 0x00, 0x00, 0x00, 0x00, 0x00, 0x00, 0x00, 0x00, 0x00, 0x00,
  0x00, 0x00, 0x00, 0x00, 0x00, 0x00, 0x00, 0x00, 0x00, 0x00, 0x00, 0x00,
  0x00, 0x00, 0x00, 0x00, 0x00, 0x00, 0x00, 0x00, 0x00, 0x00, 0x00, 0x00,
  0x00, 0x00, 0x00, 0x00, 0x00, 0x00, 0x00, 0x00, 0x00, 0x00, 0x00, 0x00,
  0x00, 0x00, 0x00, 0x00, 0x00, 0x00, 0x00, 0x00, 0x00, 0x00, 0x00, 0x00,
  0x00, 0x00, 0x00, 0x00, 0x00, 0x00, 0x00, 0x00, 0x00, 0x00, 0x00, 0x00,
  0x00, 0x00, 0x00, 0x00, 0x00, 0x00, 0x00, 0x00, 0x00, 0x00, 0x00, 0x00,
  0x00, 0x00, 0x00, 0x00, 0x00, 0x00, 0x00, 0x00, 0x00, 0x00, 0x00, 0x00,
  0x00, 0x00, 0x00, 0x00, 0x00, 0x00, 0x00, 0x00, 0x00, 0x00, 0x00, 0x00,
  0x00, 0x00, 0x00, 0x00, 0x00, 0x00, 0x00, 0x00, 0x00, 0x00, 0x00, 0x00,
  0x00, 0x00, 0x00, 0x00, 0x00, 0x00, 0x00, 0x00, 0x00, 0x00, 0x00, 0x00,
  0x00, 0x00, 0x00, 0x00, 0x00, 0x00, 0x00, 0x00, 0x00, 0x00, 0x00, 0x00,
  0x00, 0x00, 0x00, 0x00, 0x00, 0x00, 0x00, 0x00, 0x00, 0x00, 0x00, 0x00,
  0x14, 0x00, 0x00, 0x00, 0x88, 0x22, 0x32, 0x39, 0xc2, 0x05, 0x2d, 0x39,
  0x6b, 0xfd, 0x2a, 0x39, 0x14, 0x07, 0x1d, 0x39, 0x46, 0x24, 0x0f, 0x39,
  0x9f, 0xd0, 0x33, 0x39, 0xdf, 0x4e, 0x0c, 0x39, 0x8c, 0x36, 0x1c, 0x39,
  0xd4, 0x9d, 0x1c, 0x39, 0xa1, 0xf4, 0x1b, 0x39, 0x50, 0xbf, 0x15, 0x39,
  0x3d, 0xcd, 0x0d, 0x39, 0x5e, 0xbb, 0x0e, 0x39, 0x1b, 0xd0, 0x07, 0x39,
  0xbf, 0xdf, 0x11, 0x39, 0x25, 0x61, 0x2c, 0x39, 0x5e, 0xa4, 0x42, 0x39,
  0xb2, 0xba, 0x21, 0x39, 0x81, 0x4d, 0x32, 0x39, 0x8e, 0x19, 0x1c, 0x39,
  0x5a, 0x00, 0x00, 0x00, 0x73, 0x65, 0x71, 0x75, 0x65, 0x6e, 0x74, 0x69,
  0x61, 0x6c, 0x5f, 0x33, 0x2f, 0x71, 0x75, 0x61, 0x6e, 0x74, 0x5f, 0x63,
  0x6f, 0x6e, 0x76, 0x32, 0x64, 0x5f, 0x33, 0x2f, 0x42, 0x69, 0x61, 0x73,
  0x41, 0x64, 0x64, 0x3b, 0x73, 0x65, 0x71, 0x75, 0x65, 0x6e, 0x74, 0x69,
  0x61, 0x6c, 0x5f, 0x33, 0x2f, 0x71, 0x75, 0x61, 0x6e, 0x74, 0x5f, 0x63,
  0x6f, 0x6e, 0x76, 0x32, 0x64, 0x5f, 0x33, 0x2f, 0x43, 0x6f, 0x6e, 0x76,
  0x32, 0x44, 0x3b, 0x71, 0x75, 0x61, 0x6e, 0x74, 0x5f, 0x63, 0x6f, 0x6e,
  0x76, 0x32, 0x64, 0x5f, 0x33, 0x2f, 0x62, 0x69, 0x61, 0x73, 0x00, 0x00,
  0x01, 0x00, 0x00, 0x00, 0x14, 0x00, 0x00, 0x00, 0x12, 0xfb, 0xff, 0xff,
  0x14, 0x00, 0x00, 0x00, 0x14, 0x01, 0x00, 0x00, 0x07, 0x00, 0x00, 0x00,
  0x00, 0x00, 0x00, 0x09, 0x30, 0x01, 0x00, 0x00, 0x04, 0xfb, 0xff, 0xff,
  0x08, 0x00, 0x00, 0x00, 0xa8, 0x00, 0x00, 0x00, 0x14, 0x00, 0x00, 0x00,
  0x00, 0x00, 0x00, 0x00, 0x00, 0x00, 0x00, 0x00, 0x00, 0x00, 0x00, 0x00,
  0x00, 0x00, 0x00, 0x00, 0x00, 0x00, 0x00, 0x00, 0x00, 0x00, 0x00, 0x00,
  0x00, 0x00, 0x00, 0x00, 0x00, 0x00, 0x00, 0x00, 0x00, 0x00, 0x00, 0x00,
  0x00, 0x00, 0x00, 0x00, 0x00, 0x00, 0x00, 0x00, 0x00, 0x00, 0x00, 0x00,
  0x00, 0x00, 0x00, 0x00, 0x00, 0x00, 0x00, 0x00, 0x00, 0x00, 0x00, 0x00,
  0x00, 0x00, 0x00, 0x00, 0x00, 0x00, 0x00, 0x00, 0x00, 0x00, 0x00, 0x00,
  0x00, 0x00, 0x00, 0x00, 0x00, 0x00, 0x00, 0x00, 0x00, 0x00, 0x00, 0x00,
  0x00, 0x00, 0x00, 0x00, 0x00, 0x00, 0x00, 0x00, 0x00, 0x00, 0x00, 0x00,
  0x00, 0x00, 0x00, 0x00, 0x00, 0x00, 0x00, 0x00, 0x00, 0x00, 0x00, 0x00,
  0x00, 0x00, 0x00, 0x00, 0x00, 0x00, 0x00, 0x00, 0x00, 0x00, 0x00, 0x00,
  0x00, 0x00, 0x00, 0x00, 0x00, 0x00, 0x00, 0x00, 0x00, 0x00, 0x00, 0x00,
  0x00, 0x00, 0x00, 0x00, 0x00, 0x00, 0x00, 0x00, 0x00, 0x00, 0x00, 0x00,
  0x00, 0x00, 0x00, 0x00, 0x00, 0x00, 0x00, 0x00, 0x00, 0x00, 0x00, 0x00,
  0x00, 0x00, 0x00, 0x00, 0x14, 0x00, 0x00, 0x00, 0x73, 0x17, 0x12, 0x3b,
  0x1a, 0xe6, 0x0d, 0x3b, 0x5d, 0x3b, 0x0c, 0x3b, 0xfb, 0xc7, 0x00, 0x3b,
  0x3f, 0xc9, 0xea, 0x3a, 0x2c, 0x78, 0x13, 0x3b, 0x6b, 0x23, 0xe6, 0x3a,
  0xf6, 0x1c, 0x00, 0x3b, 0xaa, 0x71, 0x00, 0x3b, 0xce, 0xcd, 0xff, 0x3a,
  0xf2, 0x9e, 0xf5, 0x3a, 0x96, 0x96, 0xe8, 0x3a, 0x2c, 0x1d, 0xea, 0x3a,
  0xe4, 0xc3, 0xde, 0x3a, 0x8b, 0x44, 0xef, 0x3a, 0x19, 0x5f, 0x0d, 0x3b,
  0x22, 0xa1, 0x1f, 0x3b, 0x17, 0xa3, 0x04, 0x3b, 0xb1, 0x3a, 0x12, 0x3b,
  0x2f, 0x05, 0x00, 0x3b, 0x22, 0x00, 0x00, 0x00, 0x73, 0x65, 0x71, 0x75,
  0x65, 0x6e, 0x74, 0x69, 0x61, 0x6c, 0x5f, 0x33, 0x2f, 0x71, 0x75, 0x61,
  0x6e, 0x74, 0x5f, 0x63, 0x6f, 0x6e, 0x76, 0x32, 0x64, 0x5f, 0x33, 0x2f,
  0x43, 0x6f, 0x6e, 0x76, 0x32, 0x44, 0x00, 0x00, 0x04, 0x00, 0x00, 0x00,
  0x14, 0x00, 0x00, 0x00, 0x04, 0x00, 0x00, 0x00, 0x01, 0x00, 0x00, 0x00,
  0x0a, 0x00, 0x00, 0x00, 0x6a, 0xfc, 0xff, 0xff, 0x14, 0x00, 0x00, 0x00,
  0x34, 0x00, 0x00, 0x00, 0x06, 0x00, 0x00, 0x00, 0x00, 0x00, 0x00, 0x09,
  0x58, 0x00, 0x00, 0x00, 0x5c, 0xfc, 0xff, 0xff, 0x08, 0x00, 0x00, 0x00,
  0x14, 0x00, 0x00, 0x00, 0x01, 0x00, 0x00, 0x00, 0xc1, 0xff, 0xff, 0xff,
  0xff, 0xff, 0xff, 0xff, 0x00, 0x00, 0x00, 0x00, 0x01, 0x00, 0x00, 0x00,
  0x3c, 0x13, 0x9c, 0x3d, 0x2a, 0x00, 0x00, 0x00, 0x73, 0x65, 0x71, 0x75,
  0x65, 0x6e, 0x74, 0x69, 0x61, 0x6c, 0x5f, 0x33, 0x2f, 0x71, 0x75, 0x61,
  0x6e, 0x74, 0x5f, 0x6d, 0x61, 0x78, 0x5f, 0x70, 0x6f, 0x6f, 0x6c, 0x69,
  0x6e, 0x67, 0x32, 0x64, 0x5f, 0x32, 0x2f, 0x4d, 0x61, 0x78, 0x50, 0x6f,
  0x6f, 0x6c, 0x00, 0x00, 0x04, 0x00, 0x00, 0x00, 0x01, 0x00, 0x00, 0x00,
  0x0a, 0x00, 0x00, 0x00, 0x01, 0x00, 0x00, 0x00, 0x0a, 0x00, 0x00, 0x00,
  0xea, 0xfc, 0xff, 0xff, 0x14, 0x00, 0x00, 0x00, 0x34, 0x00, 0x00, 0x00,
  0x05, 0x00, 0x00, 0x00, 0x00, 0x00, 0x00, 0x09, 0xa8, 0x00, 0x00, 0x00,
  0xdc, 0xfc, 0xff, 0xff, 0x08, 0x00, 0x00, 0x00, 0x14, 0x00, 0x00, 0x00,
  0x01, 0x00, 0x00, 0x00, 0xc1, 0xff, 0xff, 0xff, 0xff, 0xff, 0xff, 0xff,
  0x00, 0x00, 0x00, 0x00, 0x01, 0x00, 0x00, 0x00, 0x3c, 0x13, 0x9c, 0x3d,
  0x7b, 0x00, 0x00, 0x00, 0x73, 0x65, 0x71, 0x75, 0x65, 0x6e, 0x74, 0x69,
  0x61, 0x6c, 0x5f, 0x33, 0x2f, 0x71, 0x75, 0x61, 0x6e, 0x74, 0x5f, 0x63,
  0x6f, 0x6e, 0x76, 0x32, 0x64, 0x5f, 0x32, 0x2f, 0x52, 0x65, 0x6c, 0x75,
  0x3b, 0x73, 0x65, 0x71, 0x75, 0x65, 0x6e, 0x74, 0x69, 0x61, 0x6c, 0x5f,
  0x33, 0x2f, 0x71, 0x75, 0x61, 0x6e, 0x74, 0x5f, 0x63, 0x6f, 0x6e, 0x76,
  0x32, 0x64, 0x5f, 0x32, 0x2f, 0x42, 0x69, 0x61, 0x73, 0x41, 0x64, 0x64,
  0x3b, 0x73, 0x65, 0x71, 0x75, 0x65, 0x6e, 0x74, 0x69, 0x61, 0x6c, 0x5f,
  0x33, 0x2f, 0x71, 0x75, 0x61, 0x6e, 0x74, 0x5f, 0x63, 0x6f, 0x6e, 0x76,
  0x32, 0x64, 0x5f, 0x32, 0x2f, 0x43, 0x6f, 0x6e, 0x76, 0x32, 0x44, 0x3b,
  0x71, 0x75, 0x61, 0x6e, 0x74, 0x5f, 0x63, 0x6f, 0x6e, 0x76, 0x32, 0x64,
  0x5f, 0x32, 0x2f, 0x62, 0x69, 0x61, 0x73, 0x00, 0x04, 0x00, 0x00, 0x00,
  0x01, 0x00, 0x00, 0x00, 0x1e, 0x00, 0x00, 0x00, 0x03, 0x00, 0x00, 0x00,
  0x0a, 0x00, 0x00, 0x00, 0xba, 0xfd, 0xff, 0xff, 0x14, 0x00, 0x00, 0x00,
  0xa0, 0x00, 0x00, 0x00, 0x04, 0x00, 0x00, 0x00, 0x00, 0x00, 0x00, 0x02,
  0xf4, 0x00, 0x00, 0x00, 0xac, 0xfd, 0xff, 0xff, 0x08, 0x00, 0x00, 0x00,
  0x5c, 0x00, 0x00, 0x00, 0x0a, 0x00, 0x00, 0x00, 0x00, 0x00, 0x00, 0x00,
  0x00, 0x00, 0x00, 0x00, 0x00, 0x00, 0x00, 0x00, 0x00, 0x00, 0x00, 0x00,
  0x00, 0x00, 0x00, 0x00, 0x00, 0x00, 0x00, 0x00, 0x00, 0x00, 0x00, 0x00,
  0x00, 0x00, 0x00, 0x00, 0x00, 0x00, 0x00, 0x00, 0x00, 0x00, 0x00, 0x00,
  0x00, 0x00, 0x00, 0x00, 0x00, 0x00, 0x00, 0x00, 0x00, 0x00, 0x00, 0x00,
  0x00, 0x00, 0x00, 0x00, 0x00, 0x00, 0x00, 0x00, 0x00, 0x00, 0x00, 0x00,
  0x00, 0x00, 0x00, 0x00, 0x00, 0x00, 0x00, 0x00, 0x00, 0x00, 0x00, 0x00,
  0x00, 0x00, 0x00, 0x00, 0x00, 0x00, 0x00, 0x00, 0x0a, 0x00, 0x00, 0x00,
  0x04, 0xe1, 0x9a, 0x3a, 0x3a, 0xfd, 0xa7, 0x3a, 0xd6, 0xf6, 0xdd, 0x3a,
  0x92, 0x81, 0xde, 0x3a, 0x53, 0x3c, 0xc4, 0x3a, 0x99, 0xac, 0xd1, 0x3a,
  0x63, 0xed, 0xbe, 0x3a, 0xbb, 0xad, 0xec, 0x3a, 0xd0, 0xa3, 0xb0, 0x3a,
  0xc3, 0xe7, 0x88, 0x3a, 0x5a, 0x00, 0x00, 0x00, 0x73, 0x65, 0x71, 0x75,
  0x65, 0x6e, 0x74, 0x69, 0x61, 0x6c, 0x5f, 0x33, 0x2f, 0x71, 0x75, 0x61,
  0x6e, 0x74, 0x5f, 0x63, 0x6f, 0x6e, 0x76, 0x32, 0x64, 0x5f, 0x32, 0x2f,
  0x42, 0x69, 0x61, 0x73, 0x41, 0x64, 0x64, 0x3b, 0x73, 0x65, 0x71, 0x75,
  0x65, 0x6e, 0x74, 0x69, 0x61, 0x6c, 0x5f, 0x33, 0x2f, 0x71, 0x75, 0x61,
  0x6e, 0x74, 0x5f, 0x63, 0x6f, 0x6e, 0x76, 0x32, 0x64, 0x5f, 0x32, 0x2f,
  0x43, 0x6f, 0x6e, 0x76, 0x32, 0x44, 0x3b, 0x71, 0x75, 0x61, 0x6e, 0x74,
  0x5f, 0x63, 0x6f, 0x6e, 0x76, 0x32, 0x64, 0x5f, 0x32, 0x2f, 0x62, 0x69,
  0x61, 0x73, 0x00, 0x00, 0x01, 0x00, 0x00, 0x00, 0x0a, 0x00, 0x00, 0x00,
  0xca, 0xfe, 0xff, 0xff, 0x14, 0x00, 0x00, 0x00, 0xa0, 0x00, 0x00, 0x00,
  0x03, 0x00, 0x00, 0x00, 0x00, 0x00, 0x00, 0x09, 0xbc, 0x00, 0x00, 0x00,
  0xbc, 0xfe, 0xff, 0xff, 0x08, 0x00, 0x00, 0x00, 0x5c, 0x00, 0x00, 0x00,
  0x0a, 0x00, 0x00, 0x00, 0x00, 0x00, 0x00, 0x00, 0x00, 0x00, 0x00, 0x00,
  0x00, 0x00, 0x00, 0x00, 0x00, 0x00, 0x00, 0x00, 0x00, 0x00, 0x00, 0x00,
  0x00, 0x00, 0x00, 0x00, 0x00, 0x00, 0x00, 0x00, 0x00, 0x00, 0x00, 0x00,
  0x00, 0x00, 0x00, 0x00, 0x00, 0x00, 0x00, 0x00, 0x00, 0x00, 0x00, 0x00,
  0x00, 0x00, 0x00, 0x00, 0x00, 0x00, 0x00, 0x00, 0x00, 0x00, 0x00, 0x00,
  0x00, 0x00, 0x00, 0x00, 0x00, 0x00, 0x00, 0x00, 0x00, 0x00, 0x00, 0x00,
  0x00, 0x00, 0x00, 0x00, 0x00, 0x00, 0x00, 0x00, 0x00, 0x00, 0x00, 0x00,
  0x00, 0x00, 0x00, 0x00, 0x0a, 0x00, 0x00, 0x00, 0xdd, 0xb4, 0xb2, 0x3a,
  0x6a, 0xd5, 0xc1, 0x3a, 0x68, 0x0e, 0x00, 0x3b, 0x72, 0x5e, 0x00, 0x3b,
  0xfd, 0x6c, 0xe2, 0x3a, 0x89, 0xee, 0xf1, 0x3a, 0xfc, 0x4c, 0xdc, 0x3a,
  0x9d, 0x8b, 0x08, 0x3b, 0xb4, 0xd0, 0xcb, 0x3a, 0xb9, 0xf7, 0x9d, 0x3a,
  0x22, 0x00, 0x00, 0x00, 0x73, 0x65, 0x71, 0x75, 0x65, 0x6e, 0x74, 0x69,
  0x61, 0x6c, 0x5f, 0x33, 0x2f, 0x71, 0x75, 0x61, 0x6e, 0x74, 0x5f, 0x63,
  0x6f, 0x6e, 0x76, 0x32, 0x64, 0x5f, 0x32, 0x2f, 0x43, 0x6f, 0x6e, 0x76,
  0x32, 0x44, 0x00, 0x00, 0x04, 0x00, 0x00, 0x00, 0x0a, 0x00, 0x00, 0x00,
  0x08, 0x00, 0x00, 0x00, 0x03, 0x00, 0x00, 0x00, 0x01, 0x00, 0x00, 0x00,
  0xae, 0xff, 0xff, 0xff, 0x18, 0x00, 0x00, 0x00, 0x18, 0x00, 0x00, 0x00,
  0x02, 0x00, 0x00, 0x00, 0x00, 0x00, 0x00, 0x02, 0x34, 0x00, 0x00, 0x00,
  0x04, 0x00, 0x04, 0x00, 0x04, 0x00, 0x00, 0x00, 0x22, 0x00, 0x00, 0x00,
  0x73, 0x65, 0x71, 0x75, 0x65, 0x6e, 0x74, 0x69, 0x61, 0x6c, 0x5f, 0x33,
  0x2f, 0x71, 0x75, 0x61, 0x6e, 0x74, 0x5f, 0x66, 0x6c, 0x61, 0x74, 0x74,
  0x65, 0x6e, 0x5f, 0x31, 0x2f, 0x43, 0x6f, 0x6e, 0x73, 0x74, 0x00, 0x00,
  0x01, 0x00, 0x00, 0x00, 0x02, 0x00, 0x00, 0x00, 0x00, 0x00, 0x0e, 0x00,
  0x18, 0x00, 0x14, 0x00, 0x13, 0x00, 0x0c, 0x00, 0x08, 0x00, 0x04, 0x00,
  0x0e, 0x00, 0x00, 0x00, 0x20, 0x00, 0x00, 0x00, 0x3c, 0x00, 0x00, 0x00,
  0x01, 0x00, 0x00, 0x00, 0x00, 0x00, 0x00, 0x09, 0x48, 0x00, 0x00, 0x00,
  0x0c, 0x00, 0x0c, 0x00, 0x00, 0x00, 0x00, 0x00, 0x08, 0x00, 0x04, 0x00,
  0x0c, 0x00, 0x00, 0x00, 0x08, 0x00, 0x00, 0x00, 0x10, 0x00, 0x00, 0x00,
  0x01, 0x00, 0x00, 0x00, 0xec, 0xff, 0xff, 0xff, 0xff, 0xff, 0xff, 0xff,
  0x01, 0x00, 0x00, 0x00, 0xde, 0xdd, 0x5d, 0x3f, 0x13, 0x00, 0x00, 0x00,
  0x73, 0x65, 0x72, 0x76, 0x69, 0x6e, 0x67, 0x5f, 0x64, 0x65, 0x66, 0x61,
  0x75, 0x6c, 0x74, 0x5f, 0x78, 0x3a, 0x30, 0x00, 0x04, 0x00, 0x00, 0x00,
  0x01, 0x00, 0x00, 0x00, 0x1e, 0x00, 0x00, 0x00, 0x03, 0x00, 0x00, 0x00,
  0x01, 0x00, 0x00, 0x00, 0x05, 0x00, 0x00, 0x00, 0x68, 0x00, 0x00, 0x00,
  0x48, 0x00, 0x00, 0x00, 0x38, 0x00, 0x00, 0x00, 0x18, 0x00, 0x00, 0x00,
  0x04, 0x00, 0x00, 0x00, 0xb8, 0xff, 0xff, 0xff, 0x19, 0x00, 0x00, 0x00,
  0x02, 0x00, 0x00, 0x00, 0x00, 0x00, 0x00, 0x19, 0xc8, 0xff, 0xff, 0xff,
  0x09, 0x00, 0x00, 0x00, 0x04, 0x00, 0x00, 0x00, 0x00, 0x00, 0x00, 0x09,
  0x0c, 0x00, 0x0c, 0x00, 0x0b, 0x00, 0x00, 0x00, 0x00, 0x00, 0x04, 0x00,
  0x0c, 0x00, 0x00, 0x00, 0x16, 0x00, 0x00, 0x00, 0x00, 0x00, 0x00, 0x16,
  0xf0, 0xff, 0xff, 0xff, 0x11, 0x00, 0x00, 0x00, 0x02, 0x00, 0x00, 0x00,
  0x00, 0x00, 0x00, 0x11, 0x0c, 0x00, 0x10, 0x00, 0x0f, 0x00, 0x00, 0x00,
  0x08, 0x00, 0x04, 0x00, 0x0c, 0x00, 0x00, 0x00, 0x03, 0x00, 0x00, 0x00,
  0x03, 0x00, 0x00, 0x00, 0x00, 0x00, 0x00, 0x03
};
unsigned int g_motion_detection_4_class_model_data_len = 10136;
